
000000F8
00000023
0000001A
00000062
00000014
000000FB
000000D9
00000083
00000005
00000018
000000B5
000000DB
00000057
000000C2
0000002A
0000008A
000000E4
00000026
00000034
00000010
00000029
00000005
000000E8
00000084
000000A9
000000A3
00000007
000000CE
00000082
000000BB
0000009B
00000000
0000007B
000000BE
0000000C
00000084
00000081
000000DC
00000040
0000005B
0000006F
00000051
0000004F
0000002E
000000F7
0000002E
0000002E
000000EB
00000015
0000003E
000000D7
000000A6
000000EF
000000A9
00000087
00000078
00000090
00000090
00000071
00000082
000000E3
0000006E
00000066
000000C5
000000EF
000000F7
00000081
0000002A
000000F5
000000E5
000000D9
00000087
00000077
0000006A
000000FA
0000008A
00000031
00000078
000000E3
0000009E
00000002
0000001F
0000000E
0000004B
00000056
000000C0
00000029
00000013
0000003A
00000073
00000046
000000E9
00000060
000000F4
00000035
0000006B
0000004E
000000CD
000000DA
00000066
00000096
0000002D
00000079
000000FB
000000C7
000000F2
0000007D
000000DB
000000A9
0000006B
00000048
00000094
00000064
00000081
000000DC
00000010
00000033
0000006B
0000002A
00000045
000000C7
00000011
000000B6
00000041
000000A9
000000C5
00000070
00000001
0000000A
00000080
00000051
000000E5
00000074
0000002F
00000029
000000F7
00000028
00000089
00000009
000000AA
000000B3
00000008
00000062
00000085
00000052
00000066
00000073
000000DA
0000000D
00000074
0000007F
00000048
000000B0
000000CC
000000C4
0000008D
000000C5
000000F7
000000AF
0000009E
00000020
00000018
000000A2
000000DE
00000052
00000068
000000A5
0000009F
00000032
000000F2
0000000F
00000056
00000035
00000038
000000B3
00000052
0000002A
0000006A
00000066
0000001F
000000E6
0000009F
000000FC
00000022
00000074
00000014
00000054
000000F1
00000087
000000F4
000000D4
0000005D
00000049
00000002
0000000C
0000006D
0000001C
00000015
000000B7
00000022
000000CE
00000072
0000001E
000000FC
000000A3
00000049
0000008E
00000067
000000C4
000000AD
0000000E
0000006A
0000000E
000000D5
00000062
000000CE
000000DA
000000BE
00000026
00000021
000000EA
000000E7
00000091
00000047
000000C6
000000E4
0000009A
000000CC
00000001
000000F4
000000D1
000000FC
000000B3
00000019
00000053
000000A5
000000E8
00000006
000000AB
0000004D
0000003D
00000038
000000C9
00000018
0000003C
000000B4
00000061
0000007F
00000053
0000000B
0000001A
00000047
0000001C
00000018
000000A1
00000076
0000006E
000000A1
000000E9
000000D1
000000F4
00000042
000000C4
0000004F
000000C4
0000000B
00000060
000000BE
0000002B
0000001F
00000009
0000005C
00000040
000000DD
00000014
00000016
000000E9
00000073
0000005C
00000086
0000005A
0000009A
00000000
0000009A
0000009B
000000EB
00000015
000000BA
00000039
000000CB
000000A4
000000B3
000000AD
000000FA
00000096
0000002D
00000089
000000FB
00000061
000000F5
00000035
0000002D
00000023
000000B4
0000009B
000000EE
00000099
000000F5
000000C0
00000063
00000063
00000090
000000E4
00000048
000000EF
00000032
00000011
0000003F
0000004D
00000062
00000012
000000F6
0000004C
000000F1
0000005E
0000006E
00000010
00000074
00000000
00000009
00000053
000000A5
000000FC
000000C8
000000E7
000000BD
000000DE
0000002C
00000054
000000E2
00000030
00000073
00000026
000000A2
00000073
00000007
000000A6
000000A7
000000DC
00000037
000000E4
000000C8
000000CB
00000073
000000B7
00000074
00000026
000000FD
000000CB
0000001D
0000001D
00000024
0000004B
0000008F
00000025
00000020
00000051
000000C6
00000077
0000007C
000000C1
00000077
0000007A
00000016
00000083
0000007A
00000098
0000000C
000000E3
00000057
000000BF
000000AF
0000004A
00000002
000000A4
0000006A
00000003
000000AB
000000A8
000000B0
000000E8
00000094
00000005
00000045
0000005B
0000004C
000000E5
000000DF
00000021
00000024
000000F0
000000C0
00000014
000000B8
0000005A
000000F1
0000009D
00000056
00000034
000000F2
00000043
00000063
00000068
00000088
000000B1
000000D5
000000C3
00000048
000000B6
000000F4
00000055
00000003
000000D0
000000A6
00000026
00000028
00000061
00000002
00000070
00000086
000000A4
000000AF
00000034
000000F1
00000035
000000C7
00000033
0000009C
000000FD
000000F0
0000007D
00000024
000000C3
000000CF
00000041
00000026
00000050
00000046
00000095
00000068
00000046
000000D0
00000085
0000004B
00000030
000000C1
00000005
00000076
00000082
00000015
0000005D
00000074
00000063
000000A6
0000006B
000000F0
000000D1
000000A8
00000076
00000059
0000008C
00000000
000000C1
00000041
0000003A
00000014
000000ED
000000D2
000000D3
00000025
000000B8
000000B9
00000058
00000054
0000009B
00000059
0000008F
00000051
000000FD
000000DA
0000001C
000000F5
000000CC
00000027
00000077
0000007F
00000098
000000A9
00000064
00000038
00000085
00000008
00000026
000000B9
0000004C
000000B4
000000AD
00000009
000000B7
00000046
000000AB
00000079
00000039
00000043
0000007D
0000000C
000000CC
00000063
00000016
00000061
000000BA
0000009C
000000E8
000000AF
00000000
000000AA
000000D0
000000D5
00000042
00000068
000000BF
00000008
0000009A
00000016
0000006F
0000004B
000000ED
00000030
000000BA
0000000A
0000003C
00000092
00000041
000000A0
0000003A
0000009E
00000073
000000E0
000000D1
000000DA
000000F3
0000008D
0000003C
0000005A
0000006C
000000F6
0000002D
000000AA
0000001B
00000096
000000E2
000000BD
00000085
000000B9
00000063
0000009B
000000F1
000000AF
0000009D
0000002C
0000006E
00000068
00000093
00000062
000000D9
0000001E
000000CC
00000018
00000003
0000006D
00000092
00000021
00000013
0000005D
0000009C
0000000C
000000ED
0000009F
000000D8
000000D3
0000002E
00000008
000000F9
00000047
00000081
00000083
000000E3
0000000B
000000B5
0000007D
0000001D
000000F4
00000036
000000B2
000000F8
00000061
000000A1
00000020
000000DD
000000C2
0000009C
00000031
00000029
00000046
00000067
00000023
0000005F
00000084
000000A3
000000DC
000000EC
000000B3
000000FB
00000071
00000070
0000009E
000000D9
0000003A
000000C1
000000BC
000000A9
00000030
0000005D
000000E8
00000099
00000092
000000A3
000000A4
000000B5
00000069
0000008B
0000006A
00000028
0000006C
00000015
000000F5
0000007E
00000044
0000002D
00000070
00000018
00000042
000000FC
0000001C
0000008D
0000000A
000000D2
00000086
00000025
000000D2
00000043
00000068
000000CD
00000023
0000002D
0000004D
000000C7
0000003B
0000008E
00000040
00000030
0000002A
0000005F
00000001
00000050
000000E9
000000BA
0000003D
000000F2
0000003D
000000BD
0000003E
000000E5
00000024
0000002A
00000087
00000079
000000C7
000000FC
00000091
000000F8
0000001F
000000BC
00000013
00000044
000000C2
00000030
00000011
0000001C
000000E1
00000094
000000B4
000000DB
00000002
000000FE
00000006
00000073
0000003C
000000D9
00000068
0000005E
00000088
00000001
0000005B
000000EF
0000004B
000000B4
00000057
00000018
00000084
000000C5
00000039
00000017
00000098
0000007E
00000093
00000018
0000005E
000000B2
00000091
00000064
0000009F
000000EB
000000B6
00000049
00000022
000000EC
000000FA
000000B4
000000D7
000000D6
00000010
000000D3
000000F4
00000000
000000BB
00000026
0000005F
00000046
000000DA
0000003D
000000D6
000000F7
0000008D
00000061
0000007F
00000099
00000058
00000075
000000FB
000000E0
000000A2
000000C8
00000031
000000F3
000000EA
00000099
0000001B
00000012
000000E4
00000081
0000003B
000000B8
00000072
0000003F
00000098
00000093
0000004E
0000005E
00000008
0000005E
00000052
00000016
000000C2
000000C3
000000AE
0000004E
00000038
000000D9
000000C4
0000009B
0000005B
00000020
000000DA
000000EC
00000020
000000A0
00000098
000000A4
00000028
00000011
00000096
00000050
000000FE
000000CC
00000041
00000067
00000043
000000F9
00000051
00000065
000000C0
0000005B
0000009F
0000006C
000000D9
00000015
00000089
0000002D
00000095
00000088
0000009B
000000BE
00000073
00000043
000000AE
000000B3
00000030
000000BA
0000003B
00000027
000000C0
00000019
0000005A
000000BC
000000DE
000000B0
000000A4
00000099
00000041
000000D7
00000060
00000001
000000BF
00000031
0000003A
00000069
0000003E
0000002A
00000044
0000003A
00000048
0000009E
000000C4
0000000B
000000F6
00000070
0000007A
0000007F
000000CD
00000038
00000094
000000FE
000000F8
000000DD
000000F9
0000009C
00000079
00000051
0000003F
000000FD
0000003B
000000AE
0000005B
00000073
00000093
0000004E
0000005F
00000043
000000D4
0000006A
00000023
00000001
000000BB
0000005C
000000DF
000000D8
000000CC
000000D1
0000006C
000000DF
00000097
0000001D
00000071
000000BE
0000009F
000000A5
0000005C
000000CD
000000E9
000000EA
000000DF
0000003D
00000083
0000007A
00000045
00000088
000000A9
00000071
000000C5
0000000B
00000089
0000004D
000000EF
00000059
000000A6
00000039
000000EB
000000E1
0000008F
000000D9
000000B8
00000010
0000002A
000000EC
0000000A
000000C1
00000078
00000052
00000014
000000CD
0000007D
00000051
00000017
00000084
000000CF
000000D3
000000CB
00000002
000000AD
0000007F
0000002B
000000F9
000000CF
0000000E
0000009E
000000C3
00000070
0000006D
000000A0
0000005C
0000003A
00000043
000000CC
00000098
00000092
00000073
0000008F
000000AD
000000B1
00000028
00000035
000000EA
000000B1
000000C2
000000EF
000000B5
0000000F
00000023
00000006
000000ED
00000082
00000036
00000000
00000039
000000FA
000000EF
000000C0
00000068
000000A9
000000C8
000000BD
0000007A
0000002D
0000006E
000000BD
00000000
00000082
00000053
0000007E
000000AE
000000F5
00000091
00000002
000000E3
0000003C
00000043
00000075
0000009C
00000038
0000004E
000000E2
000000E7
000000E9
00000013
00000032
000000DA
0000008B
000000E7
00000038
000000BC
00000008
000000F4
000000AC
000000F3
00000054
0000000A
00000083
000000EC
000000AA
00000064
000000A0
000000F1
0000005D
0000003F
00000018
00000032
0000003C
000000C1
00000011
00000096
0000001A
00000040
00000017
000000D5
0000001E
000000AB
000000C8
00000094
000000A8
0000000E
0000009F
00000057
0000004D
00000025
000000CF
00000067
000000C1
0000001C
000000E4
00000014
00000014
0000009A
0000003F
000000FD
0000004C
0000009D
000000BE
000000CB
000000AA
0000006B
00000076
000000E4
000000F5
000000AD
00000093
000000C6
0000002F
00000099
000000A1
00000023
00000061
000000D6
000000A3
00000014
000000AD
000000E4
00000062
00000004
00000052
000000A6
0000004F
00000015
000000F1
0000000B
00000069
000000BB
00000019
00000089
00000067
000000F3
0000006F
000000B8
000000D8
00000098
000000D5
0000005E
00000075
0000001A
00000096
0000008E
00000041
0000004B
000000D5
000000D7
000000CC
00000031
0000002E
00000075
0000003E
00000007
00000029
0000001B
0000007C
000000E8
0000004E
00000016
00000025
0000006D
00000026
00000004
000000FE
00000092
000000BD
000000A8
00000034
00000081
000000DA
0000008C
00000092
00000099
000000DE
00000006
000000AC
000000CE
00000079
00000004
0000004C
0000000D
000000F5
0000004C
0000006C
000000C9
0000005C
000000A0
00000097
000000C6
000000D1
00000053
00000030
00000046
0000002A
00000008
00000086
000000D2
0000008E
000000F1
00000050
000000DD
00000098
00000027
000000C2
000000FA
0000001D
00000026
0000009E
000000B7
000000E7
0000004F
000000FD
000000DA
00000021
0000007D
00000076
000000C2
000000A2
000000A8
000000C8
0000001E
000000D1
000000B5
0000001F
000000A9
0000005A
00000020
000000D3
000000B8
000000CF
0000009F
000000CF
0000002A
000000FE
0000005E
0000004C
0000008A
0000008C
0000008A
00000042
000000F0
00000014
000000C2
000000B2
00000076
000000AD
00000002
000000D9
00000064
00000075
00000002
0000003C
000000D0
00000044
00000076
0000003D
00000009
0000008B
00000096
0000006C
0000009A
00000054
000000ED
00000064
0000009C
00000063
000000E1
00000064
0000003D
00000082
000000A7
00000081
0000006D
00000029
0000008A
000000A9
000000CB
0000004B
000000C7
0000002D
00000096
0000006B
000000E1
0000002F
00000027
000000CB
000000B2
0000004A
0000004A
000000F4
000000C4
0000002E
0000004A
0000002C
000000B1
0000008A
000000A9
00000008
0000000E
000000ED
000000E9
000000BA
000000BD
0000008A
000000F0
0000006C
00000001
000000DD
00000087
000000E4
000000C3
0000001B
0000001D
000000D0
000000B8
000000EF
000000DF
000000DA
000000B3
000000C6
0000004B
00000060
0000006F
00000070
0000003A
00000013
0000006D
00000003
00000066
000000FB
000000F8
000000B4
0000009C
00000054
000000A5
0000008C
00000035
000000AF
000000D5
00000002
0000001E
0000002A
000000F1
00000051
000000A8
0000007C
000000AE
00000084
00000088
00000042
000000E9
0000006F
00000002
000000F7
000000ED
00000078
000000F2
000000D6
0000000C
00000061
000000FD
00000005
000000EA
00000048
000000EF
000000F6
0000003C
00000030
0000007A
0000003B
000000AA
000000EF
00000039
0000001A
00000045
000000D9
000000A0
0000006E
0000000E
000000CD
00000055
00000006
00000004
00000008
0000000E
00000060
00000067
00000053
00000022
0000005B
00000093
000000FC
0000000B
00000039
0000005C
00000061
0000000A
000000C7
0000004C
0000002A
00000064
000000E8
0000001C
00000070
0000009E
0000009F
000000AF
000000EA
00000048
00000054
000000C0
0000001D
00000017
00000061
000000E9
000000C0
00000071
000000A7
00000042
0000006B
00000033
000000E7
00000059
000000C5
000000BB
000000CB
000000E8
000000E4
000000F0
00000030
000000BD
000000BF
000000E3
00000002
00000054
000000DA
00000052
000000E9
000000D3
0000007D
0000005D
00000048
00000001
00000071
0000000F
0000009A
0000002E
000000C1
0000007D
000000CC
00000061
00000037
0000004B
000000C1
000000E9
000000DA
00000021
000000AA
00000081
00000006
00000068
000000EF
00000013
0000006A
00000034
00000071
00000046
00000044
00000016
00000000
00000094
00000003
00000034
000000D6
000000E8
0000003E
000000EF
00000032
000000E5
0000007E
000000F8
0000008B
00000092
0000000B
00000039
000000D8
00000099
0000008C
000000EE
000000D4
00000019
0000003F
00000090
0000009A
0000003E
000000D0
0000000B
00000011
000000D6
00000007
000000E5
000000D6
00000077
00000092
000000E1
00000072
0000003B
00000047
000000F0
0000005B
0000000F
00000092
000000DE
0000005A
0000003F
0000001D
00000016
000000A5
00000072
00000037
000000AD
000000E0
000000D4
0000007B
0000002B
00000057
0000009C
000000E4
00000098
0000001E
00000039
000000F1
0000008C
00000056
0000002A
0000007A
000000C6
0000003D
00000075
000000DC
000000E0
00000046
00000065
00000029
0000006A
0000002A
000000D4
000000B0
00000014
000000C7
00000086
0000006B
00000041
00000034
00000082
00000048
00000015
00000070
00000036
000000DA
00000068
0000003F
000000C9
00000078
000000D2
000000C2
00000070
00000038
000000C4
00000098
00000093
0000000C
00000030
0000001E
0000008E
0000009A
00000027
00000023
000000D7
000000DA
00000004
000000EC
00000058
000000C7
000000E8
0000005F
000000CF
000000D2
0000006F
000000F5
0000002B
0000007A
000000D2
00000036
0000000B
00000007
0000005D
000000DB
00000099
00000086
0000008F
0000004D
00000082
00000030
00000070
00000081
00000074
000000DD
000000A9
000000E0
0000008C
0000003D
000000BE
000000B5
000000D4
00000048
00000088
000000BD
00000024
00000030
0000004E
0000000A
000000DB
00000026
0000005A
00000012
0000006F
000000E1
000000B6
00000099
0000001C
00000057
00000044
0000005B
00000064
0000002E
000000DB
00000062
000000D2
00000083
000000F7
000000B6
0000002D
00000099
000000CF
00000081
00000007
00000024
000000A6
000000C3
00000010
00000062
00000084
00000064
00000011
000000FA
000000C6
000000CF
0000003F
0000001C
000000EC
000000AF
0000004A
000000F9
000000F4
00000020
00000064
00000089
0000009E
0000004E
00000055
00000034
000000E3
00000091
000000D5
000000A0
00000080
000000AB
0000006B
0000007F
00000090
00000081
00000037
00000004
000000E7
000000E8
000000B0
000000E0
000000D2
00000074
000000AB
000000EC
00000060
00000050
0000009B
000000A9
000000D7
000000D6
00000038
000000EE
000000A2
0000009B
00000084
000000BE
00000003
0000008E
000000E5
0000005F
000000F4
0000001E
000000C5
000000DA
000000DC
000000A4
0000002D
00000086
0000005C
000000B6
000000D5
00000030
0000005D
00000046
0000004B
0000009B
000000EE
0000005D
00000070
00000031
000000D9
00000028
0000000C
0000007E
000000DD
000000B3
00000041
000000D7
000000D8
00000015
000000B5
000000EA
00000021
00000043
000000A4
0000002F
00000028
000000AE
00000084
000000C7
0000009B
0000007E
00000075
0000008D
000000A1
00000074
0000008E
0000004C
000000B1
000000F9
00000048
0000006F
0000004E
00000058
000000BB
00000080
00000060
00000096
000000B5
000000DF
000000FB
00000067
000000AE
00000084
000000DA
00000025
00000072
00000051
0000007A
000000BE
000000BF
00000028
00000081
000000A2
00000036
0000002C
0000003F
00000024
00000015
000000A0
0000001A
00000010
00000023
000000CA
0000004E
00000052
0000000E
00000087
0000008E
000000D9
0000001B
0000001D
00000076
000000EF
000000F0
000000A3
0000001E
00000005
000000B1
00000065
00000036
00000023
00000073
000000D5
0000003C
0000002A
000000D6
000000C5
000000A0
000000E5
0000007E
00000091
00000035
00000049
00000063
000000FC
0000009B
000000A2
000000E0
00000024
00000060
00000066
000000FA
00000080
0000000C
000000B0
000000C2
0000002F
000000DE
00000016
00000041
000000AB
000000FD
00000074
0000002B
000000D7
0000008C
00000012
00000027
000000B4
00000040
000000D8
000000E8
000000FA
000000A8
0000002E
000000DC
000000C2
00000051
0000003F
0000009F
0000004E
000000F7
00000080
00000081
000000B8
00000030
0000003C
000000EA
000000C1
0000001B
00000019
0000009E
00000017
000000A4
00000085
0000003F
00000036
000000A5
00000095
0000003F
0000004D
000000D6
00000023
000000AE
00000097
000000DA
0000006B
0000009E
000000DF
00000051
00000022
00000008
00000089
00000080
00000037
0000004D
00000062
00000097
0000002B
00000049
000000E7
000000B6
00000014
0000008A
00000079
000000A6
00000084
00000047
00000017
000000B0
0000008F
0000006C
000000DC
000000CD
000000D1
00000086
00000092
00000070
00000041
0000007B
000000C9
00000047
000000A2
00000071
000000F4
00000031
000000A1
000000FA
00000029
000000C5
000000AD
000000C2
0000009D
000000F9
0000002A
000000B1
000000BD
000000D0
00000014
000000CD
000000D4
00000032
00000082
0000007C
000000D9
0000007A
000000BA
0000003E
00000099
00000078
000000AF
00000003
000000CA
00000007
00000020
000000C6
0000008A
00000024
00000065
0000003C
00000036
0000009C
000000EF
000000A5
0000003C
0000006A
0000002E
00000036
00000029
0000004B
000000A0
000000EA
000000EB
000000EF
0000001B
00000035
00000010
000000C3
000000AC
00000026
0000009E
000000D3
00000072
00000083
00000051
000000CA
0000006C
00000015
000000E8
00000008
000000F8
00000001
0000002A
00000024
00000053
0000007B
00000098
0000005C
0000007A
000000BD
000000A2
0000001F
00000061
0000003B
000000CB
000000B9
00000016
00000073
0000009B
00000022
000000FE
000000F5
00000032
0000008C
0000004A
000000FB
00000046
000000CF
000000A7
000000A0
00000057
0000003E
00000085
000000A8
000000D9
000000A3
00000019
000000D6
000000D9
00000039
0000001C
00000094
000000F5
00000081
0000007E
00000093
000000E0
0000005C
00000089
000000A0
000000C3
000000D2
00000000
00000020
00000063
00000001
000000F7
00000026
000000EF
000000FA
00000009
0000008B
000000F9
000000F8
000000F5
0000008E
00000032
00000089
0000001D
0000006A
00000072
0000007E
00000070
000000D2
000000C8
0000003A
0000006C
000000F8
00000054
000000FD
0000009A
000000DC
000000AF
00000028
000000D6
00000048
000000BE
000000E8
000000F8
00000090
00000029
00000092
00000067
00000076
0000008B
000000F9
0000002A
0000008A
00000024
000000AA
000000A3
000000E6
0000002D
00000033
0000005E
000000A5
000000C8
0000008E
00000079
00000025
00000077
000000A7
0000009E
00000049
0000002F
000000B3
000000A2
000000DE
00000070
000000C7
00000018
00000013
000000A3
0000001B
0000002B
00000056
000000EA
000000DB
00000009
000000A6
00000026
000000B1
0000003D
0000004C
000000CC
0000009C
00000054
00000032
000000A5
000000D4
00000007
000000BF
000000AA
0000005D
00000006
0000006F
0000000C
0000001F
0000009A
00000043
000000E3
0000005A
000000A7
0000004E
0000001E
00000090
000000F0
00000001
000000E2
000000E7
0000002E
000000E9
0000007E
00000044
000000E6
0000001E
0000001B
0000002B
000000C0
00000082
0000007F
000000DD
000000CC
0000007B
000000BD
00000035
00000064
000000E1
00000039
00000053
0000002B
000000A6
00000008
000000BE
000000B2
00000028
00000053
0000003B
0000005E
0000006A
000000FD
000000B3
000000DC
0000001F
00000082
000000FB
0000009A
00000062
000000AC
00000093
00000096
00000038
00000050
000000BA
0000009D
00000087
0000002A
00000064
000000BF
000000E6
000000A0
00000073
00000004
00000098
0000004A
00000030
0000008F
00000093
000000C0
000000A8
000000CE
00000012
00000020
00000012
0000005A
000000E5
00000057
000000FC
00000047
0000003A
000000A3
0000001E
00000092
0000009E
00000059
000000A0
00000057
0000002E
00000011
000000D6
0000001A
00000035
00000095
0000004C
0000000F
000000DC
0000001F
000000AA
0000009C
00000010
000000A9
00000092
00000029
000000BA
00000041
000000F6
0000008C
00000011
00000053
00000013
000000DA
00000073
00000070
00000091
00000019
00000040
000000E6
00000047
00000025
0000005C
0000000F
00000020
000000DA
00000049
00000091
000000C0
000000C1
00000070
00000078
00000041
0000009A
00000063
0000000B
00000059
0000005C
00000056
0000007F
00000094
000000A0
00000035
00000099
0000004B
00000080
000000C9
00000090
000000E0
000000C6
0000008C
0000009B
0000006F
000000F8
0000004F
00000020
0000005A
000000BF
00000003
0000009D
000000F2
00000028
0000006D
0000003E
0000005B
00000016
00000008
00000085
0000009F
000000DB
000000B8
000000CA
00000026
0000006F
000000EB
00000021
000000D8
000000BC
0000001E
000000F1
0000007B
00000075
0000006B
000000F4
00000080
0000001A
00000047
00000032
00000017
000000D4
0000008F
0000003A
000000B1
00000096
000000E8
0000006B
0000005A
0000008F
00000015
000000BA
0000006B
00000014
000000AE
000000F8
0000003F
00000009
00000047
00000089
0000000D
000000B4
000000F6
000000D5
0000006F
00000084
000000EE
00000022
0000009F
0000007B
000000C2
00000088
000000F6
0000003A
0000003B
00000089
000000A0
00000017
00000005
00000079
000000BA
0000009E
0000007C
00000077
00000026
000000B6
0000008A
00000040
000000E5
0000004C
00000001
000000C5
0000003B
00000052
0000001C
00000082
00000065
000000ED
00000098
00000088
000000AC
000000E5
00000065
000000D8
0000005B
0000000F
00000075
00000009
00000080
000000C3
00000026
0000006B
0000004F
000000D6
000000DA
000000F8
000000F8
000000B0
0000008F
000000A0
00000010
000000E7
000000F5
00000028
000000A7
000000F6
0000001D
00000043
00000011
00000051
0000000C
000000BF
00000069
000000AD
000000F8
000000E2
00000037
00000033
000000E4
000000FB
0000004C
00000068
0000005D
00000061
00000007
000000F0
00000086
0000004B
000000E8
0000000B
000000E4
000000F2
0000000E
000000E1
00000030
00000008
0000002D
000000FA
0000009D
000000CF
00000076
000000AB
00000020
00000031
000000E3
00000032
00000075
000000DB
000000F1
00000094
0000007D
00000036
0000001F
0000009D
0000009C
000000A9
00000058
0000002D
00000040
00000083
000000D1
00000053
000000A3
00000099
00000068
000000C9
000000AA
000000DB
000000C3
00000090
00000099
0000007B
0000000F
0000002C
00000089
00000021
00000088
000000FC
00000001
000000A8
000000B1
00000012
000000F7
00000060
0000006A
00000092
000000F1
0000008F
00000057
00000079
00000078
0000003A
000000DC
000000B6
0000008D
00000093
000000A6
0000009C
000000E3
000000A2
0000006F
0000004E
000000B2
000000F3
000000FD
000000B2
000000F1
00000029
000000AF
000000E9
000000AE
000000D9
00000065
000000D8
00000058
0000001F
000000BC
0000009E
0000007F
000000E6
00000025
000000BB
000000A8
000000C3
00000036
000000D5
00000098
000000DF
00000011
00000072
0000000D
000000D8
00000023
0000004E
000000A1
000000EE
00000098
0000007E
0000003A
0000005A
000000A3
0000005D
0000002E
0000005A
00000023
0000004B
0000004C
000000AC
00000090
00000088
00000092
00000082
00000057
00000064
00000009
000000A7
000000BB
000000BC
0000002E
00000099
0000003F
000000B4
00000057
0000007A
00000089
00000070
00000094
00000005
000000DF
000000A8
000000F2
000000CE
000000E1
0000002F
0000009E
00000029
0000002F
00000083
000000F0
000000BA
00000063
00000089
000000FB
000000E4
00000053
00000086
000000EC
0000000C
000000B9
00000022
000000E0
000000C1
0000006C
000000FA
00000015
000000F2
000000EE
00000010
00000047
0000001B
0000006A
0000002C
0000009C
00000012
0000007B
000000D0
00000024
000000CA
000000D9
000000EA
000000A4
0000004F
000000D2
00000088
00000042
0000002D
000000E7
0000002E
00000033
000000A4
000000AB
00000029
000000BF
00000057
000000C8
000000E5
000000CA
000000A1
00000045
0000002A
00000019
000000DD
0000008E
000000DA
000000AF
00000046
00000050
000000D0
00000071
000000E7
000000AC
000000E8
0000005C
0000009A
000000BD
00000051
00000075
0000001E
00000000
000000D9
00000003
00000086
0000001A
00000069
000000CB
00000098
000000FE
00000069
00000060
000000C5
000000E0
00000097
00000021
00000047
00000056
000000AC
00000009
00000086
000000DE
000000EB
000000DC
0000005C
0000001D
00000039
000000B2
0000001A
00000089
000000FB
00000021
000000F7
0000008D
00000026
00000031
000000DB
000000BA
00000092
00000078
00000083
00000038
000000AA
00000029
0000000D
00000088
0000009A
00000067
0000009A
000000DE
00000064
000000BC
000000D4
00000069
00000069
00000096
000000FA
00000019
0000004B
000000CB
0000005A
000000AA
00000093
0000006C
0000001D
0000005D
000000ED
00000056
00000008
000000F0
00000076
00000095
00000012
000000D3
000000CC
0000000B
00000046
00000001
000000F5
0000006A
000000AE
00000025
0000000E
000000AA
000000CC
00000047
0000006A
000000E0
0000001A
0000009B
000000D7
000000DC
0000008A
000000AC
000000A1
00000074
0000001A
00000061
00000001
0000000B
0000006A
000000A9
000000A9
00000066
000000E4
00000098
0000004A
00000029
00000072
000000D0
00000046
000000FB
000000F4
000000C4
00000080
000000C4
00000062
000000F5
00000076
00000023
000000AF
0000004C
000000C4
000000EE
000000DD
000000D1
0000001A
000000EC
000000AD
0000003B
0000003A
0000005C
00000015
000000B3
000000C2
0000008A
000000AD
000000E5
00000021
00000047
00000072
000000A8
00000022
0000002F
000000BA
000000E8
00000081
000000E7
000000EB
000000D9
0000009E
00000004
00000044
00000069
00000009
00000068
00000037
00000059
000000E0
0000005F
0000007A
00000054
00000000
00000064
00000027
000000E5
00000099
0000001E
000000AC
000000F0
000000A7
00000068
00000070
000000AA
0000002F
00000097
000000AE
000000DE
000000D6
00000010
00000045
00000070
00000085
00000043
00000007
0000005A
00000041
0000004D
00000000
000000F7
00000095
00000059
000000FC
00000011
00000091
00000058
0000009B
00000042
000000D9
000000C1
00000022
0000008D
000000F5
0000004B
000000E3
00000054
0000006A
000000F5
00000046
0000005A
000000D6
00000055
000000F9
00000074
00000068
00000012
00000031
0000001E
000000AF
00000093
0000007E
00000073
00000042
000000D3
0000008C
000000CB
00000065
00000088
000000FA
00000011
000000FD
000000B0
00000047
00000095
00000085
0000008A
000000BD
00000009
0000009E
0000001A
000000B2
000000AA
0000008A
0000001D
000000B2
00000004
000000C7
0000006A
0000007A
0000000D
00000010
000000E7
00000014
00000020
000000D6
000000A4
0000007E
00000060
000000EA
00000033
00000043
00000092
00000011
00000091
00000084
00000022
00000022
000000BE
000000BB
00000044
00000033
000000BC
000000B6
000000A9
000000C7
0000004D
00000043
0000009D
000000EE
00000075
000000C1
000000A9
00000039
00000068
000000C8
000000B6
000000D8
000000EA
000000E4
0000003E
0000003C
000000D4
000000B1
000000A7
00000091
00000092
00000082
000000D2
0000007D
0000002A
00000061
0000004D
000000F2
00000036
00000047
00000071
000000D5
0000001E
0000001C
0000003B
0000000F
000000D4
0000006E
000000F8
00000046
0000005B
0000000D
00000052
00000097
000000C9
000000CD
000000F5
00000060
00000071
00000002
0000004E
00000087
000000E3
000000BF
000000A4
00000058
000000B2
0000000E
000000E5
000000BB
0000006C
000000C2
000000E5
00000043
00000094
00000015
00000076
0000002C
000000AA
00000000
00000058
0000003A
00000029
000000FB
00000011
0000008B
0000000E
000000DF
000000C6
00000011
000000F5
000000C8
00000044
000000E8
000000A9
000000C4
000000CA
0000007B
0000003C
00000004
0000009B
0000006E
0000008F
000000E0
0000003F
000000F0
0000002C
000000C9
000000A4
00000043
000000D3
00000085
0000009E
00000013
00000030
0000001B
000000BF
00000049
0000002F
00000084
00000034
00000086
000000D5
00000019
00000087
000000E3
000000C3
00000073
000000ED
0000000F
00000078
000000B7
000000F0
0000004B
000000FA
0000001D
00000032
000000CC
00000095
0000002A
00000089
0000008A
000000D6
000000E3
0000006D
00000022
00000077
00000001
000000D0
0000004E
000000F1
00000091
00000031
0000002C
00000098
000000B5
00000082
00000034
0000005E
0000006D
000000BB
00000044
00000013
00000045
000000CC
00000099
000000CC
000000DC
000000CD
000000C2
000000BA
0000007D
000000C6
00000002
0000005F
000000F7
000000F4
000000E8
000000D0
0000001B
000000A1
0000003C
00000099
000000EE
000000FC
000000DF
0000000D
000000A6
000000CE
000000CD
00000066
000000C6
0000001C
0000002D
0000008A
000000AF
00000014
000000ED
00000099
000000CA
000000B3
000000DF
00000032
00000029
00000037
00000007
000000A6
0000008E
00000031
000000A2
00000047
00000019
00000041
0000005C
0000003E
00000060
00000084
00000043
000000EB
0000006A
000000E9
00000063
0000009A
00000010
00000099
00000099
00000080
00000097
00000012
00000000
00000071
00000012
000000DA
000000DE
0000003F
0000006A
0000005E
00000085
000000F5
0000009F
0000005C
0000000D
0000007F
00000092
000000CE
0000008B
000000A2
00000068
0000000E
0000009A
00000087
0000005F
0000005D
0000005A
00000024
00000066
0000007E
00000025
0000009A
00000066
00000011
0000001A
00000054
00000053
000000DC
000000E8
000000EA
000000F4
00000064
00000028
000000CE
0000007D
0000006E
000000D0
000000B1
000000EB
000000D1
0000004D
0000008E
000000BB
0000001C
000000DB
00000033
000000CD
00000023
00000069
0000004F
000000D1
00000021
000000B3
000000D6
00000015
000000EF
00000033
0000006D
00000033
000000ED
00000024
00000066
000000B1
00000086
000000A8
00000017
0000001C
000000BC
0000003A
00000003
00000046
00000044
0000002F
000000BD
00000032
00000072
000000B5
000000AB
0000003D
000000A8
0000000A
00000088
00000091
00000039
0000005B
0000008D
00000028
0000007F
00000096
0000004D
00000080
00000057
00000082
0000003E
000000ED
00000003
000000A7
000000AB
000000A6
000000D8
0000006A
00000012
0000008E
0000008A
000000C8
00000060
0000009C
00000068
00000065
00000059
000000E8
00000029
0000005B
00000087
000000AB
000000D3
00000007
00000035
000000A0
0000002E
00000041
000000DB
000000E2
0000004D
000000E2
000000D7
0000001D
000000BA
0000001F
000000D3
00000016
0000009C
00000099
0000008B
0000006F
00000078
00000041
00000078
00000083
000000D7
0000009B
0000000E
0000004C
00000057
00000085
00000049
000000C6
00000026
00000046
00000032
0000000F
0000005F
00000094
00000057
000000DD
000000E2
00000018
000000C8
000000A1
00000088
00000095
000000D8
0000009C
00000005
00000009
00000074
00000078
0000005A
00000076
00000058
0000005A
000000E7
00000037
000000DA
0000000B
000000CA
00000019
000000FD
0000000D
00000000
000000BA
000000A5
000000CA
0000008F
0000009A
0000004D
000000F4
00000042
00000072
00000047
0000009D
000000C2
000000F2
000000B1
00000016
00000053
000000E1
00000030
00000090
00000080
00000049
000000BB
00000047
00000002
000000DF
0000008A
0000005E
0000005F
0000008A
00000092
00000032
0000006D
00000009
000000B9
00000012
000000E3
00000057
0000004C
000000E1
000000F9
000000F0
000000E9
000000B1
000000DF
000000AE
0000008A
00000008
0000007E
000000F7
000000C1
0000005B
00000008
0000007F
00000017
00000046
000000CD
0000008A
00000044
000000C2
0000000B
00000074
0000005C
000000E3
000000FA
000000B3
000000B0
000000AA
00000002
00000050
000000F5
00000037
0000005E
00000073
0000005D
000000C0
000000F3
00000047
00000044
00000000
0000005C
0000008D
000000DF
000000BE
00000078
00000084
0000007A
00000081
000000AF
000000D1
00000091
00000097
00000058
000000B2
0000008E
00000000
00000045
000000D1
000000D2
0000004A
000000BA
000000F2
000000A1
00000076
00000099
00000002
00000030
000000C8
0000005D
0000002F
0000002F
000000D4
00000063
000000F9
00000058
000000BE
0000007D
00000018
0000006A
000000CE
000000A6
00000027
000000B4
00000009
00000025
000000CE
00000089
000000BB
00000090
0000004E
00000091
00000008
00000000
0000005E
00000028
00000082
000000DB
000000BE
000000FE
0000008B
00000094
00000046
00000024
000000F0
00000063
0000002A
00000031
000000AB
000000E5
000000CA
000000D0
000000CB
00000010
00000073
000000A8
00000076
000000F8
000000B8
00000057
00000022
000000B5
000000C5
00000013
00000076
0000000D
000000DF
000000D3
00000016
000000EC
00000076
00000055
0000007A
000000A4
00000094
0000005E
00000090
0000008C
0000008A
00000095
0000000E
00000042
00000095
0000004F
0000007E
00000006
000000A5
000000F9
0000000B
000000F8
00000042
000000DB
000000CF
00000081
0000009B
00000096
0000005B
000000B4
00000022
000000E2
000000FC
00000063
00000044
000000C0
00000069
00000012
000000F1
000000D5
00000062
00000041
00000012
00000009
000000CB
00000087
000000C8
00000022
000000AD
00000074
0000007A
0000001B
00000059
0000006B
00000088
000000CB
00000037
00000009
000000D4
0000002B
000000E0
0000007B
00000058
000000BA
00000097
000000EA
000000C8
00000078
00000008
0000008D
00000090
00000006
00000053
000000E2
000000C3
0000000E
0000007B
000000A5
00000031
0000000C
000000E8
000000E6
000000F7
00000015
00000054
0000001F
000000DE
0000005D
000000AF
000000AA
0000005F
000000C9
000000A7
000000BF
00000028
000000AC
000000A5
000000F1
0000003F
00000081
00000040
00000081
000000D8
0000009E
00000071
00000047
0000007C
00000082
0000006C
00000093
0000001B
000000E3
0000008C
000000F0
000000A3
00000048
00000017
0000009C
00000091
0000009A
00000016
00000068
0000001D
000000DE
0000009E
00000018
00000067
000000DD
00000025
00000026
000000FB
00000074
0000006C
000000D0
00000056
00000072
00000035
00000002
000000F8
0000004B
000000A2
000000CF
0000005C
00000011
00000088
0000007E
000000FC
00000091
000000C7
00000044
0000006C
00000063
0000007F
000000D4
000000BB
000000CF
0000000A
000000D8
00000011
0000000F
00000089
000000BB
00000091
00000070
0000001E
00000065
000000EB
000000D6
0000009E
00000064
000000A8
000000CF
000000A5
00000025
00000048
00000024
00000091
000000F8
00000017
000000D8
00000044
000000FC
00000066
000000F5
0000002A
0000008C
0000006C
00000066
0000004B
00000057
000000D2
00000079
000000A4
000000E9
0000002D
000000E9
0000001A
0000001A
00000034
0000000A
00000055
000000C8
000000A5
00000007
000000A3
0000005E
000000D9
0000002F
0000009D
000000E1
0000001D
0000007B
00000016
00000042
00000054
000000D9
00000040
00000054
00000047
0000004C
0000005F
00000072
0000006C
000000E0
0000003B
00000073
0000007A
000000F2
00000014
000000A4
00000098
00000087
00000042
00000023
00000056
000000CD
00000009
000000DF
0000005E
00000072
0000001F
0000006A
000000A6
00000048
00000004
0000008E
0000004D
000000E0
000000B2
00000051
0000003A
00000074
00000017
000000AD
00000048
00000075
000000B1
000000BD
0000003E
000000CA
000000A6
00000031
000000CB
000000AF
000000E3
00000023
00000011
0000000B
0000003D
000000B1
000000C0
0000007A
000000E8
0000008A
00000085
000000D6
000000A9
000000C7
00000014
00000075
0000003B
000000EB
00000070
000000E6
0000003E
0000008C
00000028
0000004F
0000008E
000000C3
0000001F
00000000
000000E9
0000006F
00000054
0000004B
00000036
00000002
0000007D
0000009B
00000066
000000CD
0000009B
000000A7
00000052
0000004A
0000006B
000000C6
0000008C
000000B7
000000F9
000000D9
000000EE
00000057
0000002E
000000AE
0000005C
000000D6
000000E5
0000000A
000000E7
00000048
0000001B
00000056
00000073
00000028
00000051
000000F6
00000080
00000074
000000DB
00000006
0000001C
0000009D
00000042
0000000A
00000002
00000051
0000000D
0000003F
000000FB
0000002E
0000002D
000000A5
00000003
00000002
000000B5
00000004
0000004E
000000A1
000000EE
000000BF
00000091
000000AC
00000015
0000004C
00000056
00000022
0000003B
000000CF
00000046
0000001B
00000098
00000072
000000C0
000000A9
000000A9
000000C5
00000020
00000021
000000E2
000000D2
000000AB
0000009D
0000003C
000000FE
00000041
00000057
00000033
00000031
00000004
00000068
00000087
00000070
00000039
0000002F
000000B5
00000097
000000CB
00000099
00000063
0000002B
0000005F
000000CF
00000023
00000091
00000031
0000000C
000000E4
000000B9
0000008F
0000006F
00000075
0000005B
0000009B
00000041
00000073
00000019
000000E5
000000A0
000000F2
0000007F
00000008
000000B8
00000007
000000D1
00000064
000000CE
0000005D
000000E1
00000063
00000093
00000024
00000084
000000CD
0000000E
000000D3
0000007F
000000CD
000000F1
000000D7
00000010
00000022
000000DA
000000C5
00000014
000000FC
00000014
00000010
00000032
00000043
00000023
000000F0
000000BA
000000EF
00000013
00000038
000000A3
0000006C
000000F0
000000BC
0000000C
00000012
00000017
00000064
00000066
00000032
0000008B
00000052
0000004B
00000034
00000071
00000080
00000097
00000082
000000C5
0000005C
000000A3
0000002A
00000046
00000029
00000040
0000000B
000000B7
000000FA
000000EF
000000C3
0000005C
00000055
0000006B
0000002C
0000009A
000000BF
0000004B
0000008D
000000C6
000000B2
00000062
000000DB
000000A6
0000003E
0000009E
000000EF
000000B3
000000A9
00000088
00000001
000000CB
00000065
000000E2
000000C2
000000A0
000000DA
000000AC
00000018
00000017
00000035
00000056
00000070
00000052
000000AA
00000012
0000004B
00000003
000000C9
000000C3
000000D1
000000F2
000000AD
000000E9
00000070
000000C7
000000E4
0000000D
0000007F
000000E0
000000B4
000000EC
000000FB
000000BC
000000DD
00000064
0000000D
0000007A
000000BA
000000D0
00000002
000000DA
000000AA
0000005F
000000A5
0000006E
000000C0
000000F6
00000019
000000DB
0000001D
000000DC
000000CE
00000000
0000005C
000000FE
000000BC
000000A8
000000F8
000000D3
00000063
000000A3
00000017
00000002
0000007F
000000AD
0000001B
0000009D
000000FE
000000F8
00000083
000000E8
00000076
00000063
00000026
00000031
0000008C
000000D2
00000047
00000037
00000079
0000008E
0000006B
00000050
0000007C
0000001A
000000E0
00000071
0000008E
000000D0
00000034
00000042
00000004
000000CE
0000004B
000000AC
0000008E
0000004F
00000044
000000EB
00000085
0000007D
000000EC
0000009C
000000E0
00000075
00000050
000000A0
000000D1
00000074
0000007C
00000084
000000D1
00000057
0000002E
00000087
0000006B
00000008
0000006F
00000008
000000E9
00000026
0000008C
0000003A
000000DE
000000E7
000000E8
00000081
000000B4
000000AA
0000000F
000000FB
00000005
0000001F
00000076
000000EE
00000088
000000A0
000000ED
0000000F
00000095
00000067
000000A9
000000A7
00000013
0000002D
00000074
0000000D
00000055
000000C4
00000073
0000001B
000000B3
00000012
0000005B
000000FC
0000001E
00000039
00000044
0000001A
00000047
00000017
000000D5
00000082
00000062
0000004F
0000009A
00000098
000000DC
000000F2
0000001A
000000EA
00000000
00000063
0000000F
000000FA
00000094
0000006B
000000B1
000000EF
0000007C
00000065
000000EE
00000024
000000FD
0000004B
00000065
00000039
000000C8
000000B9
000000D8
000000A1
00000063
0000003F
000000E5
00000072
000000D8
000000DE
00000067
000000DB
000000F3
00000098
0000007F
000000E3
000000F6
000000BE
00000077
000000F6
000000BC
00000036
000000ED
0000003B
0000005C
00000015
00000029
000000AD
000000FC
0000008C
00000009
00000087
000000A4
0000005C
000000A8
0000000B
000000D1
000000CD
00000008
00000010
000000E0
000000A9
0000009C
000000AF
00000006
000000CD
00000001
00000043
000000EB
000000F5
0000007F
00000025
00000038
000000AD
00000025
00000031
000000F4
00000049
00000008
0000003B
000000C2
00000034
00000027
000000DC
00000073
0000006E
000000EA
000000E7
0000002C
000000CB
000000D9
0000001F
0000002B
000000C2
0000006C
0000004B
0000009C
000000FD
00000047
00000002
0000002D
000000EF
0000007C
0000005B
00000003
000000F0
0000004B
000000F7
0000004B
0000005C
000000DF
00000058
00000083
00000058
000000E3
000000DA
000000F0
0000002C
000000D3
00000096
0000004E
000000DD
000000C4
000000CD
000000A4
0000005A
00000033
000000E9
0000002D
00000044
00000094
00000010
0000007C
0000007F
000000BA
000000CF
0000002F
000000F4
000000F5
00000079
00000047
0000000D
0000008E
00000075
00000025
0000002B
0000005F
00000037
00000032
000000BA
000000CF
000000B5
00000090
000000B7
00000053
000000C0
00000091
00000077
00000023
0000007C
00000060
0000003E
00000011
00000094
000000BA
0000004E
0000009B
000000F3
000000A5
000000D0
0000004A
00000087
0000005D
00000093
000000F0
00000050
00000096
00000053
000000C8
0000001E
000000A0
000000F7
00000058
0000001F
00000054
00000047
000000B3
00000070
000000E4
00000089
00000087
000000B9
000000E4
00000026
000000D8
0000006A
000000D9
0000005E
00000049
000000FD
000000C2
0000005D
00000085
0000000F
000000B9
000000D4
00000062
00000095
0000001D
000000D7
000000EE
000000F0
000000F0
000000CE
000000BF
000000AF
000000B6
000000C6
00000084
00000038
00000067
000000DE
00000043
00000084
000000E6
00000004
0000007E
0000003C
000000C7
000000EF
00000024
00000040
000000A9
000000C8
000000C4
000000EB
0000005B
00000046
000000CF
000000CE
000000E3
0000004A
000000EA
00000095
00000064
000000B0
00000018
00000071
0000002C
0000008C
000000C6
000000CF
0000003C
00000053
00000005
00000081
0000007C
000000E7
00000012
00000022
0000002D
0000002D
000000F7
00000069
00000040
00000011
00000066
00000020
000000F6
000000BE
000000D4
00000095
000000F5
00000020
00000087
000000F3
000000CF
00000011
000000E3
00000088
000000D6
000000AF
0000005B
00000007
000000FA
000000D2
000000F6
0000001D
000000F5
000000F9
000000BC
0000002C
000000CC
0000007F
0000009B
00000012
00000003
0000002D
0000009A
00000085
0000007C
00000083
0000000D
00000032
00000075
000000AC
00000094
000000F2
0000005A
00000084
000000B4
000000EA
000000BB
000000AF
0000000B
000000F9
000000E9
0000004C
00000037
000000AA
000000A8
000000FC
0000009C
0000006B
00000095
00000009
00000040
0000006C
00000054
000000D3
00000053
00000047
00000076
00000032
0000002C
000000FE
0000002F
000000BE
00000055
0000002F
000000DB
00000008
000000C3
000000A8
00000038
0000008B
000000D1
00000053
0000005F
000000FD
0000006F
000000FB
000000DE
000000FC
00000079
00000007
0000006B
0000009A
00000058
000000BC
00000045
000000E7
00000099
00000092
000000AE
00000031
0000008D
00000000
00000011
00000086
0000008E
00000076
00000086
0000002D
000000F8
00000029
000000C8
000000CB
000000DC
000000D2
000000B0
000000A5
00000049
00000063
00000069
000000BF
00000041
000000F3
000000D5
000000F9
000000AD
000000E8
00000037
000000C8
0000009A
00000089
0000005B
00000078
0000005E
00000037
00000092
00000079
000000F9
000000E5
000000A9
0000002F
00000049
000000AF
000000AB
0000008C
000000B0
0000007C
000000E4
000000EC
00000041
0000002E
00000039
00000044
000000F7
000000C6
000000FE
000000AA
00000077
00000073
0000003F
0000004F
000000EE
000000B2
0000008B
000000DD
0000001E
00000016
00000076
000000F4
000000C6
000000BE
0000006F
00000014
000000C3
000000BE
00000016
00000071
0000005D
00000028
000000DD
00000082
000000EC
000000CA
00000097
00000036
00000024
00000054
000000ED
00000018
000000A3
0000002B
0000007E
000000D5
00000085
000000FB
0000000C
00000059
000000E9
0000009C
000000D3
000000CA
000000A6
000000D5
0000005C
000000CC
00000085
00000052
00000063
0000003E
00000086
00000082
00000000
000000C5
00000009
00000008
00000011
000000E7
000000FD
00000048
00000025
00000070
000000C0
00000052
0000007F
000000B2
0000006C
00000021
00000006
0000003D
00000087
000000EF
000000B6
0000009E
00000052
00000009
00000093
00000036
00000098
0000002A
000000B5
0000001C
0000004C
00000074
0000000E
00000061
00000090
00000089
0000005F
00000005
000000A1
00000045
000000A1
00000093
0000000A
00000023
000000CE
0000004B
000000B6
0000006D
000000D0
0000007A
000000D6
00000008
0000007E
00000036
00000051
0000005A
0000003D
0000004C
00000094
0000007C
000000F2
00000076
0000009C
00000081
000000A0
00000004
00000004
00000060
0000008B
00000047
00000000
00000088
00000071
00000076
0000004F
000000F0
00000089
0000001E
000000A1
0000009A
00000084
000000DB
0000003E
0000004C
00000004
00000002
000000AE
0000008B
000000D0
0000002D
000000D5
00000047
000000CA
000000CF
00000024
000000B1
00000034
00000002
0000005A
000000A5
000000F5
00000047
00000050
00000025
0000009E
000000E7
0000003D
00000039
00000042
00000042
000000F9
000000FC
00000062
0000003E
00000098
000000EE
000000F2
000000BE
000000BC
000000FA
00000005
00000080
00000017
00000080
00000009
000000AE
00000069
0000008D
0000001E
00000051
0000005F
000000E4
000000C8
0000002D
0000003A
000000E0
0000005C
00000025
00000084
00000000
00000030
000000DA
0000003D
0000002E
000000E0
000000A6
00000085
000000DA
000000E9
0000008F
000000B3
00000093
0000007A
000000E5
00000097
00000043
0000008C
0000004E
00000095
00000011
0000008C
000000EB
000000A7
00000004
00000062
000000BB
00000042
0000004F
000000D5
00000001
00000006
00000077
000000BC
000000BD
000000E9
0000002B
00000064
0000006A
0000003B
00000090
000000C4
000000E7
00000050
00000034
00000029
0000008F
00000034
0000002B
0000000D
00000021
000000C2
0000008E
000000A8
0000004E
00000088
000000B5
00000050
00000057
0000004D
00000068
000000F3
00000086
0000009F
00000079
000000CC
0000009D
0000007E
0000003B
00000064
000000F9
0000005C
0000003D
0000005C
0000000B
00000080
00000087
000000B6
0000003D
00000083
000000EF
0000004D
00000016
00000038
0000000C
000000C8
00000000
000000BB
00000016
000000CA
0000005B
000000BA
0000005B
00000012
0000005F
000000E6
000000B0
00000050
000000E0
000000B4
00000080
0000003C
000000CB
00000092
000000C4
00000046
000000AC
0000003C
0000004E
00000056
000000B0
0000000C
000000ED
000000D6
0000003C
00000058
00000075
000000E9
000000D9
000000F7
000000BA
0000008A
00000078
00000065
00000017
00000036
00000037
0000004E
000000A1
00000055
000000C4
0000003F
000000A4
00000077
000000B4
0000001D
00000001
00000040
000000CA
000000E4
000000B1
00000085
00000022
00000057
000000A0
000000E2
00000061
000000AC
0000006B
000000C1
0000004F
00000037
000000C7
00000007
0000006E
000000CF
00000053
0000008B
000000CE
000000F7
0000005F
000000AD
00000041
00000013
0000008E
0000000D
000000BF
000000FA
000000A3
00000012
000000E7
00000071
0000000F
000000DF
000000C6
00000063
0000003D
000000CD
000000C3
0000007F
000000FC
00000004
00000053
00000082
0000007A
00000070
0000005C
000000B8
00000001
0000000E
00000064
0000007B
00000070
00000037
00000057
00000005
00000085
000000A9
000000A2
000000BB
0000004B
0000007D
0000007C
000000DD
0000005A
00000005
000000B4
00000040
000000D5
000000A4
000000B8
00000022
000000DC
00000094
00000041
000000A2
000000A8
000000C4
00000090
00000060
00000068
00000045
00000091
000000A7
0000008F
00000006
000000F9
00000091
000000FB
0000002A
0000009D
0000001A
000000F7
000000B3
000000F8
00000034
00000033
00000049
000000BA
00000050
0000005E
000000F9
00000055
0000006A
00000012
00000087
0000002C
0000004E
00000012
000000FC
00000045
0000006D
0000007F
000000A5
000000C9
000000AF
000000C6
00000028
00000045
0000004C
000000A6
000000BB
000000F3
00000098
0000002A
000000DA
000000BD
000000BC
000000CA
0000004C
000000DA
0000003E
000000E8
0000005B
00000026
00000070
000000E3
00000009
0000009A
0000000A
000000F0
0000007A
000000D9
000000AE
0000001D
000000F6
00000048
0000004D
000000D5
0000005D
000000FE
00000079
000000D2
00000011
00000050
00000002
0000007C
00000049
00000002
000000F4
000000BB
000000E4
00000045
000000A0
000000FD
00000062
0000006C
00000064
00000001
000000B3
00000065
000000BF
00000004
00000042
000000E6
000000C2
00000008
00000003
000000E2
0000004D
000000A8
00000095
00000063
0000002F
000000CA
000000F4
0000004A
00000013
0000008A
0000004A
00000072
000000D5
000000FB
000000B8
000000AF
000000F5
0000009C
0000002A
00000074
000000E1
00000045
000000C4
000000D3
00000099
000000C5
000000DE
00000014
000000D3
0000003D
000000EE
00000088
00000071
00000066
000000B7
00000076
0000001B
00000072
000000B9
000000C1
00000026
0000003E
00000082
000000EE
00000002
0000002A
000000D2
0000004E
000000F8
00000083
000000E1
000000C1
000000F7
00000066
00000061
0000006C
0000001F
00000021
0000006E
000000C5
000000AA
0000003D
00000072
00000057
000000B7
00000005
0000001B
000000AD
000000F7
000000FE
000000C1
00000013
00000046
000000BC
00000074
00000037
000000E4
000000F3
000000A5
00000014
0000005A
000000C0
00000033
0000006E
000000CE
000000BB
00000059
000000AB
000000CE
000000CB
000000A1
0000009A
00000072
0000006D
000000EC
000000B5
000000C5
00000057
0000002A
00000039
0000003F
000000B8
000000E8
000000E0
0000001D
000000C2
0000009B
0000000B
00000069
00000040
000000C0
0000009C
00000040
00000090
00000025
000000E8
00000054
000000BB
00000029
000000CC
0000004B
000000C0
000000FD
000000C2
000000EA
0000006A
0000007E
000000F9
0000005A
00000033
000000E9
00000088
00000084
000000D2
0000006A
000000A9
000000C4
00000025
000000FC
0000009A
000000EC
000000F3
0000000D
00000067
00000070
00000076
00000045
00000077
0000005C
000000A4
00000072
00000025
0000001B
000000F4
00000030
000000BF
0000009D
0000008C
00000013
0000008F
0000009B
0000006A
000000B0
00000070
00000098
000000FD
00000053
000000FE
000000E3
00000054
00000029
0000004E
000000AD
000000C7
00000074
00000073
00000097
00000034
00000063
000000E6
00000068
000000C7
000000C2
00000085
000000C9
000000DE
00000000
000000C9
000000E3
00000018
00000030
00000089
0000004A
00000036
0000003E
000000F6
0000001E
000000A5
00000004
0000004B
000000E0
000000A8
0000005F
0000009D
0000006E
000000AA
000000A3
00000039
000000EC
0000008C
000000DC
0000009F
000000CD
0000003F
0000009A
00000001
0000001E
00000096
00000016
00000031
00000096
000000DC
0000008F
00000076
00000085
00000091
000000A0
000000D2
00000093
000000ED
00000039
000000B3
000000ED
0000001E
00000088
00000075
00000094
0000007C
0000000D
00000015
000000B0
0000007A
000000A0
000000FB
00000084
000000A6
000000A3
0000004A
0000003C
000000DA
000000E8
00000084
00000006
00000051
00000064
00000085
000000B5
000000D7
0000001B
00000060
0000009F
0000009A
00000054
000000F5
00000038
000000A8
0000008A
0000000B
0000005A
00000044
00000074
00000042
00000029
00000011
00000008
000000B8
00000087
0000005C
00000096
000000A8
000000BD
000000E2
0000008E
00000085
0000007A
00000096
000000E8
0000003B
000000DF
0000009A
000000FD
000000A5
0000003A
000000E9
000000A9
000000D4
000000B8
000000CD
00000012
000000B7
00000084
0000002F
000000B7
00000072
000000C3
00000051
0000006C
00000022
00000044
000000DD
00000057
00000037
00000055
000000FD
0000001F
0000003A
00000022
00000060
00000037
0000005A
00000014
000000EF
0000003D
000000F8
000000AA
0000006E
000000CA
00000028
00000062
00000012
00000041
000000A6
00000019
000000D6
000000AC
0000007D
00000069
0000000B
000000AA
00000073
0000001E
0000001A
000000E6
000000EC
000000F5
00000088
000000D4
000000EF
00000072
00000055
00000030
0000001B
0000000C
0000000C
000000AB
00000079
0000006F
000000C2
0000008A
000000CD
00000031
000000C1
000000E7
00000063
00000017
00000082
00000036
0000008E
00000080
00000056
00000042
000000BF
00000080
000000AA
00000000
00000091
0000006B
0000003D
000000BC
000000F6
000000EA
00000062
00000022
00000007
00000025
000000BA
0000005A
00000007
0000000A
000000F9
000000D2
000000D8
00000050
0000004C
0000006E
0000005D
0000007F
0000007C
0000006D
0000008C
00000094
000000DC
00000063
0000004A
000000AB
0000009B
000000FC
0000003F
0000001F
000000F5
000000DE
0000006C
0000006D
000000FA
00000039
000000AB
0000007C
0000003F
000000CF
00000063
0000006E
0000002B
000000EE
00000097
000000B6
00000020
000000F2
000000B4
00000078
00000073
000000B8
0000005E
00000053
00000066
0000002B
000000E2
000000A9
00000094
00000091
00000087
00000042
000000E6
000000A9
00000034
0000001D
00000046
00000017
000000AE
00000010
000000A1
00000061
00000063
00000053
00000039
000000A4
00000081
000000D5
00000079
0000004C
00000062
00000021
000000BE
000000EA
00000021
000000AC
000000DE
000000F1
000000A6
00000057
00000025
000000BE
00000052
000000B6
0000007B
0000009E
000000C3
000000E4
0000001C
000000F6
00000043
00000006
00000060
000000A9
000000CA
0000008A
00000005
00000021
000000BD
00000043
00000087
00000081
00000014
00000043
000000A1
00000009
0000006A
000000B3
000000F4
000000AD
000000CC
0000005D
0000008A
000000E4
00000095
000000D8
000000FE
0000004F
000000B9
0000005F
000000CF
000000C7
00000043
00000055
00000018
00000075
00000018
00000087
00000021
00000072
00000031
00000057
000000A4
000000DE
000000E4
00000070
00000075
00000026
00000095
000000EA
00000098
000000EC
0000004A
0000005C
0000000D
000000AA
00000089
000000C3
00000056
000000ED
000000F0
000000AE
000000E0
00000091
00000021
000000AD
000000A4
0000009B
000000A6
00000053
00000010
000000B9
000000F3
00000061
000000D5
000000B5
00000011
00000042
00000038
000000ED
00000048
0000006F
00000030
000000D8
00000031
000000E7
00000064
00000097
000000CA
000000CF
0000009D
000000C8
00000088
00000034
000000A1
000000A3
00000042
000000CF
0000006F
000000BD
000000B8
000000A0
000000DD
000000B5
00000081
00000028
00000001
000000E2
00000094
00000076
0000000E
00000012
000000DE
00000091
0000007A
000000D0
00000073
00000054
000000ED
0000009D
00000046
00000020
0000003B
000000FD
0000008F
0000004C
000000AA
000000EB
00000003
00000090
000000B4
0000004C
000000FD
000000EE
00000055
000000B7
00000025
000000C8
000000FD
000000CC
00000067
0000002B
000000CD
000000DE
0000004D
000000ED
0000007F
000000E1
000000C6
0000006F
00000078
00000037
000000E9
000000DE
000000FB
000000C8
000000C2
00000017
000000D8
00000036
000000CF
000000FE
00000063
0000005B
000000B3
000000B1
000000A5
0000009A
00000035
0000005C
00000075
000000A4
0000001B
000000EE
00000094
00000096
000000AE
00000037
00000076
0000001A
00000078
0000002E
00000055
00000028
0000009B
000000E9
0000008C
00000079
00000048
000000C5
0000001C
00000021
000000E7
0000002F
00000094
00000061
00000085
000000CB
000000A0
000000AC
00000095
00000067
00000086
0000005A
00000061
00000051
0000002D
0000003C
000000C7
000000D7
000000FC
00000065
000000F5
00000078
00000046
00000098
00000034
00000065
00000012
00000047
00000052
00000080
00000076
000000B8
00000099
00000072
00000001
00000090
000000AE
00000077
000000FB
0000002A
000000A0
000000E4
00000008
0000006E
000000E5
00000008
0000000E
00000052
00000067
00000027
000000F6
0000006B
0000005B
000000F0
000000A9
000000DB
0000008C
00000092
0000007F
000000FB
0000009B
000000CC
000000D8
000000B4
000000A8
00000074
00000046
00000079
000000F4
000000F1
00000018
0000004D
0000005F
000000F5
00000095
0000009A
00000084
000000C9
00000033
00000033
000000FA
00000097
000000AA
00000007
00000003
0000005E
00000094
00000021
00000094
000000A4
000000B3
00000011
0000009A
0000002D
0000003D
000000D6
0000008D
00000071
0000004F
0000007C
000000ED
0000001B
00000068
00000094
0000002A
0000005D
000000A9
00000008
0000006C
0000008D
000000A2
00000069
00000084
00000024
000000CE
000000B2
000000E4
00000008
0000006C
0000000B
0000002F
00000081
0000009B
00000044
000000FB
00000057
000000CF
0000008D
000000B3
0000007A
000000B0
00000068
000000F6
000000F9
00000059
00000014
00000060
0000001C
0000009E
000000A3
000000ED
00000095
000000FD
00000045
000000F2
0000005B
00000095
00000008
0000005B
00000054
00000016
000000E4
000000E8
0000002E
000000A3
00000008
00000081
000000FC
000000DB
00000097
0000000E
00000001
000000A4
000000E6
0000004A
00000013
0000003D
00000094
00000030
00000038
00000058
0000000C
00000099
000000A1
00000048
000000EA
000000EA
00000032
000000EE
00000066
000000AF
0000009F
00000015
000000EF
0000007A
00000002
000000AF
000000C0
000000B7
00000032
0000008A
00000092
000000D0
0000001D
00000079
000000CF
000000D1
00000096
00000031
00000015
000000CF
000000D3
0000004F
000000BB
000000B3
00000062
0000005F
000000C1
00000098
0000000A
00000030
0000002D
000000CA
000000EF
000000E2
00000019
00000006
000000EF
00000070
0000001F
000000F2
0000004F
00000027
00000012
000000F9
00000090
00000023
000000B7
000000F1
000000E9
000000F4
00000016
000000A0
0000008D
0000006A
00000018
0000002B
000000D9
0000003F
000000A7
0000006E
000000FA
00000065
000000A2
00000070
0000002E
0000009E
0000002C
00000070
000000C8
00000021
000000AB
000000F5
00000009
00000013
000000A7
000000EF
00000020
0000009A
000000A2
000000D3
0000004A
00000080
0000005F
000000B1
000000D5
00000055
000000AC
0000000F
000000C6
0000000B
000000D2
00000098
00000071
0000008E
0000008E
000000FE
000000DE
000000B2
000000CC
0000001E
000000A4
00000000
00000075
000000B4
000000C4
000000D8
000000CB
000000AE
000000D0
000000FD
00000087
00000061
0000009E
000000AC
0000002B
00000005
00000071
0000001F
000000DA
00000028
000000BB
00000025
00000067
000000BC
0000003C
00000047
00000048
00000058
000000DD
0000008F
000000D8
00000098
000000DF
000000FE
0000004B
000000EB
00000052
00000033
00000009
000000C5
000000F1
000000B6
000000CE
000000E1
0000000D
000000EC
000000EA
0000000E
000000F2
00000002
00000019
0000007E
000000B0
00000070
000000F6
000000DC
000000D0
0000007A
000000FC
000000C0
0000004E
00000045
000000E2
0000005B
0000005C
000000B9
000000AB
0000008E
000000F3
0000005A
0000007B
0000004E
0000004A
00000002
0000000F
00000064
00000011
00000092
00000020
000000C8
000000A5
000000C3
00000065
000000D0
000000C4
000000EA
0000003C
000000C0
000000D5
000000AA
00000063
0000005E
000000D6
000000AF
000000A4
0000009C
0000006F
00000057
00000056
000000A9
00000048
000000A8
0000005A
0000005D
000000F6
000000FE
000000B8
00000075
000000AD
000000AF
0000005F
00000000
00000086
000000C1
000000CD
00000091
00000065
00000050
00000080
000000E9
0000006C
00000010
000000DF
00000069
000000F1
00000075
000000BC
00000015
00000062
00000094
000000AE
00000078
00000010
000000F6
000000D6
000000F6
00000068
000000CE
000000EF
00000034
00000044
00000000
00000020
0000009E
0000006A
000000D0
000000F2
000000DF
000000C8
00000091
000000F7
00000091
000000E6
000000D5
000000E7
000000D3
000000B3
000000F2
00000012
000000E7
000000BD
00000026
00000045
00000035
00000006
00000084
00000016
00000099
0000005A
00000061
0000005F
000000C0
000000C2
00000021
00000011
000000E6
0000008F
00000076
00000065
0000005A
00000006
000000BE
000000BC
000000AA
00000042
0000005D
000000E1
000000B9
000000FC
0000004E
0000003E
0000000B
000000CA
000000B4
00000025
0000000C
00000050
00000067
000000D6
000000B5
000000B8
00000094
0000009F
00000059
000000B8
000000CE
000000C0
0000006C
0000000F
0000002D
0000001D
00000036
000000B6
00000097
00000010
00000060
00000061
000000F3
0000007E
000000EF
000000E1
00000033
00000055
0000001D
000000B2
000000C3
000000FB
0000008E
000000A6
00000078
00000049
00000048
0000009C
00000097
00000032
0000005E
00000004
0000001C
0000002C
00000093
000000AA
000000BF
000000C6
00000010
0000001E
000000D4
00000019
000000FA
0000007C
000000D4
00000038
000000AA
0000003D
000000B0
000000A2
0000009F
000000F0
00000045
000000EB
000000A7
000000EB
000000A5
0000009F
0000004D
0000007E
00000083
00000092
000000FE
0000009A
00000035
000000E9
00000061
000000DC
000000B8
000000C5
00000009
00000047
000000F7
0000000B
000000B4
00000093
00000078
0000007D
000000A2
0000007F
0000002B
000000DC
0000006E
000000E7
0000000C
0000007B
00000003
00000058
000000D5
00000055
000000FA
0000009A
000000DA
000000A0
000000F0
00000007
00000036
000000C1
000000F6
0000007E
000000B5
00000093
000000C6
000000B8
00000083
00000004
0000005F
000000B9
00000004
00000013
000000A5
0000009C
000000A0
00000075
00000047
000000B6
00000044
00000042
00000031
000000F1
000000CB
000000E2
000000AC
000000CE
000000C9
000000AA
00000054
000000A5
000000D5
000000F6
000000EC
00000066
0000003C
00000046
00000040
00000066
00000017
0000002E
00000096
0000006A
000000A9
000000B1
0000004D
0000000E
00000058
0000008C
0000004B
0000006F
000000BA
00000032
00000043
000000D2
000000A8
00000068
000000EB
0000005C
00000027
0000007F
00000044
000000E5
000000D5
000000E5
000000F3
0000002A
000000AD
000000CA
00000034
0000005E
00000018
000000B4
000000CE
000000B9
00000034
0000003F
00000033
0000002A
0000004E
00000030
00000030
000000AB
00000052
00000096
00000020
00000070
00000018
00000029
00000001
0000001A
0000006B
00000038
000000A8
000000AB
00000081
00000042
0000007A
0000007F
00000037
00000012
000000FB
000000D2
00000075
00000053
00000078
0000007F
000000C6
000000DE
00000003
0000002A
00000045
000000DE
000000D4
000000CC
00000008
00000001
00000079
0000006F
00000084
00000002
0000008C
0000006B
00000079
00000034
000000AC
00000061
000000D8
000000ED
00000018
000000B4
00000091
00000072
00000070
00000085
00000048
000000D7
00000041
0000000F
0000000C
0000004E
00000021
000000D8
000000ED
00000065
000000A1
00000091
000000DC
0000002C
000000D6
00000046
0000005E
0000008C
00000002
000000F9
0000003B
000000FD
0000000E
000000AF
00000020
000000FB
000000F3
00000079
00000012
00000044
000000B3
0000002E
0000006B
000000D9
00000008
00000007
000000FE
000000C1
00000008
000000C2
000000BF
000000F4
00000062
0000008E
00000023
000000B8
000000A0
000000F3
00000027
000000F1
00000082
00000038
000000A7
0000000C
000000CF
00000042
00000088
00000055
000000FC
00000033
0000004B
000000E6
000000DD
000000E0
0000002A
00000013
0000006B
000000AE
0000000C
000000FB
0000002B
000000F5
000000A3
00000022
0000008F
000000D0
00000094
000000B2
00000006
0000000B
000000EC
00000047
000000A8
0000000F
0000001E
000000A6
000000FA
000000A2
000000EF
0000000A
0000004C
0000000F
00000099
00000098
000000C2
000000EB
000000B7
00000006
0000004B
000000CF
00000080
00000094
00000045
000000A3
0000002A
000000D7
00000095
000000CA
000000DC
000000C1
0000008E
00000001
000000D1
00000078
000000E0
00000095
0000003C
000000BE
000000AE
00000021
0000004D
0000007B
000000CB
00000058
00000038
00000089
00000022
00000028
000000B7
000000F1
0000004D
00000039
00000078
0000004B
000000EA
000000E6
0000003B
00000092
000000FA
0000004A
00000008
0000008A
000000B3
0000002B
00000047
00000047
00000062
00000026
00000085
000000DE
000000B3
000000EC
0000004E
0000002C
00000054
000000A1
00000019
000000D2
00000065
00000095
0000006A
000000DC
00000027
0000007A
0000006A
00000052
000000B0
00000048
000000AF
0000008C
000000E8
000000F3
00000003
0000009F
00000095
000000FB
00000034
000000B2
000000D0
00000084
00000033
00000065
00000046
00000065
0000005B
000000D8
0000003D
0000006B
000000B8
000000B7
00000036
00000070
00000084
000000FE
00000013
000000F1
000000EA
000000F9
00000039
00000090
00000064
000000A1
00000005
000000FD
000000FB
00000070
00000006
000000D0
000000ED
00000074
00000084
000000B8
0000009F
000000DE
00000024
00000061
0000003D
0000009E
000000CD
0000000A
000000C5
00000051
0000007E
00000034
0000005C
00000017
00000012
000000E6
00000086
0000007A
00000093
000000E8
000000C6
000000B4
000000D2
000000F7
000000DC
00000007
000000A6
00000047
00000057
000000B6
00000080
000000B8
00000042
0000009D
0000000B
000000F0
0000004B
0000006F
0000000B
000000B6
000000D3
0000007B
000000F6
0000007B
00000086
0000002B
00000005
0000009F
0000003F
000000AB
00000047
0000002E
00000094
00000089
00000096
00000073
00000052
000000B5
0000006A
0000006B
00000051
000000E2
000000DE
000000F6
00000091
00000053
000000A4
00000021
00000088
00000095
0000004F
000000D5
000000DD
000000F7
00000021
000000C9
000000BD
000000DC
000000C7
00000014
0000001D
0000009F
00000018
000000F8
00000070
00000065
000000B2
000000E6
000000D0
0000007F
00000029
000000F4
000000F2
0000004B
000000FE
0000000D
00000089
00000005
000000D8
000000E2
00000017
00000086
00000003
00000085
000000AD
000000BA
000000F2
0000009B
000000C8
00000051
00000045
00000006
000000E5
0000009C
00000096
0000005E
00000029
00000039
000000B0
000000E8
0000001F
0000003E
00000076
000000BF
00000007
000000F0
000000AA
000000D6
00000069
00000092
0000008A
00000030
000000C4
000000C5
000000F8
00000065
00000071
00000058
00000016
0000009E
00000082
00000009
0000003D
00000006
00000039
000000C4
00000000
0000009A
00000080
000000C9
000000C5
0000001A
0000002A
000000EB
000000D8
00000013
0000006F
000000DB
000000D1
000000E4
0000005E
00000069
000000B9
000000BD
00000028
0000006A
0000005B
0000003E
00000068
00000038
00000067
0000008D
00000092
000000D3
000000E4
00000004
000000CB
00000096
00000057
000000B0
000000F8
0000008E
00000003
0000000B
00000040
00000000
00000078
000000D2
000000FC
000000FD
000000E3
000000F9
00000068
000000F1
000000E7
00000099
00000052
00000094
000000E8
000000D8
000000AC
000000BB
0000007B
00000031
00000036
000000D5
00000013
000000DF
0000004B
0000003D
00000025
0000000A
00000016
000000CA
000000D0
00000096
000000D3
00000071
00000092
00000021
0000008C
000000F3
00000005
0000003B
000000FC
00000092
00000073
000000C4
000000FA
00000076
000000B8
000000C6
000000E5
00000069
000000CF
0000000C
00000050
000000AD
0000008A
000000E0
00000051
00000018
00000014
000000DD
0000000F
0000001D
000000BB
000000F9
00000015
00000096
000000C9
00000032
00000031
00000057
0000005C
0000003F
00000031
000000D4
00000055
000000D4
00000039
00000080
00000004
000000F8
000000A3
0000009B
00000095
000000C3
0000008C
000000BE
00000086
00000039
000000AD
000000DE
000000DA
000000A8
000000F9
000000E6
0000007F
00000058
00000032
0000002E
000000AC
00000087
000000D6
000000E9
00000063
000000DA
00000097
000000A1
00000055
000000C7
0000009A
00000087
0000002C
000000E2
00000060
000000E1
000000C5
00000080
0000001C
00000072
00000002
000000D1
00000088
00000062
0000000F
000000C1
000000F0
000000A4
00000017
000000FE
000000B8
0000007B
00000073
0000001A
000000C1
00000043
00000002
00000086
0000005D
000000AB
000000A6
00000058
0000004C
0000008E
0000002F
000000C0
000000C9
00000059
0000007A
00000069
000000DD
000000CD
000000C1
000000C9
000000DD
00000043
0000001F
000000DF
000000A2
00000026
000000AE
00000019
00000028
000000DE
00000097
0000009C
0000007F
00000099
000000A3
00000067
000000E8
00000069
00000022
0000003C
00000070
00000064
0000003B
000000C8
00000037
00000096
0000008D
00000033
000000C6
00000003
00000015
00000081
0000003C
0000005A
00000016
000000EC
000000F3
0000001B
0000005B
00000059
00000065
000000C8
00000076
0000009C
0000003A
00000009
000000F0
0000008F
000000E5
00000083
000000B2
0000006C
00000085
00000098
000000DB
00000043
000000ED
00000055
0000007B
000000F8
000000DD
000000D8
0000009C
000000DB
00000060
00000020
00000038
00000013
000000A7
00000064
000000AD
000000F4
0000003A
00000092
00000035
000000E9
000000BC
000000D4
00000050
00000019
00000036
000000A0
000000A9
00000025
000000F3
00000019
00000058
00000002
00000079
0000009C
00000063
000000E5
0000008C
000000CE
0000006E
00000006
000000FA
0000005B
00000067
00000048
000000C4
00000081
00000028
000000E6
000000DA
000000BE
00000083
000000C7
00000022
0000008E
000000F7
00000038
00000050
00000059
000000DA
000000B2
00000032
0000006C
000000E1
00000045
00000033
00000063
00000059
000000C7
0000005B
000000E1
00000097
00000046
00000006
00000072
00000046
000000E2
0000008F
000000C2
00000003
000000A6
00000008
0000002F
0000001E
00000052
000000AD
00000072
0000004D
0000007B
000000CD
00000003
000000C6
00000084
00000026
000000EF
00000083
0000005F
0000005A
00000093
0000004C
000000EB
000000DD
00000092
00000054
00000051
000000A0
000000B6
00000027
000000E4
00000014
0000006E
0000009A
00000035
000000A5
0000009C
00000071
00000015
000000DD
00000039
000000CE
000000C7
000000C5
000000C4
000000ED
000000FA
000000DA
00000024
00000031
00000045
00000004
000000DC
0000004B
00000013
00000069
00000063
00000022
00000034
00000093
000000E1
000000AE
000000C9
0000006E
00000074
000000B7
00000044
000000E0
00000085
000000B3
00000078
00000075
000000D4
00000062
000000FD
0000009A
000000E3
000000E4
000000A4
00000031
0000006A
00000091
0000005C
000000D6
0000001A
00000096
00000005
00000026
00000017
00000049
0000005E
000000D1
0000004F
0000006F
000000C7
0000000B
00000083
000000C4
000000D9
000000CB
000000F8
000000E7
000000DB
00000044
000000E4
00000056
0000002A
000000EC
00000026
000000FB
000000C0
0000007C
000000D1
00000075
00000091
00000047
00000028
00000000
000000F0
0000003B
000000B2
000000BF
000000C1
000000FA
0000001D
0000001E
000000CE
00000006
00000000
00000095
0000002C
00000059
00000045
000000A4
0000000A
0000000D
00000082
0000001E
000000CE
000000A1
0000004B
000000E4
0000000F
0000000E
000000FA
000000AB
000000C3
000000E9
00000036
00000045
0000000D
0000000E
0000003C
00000076
0000005F
000000DC
000000BC
00000062
000000F8
000000A4
00000027
000000C9
00000075
0000009D
00000052
000000C5
00000046
00000038
00000005
00000058
0000005D
00000057
00000053
000000AB
000000F8
0000007C
0000007D
00000038
000000C2
00000006
000000AC
000000D5
0000000A
00000087
00000016
000000EE
00000025
0000009A
000000FE
000000B5
000000EC
00000084
0000004D
000000BD
000000E7
00000095
000000BD
00000036
00000098
000000EF
00000090
000000B1
00000035
00000015
000000F5
00000046
000000D5
000000AD
000000BA
000000DF
00000002
00000011
00000061
00000071
00000012
000000E3
0000009A
000000B9
000000F1
0000005E
00000056
000000A3
000000A4
00000031
00000040
0000004E
0000003F
00000061
0000004B
00000086
00000057
0000007D
000000E7
000000EE
000000FD
000000E4
00000000
000000D8
000000A5
000000F4
000000C0
000000B8
00000078
000000C8
0000000C
00000010
0000004B
000000E9
00000014
00000038
00000053
00000071
000000CE
00000044
00000010
00000064
000000C8
00000096
000000D6
000000E5
000000F2
0000009E
0000005F
0000009C
0000000C
000000D0
000000A5
000000FB
000000A2
00000032
00000010
00000042
0000002F
00000045
0000000F
00000061
0000007A
00000007
000000B6
0000005B
00000080
00000053
0000007E
00000010
000000FB
00000030
000000D6
00000099
00000004
000000BC
0000007E
00000034
000000D4
00000013
000000CC
0000002A
00000096
0000004C
00000084
000000E8
000000FE
00000020
000000CC
000000D1
00000075
00000001
00000060
00000073
000000E7
00000008
0000006D
00000023
0000002C
000000DF
0000000B
0000003F
00000004
0000001C
000000B7
000000A8
00000080
0000001C
00000011
000000DA
0000008E
00000040
000000DB
00000007
00000057
00000049
00000017
00000042
00000025
00000017
0000008C
0000004E
0000007F
0000007E
000000E2
00000022
000000F9
000000CF
0000007C
0000008A
00000078
00000045
000000F3
00000064
00000019
00000052
0000009C
000000B5
00000048
000000D0
000000C4
000000A6
00000060
00000096
0000004E
00000002
000000AC
00000096
0000006D
000000BA
000000A7
00000094
000000A3
00000050
000000B3
0000001A
00000069
000000D6
000000B6
00000004
000000FD
00000079
00000066
000000EC
00000080
0000006E
000000DD
000000CA
0000006E
00000020
000000BE
00000061
0000005B
00000056
000000F4
000000A1
00000044
0000003D
00000042
00000047
0000000E
0000004F
00000017
00000060
000000B6
0000005E
0000003C
00000096
0000003C
000000DC
000000C5
000000F6
00000058
0000009A
000000BA
0000003F
0000008E
00000059
00000024
000000B1
00000037
0000001B
00000089
000000F8
000000B3
0000006B
00000014
00000009
0000008B
00000099
00000036
00000079
00000014
000000A3
000000CA
000000ED
00000033
00000093
000000A7
000000E6
00000024
0000007E
000000F3
00000091
000000D1
000000F8
00000033
000000C0
00000008
0000008F
00000060
0000004D
00000012
000000FD
00000032
000000B6
0000004B
00000077
000000DD
00000003
000000C0
00000090
00000090
0000006E
0000008B
00000011
00000052
000000F9
00000011
00000009
00000024
00000074
00000045
000000F2
000000D9
000000C3
000000EA
00000021
00000011
00000005
0000000B
000000D5
000000DB
00000057
000000F0
00000054
00000033
00000090
000000E0
000000CC
0000009B
0000003A
0000000F
00000023
000000BA
000000DE
000000FA
00000023
000000D6
00000079
00000003
0000002F
00000025
000000B8
0000005B
000000A7
000000DF
00000007
000000C5
00000076
000000B4
00000009
00000016
000000AE
000000DB
0000000C
00000034
0000009E
0000005D
000000C8
000000CE
0000007D
00000055
00000066
00000098
000000E3
000000FA
000000DD
00000081
000000A9
00000047
0000006F
00000087
000000FA
000000BE
0000000B
0000003B
00000032
00000018
0000007B
00000079
00000013
00000017
00000025
0000007D
000000ED
000000D1
000000F6
0000009E
000000FC
000000F1
00000056
000000C7
000000A8
000000C6
00000037
000000FB
000000A9
00000099
00000029
000000D4
00000088
00000017
000000B7
00000073
0000004A
000000B0
000000F1
00000005
000000C0
0000009D
0000005D
00000011
0000007F
000000F6
00000081
0000007C
00000031
000000A6
00000069
000000CA
0000005A
000000A1
000000CC
00000024
000000C1
0000002F
00000015
00000066
000000C3
00000049
00000057
00000038
00000006
0000003F
0000007F
00000033
000000F4
00000068
0000006C
000000C8
000000F2
000000B6
0000005A
00000075
000000D7
000000F3
0000008F
00000093
00000073
000000B8
000000EF
0000009D
000000F5
0000005B
00000073
00000015
00000059
00000078
000000A4
00000033
000000C6
0000002C
000000D3
000000E0
000000AB
000000EC
000000D1
0000000C
00000037
000000F7
000000FA
000000E9
000000AE
000000BF
00000028
00000081
00000037
000000E3
0000002D
00000061
00000063
00000020
0000000A
00000072
000000AD
00000005
0000009C
000000CD
000000E5
0000008F
00000068
000000A0
00000048
0000001F
000000B5
000000EB
0000004C
0000001E
0000002F
00000005
00000027
000000D5
00000032
000000DE
000000FE
0000009F
000000CB
000000BB
000000E9
00000037
0000003D
00000015
000000D0
00000099
0000007B
0000000C
00000021
000000D7
00000036
00000020
0000006C
000000A9
000000D0
00000049
0000009F
000000D9
000000CE
000000D8
0000005E
0000009F
00000041
000000EC
00000052
0000006C
00000075
00000088
000000C0
00000001
00000038
00000068
00000061
000000B1
00000050
00000078
000000A2
00000080
000000AE
000000FB
00000016
000000B5
000000FD
00000028
0000005D
000000BF
00000063
00000089
0000002F
0000009D
0000005C
00000093
00000094
000000BF
0000007B
000000D9
00000098
0000000E
00000008
0000001C
00000025
00000088
00000059
000000BE
000000C5
000000E8
000000DC
0000000F
00000023
0000002F
00000064
000000D2
00000014
00000085
00000026
00000013
00000035
000000FC
000000F0
00000099
000000CD
0000008E
000000AA
00000089
00000097
0000005E
00000085
00000083
00000053
000000C5
000000BA
000000D9
000000CF
00000071
000000C1
00000096
00000047
0000006B
000000BE
000000CD
00000007
0000002C
000000B3
000000D5
000000B9
000000CD
00000069
000000A9
000000E6
00000076
000000DB
00000044
000000BD
000000CE
000000B5
00000064
000000C9
00000004
000000A3
00000041
00000023
0000000E
0000005A
00000006
00000039
000000C7
00000072
00000060
00000042
00000019
000000E3
0000007A
000000D8
000000FB
00000092
0000007A
000000E5
0000003A
0000009A
00000091
0000004A
000000A1
00000054
000000F2
00000054
00000034
00000044
0000001A
000000BE
0000006B
000000DD
000000A0
0000004E
000000FA
00000086
000000A6
000000CE
000000CF
000000C0
000000BE
0000002D
0000000F
000000DC
0000007B
000000E5
00000011
000000A2
000000DD
00000000
00000098
000000AE
00000039
0000002B
00000033
0000009E
000000EF
000000C2
000000B7
0000000C
0000004D
000000C9
0000008E
0000004A
0000009E
000000C6
00000081
00000090
00000022
00000057
00000011
0000003B
000000D7
00000086
00000009
00000017
00000097
00000021
0000006B
00000048
00000071
000000CF
0000001D
00000066
00000094
000000A7
0000004E
000000BE
00000053
0000003D
00000075
000000A4
000000CB
000000C3
0000001E
00000096
0000008A
000000DF
0000009E
00000023
0000009B
00000066
0000002C
0000004D
000000D4
000000C0
0000001D
00000041
000000BC
00000000
000000FA
00000026
00000006
000000D1
00000058
00000069
0000008A
00000069
000000FC
000000A2
0000000F
000000A9
0000009B
0000006D
0000007B
0000006A
00000060
000000B3
000000A3
000000F1
0000002A
000000D1
000000CC
0000007C
00000060
000000FD
00000006
0000003F
0000005F
00000015
000000F6
000000F4
00000093
00000076
00000063
000000DE
0000001C
000000C5
000000FB
000000B4
000000F7
000000EA
00000058
00000014
0000002A
0000001B
00000012
00000024
00000068
0000009C
00000091
00000050
00000050
00000011
00000055
00000000
000000D6
00000076
00000090
000000E8
000000D6
0000002F
000000AB
00000057
000000EC
00000062
000000F4
000000A4
000000EE
00000096
000000D7
00000094
00000083
00000021
00000010
000000AC
000000E5
0000009D
000000EE
000000DE
00000015
00000054
0000006B
000000BA
000000C4
00000079
000000E4
0000001B
00000071
00000018
00000015
000000DB
00000087
000000A3
0000000A
000000E8
000000F5
000000CD
00000075
0000008F
0000004D
0000003B
0000004A
000000F9
00000065
000000F7
0000000A
000000FB
00000025
000000FD
00000024
000000F6
0000006C
000000F2
000000EF
0000008F
000000D3
000000AF
000000EB
00000001
000000CB
0000001B
00000039
0000003C
0000004C
00000063
000000F6
000000E5
00000038
0000005F
00000005
000000A3
00000040
000000CD
0000006A
000000C5
00000024
0000006D
00000015
00000021
00000097
000000B3
00000091
000000F3
000000FA
000000AD
00000083
00000003
00000093
00000043
00000069
0000008C
00000049
000000A3
000000DA
00000053
000000AA
00000078
000000A4
00000006
000000BB
0000007E
000000C9
000000E3
0000000A
00000079
000000DC
00000003
000000AC
000000DE
000000C0
00000041
000000BD
000000D9
0000001D
00000016
0000001D
000000E7
00000084
0000008D
00000083
00000019
00000056
000000C9
00000047
0000007B
000000EE
000000D8
00000066
0000004A
00000043
00000011
0000003F
000000E6
00000035
000000C4
0000006D
000000B4
00000094
000000E5
000000FA
0000002D
000000F3
00000017
000000A9
000000C9
0000005D
000000E4
00000079
000000E5
000000D4
00000072
00000066
000000AD
00000078
0000008D
000000A4
0000008A
000000FD
00000072
0000004E
00000005
0000001D
000000D9
00000068
00000023
00000045
0000009F
0000007B
000000B9
000000D1
00000040
00000084
000000E6
00000030
00000062
0000007A
0000008F
00000012
0000006B
000000D9
0000008F
00000055
000000B5
000000FD
000000DB
0000003E
0000000F
00000038
00000045
000000AD
00000047
00000046
000000CB
000000D3
00000092
0000000F
0000008B
00000033
0000008E
000000AC
00000095
000000A5
00000094
000000F1
00000022
00000075
000000E2
000000A1
00000019
000000DF
00000051
0000003C
00000064
0000002C
0000006D
000000A9
0000000F
000000A8
000000F6
000000D5
000000C1
000000E2
00000036
0000002A
000000B1
0000005F
0000009D
000000C9
00000011
000000D8
00000047
000000D2
000000CC
000000E4
0000008A
0000004B
0000000C
00000011
0000009A
00000062
0000008F
000000C7
00000059
00000049
000000BB
00000072
00000060
000000C8
00000009
000000DA
000000BB
0000007D
00000042
00000070
00000017
00000015
0000005A
000000A8
0000002F
000000E4
00000006
000000B7
00000044
00000094
000000A1
00000039
000000D2
00000023
000000B4
0000007F
0000004C
0000008E
00000040
00000007
00000023
0000002D
00000001
000000EF
0000000C
00000089
00000063
00000072
00000062
000000D5
00000083
00000030
000000EA
000000B9
000000AA
000000D7
000000E0
00000015
000000D8
00000047
000000EA
0000002D
00000070
00000068
000000E5
00000018
0000007F
00000045
000000B8
000000B3
000000DC
00000090
0000007A
0000002D
000000C1
00000037
000000E9
000000A1
000000C0
00000059
000000DF
00000051
0000008A
0000001E
000000FA
0000009E
0000000C
00000054
00000028
000000CB
00000088
00000097
00000036
0000004B
00000041
00000083
000000F6
0000004A
000000F0
000000DA
000000A4
00000060
00000098
00000055
00000021
000000AC
000000A7
0000003A
000000C3
0000006E
00000033
00000019
000000FE
0000000C
000000CF
00000018
00000085
0000002D
000000A0
000000AA
000000A7
000000E5
00000027
000000A4
0000007F
00000009
00000042
0000002A
00000079
0000004B
000000B9
000000B1
00000086
00000040
0000006B
0000008F
000000E1
00000053
0000002B
000000EF
0000001E
000000C2
00000036
0000002E
00000035
00000017
00000049
000000DE
00000049
000000F5
00000093
000000A7
00000092
000000E7
00000001
0000005E
00000089
000000C8
00000050
0000005D
00000078
00000012
00000068
00000055
00000029
00000047
0000000A
00000021
0000003B
000000B3
000000A9
000000A0
000000DF
000000BD
00000089
00000078
0000004E
00000014
0000001F
00000019
00000067
0000001F
000000A9
00000006
000000A3
00000053
000000C0
00000031
0000000F
00000046
00000078
00000003
000000D1
0000000A
00000098
000000F1
00000028
00000035
000000EF
000000CE
000000F1
0000005B
000000F0
000000F8
00000056
00000020
000000E0
000000C4
0000002D
00000033
0000003C
000000C8
000000D7
000000E3
000000CB
0000007D
000000BB
00000018
000000AE
00000075
00000030
0000002A
000000E1
00000067
0000006C
0000005E
0000001A
0000005E
00000067
000000AA
000000F5
0000001F
00000063
000000F8
00000036
000000BE
00000034
00000091
00000016
00000079
000000CC
000000B1
00000004
00000036
000000C6
00000044
0000004C
00000019
000000AF
000000E6
000000D1
00000000
000000C8
00000081
0000002B
000000A8
000000C1
000000D0
00000019
000000E7
00000038
000000C3
000000E2
00000018
0000000B
00000086
000000B0
00000013
000000DB
00000015
0000000B
00000008
00000077
000000FE
0000000E
00000044
0000005D
00000026
000000F9
000000A8
0000009C
0000000E
0000009E
000000B7
000000BA
00000069
00000039
000000C7
000000A7
00000028
000000BF
00000046
00000075
0000009E
0000000F
000000DF
0000009A
00000041
00000088
000000B0
0000002F
000000C5
000000F7
0000004B
00000022
00000013
0000002D
0000004C
000000FE
000000ED
000000C7
0000004C
00000011
00000037
00000079
0000004C
00000051
00000086
00000095
000000F6
000000A0
000000C9
000000DC
000000CC
00000057
000000D3
00000092
000000A0
00000052
0000005F
00000076
00000018
000000E4
000000D0
00000055
00000097
0000001A
0000007B
00000077
0000003E
00000093
00000081
000000DF
000000BC
00000018
00000099
000000E1
000000C9
0000000A
0000002D
00000015
00000092
000000C0
00000031
0000000D
000000C6
000000F2
000000D3
00000020
00000015
000000A7
00000065
00000087
00000083
00000052
000000D7
0000003D
0000005B
000000B9
000000C4
000000A6
00000076
0000003B
00000061
00000086
00000042
00000014
00000007
00000037
00000053
00000067
000000E4
00000021
000000E5
00000002
00000063
000000F1
00000032
0000001D
0000003B
000000BA
000000DE
00000016
00000093
000000D0
000000D7
0000000C
00000041
000000AE
00000048
00000074
000000D9
000000A6
00000061
0000009E
00000031
00000096
000000D5
0000008B
0000008F
0000001C
000000A6
0000003C
00000066
00000002
00000050
00000019
0000003E
0000006A
00000074
000000C4
000000F8
000000CA
00000052
000000C1
000000C5
000000A0
00000062
0000007C
00000034
0000007B
000000BE
00000001
000000A2
0000002D
000000C6
00000005
00000065
0000003A
0000008B
0000007D
00000058
00000056
0000002E
0000003D
0000001D
0000001C
000000BE
0000004D
0000004C
0000006B
00000066
00000084
00000020
00000013
000000C1
000000C1
000000B0
0000003D
0000007D
0000007F
00000066
00000075
00000092
000000B5
00000016
00000035
0000005D
00000007
00000038
0000005F
00000079
000000FE
000000F5
0000004B
000000DD
0000001C
0000009C
000000A0
000000E6
000000E2
000000E3
000000ED
000000C3
00000077
00000016
000000B0
00000015
00000026
00000023
000000B8
000000CE
00000086
000000B4
00000057
000000EB
000000BC
000000CE
000000FC
0000000B
00000085
00000083
000000AE
000000A1
00000006
0000003C
00000039
000000E3
00000017
00000066
000000E5
00000023
0000004F
00000015
0000002B
00000009
00000045
000000D5
000000E3
000000DA
0000004C
0000002F
00000015
00000009
000000CB
00000040
000000DC
00000069
00000059
000000F4
000000C3
0000000A
00000059
0000005D
000000A7
000000EC
000000AF
00000033
00000024
000000BF
000000BC
000000B7
0000007B
000000A4
00000074
00000014
0000008E
000000D5
000000EF
00000070
0000006B
000000DD
00000009
000000B2
000000D1
000000F0
000000F8
0000000A
00000072
000000D0
0000003D
0000002B
00000089
000000D8
000000A5
0000008D
00000019
000000E4
000000A8
000000A1
00000040
00000026
000000E2
00000055
0000008C
00000024
00000082
00000036
00000080
00000058
0000000B
00000065
00000017
000000D0
0000002F
000000CC
00000042
00000074
000000B8
0000002C
0000004B
00000001
000000B1
0000003B
00000055
0000001E
00000013
000000CA
00000059
00000031
000000F7
00000027
00000077
0000005B
0000007C
000000EF
00000046
0000002A
000000D5
000000BC
0000003C
0000003C
000000C2
0000003C
00000078
00000083
00000073
0000005E
0000004D
00000031
000000BE
00000078
00000078
000000C5
0000005C
000000F3
00000027
00000017
0000000D
000000D9
000000C2
00000037
000000D1
00000024
000000EA
000000A1
00000063
000000EF
00000007
000000B0
0000006A
00000051
00000086
000000D4
00000062
000000D0
000000A0
000000A8
000000E0
000000D2
00000072
000000C7
00000048
00000097
000000F3
000000BF
0000009D
000000EC
0000003C
00000012
00000060
000000CA
00000034
000000B0
000000E5
000000EB
00000053
00000078
000000AA
0000004B
000000D5
0000008E
0000006E
00000051
000000CD
00000053
000000F5
00000036
000000A3
0000008D
000000E3
000000AF
000000A7
0000009A
0000000B
000000B5
00000033
0000004B
00000086
00000066
000000FC
00000002
00000015
0000002F
00000036
00000067
0000009F
00000077
0000006F
00000004
000000A0
000000FC
000000CF
000000B2
000000D6
00000015
00000033
000000BE
0000008C
00000093
000000F9
00000053
000000D6
000000EE
000000F2
000000A4
000000C8
000000B6
00000058
00000066
00000034
00000090
00000084
000000D3
000000DB
00000032
00000046
00000011
0000002B
000000C0
000000BC
000000B5
0000000D
00000034
00000087
00000090
0000002B
00000013
000000B0
000000F9
000000AA
00000069
000000BA
00000030
00000040
00000011
00000061
00000069
00000080
00000037
00000098
000000F9
0000003C
00000033
00000020
00000025
000000EB
0000001A
00000083
000000D2
000000C9
000000FE
000000BD
00000018
000000D4
0000004D
0000004B
00000088
000000D0
000000EF
00000056
00000025
000000B3
000000B8
000000AA
0000001D
00000073
0000008F
000000C0
00000020
00000021
00000011
000000D0
00000070
000000D0
00000071
00000089
0000009C
000000EB
00000075
000000DA
0000000C
000000F3
00000007
0000004D
00000067
000000AC
000000D6
00000035
000000DA
00000017
00000013
000000D1
000000F1
000000FB
00000022
0000008F
0000004B
000000F9
0000009D
000000B0
000000C3
000000D2
00000039
0000003F
00000043
0000006C
00000078
000000E3
00000031
00000094
00000063
0000003E
0000003A
000000E1
00000084
00000019
00000065
0000001B
0000004C
00000051
00000049
000000D4
000000FC
0000000C
0000009F
00000059
0000008A
00000067
00000056
0000002C
000000AF
0000003C
000000F3
0000006F
000000DD
00000072
00000087
000000B0
0000008B
000000F3
0000005B
00000030
000000C7
00000068
000000F8
0000001D
0000005B
000000CA
00000062
000000F8
0000005A
0000000C
000000F2
00000003
00000066
000000EE
00000040
000000E9
000000F6
00000083
00000048
00000049
000000AB
00000055
00000075
0000007E
00000052
0000000C
00000007
000000C6
00000088
0000006A
000000E2
0000008C
0000005D
00000025
0000000A
000000C5
0000006C
00000078
0000000B
0000008B
00000028
000000DD
000000D5
000000E3
00000033
000000FD
00000062
000000D1
0000003F
00000081
00000069
000000EF
0000000D
000000D7
00000046
000000C3
000000ED
000000AB
00000095
0000005D
00000017
00000007
000000F4
0000008F
0000001B
000000DE
00000098
00000056
000000BD
000000E3
000000F8
000000D0
000000C8
000000DD
000000B7
000000FE
000000C0
00000009
000000C3
00000086
000000C8
000000F7
00000098
000000B9
00000055
0000001B
00000028
000000C6
000000A5
000000D4
000000E1
00000085
00000061
000000FC
000000A0
00000038
000000DB
00000043
0000000C
0000004A
0000009B
000000FB
00000070
000000BA
0000003C
0000000A
00000035
0000003A
0000000F
000000B0
000000AC
0000000A
00000028
00000081
00000019
00000099
000000F4
000000DE
000000CE
00000060
00000096
0000006A
00000033
00000098
00000072
000000FB
0000005E
000000E5
0000007D
00000001
00000001
000000FC
00000080
00000018
0000006A
00000008
000000EA
00000006
000000F5
00000059
00000007
00000018
0000009A
000000A5
000000EA
0000005D
00000066
000000A4
00000071
00000010
000000E3
00000033
000000A4
000000F2
000000C2
00000050
000000C6
0000000E
00000065
00000035
000000FE
0000000A
0000004F
0000008F
00000036
000000BF
000000FD
00000044
000000BD
000000C5
00000013
000000E5
00000063
000000E3
00000092
00000063
00000065
000000DB
000000D2
000000EE
00000084
00000026
000000F0
000000BF
00000011
0000002A
0000007D
00000068
000000DD
00000048
000000AF
0000005B
000000B2
00000061
0000009E
0000000C
0000008A
000000B1
0000008F
00000021
0000004E
00000020
00000052
0000009A
0000009B
00000095
000000B5
000000EF
000000C0
0000007A
0000001B
0000000D
00000099
0000008D
00000036
00000081
0000004C
0000005D
0000005F
000000B3
00000074
00000033
00000096
00000020
00000033
000000EC
00000060
00000042
00000097
0000000E
00000007
0000004F
0000007C
0000008F
00000037
000000F6
00000007
00000077
0000004B
00000007
0000009A
0000007B
00000020
00000007
00000058
000000AC
0000005F
00000012
00000090
000000B2
00000001
0000007A
000000EE
0000001C
0000005F
00000086
00000065
00000067
00000003
00000044
0000001E
00000072
00000077
0000007E
0000008F
00000044
000000F9
0000000E
000000D5
0000001F
00000032
000000A0
000000C3
000000AC
000000C4
00000029
0000003D
0000009B
00000088
00000022
000000F9
0000005F
00000082
0000008B
000000DC
00000019
000000C2
000000C9
000000F5
000000A6
0000001D
000000B6
000000B6
00000087
000000A2
000000CB
000000E0
00000066
000000C7
0000000B
000000D0
00000051
000000D7
00000010
00000031
000000F2
000000A9
00000040
0000005E
00000003
00000054
00000078
000000B7
00000031
0000006B
00000022
00000083
000000E4
00000063
000000CA
0000009A
0000001D
000000A2
00000018
0000000E
00000003
000000B0
00000052
000000ED
000000B2
00000015
00000036
00000073
00000073
00000056
0000009A
000000B3
00000091
000000C3
00000011
00000037
0000008F
000000F2
00000060
000000E8
0000000E
0000001A
00000073
000000FE
00000033
00000042
0000009A
000000AD
00000018
0000008F
00000011
000000C2
0000008A
000000AD
0000008B
000000BB
00000042
000000CD
0000005B
000000CD
000000B6
00000088
0000000F
0000005E
00000093
000000A3
00000052
000000E9
00000012
00000018
00000043
00000098
00000009
00000006
000000A0
000000BD
000000A9
00000059
00000083
00000031
00000057
00000024
0000006D
00000030
000000C2
00000028
00000096
000000B9
0000002C
000000FD
0000001C
0000000E
00000026
0000004D
000000C0
00000099
00000069
0000005E
0000008E
000000E3
0000005E
000000D4
0000001E
000000FC
000000C9
0000001F
0000004F
0000002D
000000D5
00000096
000000CB
000000B4
000000E0
000000E3
0000002F
0000008E
00000076
00000036
0000009A
00000077
00000033
000000AA
0000005C
00000028
00000013
00000051
000000CD
000000A4
0000008E
000000CD
000000B6
0000007E
00000079
000000F2
0000001E
00000061
000000F8
000000C0
000000BC
000000E9
000000BA
0000006C
0000005D
00000053
0000003D
00000039
00000095
0000009E
00000027
00000060
000000F2
000000A6
00000029
000000CA
0000004D
00000010
00000074
00000010
00000031
00000029
00000061
000000AC
000000F2
00000038
00000021
00000019
00000061
00000020
0000002F
0000008B
000000E9
000000DA
0000006F
000000FB
0000003C
00000017
000000A9
00000077
00000063
000000B7
000000E1
00000025
0000009C
00000041
00000018
000000F5
00000066
000000C5
000000D7
000000D8
000000DF
00000075
000000EC
00000096
0000006B
000000D0
00000080
000000BC
0000003C
000000E5
00000008
00000096
000000BB
000000A6
00000063
0000002D
0000002A
00000029
00000085
00000017
0000009F
000000BF
00000027
00000003
00000042
000000CE
00000071
000000AB
0000004C
000000A5
00000003
00000070
00000058
000000FE
00000054
000000B7
000000EF
0000000C
00000002
000000D8
000000CA
000000EA
000000B9
000000F0
00000060
00000095
0000004C
000000AC
000000F6
00000099
0000000A
00000097
00000054
000000E4
00000015
0000009C
0000004D
000000E7
000000C9
0000007F
00000057
0000000D
00000036
0000008C
00000074
000000DD
00000051
0000003B
000000C6
0000002B
0000009F
00000006
00000054
00000051
00000068
0000004A
0000000F
000000F5
000000A9
0000009A
000000DF
00000044
0000004E
0000006B
00000038
000000D1
000000A0
000000AD
000000D9
0000002F
0000002A
000000E1
00000050
0000007C
0000008C
00000038
000000FB
00000060
000000EC
000000F6
000000E3
00000028
00000003
00000086
00000093
00000064
00000074
0000008C
0000001E
00000072
00000051
000000BD
0000005E
0000006C
00000029
0000008F
00000033
000000B9
000000E9
00000024
0000005F
000000B5
000000B3
000000B9
00000050
000000B4
000000B9
000000D1
000000BA
0000002D
00000055
00000056
0000004E
00000093
0000009E
00000050
00000069
0000006E
00000045
0000004E
0000007E
00000007
00000066
0000000D
0000009A
0000002C
000000DA
000000B7
00000026
0000004E
000000FA
00000098
00000054
0000006C
00000021
000000AC
000000B3
00000061
000000BE
00000003
00000011
00000090
000000DB
00000093
00000005
000000EA
000000A4
000000B8
000000D3
000000C9
000000F6
000000B3
000000D4
0000008D
0000007A
0000006D
0000009C
00000092
000000C4
00000012
000000B9
0000001C
0000007D
0000001A
00000073
000000F6
00000095
00000015
000000BA
00000031
000000D4
0000006D
00000095
00000040
000000E7
000000EF
000000F5
00000060
000000BD
0000006D
0000009C
0000006B
0000004E
0000002A
00000029
000000E3
000000B0
00000049
000000D9
00000003
00000053
000000CF
00000051
0000005A
0000004E
000000F7
00000022
00000081
000000A4
000000D8
000000C2
0000006B
00000036
0000002F
00000053
00000041
000000E9
000000BD
0000003E
0000005C
00000080
000000B9
000000D3
000000A2
0000007E
0000008C
00000029
0000009E
00000094
00000001
000000CB
00000072
00000057
000000BF
00000044
0000004E
00000044
00000038
00000005
00000023
000000FE
00000039
00000077
000000F3
0000008F
00000080
0000009A
000000CB
00000027
00000050
00000072
000000EF
00000062
0000009E
000000DF
00000033
0000008D
0000004D
0000002C
00000042
00000058
00000068
000000C6
00000057
00000007
0000000C
00000093
00000045
000000F0
0000007E
0000008F
0000009E
0000009F
000000EC
0000001C
000000DD
00000027
0000002E
00000067
0000007D
0000001A
0000001A
0000004D
0000004A
0000003A
00000064
00000006
00000085
000000D6
000000BB
0000001D
0000000B
000000DF
0000001B
00000074
00000032
000000B2
00000085
00000071
000000D4
00000054
00000072
00000085
000000BA
000000B8
000000C6
0000003E
00000082
0000000F
000000D7
0000002D
000000BF
000000C4
0000002D
00000062
00000050
00000076
0000001C
000000F5
0000007E
000000C7
00000052
000000B2
00000018
000000F9
00000054
000000E2
000000E0
000000A5
00000008
000000C7
000000DB
00000026
000000EA
00000013
00000028
0000007F
000000E6
000000BB
000000A6
000000E2
0000001F
00000017
000000BE
00000097
00000002
000000E3
00000008
00000088
0000002F
000000C3
0000002E
000000BA
000000B4
000000C3
00000063
0000001E
000000AC
0000006A
0000001D
00000034
000000E4
000000AF
000000AB
00000098
00000061
000000FE
00000072
0000009F
00000003
00000030
00000020
000000DD
0000000C
00000062
00000081
0000008D
0000008A
000000ED
0000002D
000000BC
0000000A
0000007C
00000040
0000001D
00000077
00000088
0000001A
000000D1
00000082
0000007A
000000BD
000000C6
0000008B
0000006E
0000009B
000000B0
0000006B
000000FC
000000CC
000000D0
00000095
00000071
000000DD
00000004
000000A8
000000F8
00000049
000000E5
0000006B
000000D8
000000EB
0000000F
00000035
000000A1
00000002
0000009E
00000057
00000005
0000001F
0000002F
00000047
00000007
000000F4
00000076
000000D7
0000002A
0000008F
000000AA
00000076
0000000D
0000007E
00000033
000000A9
0000005F
0000004B
000000C6
00000037
00000053
000000E6
00000077
000000C8
000000C4
00000062
000000C4
000000B8
00000062
00000051
00000077
0000002B
0000004F
0000009E
0000004D
0000006B
00000083
00000053
00000003
00000088
00000034
0000009C
00000057
00000097
00000048
00000020
00000037
00000068
00000045
00000088
0000002F
00000016
00000063
00000066
000000C8
0000000A
000000A2
000000A2
000000D4
000000A1
0000007D
0000001F
000000BB
00000046
000000F1
000000C3
00000064
000000F3
00000097
000000E8
0000008C
000000F5
00000008
00000025
00000065
00000029
000000DD
00000031
00000051
000000E0
00000098
000000C5
00000012
00000076
0000008A
00000094
000000F9
000000E4
00000016
00000067
0000003A
0000007F
00000099
000000A5
0000008F
000000AD
0000000D
00000045
00000077
00000028
0000000F
000000D2
000000E8
00000048
00000026
00000029
000000DA
0000002A
000000B0
0000002D
00000080
00000055
000000A0
000000A5
00000000
00000067
000000F2
00000078
0000002D
0000006D
000000AC
00000074
00000038
00000068
00000065
000000F4
00000088
0000006A
0000005A
0000009C
0000002A
0000000E
000000B6
00000055
00000087
000000A1
00000078
0000006B
0000001B
000000CB
00000052
0000009A
0000003C
00000010
000000A4
0000001D
0000003B
00000045
00000039
00000042
000000AF
00000055
0000002E
00000050
00000059
0000004C
00000043
000000DF
000000EB
000000E5
00000079
00000014
00000090
000000F4
00000075
00000016
00000058
0000005B
0000005B
00000003
0000008C
000000ED
00000000
000000E0
00000006
000000C2
00000033
0000002D
00000084
000000CD
00000080
00000030
0000007B
00000006
00000005
000000C3
000000BA
00000085
000000F4
000000EF
000000F3
00000018
00000016
000000DC
000000C2
00000029
00000012
00000052
00000043
00000070
00000095
00000003
00000058
000000D4
000000E1
0000005E
000000D3
00000090
0000003E
000000C7
000000DF
0000006E
000000F6
00000011
000000E6
0000003F
00000011
00000099
00000017
000000E0
000000F7
0000002E
0000000E
00000086
00000078
000000E9
00000096
00000060
00000021
0000005B
000000E4
00000022
000000D3
00000016
00000036
00000090
00000086
00000032
000000A6
00000005
00000008
000000B7
00000001
000000D1
0000001C
000000AB
000000E9
000000AD
0000007F
00000029
000000AE
00000090
000000E3
00000022
00000010
0000004F
00000081
000000F6
00000012
00000091
00000055
0000007B
000000C4
000000E1
00000092
000000C2
000000A6
0000007B
0000006D
000000C1
0000005F
000000D2
00000058
00000032
0000001C
00000072
00000000
000000AF
00000046
00000071
0000006B
0000006D
0000002F
000000A1
000000DF
00000068
00000075
0000009E
000000B4
000000AB
000000CD
00000023
000000F2
000000A3
00000073
0000002D
00000017
000000CC
00000018
0000006A
000000F7
00000003
00000076
000000CF
000000EB
00000012
000000D1
000000E0
00000033
00000050
00000082
00000036
00000012
0000001F
0000002D
000000EC
0000001E
000000FD
000000F8
00000076
00000019
000000AA
000000F2
000000BE
00000081
000000B4
0000000E
0000003D
00000055
000000B3
0000008D
000000B1
00000084
00000024
0000002B
000000ED
000000B7
00000095
000000C0
000000E7
0000006E
0000005F
0000004F
0000003C
00000068
00000039
000000F4
0000007F
000000F5
000000B7
00000081
00000051
00000091
000000DE
0000003B
000000B4
000000C1
000000B6
000000A2
000000EB
00000062
00000005
000000E8
00000055
000000F3
0000007D
000000BD
00000066
000000FA
000000A5
00000072
00000081
00000014
00000057
00000018
000000A3
000000B8
0000007F
00000091
0000007B
00000065
00000066
000000FD
00000053
0000000A
000000DF
000000AD
0000000C
00000017
000000D3
0000003D
0000002E
000000B7
00000028
000000B1
000000CB
00000033
000000DB
0000007A
0000009D
0000005A
000000C6
000000A1
00000073
00000097
00000079
000000B1
000000D6
000000D1
000000E1
0000008D
0000004E
00000058
0000004E
000000CB
00000047
0000002C
00000093
000000A7
00000072
0000002E
00000051
0000009E
00000039
00000037
000000C0
00000090
00000073
00000032
00000063
00000080
00000017
00000018
00000090
00000077
00000046
0000000B
00000078
000000ED
000000A0
00000000
00000056
000000CE
00000048
00000080
00000037
00000070
0000007C
00000078
000000BF
0000001E
0000009A
000000F1
00000013
00000006
00000017
00000087
000000B2
0000004C
000000E0
00000001
000000DB
00000028
00000095
000000F6
0000000D
000000B6
000000E5
0000002A
00000055
000000D4
00000023
00000061
000000E0
00000009
000000F9
0000000E
00000000
0000004C
00000089
00000012
00000092
00000023
000000AF
00000081
000000DD
000000BF
00000018
0000004B
0000006D
000000E8
000000CB
00000051
00000097
00000058
00000020
00000044
000000AF
000000BB
00000095
0000001B
000000DA
0000006B
000000B2
00000006
000000E5
00000072
0000002A
00000083
00000097
000000C2
00000059
00000075
00000022
00000094
0000003A
000000A9
00000052
0000008F
000000EB
000000F9
00000031
000000CD
000000E8
00000006
00000002
00000023
000000FC
000000DF
00000088
00000071
000000B9
000000A7
00000039
0000000C
000000CF
000000B1
000000CB
000000F5
0000002F
0000003A
00000005
0000009F
00000018
000000C7
000000E1
0000008A
0000002A
000000F0
00000043
00000077
0000002A
00000024
000000FB
0000003D
0000005A
00000017
00000091
000000F1
0000004C
0000006B
000000A0
00000087
00000025
0000009A
000000D4
000000B4
000000C4
000000BC
000000BA
000000C7
0000005C
00000019
00000072
00000078
000000F0
000000DC
000000FB
000000CA
0000008C
00000028
00000011
0000003F
000000B6
0000003B
000000CB
00000097
00000095
00000004
00000092
00000024
00000001
00000085
0000007E
000000CE
000000BE
00000025
000000AF
00000034
00000037
00000073
0000000B
0000002D
000000B6
00000066
0000007D
0000007B
000000D4
00000058
00000020
0000009B
00000071
0000003E
000000B4
0000008C
000000EA
000000ED
00000090
00000095
0000004E
000000B5
00000044
0000001B
0000007E
000000B6
0000004D
00000089
0000004C
000000CE
0000002D
000000D0
000000FA
00000082
00000091
00000028
000000AF
00000038
0000005B
000000C0
000000D4
0000003F
000000E4
000000E7
000000DD
000000AB
000000F1
000000BD
000000F4
000000A7
00000000
000000DB
000000C1
0000009B
00000071
000000B9
000000E4
00000093
00000077
0000006D
0000007F
00000052
00000041
00000075
00000098
00000084
000000F9
000000AB
00000055
0000009F
0000008C
00000043
00000028
00000008
0000003C
000000C0
000000C9
000000EE
0000000A
00000001
000000AE
00000005
0000002B
00000093
00000056
00000058
000000D6
000000C4
000000E4
0000004D
000000C0
000000D8
0000008A
00000043
0000002A
000000A4
000000F2
00000062
0000007F
000000DC
000000CE
00000048
000000D1
00000069
000000FB
00000021
0000004B
000000C0
000000E8
0000009C
00000071
00000025
00000096
000000E3
00000018
00000021
00000070
00000048
00000078
000000F5
0000005E
0000006C
00000086
00000063
000000F2
000000BD
000000DF
0000006B
00000028
000000CB
0000004B
000000D9
00000003
000000DC
00000004
000000F5
00000057
000000F4
0000003D
00000055
0000006F
0000007F
00000092
00000000
000000CA
00000076
0000002C
00000032
000000A8
00000080
000000E4
00000002
000000B2
00000050
00000052
00000013
00000007
0000008B
00000017
00000076
0000009B
00000035
00000013
00000024
000000E8
00000093
000000C4
0000008F
0000003C
0000004C
00000051
000000DB
000000C2
000000E0
000000F8
0000005F
00000062
000000AA
000000BA
00000038
00000010
0000000D
000000F1
0000009B
000000B5
000000C2
000000DE
0000004C
00000055
000000D3
000000CE
00000020
00000073
00000056
00000077
00000052
000000DB
00000001
000000A7
000000B6
00000025
000000D6
00000036
00000021
0000006E
000000C5
0000006E
0000001C
000000C4
000000D3
00000037
000000B6
000000DE
0000002F
00000079
0000005E
0000007E
0000002D
00000045
000000D5
000000FA
000000A1
0000001C
0000008C
00000045
000000E6
00000015
000000B5
00000053
00000039
0000006B
0000002A
0000004A
00000030
0000005F
000000CA
00000023
0000007D
000000F8
000000BE
00000017
00000019
000000D8
00000017
000000AF
000000F1
00000063
000000C3
0000005D
0000002A
00000070
000000C3
000000FD
0000003D
00000066
00000066
0000004D
000000C9
000000C1
0000001E
000000F9
000000E8
00000046
00000088
00000015
000000F4
00000057
0000005D
000000B1
0000009E
0000003C
00000054
00000063
00000002
000000D3
00000012
000000F9
000000E4
0000009A
000000BC
00000011
000000D7
000000F7
000000A4
00000086
000000A0
00000061
00000019
00000074
000000EE
0000004F
000000DB
00000085
0000003A
00000069
0000003E
000000C7
0000008D
0000002F
000000BE
000000E2
00000088
00000025
000000A8
000000A7
00000088
00000029
000000A6
000000E0
00000092
000000E3
0000008A
000000A8
00000040
000000E8
00000001
00000078
000000ED
00000086
000000B2
00000022
0000009F
0000004E
00000016
000000D7
000000B4
0000007E
00000036
000000F7
000000D3
00000097
000000C3
0000008F
000000FA
0000009E
000000B0
00000005
00000060
00000011
000000A4
0000000E
00000005
00000023
000000DD
0000004F
00000096
000000C8
00000020
000000FB
00000054
000000C8
00000009
0000001B
00000080
00000051
000000B7
00000024
00000027
00000009
000000D9
00000080
00000067
0000009D
000000D9
00000035
00000033
000000C2
00000076
00000056
000000DC
00000081
0000001E
000000AA
0000001A
000000DB
00000076
00000076
000000D6
00000041
0000006D
0000004B
000000B7
00000000
0000004F
000000BA
0000000C
00000008
000000CF
00000067
00000030
00000051
00000070
00000047
0000009F
000000D5
00000022
00000026
000000EF
000000F0
0000008B
0000003F
00000079
000000BE
0000009E
00000054
000000E3
000000CB
0000007E
00000019
00000027
000000F7
000000CE
00000076
00000072
000000C9
000000DB
00000040
00000003
0000005D
000000E6
0000003D
000000A9
00000084
000000E5
