00000078
000000A2
0000001D
00000083
00000030
0000002B
000000A4
00000096
000000A5
00000041
000000E6
00000028
00000027
0000004D
000000B3
0000009E
0000004D
00000056
000000DC
0000002B
00000006
0000005D
0000006A
0000007B
00000099
0000000D
000000AB
000000BC
000000AE
00000043
0000008D
00000006
0000003A
0000005D
0000009E
00000065
00000059
000000E8
000000E6
000000F6
000000C2
0000000D
0000001D
00000062
0000007D
0000006F
00000015
000000BB
000000CC
00000063
00000033
000000BA
0000002F
00000088
000000D7
0000004B
00000090
0000004E
000000CC
000000D3
0000005E
000000A2
000000F7
00000044
000000F8
000000CF
00000098
000000A5
00000002
000000CE
00000085
000000A0
0000002B
000000D3
00000028
00000000
0000009D
00000083
0000007E
00000063
0000002B
000000F5
0000002C
00000039
000000F1
000000AD
00000077
000000CF
00000033
0000001D
00000052
0000003F
0000008C
00000039
000000F7
00000089
0000004B
000000AE
000000E7
00000022
000000AF
000000C3
0000006B
000000E0
0000005D
00000092
0000009D
0000009A
000000BA
00000065
00000054
0000005D
0000006E
00000042
000000D5
000000C2
00000072
0000005D
00000043
00000099
000000EA
000000CE
0000003B
0000004E
0000004D
0000008F
000000C6
00000024
00000009
0000005E
00000095
000000EB
00000041
000000F4
0000004A
000000A7
000000E8
000000C8
00000033
0000003E
00000021
000000FD
00000005
000000C9
00000006
0000005B
000000F1
00000064
0000005A
0000002D
0000002A
000000DC
00000020
00000049
000000C9
00000055
000000DA
0000003F
000000AF
00000011
000000CC
00000052
000000E1
000000B7
00000069
0000009D
00000063
0000001F
000000C2
00000019
0000007A
00000005
00000037
000000EE
00000038
000000C2
00000063
00000063
000000C3
0000009A
000000CF
0000004D
00000019
00000019
00000012
00000034
0000006E
00000099
000000E5
000000DA
00000098
00000032
000000CE
000000BB
000000AF
00000096
000000DB
00000015
000000C0
00000097
00000033
00000069
00000009
000000ED
00000007
000000D5
00000099
000000CE
0000004F
00000076
0000009A
000000F4
000000D0
0000009F
000000D9
000000A3
000000CF
000000DC
00000043
00000089
000000D0
00000064
0000008C
000000D0
00000025
000000FB
0000001F
0000001B
00000059
0000008B
000000EA
00000038
000000D5
0000002D
00000077
0000008B
000000D1
000000F8
00000055
0000006E
000000B9
000000A3
00000028
0000009B
0000009C
00000058
00000094
0000007C
000000AF
0000006F
000000A5
00000068
00000084
00000044
000000CE
000000AF
00000045
00000031
00000069
000000A3
000000BF
0000008F
00000003
0000008A
0000009F
00000076
000000B3
0000008A
00000016
000000C5
00000062
0000009D
00000064
00000044
000000B5
00000003
00000015
000000F1
00000072
0000004A
000000A6
00000044
000000B8
000000F7
00000096
0000009D
00000050
000000B8
000000DD
0000001D
00000025
00000099
000000F5
00000027
000000E8
000000CC
000000DF
00000052
00000045
00000080
000000CB
00000078
000000AD
0000008B
00000044
000000B2
0000006E
000000D4
00000043
000000C5
000000E5
000000A0
0000007B
00000039
0000006C
0000000E
00000080
00000056
00000070
0000000F
00000003
000000CB
000000CC
00000022
000000E2
00000090
0000009C
00000062
00000008
00000050
000000DB
000000DC
0000002C
000000F6
00000050
00000061
000000B7
000000FA
00000074
000000BD
0000003F
000000AF
00000068
000000DD
000000CE
000000CD
000000D0
00000014
0000006B
00000013
00000092
00000030
000000BF
00000018
000000F8
000000C3
000000BD
000000FD
000000A1
00000058
00000021
000000E0
00000068
000000F8
00000028
00000030
000000A7
0000001D
00000098
000000BA
000000C5
000000DD
00000012
000000E7
00000002
0000000F
00000059
0000007A
0000000D
000000E7
0000001D
000000EF
00000068
000000C0
0000005D
0000002F
000000F1
000000D0
0000002D
000000B2
00000075
0000004C
00000062
00000037
00000070
000000EA
000000D1
00000025
000000BB
0000003B
000000E8
000000AC
000000DC
000000A6
000000F6
0000006F
00000076
00000074
00000053
0000004D
0000003A
0000009B
0000008A
00000033
000000FC
0000007C
0000002D
000000A7
000000BE
00000059
0000008A
000000EF
000000EA
000000B5
00000020
0000003D
000000B1
00000018
0000003D
0000000E
00000081
00000054
0000005A
000000DD
00000017
00000007
00000079
00000090
000000CB
000000C2
000000D7
00000030
0000002C
0000003E
00000003
000000CD
000000CE
0000006C
00000019
000000BF
00000057
00000030
00000040
00000035
00000085
000000AC
000000EE
00000015
000000AF
00000027
000000A1
000000D2
00000078
000000DA
000000FC
0000001F
000000FB
00000087
000000F1
000000B8
000000D0
00000034
000000CB
00000059
00000054
00000026
0000005F
00000017
000000DA
00000009
00000077
000000F4
000000C5
000000EC
00000057
000000E2
0000001A
000000ED
000000CF
0000002D
00000051
000000E7
00000091
000000D9
00000005
00000057
00000096
000000F7
000000A0
00000024
0000005C
00000062
00000019
000000CA
000000B7
000000DD
00000048
000000E4
00000051
000000BC
0000001D
0000001C
000000E7
000000A2
00000007
00000058
000000D7
00000063
00000026
00000001
000000BD
00000028
00000061
00000012
000000B7
000000A7
000000AB
0000007D
0000002B
000000F9
00000066
0000008D
00000096
00000088
00000010
000000F8
00000044
00000030
00000023
0000006A
000000AB
0000000A
000000F8
00000069
00000053
0000000C
0000009C
00000095
00000097
000000DA
00000028
0000001B
00000065
0000008A
0000009A
00000010
00000019
0000008D
00000025
000000DD
00000096
00000061
000000F1
000000DF
0000005C
0000003A
000000CC
00000012
000000FD
00000065
000000A6
0000002E
000000CF
000000AA
000000A3
000000FA
000000AA
000000A0
0000000D
0000000F
0000007B
00000004
000000E1
00000033
00000043
000000AA
000000C3
0000006B
000000A7
00000020
000000C9
000000F2
00000091
00000003
000000B9
00000026
00000026
00000092
000000BB
000000C3
000000B5
000000D0
0000003E
00000065
00000066
00000011
000000A5
000000E1
0000007A
000000D5
0000002D
00000024
00000058
00000014
000000CC
000000C0
0000003C
000000AE
00000018
000000A7
000000B2
00000065
000000C9
000000AF
0000001A
00000064
000000B5
00000084
0000006D
0000007C
000000BC
000000BE
0000005D
000000DD
000000E9
0000005C
0000005B
000000DD
000000B5
00000039
000000DA
0000008D
00000061
0000002B
000000B5
00000068
000000EE
00000028
0000006E
00000026
0000008C
00000059
000000BE
0000004D
00000033
000000D1
000000C6
000000DC
00000026
00000045
000000EA
000000DD
000000C2
000000E3
000000D5
0000004C
000000A0
00000027
000000E5
000000C0
000000D1
000000DB
00000041
000000CD
000000C0
00000010
000000F9
00000016
000000DF
00000043
00000056
000000BD
000000DD
0000002A
00000016
0000009C
0000009A
000000D4
000000A5
00000042
00000065
0000001F
00000085
000000B2
000000E0
00000092
0000006A
000000D9
00000065
00000056
0000009F
000000AB
0000008F
00000020
00000097
000000FB
000000C7
0000001B
0000000F
0000008E
000000AD
000000BD
0000009B
00000079
00000027
00000029
000000A1
000000DD
0000002B
00000080
0000003F
000000B4
00000027
0000004B
000000EE
000000E5
00000028
00000019
00000095
0000006E
00000035
000000EA
00000005
00000002
00000007
000000ED
0000005B
000000C1
00000046
00000069
00000083
00000030
00000026
000000A5
000000A7
00000089
0000006E
00000006
0000007C
00000082
00000063
00000025
000000D0
000000CB
0000004D
00000023
0000002E
00000094
0000005C
000000C1
000000C2
00000000
00000084
000000C5
00000022
000000BD
000000DE
00000061
000000C0
00000028
0000004D
00000092
0000006A
000000CF
00000032
00000075
00000095
00000046
000000DF
00000050
000000E5
0000009A
0000009F
0000008B
00000067
000000CB
00000009
00000061
00000068
000000BD
000000CA
00000049
000000E4
000000C6
0000006C
00000057
0000001C
0000007A
00000078
00000031
00000027
00000023
000000E1
000000DB
000000BC
000000B8
00000051
000000A9
000000BB
00000099
00000035
00000073
0000006E
000000EA
0000003A
000000D8
0000008F
00000082
0000005E
00000022
0000009C
00000054
000000BE
0000004C
000000E0
000000DB
0000008B
0000003F
00000031
000000E6
000000B5
00000045
00000053
000000AA
0000003E
00000016
000000AE
00000050
00000005
000000F2
00000099
000000F8
00000060
0000000D
0000009C
0000008D
0000005E
0000009D
000000FA
0000002B
0000005B
000000E3
0000003C
00000046
00000030
00000010
0000001F
000000D7
000000B6
00000036
000000AE
000000A1
000000D2
00000029
00000001
000000A8
000000A5
000000B3
000000DA
0000000C
000000F1
000000BC
00000091
00000014
000000F0
00000002
0000007A
00000007
00000007
00000055
000000E4
00000098
00000019
0000008F
00000062
0000006D
00000038
000000CF
00000092
000000C7
00000001
00000000
000000C1
00000034
000000C4
000000B0
00000052
000000B4
000000D8
0000007A
00000080
000000F1
0000009C
00000017
00000088
00000079
00000057
00000077
000000EF
000000D9
000000CC
000000CA
000000E0
0000003C
00000097
000000A2
0000001E
00000081
0000009D
000000F0
00000045
00000093
00000005
00000095
000000A5
000000A5
0000003F
00000011
000000CC
000000BD
000000D0
0000003B
000000C0
000000EB
00000050
00000057
00000032
000000C5
000000D2
00000023
000000F0
00000099
000000DD
0000003C
00000081
000000A9
0000008A
000000C0
000000DC
0000001E
00000073
00000049
000000E2
000000E2
000000DF
0000004F
00000079
00000009
00000002
000000E4
000000BA
0000009F
0000004D
0000004C
000000AD
00000036
0000004E
0000003F
0000003F
00000025
0000004C
000000B2
000000BC
0000002E
000000D8
0000004F
000000E0
000000CF
0000005E
00000056
000000B2
00000060
000000E6
00000011
00000027
000000D7
00000038
000000C7
00000074
000000F2
000000DA
000000D9
00000018
000000CB
000000D3
000000CA
000000D4
0000008C
0000001A
00000038
00000086
00000048
0000008D
0000009A
000000B5
0000000E
00000086
000000EA
0000009B
000000DF
00000066
0000007A
000000CF
00000026
000000F3
000000ED
0000007F
0000002C
0000009C
00000072
00000044
00000039
00000033
00000003
0000007A
00000073
000000DF
0000000B
00000064
000000F7
0000007B
000000C6
00000039
0000001D
000000F9
00000008
00000042
000000E5
000000F0
000000AC
00000048
000000DC
000000DC
000000FB
000000BD
000000B8
0000009B
000000F8
000000EA
00000016
0000002B
00000091
0000004A
000000A2
000000CC
000000E6
00000016
000000DF
00000078
0000002B
0000009E
0000009F
000000EC
000000A9
0000004D
0000007C
0000002F
00000016
0000008F
00000020
0000001E
0000000C
0000009B
00000006
000000BA
000000BC
00000078
000000FD
00000030
000000FD
000000B8
000000D4
000000C7
0000001F
00000046
00000019
000000CF
000000BD
00000060
0000006D
0000007B
0000004C
00000079
000000E0
000000EF
000000C0
000000F4
000000B4
00000043
00000017
00000049
000000FE
0000007A
000000C2
00000096
000000F8
00000072
000000B6
00000046
000000D6
0000006E
000000CF
000000E5
000000DF
00000042
00000090
000000D2
000000BF
0000008A
00000094
00000011
00000042
000000DC
0000005D
00000072
00000059
000000F4
0000003C
000000FB
000000EE
00000048
000000E7
00000085
0000006F
000000D1
000000DF
000000F2
000000B5
00000030
00000046
000000D4
000000D3
00000030
0000009B
0000005B
000000A0
00000047
00000093
0000000E
00000071
0000000F
00000031
0000004F
000000E5
00000060
00000011
000000A6
00000054
000000D3
000000B8
0000006A
00000036
00000034
000000B7
00000000
00000050
000000D7
00000042
0000001D
0000003E
000000EE
00000069
00000044
000000F5
00000050
000000DE
0000008A
00000052
00000055
00000072
0000001D
00000028
000000BA
0000005B
000000CF
00000016
000000E0
0000002E
000000EC
0000008E
00000090
000000B6
00000003
00000053
000000C1
000000C8
000000FE
000000E2
0000007A
0000008B
00000098
00000074
00000022
000000CE
000000CF
000000C3
000000B0
0000007F
000000E1
0000008A
000000D9
00000024
0000007D
000000CE
000000E2
00000047
00000025
0000005E
0000007C
000000F3
000000A7
00000060
000000C0
0000009A
00000088
00000009
00000049
000000D3
0000002D
0000007C
00000061
0000007E
0000000A
0000005D
00000027
000000B1
000000FA
00000017
000000E6
000000F6
000000E8
000000EA
0000004D
00000099
0000000A
000000E0
00000090
000000AB
00000071
0000003A
000000C7
000000C5
00000008
0000002D
000000E4
0000009C
00000074
0000008F
00000045
0000009A
0000008D
000000B6
000000B2
00000004
0000006E
00000078
0000005A
0000005F
0000000E
00000022
00000008
0000007E
000000FB
000000BD
0000006F
000000DB
00000084
00000065
000000FC
00000084
000000ED
0000006C
000000F7
00000039
00000022
00000061
00000044
0000002B
00000016
00000089
00000012
00000092
00000083
00000071
00000098
00000062
00000053
0000007D
000000D4
00000001
000000DD
000000CA
0000009A
00000006
00000028
00000043
0000000E
000000DF
00000027
000000BD
000000F0
000000D5
0000003A
000000AD
000000CF
000000CB
0000006E
00000062
000000AB
0000000D
00000003
000000EF
000000FE
00000061
00000006
0000003D
000000DE
00000062
00000030
000000D9
000000C2
000000C9
0000007F
00000036
000000D3
00000087
00000088
00000098
00000063
00000014
0000005C
000000D4
000000C8
00000057
000000B1
0000005C
00000045
000000CA
0000009D
00000002
00000038
00000009
00000016
000000E7
000000DD
0000006B
00000083
0000005F
00000039
0000003F
0000000F
0000001D
000000EB
00000010
000000EF
000000E6
0000001C
000000E6
000000DE
00000001
00000091
00000094
0000000F
000000E2
00000028
0000006D
000000C8
000000F2
0000002B
0000002A
000000D4
0000001A
000000D1
00000039
000000F2
0000000F
00000018
00000045
000000EF
00000097
000000F1
00000001
00000089
0000002A
0000004D
000000F5
0000002D
00000048
000000F5
000000D5
0000007A
000000F7
00000038
00000072
000000AC
00000022
0000000A
0000004E
00000072
00000012
00000035
000000B5
00000045
00000038
00000055
0000000B
000000EB
00000086
0000005C
000000B7
000000C6
000000DE
0000007E
00000065
0000005D
00000082
000000CC
00000055
00000055
00000015
00000041
0000004B
000000E6
0000009D
0000008E
0000004F
00000045
00000001
000000E5
000000A1
000000A3
000000E7
00000019
000000A2
0000000D
000000F6
00000001
000000C5
000000F9
0000003F
000000C9
000000EE
00000000
000000AD
00000043
0000008F
00000028
00000009
0000002E
00000011
000000E3
0000002F
00000031
000000FD
0000008D
000000D6
00000048
0000002D
000000DF
00000060
00000049
00000044
000000C3
000000EA
00000065
000000D6
0000005C
000000FA
0000003A
00000088
0000006D
00000048
00000053
000000D1
000000F9
00000021
0000002C
0000008D
00000085
000000DC
00000064
0000002F
000000EC
00000072
0000008C
000000CB
000000BA
0000002A
000000B4
00000000
00000054
000000C1
0000009F
000000C0
00000084
000000EC
00000020
000000DA
0000009C
000000E9
000000D4
00000037
0000002E
000000A9
00000009
00000010
00000069
00000093
00000041
00000076
000000BC
00000087
00000073
00000063
000000C7
00000043
000000EE
0000004A
00000035
00000092
000000D3
00000058
0000004C
00000074
0000000B
000000DA
000000EE
0000006F
0000005E
000000B6
000000B4
000000E3
000000E3
000000BD
00000005
000000C6
000000CD
000000D0
00000037
0000007B
000000E0
000000FA
000000D9
000000C3
000000BC
000000B3
00000084
00000040
00000026
000000F9
00000034
00000022
0000002C
000000CC
000000A2
00000032
000000D3
0000004A
00000063
000000F7
000000A1
00000059
000000A9
0000007D
0000004F
000000FC
000000FB
0000004F
00000011
000000BF
000000AD
000000C9
00000054
00000047
000000DF
00000042
0000002F
0000002E
00000084
000000CF
000000B4
00000018
00000086
000000DC
00000031
00000054
0000004D
00000025
00000046
00000061
000000E7
000000F4
00000023
0000005C
0000007C
0000002A
00000076
0000009D
000000EE
0000009D
00000084
0000009E
00000015
00000030
0000006F
0000000C
00000009
0000004A
000000E6
00000043
00000018
00000036
000000A7
000000B4
0000002C
000000E7
00000018
0000000B
00000092
00000003
000000EE
000000C3
0000008C
00000043
0000008F
00000023
00000031
000000F4
000000FA
000000EB
000000DD
000000CE
0000003B
0000005E
000000D0
000000F7
000000D6
000000E3
000000D2
00000002
0000000C
00000087
000000A9
000000F7
0000004E
00000043
00000054
0000007C
00000061
00000019
0000004B
00000080
00000020
0000006D
00000050
00000062
000000E7
0000002B
000000CE
00000026
00000025
00000012
00000070
000000BC
000000C8
00000034
000000D9
00000071
000000C4
00000050
000000FC
00000070
0000003C
0000000A
0000006D
00000042
000000EB
0000001D
00000029
0000006D
0000008D
00000089
000000E2
0000001A
00000011
000000FA
00000088
0000006F
00000065
000000B2
00000060
0000000D
000000A3
00000023
000000AE
00000065
000000D7
00000001
00000069
0000002D
00000084
00000032
0000003B
000000AF
00000037
00000096
00000021
000000E2
000000FA
00000030
000000FA
00000048
0000004B
000000A0
00000067
0000006A
000000D2
0000007D
000000CE
0000002D
0000006F
000000F4
00000018
000000C0
00000039
00000007
000000D6
0000007A
00000070
000000BC
000000E9
00000058
00000020
000000C1
000000C8
0000005C
0000009B
00000055
000000CD
00000002
00000028
000000CD
000000F2
000000F3
000000F0
00000023
0000006C
000000A0
000000F4
000000F8
0000006B
0000008E
00000089
000000AD
000000A7
0000006B
0000001F
00000096
00000053
000000E4
00000076
000000A3
0000000A
00000073
0000000E
000000D6
00000077
000000A9
00000022
00000031
000000D7
00000012
00000006
00000043
00000042
000000BA
000000B1
0000001C
000000B0
000000B5
0000006E
000000DE
00000090
000000FA
00000069
00000082
00000085
000000B8
00000062
00000096
000000CB
00000019
0000009B
00000084
0000000C
0000003E
000000F0
00000018
000000C8
000000C9
000000A4
000000F7
00000079
000000C7
0000005B
000000AC
00000013
000000DA
00000010
000000A2
0000008C
000000CC
00000046
00000069
0000000A
000000DC
00000033
0000004D
000000F1
000000AA
00000088
00000029
00000040
00000057
000000C8
00000044
00000039
0000004F
00000021
000000B8
0000000F
00000012
000000EE
0000002E
00000039
000000FC
0000005C
00000086
000000F8
000000E8
00000049
00000056
00000087
000000A0
0000009A
000000C5
0000009C
0000005C
000000CE
00000057
000000D9
00000027
0000005A
00000058
00000044
000000B2
0000000E
00000064
000000B9
00000058
0000003C
00000007
00000025
00000075
0000001E
0000001C
000000BC
00000091
000000EE
00000083
000000A7
000000C0
000000A6
000000ED
000000D7
000000DF
000000B4
00000098
000000CA
000000FE
00000085
00000016
00000046
0000008F
0000000C
000000B3
0000001B
000000FC
00000072
000000AD
00000097
0000009B
000000D0
0000005F
00000051
0000006C
00000017
000000EB
0000005F
000000D6
0000001B
00000022
000000E8
00000090
00000077
0000000E
000000BF
0000008A
00000005
00000011
000000AE
0000005E
000000E7
00000090
0000001A
000000A0
000000F1
000000B5
000000AA
0000009F
000000E7
0000000B
000000DE
000000EB
00000072
0000006A
0000003F
00000080
0000009D
00000058
000000AF
000000F0
0000004A
000000DA
00000079
000000CC
000000C8
0000008F
00000086
00000065
0000007A
00000072
000000D7
00000022
00000068
000000B5
000000ED
000000F7
0000008D
0000006C
00000017
000000BA
0000008A
00000013
00000014
00000030
00000043
00000075
000000D0
00000030
00000071
0000002D
00000016
00000077
000000AF
000000AE
0000004C
00000039
00000025
000000E9
0000004C
0000002F
000000E3
00000091
00000092
0000005C
00000045
00000033
0000006B
0000009A
000000EF
0000005F
00000033
000000B7
0000005A
000000CC
000000D9
00000021
0000008C
000000AF
0000001A
000000C1
000000D4
000000FB
0000008E
0000005C
00000057
00000077
000000AC
000000C9
0000007E
000000A0
0000000A
000000DA
000000F3
000000C8
000000D4
00000021
0000002D
000000B6
00000045
000000D9
00000013
00000022
000000D0
0000001F
00000061
000000C7
000000AD
00000015
0000006F
0000009F
000000F0
00000033
00000029
000000F7
000000EA
000000AF
0000001E
000000D9
0000001F
000000B6
0000000F
00000003
00000083
00000045
000000AD
0000003A
000000D7
0000001D
00000059
00000015
00000027
000000D3
00000001
0000000C
00000068
000000A1
00000052
00000072
00000093
0000005D
000000BB
0000002E
00000013
0000006E
000000F3
00000083
00000088
0000001F
00000060
00000044
00000011
000000E8
000000C2
0000000C
00000013
00000002
0000000E
000000C3
00000043
000000B5
000000FC
0000003E
0000005E
000000B6
000000D0
000000EA
00000070
00000085
00000073
000000C0
00000042
000000D7
0000009D
000000E8
00000035
00000050
000000BF
000000EC
000000BD
000000B2
000000F0
000000D6
000000E3
00000040
0000006F
000000A9
000000A5
00000042
0000007A
00000017
000000E2
0000002F
0000000A
000000DD
00000092
000000B3
0000005C
0000009B
000000E1
000000E2
000000CF
0000001D
00000050
000000B8
0000007D
0000003A
0000008A
00000046
00000021
0000008F
000000CA
000000CF
00000065
000000AA
000000DA
0000009B
0000003C
00000015
000000B2
0000002F
00000002
000000A5
00000067
000000AE
000000F8
000000B2
000000DC
000000B6
00000037
0000000B
000000D1
000000A5
0000005B
00000028
000000B1
000000F5
0000001D
00000013
00000003
00000070
000000F4
0000002C
00000048
00000095
000000A7
00000058
000000BD
00000059
000000C9
000000C5
00000096
00000007
00000003
000000AA
00000039
00000031
0000007E
0000008F
00000075
000000DA
00000044
00000091
000000B4
0000003F
00000062
00000042
0000008D
00000075
000000C6
00000064
00000020
0000004E
000000BB
00000027
00000043
000000F5
000000C0
00000043
000000D3
0000001A
00000053
00000018
000000FB
00000049
000000BB
0000004F
0000003A
000000FC
00000095
000000AD
0000000C
00000063
000000CE
00000078
00000034
0000009D
0000006E
000000DF
000000BD
000000A1
00000014
000000C3
0000008E
00000034
00000001
0000004E
00000034
00000052
00000038
0000008A
000000AA
000000B7
00000060
0000006B
00000097
00000057
00000046
000000EC
00000068
000000DD
00000015
000000F4
000000F1
00000039
00000084
000000EA
000000A1
000000F6
0000009F
0000000F
000000F1
00000072
000000E3
000000C3
000000DE
00000062
00000036
00000075
00000006
0000004A
000000DE
00000030
00000054
000000FD
00000042
000000C5
00000089
00000031
000000F5
0000006F
0000004F
00000004
0000007D
00000032
000000E7
00000037
000000CF
000000DE
0000000E
0000001C
000000CE
0000003B
00000062
00000070
000000AA
0000004A
0000000F
000000CC
000000DF
00000007
00000028
0000003F
0000003A
000000E5
00000083
0000002E
00000071
00000027
000000D5
000000A2
000000A4
000000E2
000000FA
0000009A
000000AE
000000CB
000000DF
0000000C
00000074
000000B1
0000001C
0000004C
0000003C
00000079
00000000
00000002
000000D9
00000024
0000009A
0000007F
000000AF
000000CF
00000074
000000E7
000000FA
000000A7
000000F9
000000A9
000000D1
000000EC
00000003
00000087
000000B4
000000DE
00000093
00000046
000000B4
0000002B
000000AD
00000077
000000C2
00000025
00000039
00000022
00000006
00000047
00000044
00000077
0000000E
00000031
000000DE
000000E2
000000C0
000000B8
000000DA
0000003D
00000013
00000009
0000008A
000000FB
00000041
000000C6
00000069
000000F3
00000003
00000039
000000CC
0000003A
00000043
00000070
000000C4
00000085
000000E1
00000007
000000DD
0000006E
00000060
0000007E
000000DF
00000015
000000E2
000000AE
00000036
00000065
000000FA
0000009B
00000051
000000C1
00000022
00000082
000000FE
0000005F
00000057
000000C8
00000014
00000056
00000051
00000075
000000F4
000000A7
000000AB
000000BF
00000087
000000B6
0000008A
00000031
000000B8
00000011
00000092
000000A5
000000DB
000000DA
0000008F
00000040
00000081
0000007D
0000008C
0000008D
000000AD
0000007D
00000030
00000073
00000036
0000008C
00000048
00000011
000000A2
0000008D
00000060
0000008A
0000003B
00000075
00000019
00000097
00000019
00000049
00000001
0000003B
0000009A
000000BF
000000DB
00000026
00000002
00000064
0000007F
000000CB
000000FB
00000080
00000000
00000042
000000F7
000000F0
000000EA
00000078
000000D7
000000CA
00000010
000000D0
0000000D
000000FE
000000A9
00000034
000000CC
000000CC
000000CB
0000002E
00000039
000000A4
000000C8
000000A1
000000A5
0000009E
00000028
0000005C
00000030
00000006
000000A6
00000031
00000023
0000005D
00000037
00000089
000000B0
000000D5
00000042
000000A4
0000008F
000000EA
000000FA
00000075
000000DF
000000C7
0000007B
000000FB
000000A9
0000001B
000000B7
000000B8
000000B7
0000004A
000000B3
000000F5
00000005
00000074
00000046
000000B5
00000054
000000B3
000000BB
00000073
000000D6
00000077
00000018
00000011
00000008
00000052
00000037
00000068
00000010
00000061
0000004B
0000007C
00000059
00000073
00000063
000000B1
00000008
00000089
000000EF
000000DE
000000F8
0000005E
000000D8
00000081
000000F9
00000084
0000004D
000000B3
00000039
000000CD
000000E1
00000074
000000E3
0000005B
000000DB
000000C8
0000003F
00000007
0000008F
00000016
0000008C
000000E4
0000006E
0000002D
000000E5
000000C3
0000008C
0000007C
000000E0
00000052
00000085
00000056
000000EE
00000078
00000008
0000005F
00000038
0000000F
000000E8
000000F4
000000B8
0000007D
00000003
0000008B
00000099
000000E9
000000C6
0000007B
00000099
00000083
000000D8
0000007B
00000039
00000005
000000AB
000000E7
00000099
000000C6
0000002E
000000AD
00000010
000000BB
000000C3
00000092
00000032
0000003B
00000067
0000005D
000000BF
0000003E
00000061
000000C9
0000004F
000000A0
000000AE
000000F6
0000006D
00000011
000000C6
0000004D
0000008B
000000FC
00000003
000000DC
00000060
0000001A
00000027
000000C9
0000007E
000000AF
000000AF
00000060
0000002D
0000004E
000000EB
0000009D
000000D0
00000006
00000025
000000CA
0000000D
000000C2
0000007E
00000083
0000005F
000000AD
00000004
00000090
000000CB
00000006
000000A4
00000007
00000022
000000D8
000000D4
000000CF
00000053
0000002E
00000008
000000F5
000000D7
00000044
00000012
00000014
00000079
00000041
00000055
00000031
0000002E
000000C2
000000E1
00000070
000000E9
00000030
0000006E
00000099
000000FC
00000057
000000AF
000000C0
00000089
0000003F
00000067
000000C0
0000003E
00000021
0000003E
00000087
0000007F
0000009D
00000096
00000088
0000004C
000000AE
00000005
00000097
000000D5
000000EB
000000C6
00000025
0000001B
000000E3
0000009B
0000004D
000000D6
00000091
0000003F
00000076
00000023
00000039
00000055
00000098
00000030
00000000
000000D5
00000039
00000015
000000D6
000000BD
000000AC
00000075
000000C2
0000003F
00000092
000000BB
000000F8
0000000B
0000005B
00000003
00000075
000000E6
00000010
0000009D
000000E0
000000C7
000000D5
000000C9
0000000A
000000D0
000000B8
000000AB
00000085
000000CA
00000076
000000C2
00000077
00000001
00000022
000000B5
000000FD
00000043
000000F6
00000011
00000058
0000009D
0000006E
00000075
00000000
0000000E
0000000E
0000008E
0000007E
00000037
0000006B
00000084
00000065
0000004B
00000081
000000E1
000000B7
0000001E
00000057
0000003B
00000060
00000027
0000008C
0000008E
000000C9
00000087
000000CF
0000005F
00000025
0000003E
0000008A
00000089
000000A7
00000004
0000009C
00000027
0000002B
00000011
00000082
000000C0
000000EC
0000008A
00000059
00000048
00000008
000000EC
00000028
00000061
0000002C
00000013
0000006B
000000CE
00000029
00000033
000000BF
000000C5
00000032
0000005A
00000027
00000042
0000009F
000000CE
00000026
000000CA
0000003F
00000025
00000056
00000078
00000007
00000003
00000086
0000002E
0000009B
0000001D
00000090
00000017
00000098
00000008
0000003B
00000061
000000EB
0000006F
0000003F
00000063
00000067
000000D8
00000038
00000006
00000035
00000093
0000009A
00000078
0000007C
00000079
0000007B
00000027
000000E1
000000E2
000000AB
0000004F
000000D6
0000006A
000000F7
000000E5
000000E2
00000064
00000023
00000033
000000F0
0000006A
00000029
00000083
0000002A
0000003C
0000005A
00000045
0000003B
000000C0
000000B1
00000080
0000001A
000000F1
000000DE
000000F2
000000BF
00000018
000000E4
0000002E
00000062
000000C0
00000035
00000055
00000087
0000002B
000000F4
000000D3
000000F3
000000F4
00000048
00000053
000000E4
00000054
000000A0
000000BA
0000005B
000000BB
000000C7
00000020
00000063
000000EE
00000093
00000012
0000001D
00000009
0000007F
00000075
00000057
00000061
00000003
000000AD
000000C0
00000088
000000BE
00000099
00000006
000000CD
000000FA
00000071
00000091
000000D3
0000000C
00000065
000000A4
00000099
00000094
0000002C
00000074
00000035
00000017
00000087
000000B1
000000B6
0000000A
0000005B
00000010
00000098
000000F5
00000082
0000003B
00000081
00000081
00000087
000000A9
000000C0
00000063
00000007
00000029
000000C8
00000043
0000008D
0000004B
00000018
000000C9
0000005D
00000065
000000B3
000000D2
00000066
00000027
00000036
0000009C
00000097
00000010
00000033
0000007E
00000064
000000B5
0000002A
00000088
0000006E
00000035
000000AD
0000002B
0000009A
000000FC
000000DB
00000080
00000018
00000051
00000027
000000E8
0000003D
00000054
000000F1
000000A0
00000068
00000010
00000039
0000002F
00000053
000000F8
0000005B
000000D9
000000F2
00000019
0000000F
000000CF
000000B1
00000047
000000C8
000000A8
000000BA
0000000E
000000A8
00000060
00000048
00000031
00000086
0000009E
000000FC
000000C9
000000CB
000000A0
000000F8
00000063
00000085
00000089
000000F8
00000004
000000DC
0000000E
0000006F
0000003E
000000A1
00000024
000000C1
0000007F
000000AD
00000031
00000051
00000090
000000DD
000000DE
000000FC
000000A1
000000A0
000000EE
0000001D
0000008F
000000FC
00000034
0000008C
000000EC
00000050
000000ED
0000007A
000000E2
000000DD
0000009C
00000032
00000059
0000004C
00000039
0000001D
000000CF
000000A5
000000DD
0000004E
0000008B
00000062
00000001
000000F2
00000071
000000F4
00000061
000000C8
0000002C
00000006
00000051
000000BD
00000049
000000F9
0000006F
00000093
000000E6
0000009E
0000009C
00000048
00000074
000000D0
000000BA
00000018
00000042
0000005B
000000F2
000000CD
000000AB
00000004
0000002A
00000014
000000B5
00000040
00000086
0000006F
00000027
0000001A
00000084
0000005A
000000DA
00000095
0000002B
000000AC
00000004
0000007E
00000096
0000002B
00000011
00000022
000000E5
000000AA
000000F6
000000DB
000000FD
0000001D
000000A1
000000F8
00000072
00000091
000000BE
000000C8
00000051
0000008C
00000052
000000BC
00000028
000000E0
000000BC
0000001C
00000068
00000084
00000020
000000DC
0000005E
000000A6
0000002E
000000A5
000000B0
00000072
00000093
00000072
000000DA
00000027
000000AB
000000F4
00000089
00000028
000000E8
00000094
000000C7
000000B7
000000BB
00000088
00000060
0000009C
00000007
00000053
000000BE
00000088
0000006E
000000C4
000000A2
000000AC
0000001D
00000098
00000098
000000FB
00000062
000000C2
000000DC
00000077
000000CB
000000C2
00000098
00000068
0000006A
000000B3
00000004
0000004B
0000000A
00000058
0000003B
000000D7
00000093
0000004E
00000051
000000C5
000000BB
000000B2
000000DF
0000001B
000000BD
00000075
00000041
00000048
00000017
00000090
0000004E
0000000E
0000004F
000000B2
00000013
000000EF
000000C8
000000E3
0000000A
00000003
000000E4
000000FE
00000028
000000D2
000000AF
00000078
00000015
0000001C
00000018
00000035
00000048
0000006A
000000B8
000000E8
0000001C
00000042
000000A7
0000003A
0000002B
000000B5
000000B7
00000099
000000E0
000000E5
00000020
0000002A
00000097
0000006F
00000045
00000014
000000B6
0000004D
00000056
00000073
00000066
00000068
000000BC
00000036
000000B4
00000064
000000E8
000000A9
00000046
00000006
00000019
000000F8
00000089
000000EB
000000C8
00000045
00000020
000000CD
00000059
0000000A
000000BE
0000009D
0000005B
000000E2
0000002E
0000001E
00000009
000000F1
0000003B
0000004C
00000014
000000C9
000000BB
000000FB
00000082
00000082
000000B3
0000007A
000000BE
000000B6
0000005A
000000F4
000000C6
0000008B
00000049
00000014
00000011
00000087
00000002
00000002
0000006D
0000005A
00000079
00000015
000000A1
00000098
00000055
00000037
00000025
0000002D
00000001
00000023
000000E9
0000001E
000000C8
00000035
000000EF
0000004A
000000A9
00000008
000000CF
00000051
00000033
000000E2
0000005C
000000B9
000000E2
000000F4
0000004B
0000006D
000000B3
00000021
00000087
000000E6
00000034
00000034
0000009C
0000007D
000000BC
0000009E
00000099
000000CF
00000092
0000006A
0000007C
00000009
00000047
0000004F
00000099
000000EC
000000D3
0000003A
00000038
000000AD
0000006C
000000E8
000000A1
00000033
000000D3
00000034
00000016
000000D8
00000098
0000006C
000000A5
000000DD
00000061
00000030
00000062
0000001C
00000076
000000E9
00000083
0000003F
00000053
00000067
00000020
000000FC
00000018
00000076
000000A6
000000C2
00000038
00000041
0000000B
00000012
000000C1
00000032
000000F3
00000064
000000DB
000000AC
000000C0
000000C8
00000050
000000EC
00000093
00000081
00000089
0000001D
00000021
00000046
00000074
000000C3
00000086
000000C9
0000007E
0000002A
0000006F
000000F1
00000024
00000049
0000006A
0000009F
00000000
00000088
000000D6
0000006B
000000E6
00000023
000000BE
000000FC
00000086
000000F1
000000AC
0000008E
00000005
0000005A
0000006F
000000B7
000000E2
000000D4
00000053
0000006B
000000B4
00000040
000000EA
0000000F
000000C9
0000009D
00000066
00000099
00000090
0000007E
0000005E
0000004A
00000062
00000002
00000035
00000064
000000D5
000000B9
00000028
00000007
0000004A
000000D5
00000001
00000013
00000024
0000007B
00000051
000000C4
0000002D
00000045
00000072
0000006D
000000C7
000000FA
0000009E
00000035
000000C0
0000003D
000000AA
00000088
0000008D
000000AE
000000F1
0000000E
000000EA
000000B8
00000053
000000DC
00000002
000000FA
000000A4
000000C3
000000AC
000000A6
00000017
000000C6
00000030
000000F3
000000F9
00000023
000000EC
00000012
0000008E
000000A9
00000081
000000EC
000000E1
00000040
000000FA
0000006C
00000071
00000003
0000002B
000000CC
0000005D
000000DF
0000005E
000000E1
00000073
00000061
0000009E
00000045
000000EA
000000B8
00000003
00000067
000000AA
00000041
0000002B
00000089
000000D2
00000078
0000003E
000000B5
00000014
000000FC
000000C3
000000F6
000000B0
000000F2
00000058
00000085
000000FD
00000031
000000F6
000000DE
00000067
00000073
0000008A
00000025
00000057
00000096
000000F8
00000081
00000096
00000033
00000041
00000050
000000DB
000000B9
000000CE
00000029
000000E8
00000082
00000087
000000A9
00000034
00000065
0000001F
000000FA
000000C6
00000059
0000004D
00000033
0000002D
000000C3
00000021
00000073
00000025
00000096
00000091
000000F2
000000F3
0000005D
00000072
0000006C
000000CE
000000C1
0000006F
00000082
00000039
0000000D
000000ED
00000018
000000C1
00000017
000000A6
00000073
00000005
00000010
000000A3
00000051
00000029
000000C0
000000E7
0000003C
000000AD
00000020
00000040
0000006B
0000007C
00000018
000000B8
0000000A
00000053
00000095
00000084
000000C6
00000069
00000095
000000E5
0000007A
00000026
000000BF
0000001A
00000046
000000C4
000000C4
000000D3
00000095
0000009D
0000002F
0000005F
000000F6
0000009A
0000005A
00000041
000000E0
00000081
000000B0
000000F7
00000094
000000FE
0000001E
000000B0
000000EE
00000012
000000B4
0000001B
0000007A
00000084
000000D2
000000A6
00000077
000000F4
00000063
0000002D
00000092
00000018
0000006C
00000085
000000FE
00000062
000000FE
00000000
000000BE
000000FE
000000EB
000000F7
000000C3
00000074
0000001A
000000BD
00000076
00000017
00000070
00000083
0000009C
000000EB
000000CD
000000A9
00000061
000000B5
00000045
000000A5
000000C4
000000C3
0000006C
0000005E
00000075
00000001
000000EA
000000A9
00000019
000000BD
0000007B
00000037
00000075
00000055
000000D5
00000083
000000B9
00000028
000000CA
000000F5
00000054
00000099
000000AC
000000FE
0000007D
000000A0
00000082
0000006C
00000044
0000001D
00000012
000000C2
000000C0
00000060
00000031
00000083
00000047
00000000
00000014
000000E9
00000062
000000B6
0000003C
00000075
000000C4
000000EF
000000F9
00000065
000000E5
00000016
000000E6
000000A8
00000010
000000E8
0000003C
00000094
00000012
00000068
000000A3
0000000A
0000006B
000000FA
000000E4
00000093
00000093
00000089
000000A3
000000B8
000000C1
0000006C
00000022
0000005B
000000E2
00000074
00000072
000000EC
000000AE
00000045
00000055
0000007F
00000092
000000CD
00000042
0000003E
00000000
0000009A
00000056
00000046
00000081
0000006C
00000020
0000005B
000000B0
000000D6
00000043
0000003F
000000FD
00000041
00000052
00000042
000000BF
00000088
000000CF
00000088
0000008F
000000CA
000000DA
000000CA
0000004F
00000013
00000087
000000AA
0000005B
000000BE
00000022
000000B3
0000008F
000000FC
00000084
000000B9
000000C5
00000013
000000AB
00000032
0000003A
00000081
00000050
00000036
000000C8
00000005
00000022
00000032
00000072
000000DB
000000AD
000000E2
000000B1
00000032
00000089
000000B0
0000000E
000000C6
00000056
0000009F
00000076
00000080
00000071
0000008D
000000BE
000000E9
0000001D
00000092
00000043
0000005F
0000002D
0000003B
0000007A
00000044
0000006D
000000E6
000000C8
00000019
000000BC
000000D6
000000E9
000000A6
000000EF
000000F5
0000000C
00000022
0000005C
000000FC
000000D6
0000004E
00000019
0000004A
000000A7
000000C9
00000059
00000011
00000002
00000026
00000054
000000A0
00000052
00000039
000000BC
000000DD
000000B9
00000032
000000BB
00000087
00000034
0000003E
00000036
000000D6
00000029
00000079
000000F2
00000034
000000B8
0000003B
00000012
000000E3
000000F7
000000B9
00000043
000000DE
000000CF
000000D1
000000C1
00000045
000000E4
000000D8
0000006E
0000002E
0000004D
000000BE
000000D8
0000001F
00000001
00000016
0000005E
0000009C
000000F5
000000E8
0000000D
00000020
000000E6
000000FC
000000CB
0000004E
0000002A
000000AB
000000AE
000000F1
000000DA
00000065
00000041
00000009
000000FE
00000070
000000F3
0000008F
0000007F
00000041
00000014
000000F0
000000EC
00000037
000000A5
000000E7
0000004C
0000000B
0000009E
000000C0
000000D7
00000073
000000E3
00000093
0000009B
000000B8
0000009F
000000A6
0000007D
0000004A
0000009C
00000046
000000C7
000000E9
0000002D
0000001D
0000005C
0000005E
0000003B
0000002C
000000C9
000000CF
0000000B
0000006F
0000001E
00000038
00000083
00000069
0000001F
00000024
000000CA
000000BB
00000074
000000A6
0000006A
000000E4
00000018
00000081
00000072
00000032
000000BA
000000B2
00000046
0000005A
0000006E
000000CC
00000033
00000053
0000000C
00000030
00000059
000000EB
000000A4
00000084
0000008F
00000004
000000E1
00000005
0000001A
0000001F
000000B6
0000000A
000000DF
00000036
000000B1
00000086
00000012
00000036
000000A2
00000033
00000009
00000026
0000007E
000000BD
0000002E
000000F7
00000068
000000A2
0000004E
000000F0
00000076
00000042
00000096
0000007D
00000009
00000007
000000A7
0000004D
0000007F
0000007D
000000C9
000000EE
00000022
000000BE
00000047
0000007D
00000006
00000073
00000093
000000A9
000000A2
0000007C
00000062
0000007B
000000D1
00000032
0000003F
00000097
00000003
00000081
000000A0
000000F6
00000028
000000B5
000000D0
0000000C
00000093
00000072
0000004B
000000D8
0000002D
00000081
0000007F
000000ED
0000007A
00000064
00000080
00000096
000000B8
000000AC
000000D3
00000034
0000009B
00000063
0000006F
000000A2
000000FC
00000019
00000030
000000D5
00000029
00000085
000000C1
00000044
0000006C
00000075
000000E7
000000D7
000000DC
00000086
000000C1
000000D6
00000031
000000F2
00000093
0000002D
000000EB
000000C2
00000047
000000F8
00000088
000000A1
000000C4
00000014
000000EF
0000009F
000000B8
00000023
000000BA
000000BF
00000057
0000001E
0000008D
00000094
00000094
0000007F
