E1
B7
DF
5E
2F
40
31
E4
6B
67
6B
62
AA
BC
73
77
20
77
2D
C9
EE
01
EE
A5
3C
B7
34
E5
88
EA
94
17
3D
2A
F3
DB
88
C4
F9
8D
67
89
C3
24
03
D1
D8
5A
3F
C0
5F
0E
91
C8
8F
E6
11
6F
66
38
CF
53
9E
2B
6A
6B
DD
19
DE
8F
2C
38
9E
3B
AA
7A
E3
90
81
B1
43
9B
1A
F7
85
DA
8D
4D
B4
FC
5C
82
72
E9
60
57
8F
02
03
E0
DA
AA
B0
2D
37
05
88
2A
F2
FF
57
C4
53
91
C6
4D
73
40
D2
22
4D
E6
7C
8B
18
B4
C2
E2
D5
78
CF
F8
24
1C
6F
B4
5B
6F
C5
FD
D9
29
40
DA
98
29
CB
D8
02
00
44
AD
06
B3
30
1A
6A
BD
AD
16
63
54
A7
28
63
ED
4F
15
32
02
C9
BB
40
13
25
3D
3A
EB
91
60
DB
24
CD
35
05
ED
DF
F9
10
0B
07
39
62
1E
F5
39
3F
26
3A
97
E3
45
FD
2C
CE
C7
EF
33
60
5F
81
AD
A5
B3
54
04
72
1B
F0
EE
B1
A6
BA
94
F9
5F
20
F4
62
CE
17
83
97
C1
C7
17
2C
4C
84
05
32
0E
01
86
09
B6
C0
60
76
C6
CD
C2
F5
97
AC
6F
51
9D
90
1E
71
ED
CE
21
75
FC
90
46
02
AA
CE
FB
D9
7F
7A
B5
AF
34
FB
92
39
75
DD
3D
86
E5
C7
12
