D1
C9
F6
61
BA
8E
67
10
ED
7C
4F
85
44
91
02
D5
56
99
6B
52
F9
A5
AC
A4
05
B9
05
1B
5B
C5
F7
43
26
D6
A9
B9
61
8E
8A
3E
9A
D2
38
0A
F5
C2
A1
62
73
EE
68
6D
74
C6
8A
44
7B
53
41
48
32
25
28
B8
AE
8D
A0
83
F3
0C
73
5A
BB
0A
B8
0A
73
CB
F7
09
87
A0
8D
4E
DF
5A
51
66
AA
04
77
C5
5A
D2
B5
5A
EF
54
A5
66
79
EF
6B
8D
D8
8E
97
2E
C7
95
4D
F0
19
17
A3
9D
41
48
4A
34
18
35
71
39
DB
B2
E6
50
73
94
7E
0A
FA
21
B8
FF
7A
C5
9D
1D
F8
07
EA
3F
B1
BA
71
01
A3
78
BD
D3
4F
4C
F5
4D
BE
AF
02
C3
C2
B6
F4
18
7E
89
A2
D7
28
17
91
7F
0E
08
18
1F
D7
F3
C1
23
0C
D2
F1
6E
D7
B3
CC
A9
0A
B0
53
DA
62
20
CF
38
0E
0F
73
3E
6B
EC
3D
FE
12
82
1D
B8
14
2A
59
AB
84
3E
30
2B
36
D0
BE
F4
C7
9C
1F
BE
DD
3C
D7
11
B0
9B
71
5B
CA
AC
67
40
0B
5C
42
31
EF
C5
02
40
14
A4
C0
32
F6
0D
92
D6
FD
5D
AF
96
BB
71
D4
4C
6E
15
E6
57
CD
BF
D8
ED
01
7E
CF
B2
F1
2D
84
8A
C2
EC
EA
AC
9E
D1
12
F9
B5
DA
4B
8B
