3D
53
C4
4B
57
BC
9D
B8
5F
F6
3E
33
1B
7D
B8
D2
58
BA
69
CC
80
3C
2D
DD
6F
45
D3
EC
83
88
CE
EC
F2
31
2D
00
61
26
CE
E2
B2
8C
CE
85
1D
8E
43
F9
82
59
2E
90
FD
6B
AB
3F
BC
0E
6B
46
0D
1F
64
13
BB
14
C7
64
9B
3E
33
AD
62
4A
28
B9
B9
0E
BE
93
94
83
97
A7
BF
0D
12
25
B9
03
C1
A6
C6
6B
1E
12
40
05
79
C1
2E
8C
35
E0
18
38
34
17
19
87
90
68
35
3D
8C
5B
ED
A9
CA
58
11
2B
BE
54
D6
F3
62
B0
28
0B
2B
5D
41
98
3C
45
7B
5D
DB
E6
62
80
21
40
0E
91
F5
F2
B0
C8
3B
A0
6A
8E
48
97
64
3F
99
B4
1C
2F
C5
82
FD
EB
B1
A2
34
C1
03
70
BF
82
D9
E3
C6
86
BA
B5
2F
F1
CD
C4
6D
35
48
B9
98
D8
2C
E7
C3
78
30
76
8A
0C
FA
C0
EA
6C
95
FB
56
14
20
19
06
24
C3
EC
93
AC
E8
8E
C1
27
A7
00
9B
45
81
11
C6
EE
52
81
0F
83
81
67
46
67
7A
D0
4F
BE
5E
A9
76
74
F8
DF
03
81
F4
C4
0E
6C
4B
B5
95
0E
02
FA
CC
99
14
ED
B4
D9
AD
5E
EF
B9
98
37
D3
08
FB
5C
BD
7D
42
D5
A8
F9
59
2F
FE
0D
1E
1F
AD
BC
16
69
