0F
85
D1
54
43
FE
67
CE
65
2F
54
CA
62
9D
15
A4
BC
18
4B
4A
37
9F
0E
41
D6
7E
83
E9
05
B9
B1
01
18
AD
90
6D
F4
F5
63
37
0C
8B
48
D5
90
2F
0E
AA
E0
0D
46
CF
47
9A
9D
12
E6
BF
69
3F
EE
39
81
9F
13
40
52
BF
3D
66
2F
72
80
C3
E9
19
4E
4F
A0
22
EB
8F
D8
CF
22
74
CF
39
37
80
0F
94
1C
2A
3F
B4
E7
84
3E
D0
84
1B
73
87
A7
1E
5E
20
05
C3
73
16
C4
E7
29
D4
30
F5
4E
BD
AF
08
9D
6F
F7
54
92
49
7E
C2
7D
2B
32
DA
D6
7C
6B
E6
D0
72
1E
54
30
8D
53
5D
60
65
D9
E4
BF
A6
38
A1
3C
59
E7
7E
23
65
BF
41
36
55
B0
6C
00
5B
B3
61
66
95
FF
CA
7F
90
80
38
A6
0B
85
0A
CD
FD
B9
91
14
D9
54
72
9A
10
92
4B
92
D7
65
99
9A
2C
66
D9
49
13
12
ED
07
26
33
C2
22
4C
9C
30
1E
C9
19
21
4C
77
A6
F6
9E
52
DF
26
B9
3A
B8
28
4C
F5
6E
94
A0
74
BE
85
71
57
54
41
FD
B3
86
1C
5A
12
42
99
0C
BB
45
D3
D7
34
8E
1B
D2
06
13
E3
BD
C0
B2
DB
94
3E
6A
59
64
2B
CB
FE
5E
C5
AB
97
2A
E0
1B
41
7E
2E
9A
D1
EE
BD
