F2
A5
C8
5A
A4
F2
FB
B7
E9
53
88
3E
11
E8
E4
1A
EA
55
EE
40
E4
5E
30
A6
73
B5
62
AF
B5
0F
30
EA
55
7D
3E
FD
AF
FA
68
DC
34
40
4E
3F
10
E1
10
52
0B
92
56
AE
AD
CA
94
88
A6
8C
8C
28
6D
80
14
9D
26
49
19
B0
C9
13
E4
16
81
6B
9C
EA
52
54
0C
5A
FF
97
A7
A0
2B
5A
C9
34
BE
F4
40
3F
8A
00
0B
53
2F
B0
61
5A
3B
65
F6
CD
96
7C
79
27
1E
6A
61
98
8E
0B
E9
FD
A4
37
59
10
83
97
88
DC
56
B6
9F
75
36
5B
1F
E5
4E
17
26
69
3C
1A
EE
DE
BB
4A
96
76
7F
97
25
AF
61
88
CC
86
BC
1A
6B
E7
17
CB
57
69
04
F2
5B
38
47
51
FC
52
3B
ED
01
F7
72
1E
33
5A
9C
E2
62
9D
AA
76
A8
FC
33
28
F2
49
16
67
BB
98
61
1C
1B
3B
71
3D
01
F1
5B
9E
BC
5A
8B
0B
C1
AE
AB
95
A8
AF
C7
29
77
DC
AE
67
23
E8
9B
B0
54
6A
14
81
69
D6
13
00
BC
AC
64
D5
27
EF
4E
3B
C7
D9
75
57
FF
CD
FF
C8
C0
8D
F6
7F
08
AD
ED
D1
A9
48
E7
CA
4C
F1
74
C5
B5
EC
1D
39
49
9F
02
D6
CD
43
C2
D1
70
DF
9B
7C
0C
77
D3
19
A9
80
56
F0
43
98
