FF
97
E8
58
CE
4C
9D
FA
E7
43
38
EE
FC
71
A5
02
F2
3A
89
D3
42
42
CC
40
9F
80
55
1E
D9
94
14
2D
01
5A
46
4B
CE
BF
F4
E8
3F
D3
BD
BA
82
20
D6
B2
15
3B
4F
2E
2B
98
98
70
51
A2
43
4F
51
0B
0B
2C
56
61
16
28
52
E3
77
94
9D
92
F7
AA
DF
8B
15
7A
2F
93
4B
26
7C
F4
93
52
2C
88
2A
D7
04
13
94
B7
48
D5
E0
56
23
60
2D
E7
48
A8
6D
24
DA
59
69
42
8A
6D
06
24
FF
FD
C6
CF
7A
57
91
1E
BA
52
B6
B6
1D
DE
2D
3D
09
DF
1F
C7
8A
3C
A7
91
3C
32
DB
F2
6C
EF
06
8E
7A
5C
38
CD
81
3A
01
8C
3A
70
79
12
1E
A3
83
45
CB
08
53
1D
A9
76
2E
5A
CD
C0
71
72
1E
41
D5
CE
B6
B8
F1
35
8B
57
01
89
4E
16
E5
B1
93
4D
6D
D6
33
82
D3
D2
EE
7F
89
E5
55
A8
35
AA
E8
8C
FB
4A
7B
BA
FA
F0
DE
D6
19
7D
BC
EC
03
7C
C4
03
70
58
07
F6
A7
CC
A1
7F
40
9C
9C
95
2F
83
11
F8
FE
6C
90
0A
5A
E5
C2
E0
D1
D0
4D
99
DA
5B
F8
EE
16
33
10
0B
D5
F5
0A
9D
DC
E6
69
2D
66
E3
E3
AC
68
9B
BF
4F
19
FB
81
9D
B2
EA
C9
C6
72
37
