45
64
57
7F
33
FD
9B
C1
7E
2B
27
1F
A0
4C
6B
93
C0
BD
EA
E9
86
54
A7
68
2D
31
D9
B4
DA
B7
E6
F3
2C
D5
8F
2F
14
8A
68
FB
E7
A8
8C
5A
B1
D8
8E
DC
CD
DE
B3
0A
B2
1E
5E
04
10
5F
CB
69
1C
D0
00
77
27
48
01
74
76
D2
44
4C
4E
69
64
7B
4E
00
19
2D
02
C6
68
A4
B4
A7
17
DB
85
16
64
69
BD
0A
F7
A7
60
46
14
15
02
DE
15
FA
DB
F7
18
4B
1E
CE
F5
CE
87
FC
73
7F
33
F8
BB
33
B5
DD
0C
7B
66
6D
B1
CB
FC
56
30
DC
5F
B5
C5
4E
B8
D9
0E
92
CA
49
08
07
85
08
3A
63
D8
17
30
55
C8
3C
2B
69
BF
02
17
2B
26
01
BD
8F
35
5F
3A
90
0A
97
B0
18
F9
79
3B
20
24
73
27
18
4B
0E
60
89
E5
BB
29
F9
6F
D0
11
0F
04
CE
23
F7
2E
E5
5E
08
FC
BA
65
A4
54
67
77
60
8B
C3
A0
65
33
E5
31
17
34
E3
6F
F4
1F
DF
88
BE
BE
45
CB
DC
F0
4E
17
FE
B3
C9
94
00
83
1A
A2
11
E3
83
0F
14
39
A2
8D
46
DE
3B
63
21
76
38
62
81
7D
EE
1B
06
23
A2
4F
B9
5A
4C
A7
F2
2D
9A
A5
79
53
38
DB
EB
04
4F
5B
5F
0B
4C
6E
4A
1D
E2
89
A0
