20
73
BA
51
B8
B0
31
A1
E3
1A
71
A6
C9
C8
86
47
86
F7
0C
C2
2D
FB
50
42
0C
7C
B2
B3
32
DE
4E
D5
2F
01
DB
8F
1B
2B
D2
87
DA
42
D3
EF
9D
3F
46
A2
AC
DF
3E
6F
64
9B
A2
B4
7B
DB
8E
2F
8C
67
F7
12
CF
1E
8E
55
27
EA
E7
50
63
F3
DB
89
BD
13
2B
CB
A7
8B
65
78
C8
F4
0C
1F
41
78
F3
51
34
41
EA
B1
87
32
9C
4B
E5
D5
B8
27
06
95
4F
1D
31
2E
7E
EA
FF
61
4C
84
61
EC
D5
AB
E4
B9
A9
C1
34
56
6F
DB
DF
A5
CE
18
5C
D5
8D
32
4C
90
F8
52
FF
76
86
29
3A
CB
BA
3C
38
6C
47
7F
EE
08
77
26
94
8C
CD
B8
60
DF
EA
65
95
D0
AD
99
BC
4D
9E
D1
31
D5
8D
AE
E2
2F
76
47
54
5D
A8
C4
E7
CC
26
29
5A
CD
4E
6F
91
49
B8
D9
96
AF
61
85
DF
32
09
42
CF
32
D9
A1
7E
F7
49
4F
BD
A5
41
A1
55
6C
7E
71
90
00
38
29
FB
49
02
1D
69
5B
F1
1E
3B
A8
00
4B
DF
74
B3
2B
97
8A
FB
F9
7C
2E
5A
3F
C2
52
47
A7
3D
0D
D4
0D
24
48
8E
D8
16
BB
A5
8B
5A
18
4D
97
6B
85
63
74
B4
50
54
EF
98
DE
3B
C6
B5
E5
49
72
6A
DB
6A
44
