40
1F
3B
2C
37
6F
F0
61
E2
D2
D8
B5
05
4E
F3
F6
C3
CD
93
05
0E
C2
6B
93
62
0F
E9
29
B3
27
C6
6B
A4
6F
DB
9D
F9
EB
36
66
4F
16
6D
D4
0A
11
32
A1
90
00
28
B5
B5
B2
F5
EB
75
80
99
18
E9
77
FE
4A
74
B9
CF
4D
3E
20
8E
74
E3
25
E1
95
6C
00
2D
56
7E
11
66
A7
D1
7F
26
90
E4
1F
FC
2D
EF
97
06
F7
1A
C3
C2
44
EC
57
21
12
06
C6
DD
00
11
63
0D
9D
F5
C6
F7
E5
4B
72
25
09
16
B5
BB
6F
AD
CF
07
FA
FC
56
5A
8B
EC
D8
16
C8
20
C3
09
1C
E2
82
F9
FE
5D
E9
80
77
0C
D3
1B
DE
72
09
7D
E7
0C
66
29
DC
84
39
3F
29
27
EB
96
1E
99
E2
0C
F1
C7
A4
1A
02
1E
40
AC
63
FB
EA
2F
98
62
E5
EB
9B
F2
A6
93
24
18
36
1A
26
84
D8
C9
9D
D9
EC
8F
87
A9
13
98
30
A0
94
20
B3
FF
FE
8A
BE
4C
0F
AC
95
48
D5
6E
5A
22
13
93
8B
EA
E6
D6
CC
48
A8
39
E7
6E
15
9A
11
4B
AC
87
6F
02
58
53
D8
9A
50
69
DD
F7
3C
E1
06
09
99
51
5F
43
5E
E6
33
4F
E0
B3
18
00
F3
48
2B
88
52
87
9D
EB
41
B3
6F
B3
70
CA
79
E6
23
15
B1
35
90
FD
AA
76
88
20
5B
54
5A
A4
22
45
F5
CB
09
BD
4C
C8
47
A2
FF
D2
0A
FF
37
76
73
FC
D1
31
E2
0E
C0
3E
75
6B
AC
AD
CB
C1
DF
B5
0E
27
62
4B
30
54
63
F3
74
0E
DA
D7
31
E6
6D
16
D3
23
90
5E
22
FC
F0
BD
C7
0A
12
B4
0B
FC
37
8E
E3
8D
84
EF
2A
B3
5F
B0
2D
19
1C
EA
6C
D0
D9
51
9F
42
A6
C4
F8
67
EA
22
A8
3B
02
5E
A4
6F
2A
D6
A9
5E
A1
E0
7D
44
08
A6
79
AA
0B
35
44
25
44
D0
E1
40
5C
8A
EC
B7
74
14
20
E6
C3
D3
1D
80
80
35
68
84
02
46
B4
6D
26
7E
60
AA
F1
DD
40
4D
76
3B
A0
07
FA
D9
86
54
57
3B
38
F3
9E
3A
FE
99
00
55
29
E6
EF
48
54
98
80
E0
EA
FF
14
0D
E9
B1
37
39
E5
7E
C8
D8
4F
A6
5B
40
F7
4A
DB
BB
D0
21
74
DB
F3
6C
AF
0E
E7
2C
DF
72
20
92
BD
EB
C5
B7
4F
72
B7
8D
0E
B0
CE
16
47
CB
66
D3
C2
80
1A
80
A2
72
CF
FE
8C
C1
F5
91
0B
DF
09
4B
33
9F
5E
C8
85
8F
1E
1C
13
88
8B
0A
E5
83
8B
77
9A
AE
64
1D
52
C0
C4
84
CC
89
04
2E
CC
CD
AD
12
C0
52
3C
4D
A2
38
22
13
20
89
0F
EB
FB
11
70
1C
AD
70
37
62
4E
6D
DA
E6
B8
8D
9E
6D
EA
E5
15
D0
AA
2C
E5
AC
6F
14
CC
5A
7D
DA
E1
22
52
1C
1D
AB
41
EC
19
B6
5D
22
19
0C
98
F6
4A
B5
2C
CE
48
6B
3A
54
E3
4F
B1
CC
23
DA
72
A5
8A
15
B2
4D
98
0D
9F
4A
95
81
46
87
8A
DF
B4
EB
91
6F
5B
30
4E
CD
B8
F3
BE
9C
33
07
2F
79
47
0F
90
2E
E2
4C
EB
28
0F
B3
30
2C
D2
43
34
45
53
95
F9
01
3F
B5
30
DC
6C
30
FC
FD
BC
6E
F9
20
43
42
7D
D4
AC
C0
1E
E6
D8
4F
74
1D
C9
FF
20
27
BF
1C
0C
D4
A0
03
F5
82
9D
34
27
D9
13
A9
88
B8
AF
66
D8
6E
D6
52
37
2E
44
45
E8
BD
F3
62
54
6E
3E
A7
52
50
46
C2
A5
A6
95
26
C6
97
01
5F
E5
27
D3
A2
2A
66
29
A9
40
E7
99
BE
14
74
17
15
DA
00
19
5E
52
DD
F9
9B
49
30
9A
2F
62
A1
4E
38
16
57
F7
1F
FA
23
6D
6E
40
FB
20
E1
81
AB
FF
BF
BA
C7
98
6A
94
E4
80
35
E8
07
F5
77
82
5E
C2
DE
25
2E
63
05
D0
0D
6A
48
40
51
21
D7
B6
C8
71
09
FA
AA
02
F3
A0
CB
A4
3A
8A
15
EE
25
AE
36
24
F6
19
96
5E
7B
34
8C
E7
E0
47
D1
E4
C7
3B
35
36
9A
A4
90
A1
20
FF
FC
2D
4F
37
41
CC
62
6F
91
3E
2B
FB
76
32
A9
AF
08
AE
DD
5D
63
B0
DA
99
58
16
1C
BF
63
BB
1A
38
DD
E3
1E
F8
73
D9
55
4B
D7
D6
22
D2
B5
25
B8
C8
E9
85
E8
8A
EF
CF
37
57
9B
D8
34
54
0A
99
09
D3
D8
8D
4F
D4
93
5B
27
CC
70
B5
86
A6
3D
80
D0
08
97
35
A9
D7
5D
87
08
FD
65
46
8C
6A
6D
83
14
58
54
F5
8A
D4
8A
9B
FF
7A
C5
A3
FD
80
F5
8B
18
F6
7B
86
C7
4B
95
21
72
14
1D
26
CC
09
74
C0
63
50
B9
E1
76
FF
3E
E1
06
DC
3C
68
2F
67
C5
8D
B9
1A
FB
3F
EB
EF
80
E4
9F
23
2D
41
9C
39
07
9A
1F
43
6E
1A
BB
5D
98
75
63
7A
3E
CB
C6
63
95
D0
DB
FC
80
2A
BC
C9
04
1A
B7
B2
FC
5F
A2
03
0E
57
70
B7
DD
68
02
F6
80
9E
3F
DC
34
95
67
7C
4D
9A
A4
25
73
0D
E3
E4
0A
09
E1
49
F2
48
89
6E
71
40
7D
36
6D
92
F3
D3
DF
A5
C2
8B
84
8E
BC
BB
D6
34
3F
1C
3A
B1
07
45
7B
FB
46
71
77
C3
F7
83
18
9D
6F
47
86
62
35
FB
9B
D2
13
0E
98
7E
6D
27
16
E6
D2
69
3F
DE
D1
F6
3D
36
0E
B1
F3
99
95
49
EB
B6
6D
73
90
9E
71
76
9E
6D
5B
ED
D6
2D
22
C8
F6
F7
86
95
E8
5B
E8
FE
3A
03
60
92
CE
92
0A
C8
D3
D2
A0
40
F3
0F
4E
4D
CE
BE
C1
B1
A8
63
82
A7
5E
B1
82
27
9F
F2
F6
65
58
A9
64
9B
70
76
FE
08
B6
3B
30
38
18
7D
75
87
15
0D
6E
E1
75
E7
35
CB
37
5A
EF
A7
CB
69
A0
33
81
72
44
54
42
0D
1B
12
7E
37
44
E3
65
B0
8D
2C
5A
A1
8A
05
A4
82
E4
3D
67
3B
F4
9D
D3
89
90
71
9C
A4
25
45
AA
1F
06
ED
11
0F
04
C8
43
6F
3F
45
85
C3
3C
A5
9F
FC
37
03
D8
9C
BA
92
21
1A
6E
27
91
88
32
F7
11
73
6A
A1
59
0B
99
6F
1B
83
33
D8
7D
BB
AC
4A
CD
1D
D5
27
70
C5
68
0E
1C
E4
E1
5B
48
66
90
F1
E0
D2
ED
37
3C
72
2B
60
53
B5
10
F0
2C
D1
03
7B
96
AC
67
B0
19
FD
27
97
2C
AE
92
17
A8
86
6A
BB
7D
04
37
B6
A4
8E
E1
24
55
CB
7E
92
79
4D
69
C1
62
73
94
A7
BA
8D
1F
B7
B9
42
29
62
9B
2F
E6
DE
52
D1
F1
26
78
A5
E4
42
87
8D
27
C8
4C
76
05
A3
99
38
05
13
3B
BD
77
F5
2B
66
4D
45
09
AA
2C
E1
C5
01
C3
8F
A0
00
5C
42
53
C5
B0
99
8D
95
00
A9
A3
C4
61
FC
83
D5
58
D9
EB
E3
A6
C6
D8
40
65
4C
40
5B
54
FA
03
E7
70
AD
20
39
C4
0E
24
F2
81
5B
E9
DF
51
6B
7C
1D
E9
EC
5F
81
DD
F0
F1
36
B9
A8
2A
A8
4D
6E
8B
A1
48
09
55
B2
09
2D
FA
D5
B1
42
D1
50
7D
66
0D
DD
53
B5
F0
07
9A
C8
3C
D7
4F
7B
EB
B0
55
F4
1F
78
0D
E1
5C
F8
27
00
F5
86
B8
E5
C4
E1
8C
F8
1E
5C
BD
BD
06
3F
84
58
A1
6A
50
50
EB
3B
15
93
A7
B2
E7
BA
9C
D3
C7
8F
FE
4C
BD
CC
2B
58
27
26
98
E3
50
8A
0A
EF
44
A7
09
36
E3
AC
91
11
35
53
0C
98
FD
1E
7D
0B
91
E0
FE
71
E8
80
6C
7E
F5
FA
61
BA
33
A6
62
E0
82
BD
5A
84
31
19
47
F9
5C
3C
34
72
78
94
67
67
2C
FE
DB
3B
62
88
F1
1B
9F
7B
62
29
8F
99
78
DA
E5
A3
7E
9C
62
1E
75
BD
32
57
08
88
7F
A5
C2
B1
41
EE
7F
F3
53
6C
20
F7
CC
B1
83
78
8C
E9
B3
A5
15
60
5B
C6
9D
44
81
23
61
AB
70
21
3B
D7
F6
AF
77
B9
D0
E0
E3
B5
63
D9
25
A5
AD
EE
51
20
7A
08
BB
FC
DB
4A
0A
11
D4
F4
8E
40
55
87
D4
B5
6B
2A
77
68
B8
4C
38
EA
21
8B
51
5E
C6
D4
07
C5
37
CC
7F
80
E5
6F
D2
0F
D6
F7
63
1F
9D
00
71
C4
8A
E9
E8
03
1E
7D
7D
93
C1
D3
F9
E4
B7
72
D5
61
51
B9
08
F3
60
7F
1D
C6
EF
F6
88
4F
32
D5
3A
8E
B9
B6
73
90
E9
BC
D8
39
AD
7A
C5
40
69
10
E4
7B
30
97
FF
5D
36
C0
12
BD
88
B7
A5
D8
FA
4E
58
9A
61
57
C0
19
03
51
71
63
4C
48
5C
79
C3
F6
5C
9B
3C
2E
0B
C6
4E
7B
DA
7C
07
04
61
C3
DF
B2
F3
70
EB
95
76
A5
53
84
71
99
06
04
67
97
AC
6C
64
4A
DD
46
D5
37
90
F7
9C
8B
D6
A3
64
17
C8
4B
32
99
BD
38
3D
3D
C1
9D
00
63
43
78
8D
A3
0E
B9
24
0E
7B
A6
04
B7
E4
7E
81
73
5B
5C
57
DC
9C
5F
3E
9C
41
08
BF
E8
35
E3
45
4A
6B
6A
77
A4
D0
26
C5
72
7E
17
41
4F
32
56
B1
BB
00
F9
E2
1B
45
37
3F
01
DE
CD
A1
AE
97
9F
69
D5
E6
A3
CD
A2
DA
FB
6F
FB
4E
61
34
06
62
C8
53
EB
2C
40
AC
DB
AA
1B
5C
51
FB
4E
8E
97
CF
1A
93
8D
1D
EB
36
A6
14
80
49
33
53
4C
84
E4
5C
1C
90
8B
46
FB
5E
24
B3
52
BD
13
02
54
2C
AC
C6
99
EC
F8
76
09
5A
B6
66
FC
7C
A1
F5
A0
DA
F1
08
9A
8F
24
B8
F0
9F
FE
48
26
8B
CF
5A
A7
23
F4
62
67
9C
A0
5A
C7
E2
DD
B8
B9
2F
CD
9D
24
DD
36
4F
8A
79
3D
E9
E8
18
72
51
DD
EE
0D
6B
0F
1C
77
8C
CB
CA
0D
32
EB
76
20
F2
FD
8B
40
B1
A1
36
BA
17
33
75
5F
41
AA
71
87
B6
C0
0D
56
9D
54
BF
3E
2D
0C
9F
C5
64
3E
BD
89
FC
11
B8
81
9B
DF
8C
85
4A
DE
AC
11
28
00
51
46
5F
17
11
31
58
3D
B3
50
2B
73
42
52
5A
88
60
1F
BE
3D
DD
18
C1
A6
88
A0
CE
D3
45
DB
06
B0
60
B5
35
2A
21
27
04
93
A1
B6
70
48
DB
3C
7A
91
06
EA
20
C8
23
8E
8D
BE
D2
12
8D
5A
69
45
43
83
47
DF
1E
40
66
BF
09
1E
30
76
E2
D3
94
09
2E
20
58
F3
0B
FC
B1
6A
65
EE
11
E3
6D
BB
40
D8
47
41
AE
C9
03
A3
08
81
CF
A6
09
9A
6B
5B
93
43
DD
FF
FE
41
65
1F
B0
34
B3
FF
ED
1C
58
3D
F1
1B
7B
B2
3C
7D
CD
99
2E
F5
BF
F3
D3
29
F2
2A
00
71
EE
F4
9F
DC
18
7A
47
75
DE
BA
10
C4
35
29
A5
97
45
9D
9A
02
62
6B
00
A4
3F
CC
37
2C
5E
86
04
1C
CB
C8
E3
CD
0A
55
9F
B3
4E
E4
1F
E3
EC
C7
83
D2
0E
CC
70
60
AC
61
A7
15
B8
FB
DD
AA
99
B8
C7
CB
DB
43
74
1B
25
F8
DF
79
6B
48
C5
82
64
5F
B4
56
3F
05
65
9F
92
C2
4B
D0
93
46
6C
AB
8A
07
70
06
86
2C
F7
CE
4F
AA
30
4C
9D
AD
A8
A7
87
39
5F
AB
3E
11
21
C8
FB
D8
13
5E
36
76
8D
38
19
BD
27
56
34
4D
17
EF
72
B4
BA
B6
4C
DA
70
5D
3C
9D
AD
57
75
B8
4D
E3
D1
E9
28
46
0B
53
E7
57
2E
21
16
41
4D
6C
7A
85
75
5E
A4
3E
E0
98
C6
A9
6B
D2
C6
E4
4A
C1
91
F6
FB
3E
B2
10
78
A4
23
13
B1
7A
62
51
39
52
C8
98
40
F0
17
6D
C1
AF
52
95
FC
21
D1
DA
27
F6
94
0B
61
1F
D8
45
E7
33
E8
71
8A
11
36
0E
61
C7
AA
31
BB
B2
3A
C9
57
E7
BB
28
D8
D2
F6
BF
73
1D
FF
29
EB
D3
C2
6C
BF
C6
DF
7B
A2
2E
B8
FF
2B
92
C7
56
CE
EC
36
DC
0B
08
A9
6A
E5
2D
5F
1D
96
FF
79
59
81
A4
99
0D
68
26
AF
38
DF
18
10
AC
00
7D
C9
12
61
E5
32
2E
43
D9
C6
64
0C
79
31
7B
F8
64
AB
A2
0B
D8
85
B0
4A
1B
01
B0
2A
19
67
9D
49
4E
55
6A
5C
E6
57
45
68
23
B7
1D
36
00
97
62
01
14
3C
0C
71
B8
AD
DE
CD
6C
7D
EC
6C
77
E5
5B
6C
CE
16
68
A7
37
CC
AB
E3
AE
27
9D
49
08
B7
59
19
D6
D5
9F
9B
8C
3A
1E
59
E3
CA
F3
8B
7B
B1
6D
D3
C5
B1
13
2A
20
BA
E8
1A
42
BC
ED
2F
DA
B9
E8
A8
73
1E
64
71
9C
53
F9
56
46
91
CD
71
6D
F4
5B
E4
FB
D1
73
CE
E9
49
82
77
A7
1E
14
CE
BE
C6
97
16
B4
BE
62
DC
2F
21
F6
2C
5E
79
83
04
95
D5
AE
09
37
1C
91
79
D9
A0
03
61
A4
F6
1A
10
FB
06
EF
CB
5E
5E
A1
C2
8F
CC
9D
43
F3
2B
1C
2E
3A
7D
ED
A9
43
3A
74
14
39
E8
F3
40
03
EC
08
DB
DB
A0
77
2F
3C
A5
2A
0D
02
7B
76
03
CD
4E
A0
D5
A6
13
A0
2B
E5
D4
24
88
51
48
D8
7B
8A
A7
E5
19
A4
BC
B7
AA
15
3C
04
A3
D1
56
0A
D5
B3
8B
18
E3
1F
C0
4F
F9
E6
92
AA
BB
69
E9
3C
7C
02
D0
B9
B1
9F
84
38
A5
B0
CA
37
6E
44
86
E0
1F
6E
8A
8B
3F
EE
AC
83
7A
0D
1B
0D
97
C9
F3
A6
AA
32
0E
8D
8B
14
1E
81
86
D6
F8
CC
54
A2
33
80
4A
C7
F2
01
D1
5B
FE
C3
16
24
18
55
03
B9
8D
9F
6D
E4
0A
68
8F
4B
B2
1B
B7
4F
6E
CA
3F
35
84
73
BF
83
6C
82
81
AD
DF
98
35
F1
30
8B
E6
80
DF
AE
2D
DE
6C
52
A5
8B
69
8C
9E
E3
D3
39
16
43
A2
40
E5
6D
9F
17
37
2E
76
89
3F
3E
0C
B6
2A
67
12
5B
52
E9
DB
53
B5
1E
6A
5E
A5
5A
D0
22
C1
15
B5
6F
23
4C
34
C7
DB
24
EC
1E
9C
D1
53
DE
B6
B6
4E
2E
44
CD
FF
74
A7
4A
DE
18
33
7B
0C
8C
27
F3
E4
89
E3
E7
D2
9B
55
D8
68
DF
B5
72
AE
0B
72
B5
BA
B0
6C
52
81
BC
63
58
ED
43
AF
0F
30
7F
32
24
57
15
8C
07
22
99
8D
92
13
55
F0
EB
C5
46
46
AB
7F
68
30
40
09
34
D1
90
BE
66
83
DE
E3
03
C9
F2
37
9B
86
74
CB
CB
6C
9A
14
07
B6
03
3F
96
1A
E2
C4
DE
F9
5E
3E
E2
DA
39
7A
09
16
B0
CE
21
D4
A3
AC
A3
38
F6
76
39
D8
37
94
7D
70
81
C5
04
D6
A0
B2
9B
30
75
C9
D0
64
9C
48
B5
D0
4D
98
E0
3C
80
DD
B6
0C
55
CB
EA
BA
B2
BB
40
84
2E
FE
97
62
2E
71
26
3B
4D
51
06
58
02
51
F0
19
7D
EA
49
E7
D1
F3
5B
69
58
71
E6
FB
53
B0
D7
5C
D2
93
57
A6
D4
28
07
84
AE
7F
8A
9F
B1
BD
45
59
07
6C
62
BE
DE
15
1B
B7
C9
11
35
81
62
9C
CA
5E
35
2B
4C
8B
D9
00
C7
71
60
FB
66
1F
F2
B3
39
F8
B4
C5
35
A9
EE
6C
7D
5F
6E
52
E0
36
27
A6
A2
F4
1E
6F
7F
F7
87
20
ED
6C
2A
6C
A2
C2
0C
5B
56
5E
4C
9E
CA
91
4B
20
09
C7
0F
DD
ED
01
EA
F7
E6
85
56
06
F7
D3
24
B0
01
DC
D6
7B
44
6F
49
DE
23
F4
97
9E
27
5C
3B
58
47
58
76
59
67
C9
F2
B6
1E
78
A6
9A
BC
08
F9
DA
8C
29
2A
CF
56
0E
EF
64
28
20
5C
6E
56
F4
07
3C
C0
7A
6A
6F
53
78
88
0C
D3
37
D4
D0
D7
7D
4E
C4
15
BA
EF
11
DF
86
47
14
EE
4B
65
B5
5F
3F
F7
F5
FB
96
B2
C7
BB
F5
F4
21
8B
29
A8
52
4F
19
6B
96
24
F9
EC
E8
E8
C1
99
17
FC
DE
78
1C
48
27
52
AB
80
12
17
08
A6
28
7E
1C
D1
B6
EC
C8
2C
C6
97
79
41
4D
EB
FD
78
A6
2D
95
DA
3F
5E
4B
1B
93
62
85
D8
58
61
DB
1D
F9
6E
26
2A
46
66
D9
77
6B
1B
95
F5
1E
B2
F7
97
1D
4A
B5
11
D8
DF
E9
E0
6A
6D
AC
8A
CE
58
E7
27
50
0B
66
20
41
DF
2E
37
EF
3F
11
C7
D5
0B
7F
4D
0E
39
9F
28
10
C2
9E
9D
96
BC
48
1E
DE
C3
D5
CC
15
9E
05
3A
10
20
6F
74
3C
4B
15
40
D8
BC
3D
A3
61
43
7C
A7
4E
D1
14
5C
FE
97
80
1D
EF
6C
4C
14
30
6F
2A
01
19
EE
43
36
39
87
CB
E6
90
8D
D8
A0
FE
AE
74
17
FC
D2
F0
24
8A
45
7C
0E
68
19
F5
08
89
C6
FE
FB
C5
14
52
86
CE
3B
59
44
65
48
F9
4D
CE
C2
AE
FF
81
8E
DD
FE
22
10
65
79
B3
93
78
AF
09
EB
A9
B2
7C
58
45
6B
E3
AE
E7
DF
C0
B3
47
B0
B7
C9
53
E7
45
CD
81
F0
AE
3E
63
E6
37
A2
7C
12
96
25
52
AE
A7
84
C4
EE
60
29
9E
41
07
98
6B
D4
A2
09
8A
57
B0
56
84
05
16
18
9D
DE
5C
0D
A9
37
19
BE
21
75
AC
5E
76
16
2D
F4
A5
F1
A4
BD
0C
BE
78
CB
7C
D8
2A
F3
8F
42
42
E6
3C
E8
8A
9E
A8
28
7B
FC
3F
91
F5
AF
04
EB
33
57
25
77
FD
EA
D3
78
1F
57
50
F1
1B
6A
4A
B1
1B
F0
67
8D
29
1B
21
ED
A2
28
D4
8A
E8
3E
15
75
58
9A
46
5C
7C
E9
67
09
81
F5
2F
2B
EB
84
5C
59
87
7D
47
54
A1
4D
BB
8C
78
89
07
E6
EF
D5
52
BD
85
04
2F
27
87
81
72
79
85
ED
41
0D
02
09
6E
42
6F
D7
04
C5
5B
FC
1F
0F
E4
69
01
2F
71
3A
63
CA
A3
DE
09
60
88
79
99
D0
12
86
AD
1F
C8
C1
27
75
BC
44
C5
68
BD
F0
F5
7D
CD
0E
EA
EC
D6
36
EF
A4
98
70
FB
8F
E6
9A
86
17
12
0A
9C
E9
A6
74
30
F9
54
0D
B2
C6
30
F0
E4
DF
1D
C1
E9
A6
85
91
9E
54
4E
02
2E
3D
09
AC
E1
56
6C
BF
35
F4
02
E9
30
D6
21
7A
F4
66
1D
C6
94
3C
BB
CA
26
E4
E8
13
1A
E1
AB
DC
CA
F1
59
77
51
93
08
EE
A1
C7
45
E9
D0
15
0A
D2
B3
D0
EA
38
AE
9C
8F
71
CA
2E
66
84
08
53
99
46
F6
34
3E
C2
7F
D8
CE
DE
07
EA
D8
3C
B8
BD
F6
5F
16
8D
01
0F
DA
08
81
FE
FD
0C
67
AB
13
B3
FF
87
DA
8D
20
57
13
2C
A6
D9
90
E6
21
AA
8F
D6
CF
67
46
24
C8
12
BF
86
79
B8
E6
07
53
51
E1
08
C4
E8
9F
84
67
FC
B4
98
78
25
64
42
8A
FB
FD
69
7C
33
6B
1D
A9
0B
06
21
5F
E9
AE
A6
93
3E
1A
5A
D2
B1
6D
A1
7B
7A
0A
22
2C
0B
AA
86
7A
F6
AC
7C
E5
0B
AC
01
0A
C0
56
DE
1B
D7
7C
72
8D
3A
67
B1
10
2A
6B
6D
C4
98
BE
D5
AA
D3
8B
3B
59
64
41
1A
F2
36
31
57
55
FB
58
C7
95
CA
79
F2
AA
0D
70
16
66
9A
C2
6F
AB
20
78
B6
DA
C5
2E
E8
8E
0D
67
48
8B
FE
23
A7
F1
82
B4
E3
B6
0C
CD
AE
52
7E
DC
90
BC
4B
99
2F
96
D8
DF
CF
A4
29
BC
15
83
B9
C4
10
98
A9
AA
7A
46
1D
11
3A
64
E4
9F
2E
EE
57
53
28
FA
83
19
36
EE
8A
9C
27
F1
46
5C
4A
9F
30
00
79
01
80
ED
56
BC
96
17
D5
88
99
17
FB
E4
5E
7F
E5
09
8B
6A
0B
1C
FC
57
C6
A7
65
37
10
4A
39
C4
8B
AE
CB
15
C6
BB
B4
6F
BB
0B
74
5F
9C
9E
5C
05
CF
CF
AB
B3
37
86
F7
B7
B5
B0
CE
74
EE
EC
9E
B8
4F
87
D2
49
4F
AB
3E
C1
F4
D3
BD
9C
99
82
18
90
EE
35
2A
1D
40
96
42
64
FB
F2
C9
3C
6D
ED
25
83
CC
75
DC
B2
7B
F4
FD
B4
89
CA
BC
F9
7B
FA
5C
C6
4B
23
52
CF
B0
B3
A7
07
A0
57
9E
B7
13
B6
97
CD
0B
5E
33
77
D1
FE
B9
F1
81
D7
B8
9C
C8
6D
EE
4F
ED
82
69
F1
0E
44
EC
48
AD
C6
94
0C
6B
AD
BB
40
12
2C
1D
C2
D9
32
39
20
E4
E1
FB
AD
0B
43
97
D4
DC
38
B8
AD
E3
B3
DA
CE
29
26
F4
64
FA
3B
5B
82
EB
C5
E3
B8
1C
F6
47
E8
BB
D2
CB
55
C9
E3
1F
FD
21
2F
87
29
B6
67
39
42
1C
61
06
E6
4A
C8
3D
3B
9E
13
CD
83
21
B3
A9
F1
0D
91
71
BB
8C
B7
4E
71
C3
4D
1E
8D
0F
C8
D1
4B
8E
5E
12
BB
E2
BD
2A
14
31
FC
22
4B
70
D2
28
E4
E2
06
35
09
DB
26
EC
D9
CA
7C
C4
02
76
3E
69
92
88
05
60
0A
4A
80
EA
B4
AE
6A
2C
37
92
B9
8C
69
42
19
5E
64
3F
98
C0
DC
3F
A3
C2
B0
74
31
CB
BE
11
3E
38
FC
0B
7B
45
C5
1C
44
31
70
0E
D2
9D
27
36
B2
36
F6
3F
75
93
23
29
AA
60
BE
90
09
BD
78
32
F1
E1
B9
AC
15
03
EC
84
72
7A
1E
6C
84
23
C7
C5
B9
03
E7
63
26
2D
55
90
78
E6
54
53
2E
08
68
F2
06
A4
68
B5
B5
EB
D3
ED
DB
4F
67
35
36
E5
F0
F8
16
0E
5F
33
11
56
1B
7C
F7
9C
9C
44
09
74
35
59
65
C9
31
AE
C5
C7
22
5F
69
F7
76
F0
52
AC
4B
D6
B1
9F
85
38
9F
D6
1D
F6
0E
CA
BB
EB
