A3
FB
03
6B
A6
D0
30
26
F2
B5
65
1D
8C
B0
60
A7
BA
F8
4D
D0
B0
08
8D
07
6B
F2
B5
17
DE
F6
DA
59
4C
53
0C
27
F5
5D
20
93
F4
D0
B3
59
68
64
6B
13
D2
A1
80
AC
BE
F5
7B
17
A6
04
3E
41
13
3F
45
44
05
B8
2B
DD
95
34
70
20
D9
82
79
6A
08
0C
D8
98
DE
AC
CE
76
42
C1
0E
7A
27
81
C4
B3
B0
91
D6
FC
97
D3
6A
75
CF
7F
A8
34
68
75
C1
37
B4
D1
30
9D
A8
C0
40
16
84
93
CE
99
B7
12
50
55
FC
13
16
E9
CA
4B
D0
D7
EB
63
51
36
6A
4E
92
A8
B3
DB
FA
8C
F6
86
DC
75
CC
94
42
DA
1D
5F
E9
0F
41
EE
8C
73
65
C8
65
EC
31
0A
F2
90
A8
B8
F5
A5
4F
51
BE
CC
91
A6
AC
79
62
EB
F2
A6
23
0F
97
C9
C5
49
C1
03
32
F4
32
9A
E8
9C
13
A9
E7
59
F0
16
CE
5B
05
C5
41
C7
B8
0B
8D
C2
66
66
8F
CA
62
6B
D2
4D
3B
FF
F7
74
3E
CA
5A
40
3C
E9
F2
D9
8E
E3
79
23
55
DF
CD
91
06
14
97
3E
27
80
2A
3A
53
DD
AE
21
84
D1
7D
F3
92
65
CD
1F
F6
B8
90
E1
D4
F5
98
CE
39
82
FF
AE
A1
7A
C6
89
BC
5E
BC
05
71
07
A1
EF
24
DF
