83
1F
32
72
BC
6D
9C
7F
F6
DD
2C
64
BF
59
7E
63
26
3C
CA
E1
C5
4E
08
05
FE
F6
58
82
84
AB
A0
B1
1D
AC
77
E3
A7
F1
42
F5
59
61
9C
25
4C
45
FC
23
3A
FD
91
6C
85
F1
71
D3
7B
CB
F3
60
D8
E4
59
5E
8C
FB
B3
B0
BF
2D
00
64
13
21
95
8B
29
84
C3
47
66
B5
B4
25
F7
C1
96
AD
12
91
FB
38
7F
62
80
02
58
76
AD
80
0D
09
1D
F4
AA
87
DF
3E
5D
FC
1B
F5
33
CC
F9
B6
22
A4
BE
BC
4C
B0
39
B1
82
0F
5D
C4
07
84
2F
FC
97
6E
E3
CC
A8
FA
41
E7
F0
97
4E
55
27
AA
29
C7
0E
83
33
28
B0
90
72
74
E8
D1
38
CD
23
8C
FF
CC
67
42
98
15
95
E1
85
2E
EB
3B
A3
91
CC
B7
0C
FF
C4
47
3B
18
C7
9A
71
29
B9
92
58
45
34
F8
E6
97
85
6F
85
F6
F7
A6
71
BA
55
D2
61
CE
AA
5C
69
07
4B
D6
1F
B4
17
34
FD
77
FE
39
06
53
C0
2F
AC
05
F7
DB
F2
98
58
B0
CE
34
36
43
D1
37
47
FF
09
86
AB
1A
27
26
2A
C7
DD
06
BE
AE
8A
1F
51
99
19
BF
C7
70
26
22
3F
67
63
43
96
76
3B
F1
2D
0A
B5
25
ED
FA
9A
93
88
BC
DA
7F
01
D9
2C
D2
