C1
DB
0D
65
45
DD
9C
3C
6F
90
32
A9
DD
65
92
32
8C
BB
AA
DA
03
48
6A
A3
CE
BB
D6
50
2E
9F
5A
6F
0F
83
5E
97
3A
58
1B
EF
CC
1A
AD
EF
E7
B3
69
6B
A7
1C
70
CD
58
C5
84
A2
E6
37
1B
58
94
F8
B2
45
F1
AE
64
EC
09
88
BB
7C
D8
DA
C6
9A
04
07
6C
60
CB
A4
FF
A6
39
DA
15
80
9F
0C
93
07
42
BA
0A
5D
50
A6
47
EB
18
35
25
ED
79
17
A6
31
9B
2A
42
1B
DE
9C
7F
ED
10
51
C2
45
E3
84
65
E8
9E
B0
09
BD
12
B1
2E
1D
D0
26
01
4A
99
1B
74
3C
16
E5
94
A4
C9
4C
18
2B
44
F0
35
FA
99
E5
BA
80
11
A1
58
6F
21
18
41
08
99
25
F6
99
1F
2C
59
44
DC
FE
0A
01
75
FC
F0
E6
3D
80
16
A7
A9
78
B9
59
04
54
9F
7B
63
23
AA
36
DC
F8
AC
E4
F3
93
7D
D0
55
3D
4B
3C
C9
F4
32
A9
63
C8
0C
52
FA
85
8B
FA
DD
92
85
E7
C2
19
8E
2F
FF
68
CC
32
FD
98
07
68
E9
6C
00
5D
AC
7B
04
F9
1E
92
C0
05
76
54
57
EB
06
23
B2
BD
25
44
18
79
6C
3D
FE
8C
25
82
20
94
00
51
D0
6A
08
DB
8E
60
D6
A4
DA
C7
04
2C
46
B5
E5
CF
CF
05
