B0
ED
24
68
D0
2B
D2
69
F1
A4
16
CD
77
39
21
90
C2
DD
E8
63
0E
EB
28
A2
97
BD
A7
86
01
7A
BE
9C
F8
2F
14
75
14
22
AC
9F
FF
63
22
D5
D9
A3
31
73
DB
49
79
2D
3B
C3
7F
FF
50
1A
F6
67
F7
CA
3D
D3
35
D0
28
55
1E
04
03
9E
F5
A9
D4
2A
94
43
E1
B8
0E
A8
72
FD
94
5A
D8
99
95
14
AE
4A
29
A3
5F
60
B0
F7
E9
71
B6
7A
E0
4D
1B
A1
B5
34
70
C0
38
47
A3
22
5C
3D
DF
59
3A
57
AE
D3
59
96
61
AE
2D
2B
B1
CD
DD
2F
A6
2C
4A
94
B8
70
4C
5C
35
C3
3E
08
E2
DE
BE
54
E5
67
AE
21
E2
7E
7E
B3
65
93
AE
1C
80
7A
8E
F8
B5
C1
49
5B
15
41
21
08
AA
F3
FC
E4
13
05
20
AA
6E
2D
3B
DF
7B
3E
A6
09
FD
F9
EA
1C
64
25
84
35
AA
E2
E5
8A
7B
3A
BD
A1
98
F9
79
C1
7D
BE
0A
A7
42
53
E9
79
BF
3A
58
00
F3
88
EA
11
A7
F7
45
4C
4E
36
27
0A
30
83
A7
90
C7
7C
BE
89
69
32
05
B3
28
80
C0
D8
F7
9B
1C
00
0E
E9
B5
E5
8F
17
5B
A7
69
66
16
C1
7C
45
67
3C
FF
25
D1
22
1F
89
98
36
E9
5C
C9
E2
6A
88
7A
71
15
C4
53
7E
