a1
f6
2d
f7
44
58
75
47
8d
a1
f6
2d
f7
44
58
75
47
8d
a1
f6
2d
f7
44
58
75
47
8d
a1
f6
2d
f7
44
58
75
47
8d
a1
f6
2d
f7
44
58
75
47
8d
a1
f6
2d
f7
44
58
75
47
8d
a1
f6
2d
f7
44
58
75
47
8d
a1
f6
2d
f7
44
58
75
47
8d
a1
f6
2d
f7
44
58
75
47
8d
a1
f6
2d
f7
44
58
75
47
8d
a1
f6
2d
f7
44
58
75
47
8d
a1
f6
2d
f7
44
58
75
47
8d
a1
f6
2d
f7
44
58
75
47
8d
a1
f6
2d
f7
44
58
75
47
8d
a1
f6
2d
f7
44
58
75
47
8d
a1
f6
2d
f7
44
58
75
47
8d
a1
f6
2d
f7
44
58
75
47
8d
a1
f6
2d
f7
44
58
75
47
8d
a1
f6
2d
f7
44
58
75
47
8d
a1
f6
2d
f7
44
58
75
47
8d
a1
f6
2d
f7
44
58
75
47
8d
a1
f6
2d
f7
44
58
75
47
8d
a1
f6
2d
f7
44
58
75
47
8d
a1
f6
2d
f7
44
58
75
47
8d
a1
f6
2d
f7
44
58
75
47
8d
a1
f6
2d
f7
44
58
75
47
8d
a1
f6
2d
f7
44
58
75
47
8d
a1
f6
2d
f7
44
58
75
47
8d
a1
f6
2d
f7
44
58
75
47
8d
a1
f6
2d
f7
44
58
75
47
8d
a1
f6
2d
f7
44
58
75
47
8d
a1
f6
2d
f7
44
58
75
47
8d
a1
f6
2d
f7
44
58
75
47
8d
a1
f6
2d
f7
44
58
75
47
8d
a1
f6
2d
f7
44
58
75
47
8d
a1
f6
2d
f7
44
58
75
47
8d
a1
f6
2d
f7
44
58
75
47
8d
a1
f6
2d
f7
44
58
75
47
8d
a1
f6
2d
f7
44
58
75
47
8d
a1
f6
2d
f7
44
58
75
47
8d
a1
f6
2d
f7
44
58
75
47
8d
a1
f6
2d
f7
44
58
75
47
8d
a1
f6
2d
f7
44
58
75
47
8d
a1
f6
2d
f7
44
58
75
47
8d
a1
f6
2d
f7
44
58
75
47
8d
a1
f6
2d
f7
44
58
75
47
8d
a1
f6
2d
f7
44
58
75
47
8d
a1
f6
2d
f7
44
58
75
47
8d
a1
f6
2d
f7
44
58
75
47
8d
a1
f6
2d
f7
44
58
75
47
8d
a1
f6
2d
f7
44
58
75
47
8d
a1
f6
2d
f7
44
58
75
47
8d
a1
f6
2d
f7
44
58
75
47
8d
a1
f6
2d
f7
44
58
75
47
8d
a1
f6
2d
f7
44
58
75
47
8d
a1
f6
2d
f7
44
58
75
47
8d
a1
f6
2d
f7
44
58
75
47
8d
a1
f6
2d
f7
44
58
75
47
8d
a1
f6
2d
f7
44
58
75
47
8d
a1
f6
2d
f7
44
58
75
47
8d
a1
f6
2d
f7
44
58
75
47
8d
a1
f6
2d
f7
44
58
75
47
8d
a1
f6
2d
f7
44
58
75
47
8d
a1
f6
2d
f7
44
58
75
47
8d
a1
f6
2d
f7
44
58
75
47
8d
a1
f6
2d
f7
44
58
75
47
8d
a1
f6
2d
f7
44
58
75
47
8d
a1
f6
2d
f7
44
58
75
47
8d
a1
f6
2d
f7
44
58
75
47
8d
a1
f6
2d
f7
44
58
75
47
8d
a1
f6
2d
f7
44
58
75
47
8d
a1
f6
2d
f7
44
58
75
47
8d
a1
f6
2d
f7
44
58
75
47
8d
a1
f6
2d
f7
44
58
75
47
8d
a1
f6
2d
f7
44
58
75
47
8d
a1
f6
2d
f7
44
58
75
47
8d
a1
f6
2d
f7
44
58
75
47
8d
a1
f6
2d
f7
44
58
75
47
8d
a1
f6
2d
f7
44
58
75
47
8d
a1
f6
2d
f7
44
58
75
47
8d
a1
f6
2d
f7
44
58
75
47
8d
a1
f6
2d
f7
44
58
75
47
8d
a1
f6
2d
f7
44
58
75
47
8d
a1
f6
2d
f7
44
58
75
47
8d
a1
f6
2d
f7
44
58
75
47
8d
a1
f6
2d
f7
44
58
75
47
8d
a1
f6
2d
f7
44
58
75
47
8d
a1
f6
2d
f7
44
58
75
47
8d
a1
f6
2d
f7
44
58
75
47
8d
a1
f6
2d
f7
44
58
75
47
8d
a1
f6
2d
f7
44
58
75
47
8d
a1
f6
2d
f7
44
58
75
47
8d
a1
f6
2d
f7
44
58
75
47
8d
a1
f6
2d
f7
44
58
75
47
8d
a1
f6
2d
f7
44
58
75
47
8d
a1
f6
2d
f7
44
58
75
47
8d
a1
f6
2d
f7
44
58
75
47
8d
a1
f6
2d
f7
44
58
75
47
8d
a1
f6
2d
f7
44
58
75
47
8d
a1
f6
2d
f7
44
58
75
47
8d
a1
f6
2d
f7
44
58
75
47
8d
a1
f6
2d
f7
44
58
75
47
8d
a1
f6
2d
f7
44
58
75
47
8d
a1
f6
2d
f7
44
58
75
47
8d
a1
f6
2d
f7
44
58
75
47
8d
a1
f6
2d
f7
44
58
75
47
8d
a1
f6
2d
f7
44
58
75
47
8d
a1
f6
2d
f7
44
58
75
47
8d
a1
f6
2d
f7
44
58
75
47
8d
a1
f6
2d
f7
44
58
75
47
8d
a1
f6
2d
f7
44
58
75
47
8d
a1
f6
2d
f7
44
58
75
47
8d
a1
f6
2d
f7
44
58
75
47
8d
a1
f6
2d
f7
44
58
75
47
8d
a1
f6
2d
f7
44
58
75
47
8d
a1
f6
2d
f7
44
58
75
47
8d
a1
f6
2d
f7
44
58
75
47
8d
a1
f6
2d
f7
44
58
75
47
8d
a1
f6
2d
f7
44
58
75
47
8d
a1
f6
2d
f7
44
58
75
47
8d
a1
f6
2d
f7
44
58
75
47
8d
a1
f6
2d
f7
44
58
75
47
8d
a1
f6
2d
f7
44
58
75
47
8d
a1
f6
2d
f7
44
58
75
47
8d
a1
f6
2d
f7
44
58
75
47
8d
a1
f6
2d
f7
44
58
75
47
8d
a1
f6
2d
f7
44
58
75
47
8d
a1
f6
2d
f7
44
58
75
47
8d
a1
f6
2d
f7
44
58
75
47
8d
a1
f6
2d
f7
44
58
75
47
8d
a1
f6
2d
f7
44
58
75
47
8d
a1
f6
2d
f7
44
58
75
47
8d
a1
f6
2d
f7
44
58
75
47
8d
a1
f6
2d
f7
44
58
75
47
8d
a1
f6
2d
f7
44
58
75
47
8d
a1
f6
2d
f7
44
58
75
47
8d
a1
f6
2d
f7
44
58
75
47
8d
a1
f6
2d
f7
44
58
75
47
8d
a1
f6
2d
f7
44
58
75
47
8d
a1
f6
2d
f7
44
58
75
47
8d
a1
f6
2d
f7
44
58
75
47
8d
a1
f6
2d
f7
44
58
75
47
8d
a1
f6
2d
f7
44
58
75
47
8d
a1
f6
2d
f7
44
58
75
47
8d
a1
f6
2d
f7
44
58
75
47
8d
a1
f6
2d
f7
44
58
75
47
8d
a1
f6
2d
f7
44
58
75
47
8d
a1
f6
2d
f7
44
58
75
47
8d
a1
f6
2d
f7
44
58
75
47
8d
a1
f6
2d
f7
44
58
75
47
8d
a1
f6
2d
f7
44
58
75
47
8d
a1
f6
2d
f7
44
58
75
47
8d
a1
f6
2d
f7
44
58
75
47
8d
a1
f6
2d
f7
44
58
75
47
8d
a1
f6
2d
f7
44
58
75
47
8d
a1
f6
2d
f7
44
58
75
47
8d
a1
f6
2d
f7
44
58
75
47
8d
a1
f6
2d
f7
44
58
75
47
8d
a1
f6
2d
f7
44
58
75
47
8d
a1
f6
2d
f7
44
58
75
47
8d
a1
f6
2d
f7
44
58
75
47
8d
a1
f6
2d
f7
44
58
75
47
8d
a1
f6
2d
f7
44
58
75
47
8d
a1
f6
2d
f7
44
58
75
47
8d
a1
f6
2d
f7
44
58
75
47
8d
a1
f6
2d
f7
44
58
75
47
8d
a1
f6
2d
f7
44
58
75
47
8d
a1
f6
2d
f7
44
58
75
47
8d
a1
f6
2d
f7
44
58
75
47
8d
a1
f6
2d
f7
44
58
75
47
8d
a1
f6
2d
f7
44
58
75
47
8d
a1
f6
2d
f7
44
58
75
47
8d
a1
f6
2d
f7
44
58
75
47
8d
a1
f6
2d
f7
44
58
75
47
8d
a1
f6
2d
f7
44
58
75
47
8d
a1
f6
2d
f7
44
58
75
47
8d
a1
f6
2d
f7
44
58
75
47
8d
a1
f6
2d
f7
44
58
75
47
8d
a1
f6
2d
f7
44
58
75
47
8d
a1
f6
2d
f7
44
58
75
47
8d
a1
f6
2d
f7
44
58
75
47
8d
a1
f6
2d
f7
44
58
75
47
8d
a1
f6
2d
f7
44
58
75
47
8d
a1
f6
2d
f7
44
58
75
47
8d
a1
f6
2d
f7
44
58
75
47
8d
a1
f6
2d
f7
44
58
75
47
8d
a1
f6
2d
f7
44
58
75
47
8d
a1
f6
2d
f7
44
58
75
47
8d
a1
f6
2d
f7
44
58
75
47
8d
a1
f6
2d
f7
44
58
75
47
8d
a1
f6
2d
f7
44
58
75
47
8d
a1
f6
2d
f7
44
58
75
47
8d
a1
f6
2d
f7
44
58
75
47
8d
a1
f6
2d
f7
44
58
75
47
8d
a1
f6
2d
f7
44
58
75
47
8d
a1
f6
2d
f7
44
58
75
47
8d
a1
f6
2d
f7
44
58
75
47
8d
a1
f6
2d
f7
44
58
75
47
8d
a1
f6
2d
f7
44
58
75
47
8d
a1
f6
2d
f7
44
58
75
47
8d
a1
f6
2d
f7
44
58
75
47
8d
a1
f6
2d
f7
44
58
75
47
8d
a1
f6
2d
f7
44
58
75
47
8d
a1
f6
2d
f7
44
58
75
47
8d
a1
f6
2d
f7
44
58
75
47
8d
a1
f6
2d
f7
44
58
75
47
8d
a1
f6
2d
f7
44
58
75
47
8d
a1
f6
2d
f7
44
58
75
47
8d
a1
f6
2d
f7
44
58
75
47
8d
a1
f6
2d
f7
44
58
75
47
8d
a1
f6
2d
f7
44
58
75
47
8d
a1
f6
2d
f7
44
58
75
47
8d
a1
f6
2d
f7
44
58
75
47
8d
a1
f6
2d
f7
44
58
75
47
8d
a1
f6
2d
f7
44
58
75
47
8d
a1
f6
2d
f7
44
58
75
47
8d
a1
f6
2d
f7
44
58
75
47
8d
a1
f6
2d
f7
44
58
75
47
8d
a1
f6
2d
f7
44
58
75
47
8d
a1
f6
2d
f7
44
58
75
47
8d
a1
f6
2d
f7
44
58
75
47
8d
a1
f6
2d
f7
44
58
75
47
8d
a1
f6
2d
f7
44
58
75
47
8d
a1
f6
2d
f7
44
58
75
47
8d
a1
f6
2d
f7
44
58
75
47
8d
a1
f6
2d
f7
44
58
75
47
8d
a1
f6
2d
f7
44
58
75
47
8d
a1
f6
2d
f7
44
58
75
47
8d
a1
f6
2d
f7
44
58
75
47
8d
a1
f6
2d
f7
44
58
75
47
8d
a1
f6
2d
f7
44
58
75
47
8d
a1
f6
2d
f7
44
58
75
47
8d
a1
f6
2d
f7
44
58
75
47
8d
a1
f6
2d
f7
44
58
75
47
8d
a1
f6
2d
f7
44
58
75
47
8d
a1
f6
2d
f7
44
58
75
47
8d
a1
f6
2d
f7
44
58
75
47
8d
a1
f6
2d
f7
44
58
75
47
8d
a1
f6
2d
f7
44
58
75
47
8d
a1
f6
2d
f7
44
58
75
47
8d
a1
f6
2d
f7
44
58
75
47
8d
a1
f6
2d
f7
44
58
75
47
8d
a1
f6
2d
f7
44
58
75
47
8d
a1
f6
2d
f7
44
58
75
47
8d
a1
f6
2d
f7
44
58
75
47
8d
a1
f6
2d
f7
44
58
75
47
8d
a1
f6
2d
f7
44
58
75
47
8d
a1
f6
2d
f7
44
58
75
47
8d
a1
f6
2d
f7
44
58
75
47
8d
a1
f6
2d
f7
44
58
75
47
8d
a1
f6
2d
f7
44
58
75
47
8d
a1
f6
2d
f7
44
58
75
47
8d
a1
f6
2d
f7
44
58
75
47
8d
a1
f6
2d
f7
44
58
75
47
8d
a1
f6
2d
f7
44
58
75
47
8d
a1
f6
2d
f7
44
58
75
47
8d
a1
f6
2d
f7
44
58
75
47
8d
a1
f6
2d
f7
44
58
75
47
8d
a1
f6
2d
f7
44
58
75
47
8d
a1
f6
2d
f7
44
58
75
47
8d
a1
f6
2d
f7
44
58
75
47
8d
a1
f6
2d
f7
44
58
75
47
8d
a1
f6
2d
f7
44
58
75
47
8d
a1
f6
2d
f7
44
58
75
47
8d
a1
f6
2d
f7
44
58
75
47
8d
a1
f6
2d
f7
44
58
75
47
8d
a1
f6
2d
f7
44
58
75
47
8d
a1
f6
2d
f7
44
58
75
47
8d
a1
f6
2d
f7
44
58
75
47
8d
a1
f6
2d
f7
44
58
75
47
8d
a1
f6
2d
f7
44
58
75
47
8d
a1
f6
2d
f7
44
58
75
47
8d
a1
f6
2d
f7
44
58
75
47
8d
a1
f6
2d
f7
44
58
75
47
8d
a1
f6
2d
f7
44
58
75
47
8d
a1
f6
2d
f7
44
58
75
47
8d
a1
f6
2d
f7
44
58
75
47
8d
a1
f6
2d
f7
44
58
75
47
8d
a1
f6
2d
f7
44
58
75
47
8d
a1
f6
2d
f7
44
58
75
47
8d
a1
f6
2d
f7
44
58
75
47
8d
a1
f6
2d
f7
44
58
75
47
8d
a1
f6
2d
f7
44
58
75
47
8d
a1
f6
2d
f7
44
58
75
47
8d
a1
f6
2d
f7
44
58
75
47
8d
a1
f6
2d
f7
44
58
75
47
8d
a1
f6
2d
f7
44
58
75
47
8d
a1
f6
2d
f7
44
58
75
47
8d
a1
f6
2d
f7
44
58
75
47
8d
a1
f6
2d
f7
44
58
75
47
8d
a1
f6
2d
f7
44
58
75
47
8d
a1
f6
2d
f7
44
58
75
47
8d
a1
f6
2d
f7
44
58
75
47
8d
a1
f6
2d
f7
44
58
75
47
8d
a1
f6
2d
f7
44
58
75
47
8d
a1
f6
2d
f7
44
58
75
47
8d
a1
f6
2d
f7
44
58
75
47
8d
a1
f6
2d
f7
44
58
75
47
8d
a1
f6
2d
f7
44
58
75
47
8d
a1
f6
2d
f7
44
58
75
47
8d
a1
f6
2d
f7
44
58
75
47
8d
a1
f6
2d
f7
44
58
75
47
8d
a1
f6
2d
f7
44
58
75
47
8d
a1
f6
2d
f7
44
58
75
47
8d
a1
f6
2d
f7
44
58
75
47
8d
a1
f6
2d
f7
44
58
75
47
8d
a1
f6
2d
f7
44
58
75
47
8d
a1
f6
2d
f7
44
58
75
47
8d
a1
f6
2d
f7
44
58
75
47
8d
a1
f6
2d
f7
44
58
75
47
8d
a1
f6
2d
f7
44
58
75
47
8d
a1
f6
2d
f7
44
58
75
47
8d
a1
f6
2d
f7
44
58
75
47
8d
a1
f6
2d
f7
44
58
75
47
8d
a1
f6
2d
f7
44
58
75
47
8d
a1
f6
2d
f7
44
58
75
47
8d
a1
f6
2d
f7
44
58
75
47
8d
a1
f6
2d
f7
44
58
75
47
8d
a1
f6
2d
f7
44
58
75
47
8d
a1
f6
2d
f7
44
58
75
47
8d
a1
f6
2d
f7
44
58
75
47
8d
a1
f6
2d
f7
44
58
75
47
8d
a1
f6
2d
f7
44
58
75
47
8d
a1
f6
2d
f7
44
58
75
47
8d
a1
f6
2d
f7
44
58
75
47
8d
a1
f6
2d
f7
44
58
75
47
8d
a1
f6
2d
f7
44
58
75
47
8d
a1
f6
2d
f7
44
58
75
47
8d
a1
f6
2d
f7
44
58
75
47
8d
a1
f6
2d
f7
44
58
75
47
8d
a1
f6
2d
f7
44
58
75
47
8d
a1
f6
2d
f7
44
58
75
47
8d
a1
f6
2d
f7
44
58
75
47
8d
a1
f6
2d
f7
44
58
75
47
8d
a1
f6
2d
f7
44
58
75
47
8d
a1
f6
2d
f7
44
58
75
47
8d
a1
f6
2d
f7
44
58
75
47
8d
a1
f6
2d
f7
44
58
75
47
8d
a1
f6
2d
f7
44
58
75
47
8d
a1
f6
2d
f7
44
58
75
47
8d
a1
f6
2d
f7
44
58
75
47
8d
a1
f6
2d
f7
44
58
75
47
8d
a1
f6
2d
f7
44
58
75
47
8d
a1
f6
2d
f7
44
58
75
47
8d
a1
f6
2d
f7
44
58
75
47
8d
a1
f6
2d
f7
44
58
75
47
8d
a1
f6
2d
f7
44
58
75
47
8d
a1
f6
2d
f7
44
58
75
47
8d
a1
f6
2d
f7
44
58
75
47
8d
a1
f6
2d
f7
44
58
75
47
8d
a1
f6
2d
f7
44
58
75
47
8d
a1
f6
2d
f7
44
58
75
47
8d
a1
f6
2d
f7
44
58
75
47
8d
a1
f6
2d
f7
44
58
75
47
8d
a1
f6
2d
f7
44
58
75
47
8d
a1
f6
2d
f7
44
58
75
47
8d
a1
f6
2d
f7
44
58
75
47
8d
a1
f6
2d
f7
44
58
75
47
8d
a1
f6
2d
f7
44
58
75
47
8d
a1
f6
2d
f7
44
58
75
47
8d
a1
f6
2d
f7
44
58
75
47
8d
a1
f6
2d
f7
44
58
75
47
8d
a1
f6
2d
f7
44
58
75
47
8d
a1
f6
2d
f7
44
58
75
47
8d
a1
f6
2d
f7
44
58
75
47
8d
a1
f6
2d
f7
44
58
75
47
8d
a1
f6
2d
f7
44
58
75
47
8d
a1
f6
2d
f7
44
58
75
47
8d
a1
f6
2d
f7
44
58
75
47
8d
a1
f6
2d
f7
44
58
75
47
8d
a1
f6
2d
f7
44
58
75
47
8d
a1
f6
2d
f7
44
58
75
47
8d
a1
f6
2d
f7
44
58
75
47
8d
a1
f6
2d
f7
44
58
75
47
8d
a1
f6
2d
f7
44
58
75
47
8d
a1
f6
2d
f7
44
58
75
47
8d
a1
f6
2d
f7
44
58
75
47
8d
a1
f6
2d
f7
44
58
75
47
8d
a1
f6
2d
f7
44
58
75
47
8d
a1
f6
2d
f7
44
58
75
47
8d
a1
f6
2d
f7
44
58
75
47
8d
a1
f6
2d
f7
44
58
75
47
8d
a1
f6
2d
f7
44
58
75
47
8d
a1
f6
2d
f7
44
58
75
47
8d
a1
f6
2d
f7
44
58
75
47
8d
a1
f6
2d
f7
44
58
75
47
8d
a1
f6
2d
f7
44
58
75
47
8d
a1
f6
2d
f7
44
58
75
47
8d
a1
f6
2d
f7
44
58
75
47
8d
a1
f6
2d
f7
44
58
75
47
8d
a1
f6
2d
f7
44
58
75
47
8d
a1
f6
2d
f7
44
58
75
47
8d
a1
f6
2d
f7
44
58
75
47
8d
a1
f6
2d
f7
44
58
75
47
8d
a1
f6
2d
f7
44
58
75
47
8d
a1
f6
2d
f7
44
58
75
47
8d
a1
f6
2d
f7
44
58
75
47
8d
a1
f6
2d
f7
44
58
75
47
8d
a1
f6
2d
f7
44
58
75
47
8d
a1
f6
2d
f7
44
58
75
47
8d
a1
f6
2d
f7
44
58
75
47
8d
a1
f6
2d
f7
44
58
75
47
8d
a1
f6
2d
f7
44
58
75
47
8d
a1
f6
2d
f7
44
58
75
47
8d
a1
f6
2d
f7
44
58
75
47
8d
a1
f6
2d
f7
44
58
75
47
8d
a1
f6
2d
f7
44
58
75
47
8d
a1
f6
2d
f7
44
58
75
47
8d
a1
f6
2d
f7
44
58
75
47
8d
a1
f6
2d
f7
44
58
75
47
8d
a1
f6
2d
f7
44
58
75
47
8d
a1
f6
2d
f7
44
58
75
47
8d
a1
f6
2d
f7
44
58
75
47
8d
a1
f6
2d
f7
44
58
75
47
8d
a1
f6
2d
f7
44
58
75
47
8d
a1
f6
2d
f7
44
58
75
47
8d
a1
f6
2d
f7
44
58
75
47
8d
a1
f6
2d
f7
44
58
75
47
8d
a1
f6
2d
f7
44
58
75
47
8d
a1
f6
2d
f7
44
58
75
47
8d
a1
f6
2d
f7
44
58
75
47
8d
a1
f6
2d
f7
44
58
75
47
8d
a1
f6
2d
f7
44
58
75
47
8d
a1
f6
2d
f7
44
58
75
47
8d
a1
f6
2d
f7
44
58
75
47
8d
a1
f6
2d
f7
44
58
75
47
8d
a1
f6
2d
f7
44
58
75
47
8d
a1
f6
2d
f7
44
58
75
47
8d
a1
f6
2d
f7
44
58
75
47
8d
a1
f6
2d
f7
44
58
75
47
8d
a1
f6
2d
f7
44
58
75
47
8d
a1
f6
2d
f7
44
58
75
47
8d
a1
f6
2d
f7
44
58
75
47
8d
a1
f6
2d
f7
44
58
75
47
8d
a1
f6
2d
f7
44
58
75
47
8d
a1
f6
2d
f7
44
58
75
47
8d
a1
f6
2d
f7
44
58
75
47
8d
a1
f6
2d
f7
44
58
75
47
8d
a1
f6
2d
f7
44
58
75
47
8d
a1
f6
2d
f7
44
58
75
47
8d
a1
f6
2d
f7
44
58
75
47
8d
a1
f6
2d
f7
44
58
75
47
8d
a1
f6
2d
f7
44
58
75
47
8d
a1
f6
2d
f7
44
58
75
47
8d
a1
f6
2d
f7
44
58
75
47
8d
a1
f6
2d
f7
44
58
75
47
8d
a1
f6
2d
f7
44
58
75
47
8d
a1
f6
2d
f7
44
58
75
47
8d
a1
f6
2d
f7
44
58
75
47
8d
a1
f6
2d
f7
44
58
75
47
8d
a1
f6
2d
f7
44
58
75
47
8d
a1
f6
2d
f7
44
58
75
47
8d
a1
f6
2d
f7
44
58
75
47
8d
a1
f6
2d
f7
44
58
75
47
8d
a1
f6
2d
f7
44
58
75
47
8d
a1
f6
2d
f7
44
58
75
47
8d
a1
f6
2d
f7
44
58
75
47
8d
a1
f6
2d
f7
44
58
75
47
8d
a1
f6
2d
f7
44
58
75
47
8d
a1
f6
2d
f7
44
58
75
47
8d
a1
f6
2d
f7
44
58
75
47
8d
a1
f6
2d
f7
44
58
75
47
8d
a1
f6
2d
f7
44
58
75
47
8d
a1
f6
2d
f7
44
58
75
47
8d
a1
f6
2d
f7
44
58
75
47
8d
a1
f6
2d
f7
44
58
75
47
8d
a1
f6
2d
f7
44
58
75
47
8d
a1
f6
2d
f7
44
58
75
47
8d
a1
f6
2d
f7
44
58
75
47
8d
a1
f6
2d
f7
44
58
75
47
8d
a1
f6
2d
f7
44
58
75
47
8d
a1
f6
2d
f7
44
58
75
47
8d
a1
f6
2d
f7
44
58
75
47
8d
a1
f6
2d
f7
44
58
75
47
8d
a1
f6
2d
f7
44
58
75
47
8d
a1
f6
2d
f7
44
58
75
47
8d
a1
f6
2d
f7
44
58
75
47
8d
a1
f6
2d
f7
44
58
75
47
8d
a1
f6
2d
f7
44
58
75
47
8d
a1
f6
2d
f7
44
58
75
47
8d
a1
f6
2d
f7
44
58
75
47
8d
a1
f6
2d
f7
44
58
75
47
8d
a1
f6
2d
f7
44
58
75
47
8d
a1
f6
2d
f7
44
58
75
47
8d
a1
f6
2d
f7
44
58
75
47
8d
a1
f6
2d
f7
44
58
75
47
8d
a1
f6
2d
f7
44
58
75
47
8d
a1
f6
2d
f7
44
58
75
47
8d
a1
f6
2d
f7
44
58
75
47
8d
a1
f6
2d
f7
44
58
75
47
8d
a1
f6
2d
f7
44
58
75
47
8d
a1
f6
2d
f7
44
58
75
47
8d
a1
f6
2d
f7
44
58
75
47
8d
a1
f6
2d
f7
44
58
75
47
8d
a1
f6
2d
f7
44
58
75
47
8d
a1
f6
2d
f7
44
58
75
47
8d
a1
f6
2d
f7
44
58
75
47
8d
a1
f6
2d
f7
44
58
75
47
8d
a1
f6
2d
f7
44
58
75
47
8d
a1
f6
2d
f7
44
58
75
47
8d
a1
f6
2d
f7
44
58
75
47
8d
a1
f6
2d
f7
44
58
75
47
8d
a1
f6
2d
f7
44
58
75
47
8d
a1
f6
2d
f7
44
58
75
47
8d
a1
f6
2d
f7
44
58
75
47
8d
a1
f6
2d
f7
44
58
75
47
8d
a1
f6
2d
f7
44
58
75
47
8d
a1
f6
2d
f7
44
58
75
47
8d
a1
f6
2d
f7
44
58
75
47
8d
a1
f6
2d
f7
44
58
75
47
8d
a1
f6
2d
f7
44
58
75
47
8d
a1
f6
2d
f7
44
58
75
47
8d
a1
f6
2d
f7
44
58
75
47
8d
a1
f6
2d
f7
44
58
75
47
8d
a1
f6
2d
f7
44
58
75
47
8d
a1
f6
2d
f7
44
58
75
47
8d
a1
f6
2d
f7
44
58
75
47
8d
a1
f6
2d
f7
44
58
75
47
8d
a1
f6
2d
f7
44
58
75
47
8d
a1
f6
2d
f7
44
58
75
47
8d
a1
f6
2d
f7
44
58
75
47
8d
a1
f6
2d
f7
44
58
75
47
8d
a1
f6
2d
f7
44
58
75
47
8d
a1
f6
2d
f7
44
58
75
47
8d
a1
f6
2d
f7
44
58
75
47
8d
a1
f6
2d
f7
44
58
75
47
8d
a1
f6
2d
f7
44
58
75
47
8d
a1
f6
2d
f7
44
58
75
47
8d
a1
f6
2d
f7
44
58
75
47
8d
a1
f6
2d
f7
44
58
75
47
8d
a1
f6
2d
f7
44
58
75
47
8d
a1
f6
2d
f7
44
58
75
47
8d
a1
f6
2d
f7
44
58
75
47
8d
a1
f6
2d
f7
44
58
75
47
8d
a1
f6
2d
f7
44
58
75
47
8d
a1
f6
2d
f7
44
58
75
47
8d
a1
f6
2d
f7
44
58
75
47
8d
a1
f6
2d
f7
44
58
75
47
8d
a1
f6
2d
f7
44
58
75
47
8d
a1
f6
2d
f7
44
58
75
47
8d
a1
f6
2d
f7
44
58
75
47
8d
a1
f6
2d
f7
44
58
75
47
8d
a1
f6
2d
f7
44
58
75
47
8d
a1
f6
2d
f7
44
58
75
47
8d
a1
f6
2d
f7
44
58
75
47
8d
a1
f6
2d
f7
44
58
75
47
8d
a1
f6
2d
f7
44
58
75
47
8d
a1
f6
2d
f7
44
58
75
47
8d
a1
f6
2d
f7
44
58
75
47
8d
a1
f6
2d
f7
44
58
75
47
8d
a1
f6
2d
f7
44
58
75
47
8d
a1
f6
2d
f7
44
58
75
47
8d
a1
f6
2d
f7
44
58
75
47
8d
a1
f6
2d
f7
44
58
75
47
8d
a1
f6
2d
f7
44
58
75
47
8d
a1
f6
2d
f7
44
58
75
47
8d
a1
f6
2d
f7
44
58
75
47
8d
a1
f6
2d
f7
44
58
75
47
8d
a1
f6
2d
f7
44
58
75
47
8d
a1
f6
2d
f7
44
58
75
47
8d
a1
f6
2d
f7
44
58
75
47
8d
a1
f6
2d
f7
44
58
75
47
8d
a1
f6
2d
f7
44
58
75
47
8d
a1
f6
2d
f7
44
58
75
47
8d
a1
f6
2d
f7
44
58
75
47
8d
a1
f6
2d
f7
44
58
75
47
8d
a1
f6
2d
f7
44
58
75
47
8d
a1
f6
2d
f7
44
58
75
47
8d
a1
f6
2d
f7
44
58
75
47
8d
a1
f6
2d
f7
44
58
75
47
8d
a1
f6
2d
f7
44
58
75
47
8d
a1
f6
2d
f7
44
58
75
47
8d
a1
f6
2d
f7
44
58
75
47
8d
a1
f6
2d
f7
44
58
75
47
8d
a1
f6
2d
f7
44
58
75
47
8d
a1
f6
2d
f7
44
58
75
47
8d
a1
f6
2d
f7
44
58
75
47
8d
a1
f6
2d
f7
44
58
75
47
8d
a1
f6
2d
f7
44
58
75
47
8d
a1
f6
2d
f7
44
58
75
47
8d
a1
f6
2d
f7
44
58
75
47
8d
a1
f6
2d
f7
44
58
75
47
8d
a1
f6
2d
f7
44
58
75
47
8d
a1
f6
2d
f7
44
58
75
47
8d
a1
f6
2d
f7
44
58
75
47
8d
a1
f6
2d
f7
44
58
75
47
8d
a1
f6
2d
f7
44
58
75
47
8d
a1
f6
2d
f7
44
58
75
47
8d
a1
f6
2d
f7
44
58
75
47
8d
a1
f6
2d
f7
44
58
75
47
8d
a1
f6
2d
f7
44
58
75
47
8d
a1
f6
2d
f7
44
58
75
47
8d
a1
f6
2d
f7
44
58
75
47
8d
a1
f6
2d
f7
44
58
75
47
8d
a1
f6
2d
f7
44
58
75
47
8d
a1
f6
2d
f7
44
58
75
47
8d
a1
f6
2d
f7
44
58
75
47
8d
a1
f6
2d
f7
44
58
75
47
8d
a1
f6
2d
f7
44
58
75
47
8d
a1
f6
2d
f7
44
58
75
47
8d
a1
f6
2d
f7
44
58
75
47
8d
a1
f6
2d
f7
44
58
75
47
8d
a1
f6
2d
f7
44
58
75
47
8d
a1
f6
2d
f7
44
58
75
47
8d
a1
f6
2d
f7
44
58
75
47
8d
a1
f6
2d
f7
44
58
75
47
8d
a1
f6
2d
f7
44
58
75
47
8d
a1
f6
2d
f7
44
58
75
47
8d
a1
f6
2d
f7
44
58
75
47
8d
a1
f6
2d
f7
44
58
75
47
8d
a1
f6
2d
f7
44
58
75
47
8d
a1
f6
2d
f7
44
58
75
47
8d
a1
f6
2d
f7
44
58
75
47
8d
a1
f6
2d
f7
44
58
75
47
8d
a1
f6
2d
f7
44
58
75
47
8d
a1
f6
2d
f7
44
58
75
47
8d
a1
f6
2d
f7
44
58
75
47
8d
a1
f6
2d
f7
44
58
75
47
8d
a1
f6
2d
f7
44
58
75
47
8d
a1
f6
2d
f7
44
58
75
47
8d
a1
f6
2d
f7
44
58
75
47
8d
a1
f6
2d
f7
44
58
75
47
8d
a1
f6
2d
f7
44
58
75
47
8d
a1
f6
2d
f7
44
58
75
47
8d
a1
f6
2d
f7
44
58
75
47
8d
a1
f6
2d
f7
44
58
75
47
8d
a1
f6
2d
f7
44
58
75
47
8d
a1
f6
2d
f7
44
58
75
47
8d
a1
f6
2d
f7
44
58
75
47
8d
a1
f6
2d
f7
44
58
75
47
8d
a1
f6
2d
f7
44
58
75
47
8d
a1
f6
2d
f7
44
58
75
47
8d
a1
f6
2d
f7
44
58
75
47
8d
a1
f6
2d
f7
44
58
75
47
8d
a1
f6
2d
f7
44
58
75
47
8d
a1
f6
2d
f7
44
58
75
47
8d
a1
f6
2d
f7
44
58
75
47
8d
a1
f6
2d
f7
44
58
75
47
8d
a1
f6
2d
f7
44
58
75
47
8d
a1
f6
2d
f7
44
58
75
47
8d
a1
f6
2d
f7
44
58
75
47
8d
a1
f6
2d
f7
44
58
75
47
8d
a1
f6
2d
f7
44
58
75
47
8d
a1
f6
2d
f7
44
58
75
47
8d
a1
f6
2d
f7
44
58
75
47
8d
a1
f6
2d
f7
44
58
75
47
8d
a1
f6
2d
f7
44
58
75
47
8d
a1
f6
2d
f7
44
58
75
47
8d
a1
f6
2d
f7
44
58
75
47
8d
a1
f6
2d
f7
44
58
75
47
8d
a1
f6
2d
f7
44
58
75
47
8d
a1
f6
2d
f7
44
58
75
47
8d
a1
f6
2d
f7
44
58
75
47
8d
a1
f6
2d
f7
44
58
75
47
8d
a1
f6
2d
f7
44
58
75
47
8d
a1
f6
2d
f7
44
58
75
47
8d
a1
f6
2d
f7
44
58
75
47
8d
a1
f6
2d
f7
44
58
75
47
8d
a1
f6
2d
f7
44
58
75
47
8d
a1
f6
2d
f7
44
58
75
47
8d
a1
f6
2d
f7
44
58
75
47
8d
a1
f6
2d
f7
44
58
75
47
8d
a1
f6
2d
f7
44
58
75
47
8d
a1
f6
2d
f7
44
58
75
47
8d
a1
f6
2d
f7
44
58
75
47
8d
a1
f6
2d
f7
44
58
75
47
8d
a1
f6
2d
f7
44
58
75
47
8d
a1
f6
2d
f7
44
58
75
47
8d
a1
f6
2d
f7
44
58
75
47
8d
a1
f6
2d
f7
44
58
75
47
8d
a1
f6
2d
f7
44
58
75
47
8d
a1
f6
2d
f7
44
58
75
47
8d
a1
f6
2d
f7
44
58
75
47
8d
a1
f6
2d
f7
44
58
75
47
8d
a1
f6
2d
f7
44
58
75
47
8d
a1
f6
2d
f7
44
58
75
47
8d
a1
f6
2d
f7
44
58
75
47
8d
a1
f6
2d
f7
44
58
75
47
8d
a1
f6
2d
f7
44
58
75
47
8d
a1
f6
2d
f7
44
58
75
47
8d
a1
f6
2d
f7
44
58
75
47
8d
a1
f6
2d
f7
44
58
75
47
8d
a1
f6
2d
f7
44
58
75
47
8d
a1
f6
2d
f7
44
58
75
47
8d
a1
f6
2d
f7
44
58
75
47
8d
a1
f6
2d
f7
44
58
75
47
8d
a1
f6
2d
f7
44
58
75
47
8d
a1
f6
2d
f7
44
58
75
47
8d
a1
f6
2d
f7
44
58
75
47
8d
a1
f6
2d
f7
44
58
75
47
8d
a1
f6
2d
f7
44
58
75
47
8d
a1
f6
2d
f7
44
58
75
47
8d
a1
f6
2d
f7
44
58
75
47
8d
a1
f6
2d
f7
44
58
75
47
8d
a1
f6
2d
f7
44
58
75
47
8d
a1
f6
2d
f7
44
58
75
47
8d
a1
f6
2d
f7
44
58
75
47
8d
a1
f6
2d
f7
44
58
75
47
8d
a1
f6
2d
f7
44
58
75
47
8d
a1
f6
2d
f7
44
58
75
47
8d
a1
f6
2d
f7
44
58
75
47
8d
a1
f6
2d
f7
44
58
75
47
8d
a1
f6
2d
f7
44
58
75
47
8d
a1
f6
2d
f7
44
58
75
47
8d
a1
f6
2d
f7
44
58
75
47
8d
a1
f6
2d
f7
44
58
75
47
8d
a1
f6
2d
f7
44
58
75
47
8d
a1
f6
2d
f7
44
58
75
47
8d
a1
f6
2d
f7
44
58
75
47
8d
a1
f6
2d
f7
44
58
75
47
8d
a1
f6
2d
f7
44
58
75
47
8d
a1
f6
2d
f7
44
58
75
47
8d
a1
f6
2d
f7
44
58
75
47
8d
a1
f6
2d
f7
44
58
75
47
8d
a1
f6
2d
f7
44
58
75
47
8d
a1
f6
2d
f7
44
58
75
47
8d
a1
f6
2d
f7
44
58
75
47
8d
a1
f6
2d
f7
44
58
75
47
8d
a1
f6
2d
f7
44
58
75
47
8d
a1
f6
2d
f7
44
58
75
47
8d
a1
f6
2d
f7
44
58
75
47
8d
a1
f6
2d
f7
44
58
75
47
8d
a1
f6
2d
f7
44
58
75
47
8d
a1
f6
2d
f7
44
58
75
47
8d
a1
f6
2d
f7
44
58
75
47
8d
a1
f6
2d
f7
44
58
75
47
8d
a1
f6
2d
f7
44
58
75
47
8d
a1
f6
2d
f7
44
58
75
47
8d
a1
f6
2d
f7
44
58
75
47
8d
a1
f6
2d
f7
44
58
75
47
8d
a1
f6
2d
f7
44
58
75
47
8d
a1
f6
2d
f7
44
58
75
47
8d
a1
f6
2d
f7
44
58
75
47
8d
a1
f6
2d
f7
44
58
75
47
8d
a1
f6
2d
f7
44
58
75
47
8d
a1
f6
2d
f7
44
58
75
47
8d
a1
f6
2d
f7
44
58
75
47
8d
a1
f6
2d
f7
44
58
75
47
8d
a1
f6
2d
f7
44
58
75
47
8d
a1
f6
2d
f7
44
58
75
47
8d
a1
f6
2d
f7
44
58
75
47
8d
a1
f6
2d
f7
44
58
75
47
8d
a1
f6
2d
f7
44
58
75
47
8d
a1
f6
2d
f7
44
58
75
47
8d
a1
f6
2d
f7
44
58
75
47
8d
a1
f6
2d
f7
44
58
75
47
8d
a1
f6
2d
f7
44
58
75
47
8d
a1
f6
2d
f7
44
58
75
47
8d
a1
f6
2d
f7
44
58
75
47
8d
a1
f6
2d
f7
44
58
75
47
8d
a1
f6
2d
f7
44
58
75
47
8d
a1
f6
2d
f7
44
58
75
47
8d
a1
f6
2d
f7
44
58
75
47
8d
a1
f6
2d
f7
44
58
75
47
8d
a1
f6
2d
f7
44
58
75
47
8d
a1
f6
2d
f7
44
58
75
47
8d
a1
f6
2d
f7
44
58
75
47
8d
a1
f6
2d
f7
44
58
75
47
8d
a1
f6
2d
f7
44
58
75
47
8d
a1
f6
2d
f7
44
58
75
47
8d
a1
f6
2d
f7
44
58
75
47
8d
a1
f6
2d
f7
44
58
75
47
8d
a1
f6
2d
f7
44
58
75
47
8d
a1
f6
2d
f7
44
58
75
47
8d
a1
f6
2d
f7
44
58
75
47
8d
a1
f6
2d
f7
44
58
75
47
8d
a1
f6
2d
f7
44
58
75
47
8d
a1
f6
2d
f7
44
58
75
47
8d
a1
f6
2d
f7
44
58
75
47
8d
a1
f6
2d
f7
44
58
75
47
8d
a1
f6
2d
f7
44
58
75
47
8d
a1
f6
2d
f7
44
58
75
47
8d
a1
f6
2d
f7
44
58
75
47
8d
a1
f6
2d
f7
44
58
75
47
8d
a1
f6
2d
f7
44
58
75
47
8d
a1
f6
2d
f7
44
58
75
47
8d
a1
f6
2d
f7
44
58
75
47
8d
a1
f6
2d
f7
44
58
75
47
8d
a1
f6
2d
f7
44
58
75
47
8d
a1
f6
2d
f7
44
58
75
47
8d
a1
f6
2d
f7
44
58
75
47
8d
a1
f6
2d
f7
44
58
75
47
8d
a1
f6
2d
f7
44
58
75
47
8d
a1
f6
2d
f7
44
58
75
47
8d
a1
f6
2d
f7
44
58
75
47
8d
a1
f6
2d
f7
44
58
75
47
8d
a1
f6
2d
f7
44
58
75
47
8d
a1
f6
2d
f7
44
58
75
47
8d
a1
f6
2d
f7
44
58
75
47
8d
a1
f6
2d
f7
44
58
75
47
8d
a1
f6
2d
f7
44
58
75
47
8d
a1
f6
2d
f7
44
58
75
47
8d
a1
f6
2d
f7
44
58
75
47
8d
a1
f6
2d
f7
44
58
75
47
8d
a1
f6
2d
f7
44
58
75
47
8d
a1
f6
2d
f7
44
58
75
47
8d
a1
f6
2d
f7
44
58
75
47
8d
a1
f6
2d
f7
44
58
75
47
8d
a1
f6
2d
f7
44
58
75
47
8d
a1
f6
2d
f7
44
58
75
47
8d
a1
f6
2d
f7
44
58
75
47
8d
a1
f6
2d
f7
44
58
75
47
8d
a1
f6
2d
f7
44
58
75
47
8d
a1
f6
2d
f7
44
58
75
47
8d
a1
f6
2d
f7
44
58
75
47
8d
a1
f6
2d
f7
44
58
75
47
8d
a1
f6
2d
f7
44
58
75
47
8d
a1
f6
2d
f7
44
58
75
47
8d
a1
f6
2d
f7
44
58
75
47
8d
a1
f6
2d
f7
44
58
75
47
8d
a1
f6
2d
f7
44
58
75
47
8d
a1
f6
2d
f7
44
58
75
47
8d
a1
f6
2d
f7
44
58
75
47
8d
a1
f6
2d
f7
44
58
75
47
8d
a1
f6
2d
f7
44
58
75
47
8d
a1
f6
2d
f7
44
58
75
47
8d
a1
f6
2d
f7
44
58
75
47
8d
a1
f6
2d
f7
44
58
75
47
8d
a1
f6
2d
f7
44
58
75
47
8d
a1
f6
2d
f7
44
58
75
47
8d
a1
f6
2d
f7
44
58
75
47
8d
a1
f6
2d
f7
44
58
75
47
8d
a1
f6
2d
f7
44
58
75
47
8d
a1
f6
2d
f7
44
58
75
47
8d
a1
f6
2d
f7
44
58
75
47
8d
a1
f6
2d
f7
44
58
75
47
8d
a1
f6
2d
f7
44
58
75
47
8d
a1
f6
2d
f7
44
58
75
47
8d
a1
f6
2d
f7
44
58
75
47
8d
a1
f6
2d
f7
44
58
75
47
8d
a1
f6
2d
f7
44
58
75
47
8d
a1
f6
2d
f7
44
58
75
47
8d
a1
f6
2d
f7
44
58
75
47
8d
a1
f6
2d
f7
44
58
75
47
8d
a1
f6
2d
f7
44
58
75
47
8d
a1
f6
2d
f7
44
58
75
47
8d
a1
f6
2d
f7
44
58
75
47
8d
a1
f6
2d
f7
44
58
75
47
8d
a1
f6
2d
f7
44
58
75
47
8d
a1
f6
2d
f7
44
58
75
47
8d
a1
f6
2d
f7
44
58
75
47
8d
a1
f6
2d
f7
44
58
75
47
8d
a1
f6
2d
f7
44
58
75
47
8d
a1
f6
2d
f7
44
58
75
47
8d
a1
f6
2d
f7
44
58
75
47
8d
a1
f6
2d
f7
44
58
75
47
8d
a1
f6
2d
f7
44
58
75
47
8d
a1
f6
2d
f7
44
58
75
47
8d
a1
f6
2d
f7
44
58
75
47
8d
a1
f6
2d
f7
44
58
75
47
8d
a1
f6
2d
f7
44
58
75
47
8d
a1
f6
2d
f7
44
58
75
47
8d
a1
f6
2d
f7
44
58
75
47
8d
a1
f6
2d
f7
44
58
75
47
8d
a1
f6
2d
f7
44
58
75
47
8d
a1
f6
2d
f7
44
58
75
47
8d
a1
f6
2d
f7
44
58
75
47
8d
a1
f6
2d
f7
44
58
75
47
8d
a1
f6
2d
f7
44
58
75
47
8d
a1
f6
2d
f7
44
58
75
47
8d
a1
f6
2d
f7
44
58
75
47
8d
a1
f6
2d
f7
44
58
75
47
8d
a1
f6
2d
f7
44
58
75
47
8d
a1
f6
2d
f7
44
58
75
47
8d
a1
f6
2d
f7
44
58
75
47
8d
a1
f6
2d
f7
44
58
75
47
8d
a1
f6
2d
f7
44
58
75
47
8d
a1
f6
2d
f7
44
58
75
47
8d
a1
f6
2d
f7
44
58
75
47
8d
a1
f6
2d
f7
44
58
75
47
8d
a1
f6
2d
f7
44
58
75
47
8d
a1
f6
2d
f7
44
58
75
47
8d
a1
f6
2d
f7
44
58
75
47
8d
a1
f6
2d
f7
44
58
75
47
8d
a1
f6
2d
f7
44
58
75
47
8d
a1
f6
2d
f7
44
58
75
47
8d
a1
f6
2d
f7
44
58
75
47
8d
a1
f6
2d
f7
44
58
75
47
8d
a1
f6
2d
f7
44
58
75
47
8d
a1
f6
2d
f7
44
58
75
47
8d
a1
f6
2d
f7
44
58
75
47
8d
a1
f6
2d
f7
44
58
75
47
8d
a1
f6
2d
f7
44
58
75
47
8d
a1
f6
2d
f7
44
58
75
47
8d
a1
f6
2d
f7
44
58
75
47
8d
a1
f6
2d
f7
44
58
75
47
8d
a1
f6
2d
f7
44
58
75
47
8d
a1
f6
2d
f7
44
58
75
47
8d
a1
f6
2d
f7
44
58
75
47
8d
a1
f6
2d
f7
44
58
75
47
8d
a1
f6
2d
f7
44
58
75
47
8d
a1
f6
2d
f7
44
58
75
47
8d
a1
f6
2d
f7
44
58
75
47
8d
a1
f6
2d
f7
44
58
75
47
8d
a1
f6
2d
f7
44
58
75
47
8d
a1
f6
2d
f7
44
58
75
47
8d
a1
f6
2d
f7
44
58
75
47
8d
a1
f6
2d
f7
44
58
75
47
8d
a1
f6
2d
f7
44
58
75
47
8d
a1
f6
2d
f7
44
58
75
47
8d
a1
f6
2d
f7
44
58
75
47
8d
a1
f6
2d
f7
44
58
75
47
8d
a1
f6
2d
f7
44
58
75
47
8d
a1
f6
2d
f7
44
58
75
47
8d
a1
f6
2d
f7
44
58
75
47
8d
a1
f6
2d
f7
44
58
75
47
8d
a1
f6
2d
f7
44
58
75
47
8d
a1
f6
2d
f7
44
58
75
47
8d
a1
f6
2d
f7
44
58
75
47
8d
a1
f6
2d
f7
44
58
75
47
8d
a1
f6
2d
f7
44
58
75
47
8d
a1
f6
2d
f7
44
58
75
47
8d
a1
f6
2d
f7
44
58
75
47
8d
a1
f6
2d
f7
44
58
75
47
8d
a1
f6
2d
f7
44
58
75
47
8d
a1
f6
2d
f7
44
58
75
47
8d
a1
f6
2d
f7
44
58
75
47
8d
a1
f6
2d
f7
44
58
75
47
8d
a1
f6
2d
f7
44
58
75
47
8d
a1
f6
2d
f7
44
58
75
47
8d
a1
f6
2d
f7
44
58
75
47
8d
a1
f6
2d
f7
44
58
75
47
8d
a1
f6
2d
f7
44
58
75
47
8d
a1
f6
2d
f7
44
58
75
47
8d
a1
f6
2d
f7
44
58
75
47
8d
a1
f6
2d
f7
44
58
75
47
8d
a1
f6
2d
f7
44
58
75
47
8d
a1
f6
2d
f7
44
58
75
47
8d
a1
f6
2d
f7
44
58
75
47
8d
a1
f6
2d
f7
44
58
75
47
8d
a1
f6
2d
f7
44
58
75
47
8d
a1
f6
2d
f7
44
58
75
47
8d
a1
f6
2d
f7
44
58
75
47
8d
a1
f6
2d
f7
44
58
75
47
8d
a1
f6
2d
f7
44
58
75
47
8d
a1
f6
2d
f7
44
58
75
47
8d
a1
f6
2d
f7
44
58
75
47
8d
a1
f6
2d
f7
44
58
75
47
8d
a1
f6
2d
f7
44
58
75
47
8d
a1
f6
2d
f7
44
58
75
47
8d
a1
f6
2d
f7
44
58
75
47
8d
a1
f6
2d
f7
44
58
75
47
8d
a1
f6
2d
f7
44
58
75
47
8d
a1
f6
2d
f7
44
58
75
47
8d
a1
f6
2d
f7
44
58
75
47
8d
a1
f6
2d
f7
44
58
75
47
8d
a1
f6
2d
f7
44
58
75
47
8d
a1
f6
2d
f7
44
58
75
47
8d
a1
f6
2d
f7
44
58
75
47
8d
a1
f6
2d
f7
44
58
75
47
8d
a1
f6
2d
f7
44
58
75
47
8d
a1
f6
2d
f7
44
58
75
47
8d
a1
f6
2d
f7
44
58
75
47
8d
a1
f6
2d
f7
44
58
75
47
8d
a1
f6
2d
f7
44
58
75
47
8d
a1
f6
2d
f7
44
58
75
47
8d
a1
f6
2d
f7
44
58
75
47
8d
a1
f6
2d
f7
44
58
75
47
8d
a1
f6
2d
f7
44
58
75
47
8d
a1
f6
2d
f7
44
58
75
47
8d
a1
f6
2d
f7
44
58
75
47
8d
a1
f6
2d
f7
44
58
75
47
8d
a1
f6
2d
f7
44
58
75
47
8d
a1
f6
2d
f7
44
58
75
47
8d
a1
f6
2d
f7
44
58
75
47
8d
a1
f6
2d
f7
44
58
75
47
8d
a1
f6
2d
f7
44
58
75
47
8d
a1
f6
2d
f7
44
58
75
47
8d
a1
f6
2d
f7
44
58
75
47
8d
a1
f6
2d
f7
44
58
75
47
8d
a1
f6
2d
f7
44
58
75
47
8d
a1
f6
2d
f7
44
58
75
47
8d
a1
f6
2d
f7
44
58
75
47
8d
a1
f6
2d
f7
44
58
75
47
8d
a1
f6
2d
f7
44
58
75
47
8d
a1
f6
2d
f7
44
58
75
47
8d
a1
f6
2d
f7
44
58
75
47
8d
a1
f6
2d
f7
44
58
75
47
8d
a1
f6
2d
f7
44
58
75
47
8d
a1
f6
2d
f7
44
58
75
47
8d
a1
f6
2d
f7
44
58
75
47
8d
a1
f6
2d
f7
44
58
75
47
8d
a1
f6
2d
f7
44
58
75
47
8d
a1
f6
2d
f7
44
58
75
47
8d
a1
f6
2d
f7
44
58
75
47
8d
a1
f6
2d
f7
44
58
75
47
8d
a1
f6
2d
f7
44
58
75
47
8d
a1
f6
2d
f7
44
58
75
47
8d
a1
f6
2d
f7
44
58
75
47
8d
a1
f6
2d
f7
44
58
75
47
8d
a1
f6
2d
f7
44
58
75
47
8d
a1
f6
2d
f7
44
58
75
47
8d
a1
f6
2d
f7
44
58
75
47
8d
a1
f6
2d
f7
44
58
75
47
8d
a1
f6
2d
f7
44
58
75
47
8d
a1
f6
2d
f7
44
58
75
47
8d
a1
f6
2d
f7
44
58
75
47
8d
a1
f6
2d
f7
44
58
75
47
8d
a1
f6
2d
f7
44
58
75
47
8d
a1
f6
2d
f7
44
58
75
47
8d
a1
f6
2d
f7
44
58
75
47
8d
a1
f6
2d
f7
44
58
75
47
8d
a1
f6
2d
f7
44
58
75
47
8d
a1
f6
2d
f7
44
58
75
47
8d
a1
f6
2d
f7
44
58
75
47
8d
a1
f6
2d
f7
44
58
75
47
8d
a1
f6
2d
f7
44
58
75
47
8d
a1
f6
2d
f7
44
58
75
47
8d
a1
f6
2d
f7
44
58
75
47
8d
a1
f6
2d
f7
44
58
75
47
8d
a1
f6
2d
f7
44
58
75
47
8d
a1
f6
2d
f7
44
58
75
47
8d
a1
f6
2d
f7
44
58
75
47
8d
a1
f6
2d
f7
44
58
75
47
8d
a1
f6
2d
f7
44
58
75
47
8d
a1
f6
2d
f7
44
58
75
47
8d
a1
f6
2d
f7
44
58
75
47
8d
a1
f6
2d
f7
44
58
75
47
8d
a1
f6
2d
f7
44
58
75
47
8d
a1
f6
2d
f7
44
58
75
47
8d
a1
f6
2d
f7
44
58
75
47
8d
a1
f6
2d
f7
44
58
75
47
8d
a1
f6
2d
f7
44
58
75
47
8d
a1
f6
2d
f7
44
58
75
47
8d
