2d
59
7a
d9
66
f2
28
a7
b6
10
e0
8b
28
a8
92
47
c0
b9
13
e9
a6
dc
65
fe
88
1d
39
2d
59
7a
d9
66
f2
28
a7
b6
10
e0
8b
28
a8
92
47
c0
b9
13
e9
a6
dc
65
fe
88
1d
39
2d
59
7a
d9
66
f2
28
a7
b6
10
e0
8b
28
a8
92
47
c0
b9
13
e9
a6
dc
65
fe
88
1d
39
2d
59
7a
d9
66
f2
28
a7
b6
10
e0
8b
28
a8
92
47
c0
b9
13
e9
a6
dc
65
fe
88
1d
39
2d
59
7a
d9
66
f2
28
a7
b6
10
e0
8b
28
a8
92
47
c0
b9
13
e9
a6
dc
65
fe
88
1d
39
2d
59
7a
d9
66
f2
28
a7
b6
10
e0
8b
28
a8
92
47
c0
b9
13
e9
a6
dc
65
fe
88
1d
39
2d
59
7a
d9
66
f2
28
a7
b6
10
e0
8b
28
a8
92
47
c0
b9
13
e9
a6
dc
65
fe
88
1d
39
2d
59
7a
d9
66
f2
28
a7
b6
10
e0
8b
28
a8
92
47
c0
b9
13
e9
a6
dc
65
fe
88
1d
39
2d
59
7a
d9
66
f2
28
a7
b6
10
e0
8b
28
a8
92
47
c0
b9
13
e9
a6
dc
65
fe
88
1d
39
2d
59
7a
d9
66
f2
28
a7
b6
10
e0
8b
28
a8
92
47
c0
b9
13
e9
a6
dc
65
fe
88
1d
39
2d
59
7a
d9
66
f2
28
a7
b6
10
e0
8b
28
a8
92
47
c0
b9
13
e9
a6
dc
65
fe
88
1d
39
2d
59
7a
d9
66
f2
28
a7
b6
10
e0
8b
28
a8
92
47
c0
b9
13
e9
a6
dc
65
fe
88
1d
39
2d
59
7a
d9
66
f2
28
a7
b6
10
e0
8b
28
a8
92
47
c0
b9
13
e9
a6
dc
65
fe
88
1d
39
2d
59
7a
d9
66
f2
28
a7
b6
10
e0
8b
28
a8
92
47
c0
b9
13
e9
a6
dc
65
fe
88
1d
39
2d
59
7a
d9
66
f2
28
a7
b6
10
e0
8b
28
a8
92
47
c0
b9
13
e9
a6
dc
65
fe
88
1d
39
2d
59
7a
d9
66
f2
28
a7
b6
10
e0
8b
28
a8
92
47
c0
b9
13
e9
a6
dc
65
fe
88
1d
39
2d
59
7a
d9
66
f2
28
a7
b6
10
e0
8b
28
a8
92
47
c0
b9
13
e9
a6
dc
65
fe
88
1d
39
2d
59
7a
d9
66
f2
28
a7
b6
10
e0
8b
28
a8
92
47
c0
b9
13
e9
a6
dc
65
fe
88
1d
39
2d
59
7a
d9
66
f2
28
a7
b6
10
e0
8b
28
a8
92
47
c0
b9
13
e9
a6
dc
65
fe
88
1d
39
2d
59
7a
d9
66
f2
28
a7
b6
10
e0
8b
28
a8
92
47
c0
b9
13
e9
a6
dc
65
fe
88
1d
39
2d
59
7a
d9
66
f2
28
a7
b6
10
e0
8b
28
a8
92
47
c0
b9
13
e9
a6
dc
65
fe
88
1d
39
2d
59
7a
d9
66
f2
28
a7
b6
10
e0
8b
28
a8
92
47
c0
b9
13
e9
a6
dc
65
fe
88
1d
39
2d
59
7a
d9
66
f2
28
a7
b6
10
e0
8b
28
a8
92
47
c0
b9
13
e9
a6
dc
65
fe
88
1d
39
2d
59
7a
d9
66
f2
28
a7
b6
10
e0
8b
28
a8
92
47
c0
b9
13
e9
a6
dc
65
fe
88
1d
39
2d
59
7a
d9
66
f2
28
a7
b6
10
e0
8b
28
a8
92
47
c0
b9
13
e9
a6
dc
65
fe
88
1d
39
2d
59
7a
d9
66
f2
28
a7
b6
10
e0
8b
28
a8
92
47
c0
b9
13
e9
a6
dc
65
fe
88
1d
39
2d
59
7a
d9
66
f2
28
a7
b6
10
e0
8b
28
a8
92
47
c0
b9
13
e9
a6
dc
65
fe
88
1d
39
2d
59
7a
d9
66
f2
28
a7
b6
10
e0
8b
28
a8
92
47
c0
b9
13
e9
a6
dc
65
fe
88
1d
39
2d
59
7a
d9
66
f2
28
a7
b6
10
e0
8b
28
a8
92
47
c0
b9
13
e9
a6
dc
65
fe
88
1d
39
2d
59
7a
d9
66
f2
28
a7
b6
10
e0
8b
28
a8
92
47
c0
b9
13
e9
a6
dc
65
fe
88
1d
39
2d
59
7a
d9
66
f2
28
a7
b6
10
e0
8b
28
a8
92
47
c0
b9
13
e9
a6
dc
65
fe
88
1d
39
2d
59
7a
d9
66
f2
28
a7
b6
10
e0
8b
28
a8
92
47
c0
b9
13
e9
a6
dc
65
fe
88
1d
39
2d
59
7a
d9
66
f2
28
a7
b6
10
e0
8b
28
a8
92
47
c0
b9
13
e9
a6
dc
65
fe
88
1d
39
2d
59
7a
d9
66
f2
28
a7
b6
10
e0
8b
28
a8
92
47
c0
b9
13
e9
a6
dc
65
fe
88
1d
39
2d
59
7a
d9
66
f2
28
a7
b6
10
e0
8b
28
a8
92
47
c0
b9
13
e9
a6
dc
65
fe
88
1d
39
2d
59
7a
d9
66
f2
28
a7
b6
10
e0
8b
28
a8
92
47
c0
b9
13
e9
a6
dc
65
fe
88
1d
39
2d
59
7a
d9
66
f2
28
a7
b6
10
e0
8b
28
a8
92
47
c0
b9
13
e9
a6
dc
65
fe
88
1d
39
2d
59
7a
d9
66
f2
28
a7
b6
10
e0
8b
28
a8
92
47
c0
b9
13
e9
a6
dc
65
fe
88
1d
39
2d
59
7a
d9
66
f2
28
a7
b6
10
e0
8b
28
a8
92
47
c0
b9
13
e9
a6
dc
65
fe
88
1d
39
2d
59
7a
d9
66
f2
28
a7
b6
10
e0
8b
28
a8
92
47
c0
b9
13
e9
a6
dc
65
fe
88
1d
39
2d
59
7a
d9
66
f2
28
a7
b6
10
e0
8b
28
a8
92
47
c0
b9
13
e9
a6
dc
65
fe
88
1d
39
2d
59
7a
d9
66
f2
28
a7
b6
10
e0
8b
28
a8
92
47
c0
b9
13
e9
a6
dc
65
fe
88
1d
39
2d
59
7a
d9
66
f2
28
a7
b6
10
e0
8b
28
a8
92
47
c0
b9
13
e9
a6
dc
65
fe
88
1d
39
2d
59
7a
d9
66
f2
28
a7
b6
10
e0
8b
28
a8
92
47
c0
b9
13
e9
a6
dc
65
fe
88
1d
39
2d
59
7a
d9
66
f2
28
a7
b6
10
e0
8b
28
a8
92
47
c0
b9
13
e9
a6
dc
65
fe
88
1d
39
2d
59
7a
d9
66
f2
28
a7
b6
10
e0
8b
28
a8
92
47
c0
b9
13
e9
a6
dc
65
fe
88
1d
39
2d
59
7a
d9
66
f2
28
a7
b6
10
e0
8b
28
a8
92
47
c0
b9
13
e9
a6
dc
65
fe
88
1d
39
2d
59
7a
d9
66
f2
28
a7
b6
10
e0
8b
28
a8
92
47
c0
b9
13
e9
a6
dc
65
fe
88
1d
39
2d
59
7a
d9
66
f2
28
a7
b6
10
e0
8b
28
a8
92
47
c0
b9
13
e9
a6
dc
65
fe
88
1d
39
2d
59
7a
d9
66
f2
28
a7
b6
10
e0
8b
28
a8
92
47
c0
b9
13
e9
a6
dc
65
fe
88
1d
39
2d
59
7a
d9
66
f2
28
a7
b6
10
e0
8b
28
a8
92
47
c0
b9
13
e9
a6
dc
65
fe
88
1d
39
2d
59
7a
d9
66
f2
28
a7
b6
10
e0
8b
28
a8
92
47
c0
b9
13
e9
a6
dc
65
fe
88
1d
39
2d
59
7a
d9
66
f2
28
a7
b6
10
e0
8b
28
a8
92
47
c0
b9
13
e9
a6
dc
65
fe
88
1d
39
2d
59
7a
d9
66
f2
28
a7
b6
10
e0
8b
28
a8
92
47
c0
b9
13
e9
a6
dc
65
fe
88
1d
39
2d
59
7a
d9
66
f2
28
a7
b6
10
e0
8b
28
a8
92
47
c0
b9
13
e9
a6
dc
65
fe
88
1d
39
2d
59
7a
d9
66
f2
28
a7
b6
10
e0
8b
28
a8
92
47
c0
b9
13
e9
a6
dc
65
fe
88
1d
39
2d
59
7a
d9
66
f2
28
a7
b6
10
e0
8b
28
a8
92
47
c0
b9
13
e9
a6
dc
65
fe
88
1d
39
2d
59
7a
d9
66
f2
28
a7
b6
10
e0
8b
28
a8
92
47
c0
b9
13
e9
a6
dc
65
fe
88
1d
39
2d
59
7a
d9
66
f2
28
a7
b6
10
e0
8b
28
a8
92
47
c0
b9
13
e9
a6
dc
65
fe
88
1d
39
2d
59
7a
d9
66
f2
28
a7
b6
10
e0
8b
28
a8
92
47
c0
b9
13
e9
a6
dc
65
fe
88
1d
39
2d
59
7a
d9
66
f2
28
a7
b6
10
e0
8b
28
a8
92
47
c0
b9
13
e9
a6
dc
65
fe
88
1d
39
2d
59
7a
d9
66
f2
28
a7
b6
10
e0
8b
28
a8
92
47
c0
b9
13
e9
a6
dc
65
fe
88
1d
39
2d
59
7a
d9
66
f2
28
a7
b6
10
e0
8b
28
a8
92
47
c0
b9
13
e9
a6
dc
65
fe
88
1d
39
2d
59
7a
d9
66
f2
28
a7
b6
10
e0
8b
28
a8
92
47
c0
b9
13
e9
a6
dc
65
fe
88
1d
39
2d
59
7a
d9
66
f2
28
a7
b6
10
e0
8b
28
a8
92
47
c0
b9
13
e9
a6
dc
65
fe
88
1d
39
2d
59
7a
d9
66
f2
28
a7
b6
10
e0
8b
28
a8
92
47
c0
b9
13
e9
a6
dc
65
fe
88
1d
39
2d
59
7a
d9
66
f2
28
a7
b6
10
e0
8b
28
a8
92
47
c0
b9
13
e9
a6
dc
65
fe
88
1d
39
2d
59
7a
d9
66
f2
28
a7
b6
10
e0
8b
28
a8
92
47
c0
b9
13
e9
a6
dc
65
fe
88
1d
39
2d
59
7a
d9
66
f2
28
a7
b6
10
e0
8b
28
a8
92
47
c0
b9
13
e9
a6
dc
65
fe
88
1d
39
2d
59
7a
d9
66
f2
28
a7
b6
10
e0
8b
28
a8
92
47
c0
b9
13
e9
a6
dc
65
fe
88
1d
39
2d
59
7a
d9
66
f2
28
a7
b6
10
e0
8b
28
a8
92
47
c0
b9
13
e9
a6
dc
65
fe
88
1d
39
2d
59
7a
d9
66
f2
28
a7
b6
10
e0
8b
28
a8
92
47
c0
b9
13
e9
a6
dc
65
fe
88
1d
39
2d
59
7a
d9
66
f2
28
a7
b6
10
e0
8b
28
a8
92
47
c0
b9
13
e9
a6
dc
65
fe
88
1d
39
2d
59
7a
d9
66
f2
28
a7
b6
10
e0
8b
28
a8
92
47
c0
b9
13
e9
a6
dc
65
fe
88
1d
39
2d
59
7a
d9
66
f2
28
a7
b6
10
e0
8b
28
a8
92
47
c0
b9
13
e9
a6
dc
65
fe
88
1d
39
2d
59
7a
d9
66
f2
28
a7
b6
10
e0
8b
28
a8
92
47
c0
b9
13
e9
a6
dc
65
fe
88
1d
39
2d
59
7a
d9
66
f2
28
a7
b6
10
e0
8b
28
a8
92
47
c0
b9
13
e9
a6
dc
65
fe
88
1d
39
2d
59
7a
d9
66
f2
28
a7
b6
10
e0
8b
28
a8
92
47
c0
b9
13
e9
a6
dc
65
fe
88
1d
39
2d
59
7a
d9
66
f2
28
a7
b6
10
e0
8b
28
a8
92
47
c0
b9
13
e9
a6
dc
65
fe
88
1d
39
2d
59
7a
d9
66
f2
28
a7
b6
10
e0
8b
28
a8
92
47
c0
b9
13
e9
a6
dc
65
fe
88
1d
39
2d
59
7a
d9
66
f2
28
a7
b6
10
e0
8b
28
a8
92
47
c0
b9
13
e9
a6
dc
65
fe
88
1d
39
2d
59
7a
d9
66
f2
28
a7
b6
10
e0
8b
28
a8
92
47
c0
b9
13
e9
a6
dc
65
fe
88
1d
39
2d
59
7a
d9
66
f2
28
a7
b6
10
e0
8b
28
a8
92
47
c0
b9
13
e9
a6
dc
65
fe
88
1d
39
2d
59
7a
d9
66
f2
28
a7
b6
10
e0
8b
28
a8
92
47
c0
b9
13
e9
a6
dc
65
fe
88
1d
39
2d
59
7a
d9
66
f2
28
a7
b6
10
e0
8b
28
a8
92
47
c0
b9
13
e9
a6
dc
65
fe
88
1d
39
2d
59
7a
d9
66
f2
28
a7
b6
10
e0
8b
28
a8
92
47
c0
b9
13
e9
a6
dc
65
fe
88
1d
39
2d
59
7a
d9
66
f2
28
a7
b6
10
e0
8b
28
a8
92
47
c0
b9
13
e9
a6
dc
65
fe
88
1d
39
2d
59
7a
d9
66
f2
28
a7
b6
10
e0
8b
28
a8
92
47
c0
b9
13
e9
a6
dc
65
fe
88
1d
39
2d
59
7a
d9
66
f2
28
a7
b6
10
e0
8b
28
a8
92
47
c0
b9
13
e9
a6
dc
65
fe
88
1d
39
2d
59
7a
d9
66
f2
28
a7
b6
10
e0
8b
28
a8
92
47
c0
b9
13
e9
a6
dc
65
fe
88
1d
39
2d
59
7a
d9
66
f2
28
a7
b6
10
e0
8b
28
a8
92
47
c0
b9
13
e9
a6
dc
65
fe
88
1d
39
2d
59
7a
d9
66
f2
28
a7
b6
10
e0
8b
28
a8
92
47
c0
b9
13
e9
a6
dc
65
fe
88
1d
39
2d
59
7a
d9
66
f2
28
a7
b6
10
e0
8b
28
a8
92
47
c0
b9
13
e9
a6
dc
65
fe
88
1d
39
2d
59
7a
d9
66
f2
28
a7
b6
10
e0
8b
28
a8
92
47
c0
b9
13
e9
a6
dc
65
fe
88
1d
39
2d
59
7a
d9
66
f2
28
a7
b6
10
e0
8b
28
a8
92
47
c0
b9
13
e9
a6
dc
65
fe
88
1d
39
2d
59
7a
d9
66
f2
28
a7
b6
10
e0
8b
28
a8
92
47
c0
b9
13
e9
a6
dc
65
fe
88
1d
39
2d
59
7a
d9
66
f2
28
a7
b6
10
e0
8b
28
a8
92
47
c0
b9
13
e9
a6
dc
65
fe
88
1d
39
2d
59
7a
d9
66
f2
28
a7
b6
10
e0
8b
28
a8
92
47
c0
b9
13
e9
a6
dc
65
fe
88
1d
39
2d
59
7a
d9
66
f2
28
a7
b6
10
e0
8b
28
a8
92
47
c0
b9
13
e9
a6
dc
65
fe
88
1d
39
2d
59
7a
d9
66
f2
28
a7
b6
10
e0
8b
28
a8
92
47
c0
b9
13
e9
a6
dc
65
fe
88
1d
39
2d
59
7a
d9
66
f2
28
a7
b6
10
e0
8b
28
a8
92
47
c0
b9
13
e9
a6
dc
65
fe
88
1d
39
2d
59
7a
d9
66
f2
28
a7
b6
10
e0
8b
28
a8
92
47
c0
b9
13
e9
a6
dc
65
fe
88
1d
39
2d
59
7a
d9
66
f2
28
a7
b6
10
e0
8b
28
a8
92
47
c0
b9
13
e9
a6
dc
65
fe
88
1d
39
2d
59
7a
d9
66
f2
28
a7
b6
10
e0
8b
28
a8
92
47
c0
b9
13
e9
a6
dc
65
fe
88
1d
39
2d
59
7a
d9
66
f2
28
a7
b6
10
e0
8b
28
a8
92
47
c0
b9
13
e9
a6
dc
65
fe
88
1d
39
2d
59
7a
d9
66
f2
28
a7
b6
10
e0
8b
28
a8
92
47
c0
b9
13
e9
a6
dc
65
fe
88
1d
39
2d
59
7a
d9
66
f2
28
a7
b6
10
e0
8b
28
a8
92
47
c0
b9
13
e9
a6
dc
65
fe
88
1d
39
2d
59
7a
d9
66
f2
28
a7
b6
10
e0
8b
28
a8
92
47
c0
b9
13
e9
a6
dc
65
fe
88
1d
39
2d
59
7a
d9
66
f2
28
a7
b6
10
e0
8b
28
a8
92
47
c0
b9
13
e9
a6
dc
65
fe
88
1d
39
2d
59
7a
d9
66
f2
28
a7
b6
10
e0
8b
28
a8
92
47
c0
b9
13
e9
a6
dc
65
fe
88
1d
39
2d
59
7a
d9
66
f2
28
a7
b6
10
e0
8b
28
a8
92
47
c0
b9
13
e9
a6
dc
65
fe
88
1d
39
2d
59
7a
d9
66
f2
28
a7
b6
10
e0
8b
28
a8
92
47
c0
b9
13
e9
a6
dc
65
fe
88
1d
39
2d
59
7a
d9
66
f2
28
a7
b6
10
e0
8b
28
a8
92
47
c0
b9
13
e9
a6
dc
65
fe
88
1d
39
2d
59
7a
d9
66
f2
28
a7
b6
10
e0
8b
28
a8
92
47
c0
b9
13
e9
a6
dc
65
fe
88
1d
39
2d
59
7a
d9
66
f2
28
a7
b6
10
e0
8b
28
a8
92
47
c0
b9
13
e9
a6
dc
65
fe
88
1d
39
2d
59
7a
d9
66
f2
28
a7
b6
10
e0
8b
28
a8
92
47
c0
b9
13
e9
a6
dc
65
fe
88
1d
39
2d
59
7a
d9
66
f2
28
a7
b6
10
e0
8b
28
a8
92
47
c0
b9
13
e9
a6
dc
65
fe
88
1d
39
2d
59
7a
d9
66
f2
28
a7
b6
10
e0
8b
28
a8
92
47
c0
b9
13
e9
a6
dc
65
fe
88
1d
39
2d
59
7a
d9
66
f2
28
a7
b6
10
e0
8b
28
a8
92
47
c0
b9
13
e9
a6
dc
65
fe
88
1d
39
2d
59
7a
d9
66
f2
28
a7
b6
10
e0
8b
28
a8
92
47
c0
b9
13
e9
a6
dc
65
fe
88
1d
39
2d
59
7a
d9
66
f2
28
a7
b6
10
e0
8b
28
a8
92
47
c0
b9
13
e9
a6
dc
65
fe
88
1d
39
2d
59
7a
d9
66
f2
28
a7
b6
10
e0
8b
28
a8
92
47
c0
b9
13
e9
a6
dc
65
fe
88
1d
39
2d
59
7a
d9
66
f2
28
a7
b6
10
e0
8b
28
a8
92
47
c0
b9
13
e9
a6
dc
65
fe
88
1d
39
2d
59
7a
d9
66
f2
28
a7
b6
10
e0
8b
28
a8
92
47
c0
b9
13
e9
a6
dc
65
fe
88
1d
39
2d
59
7a
d9
66
f2
28
a7
b6
10
e0
8b
28
a8
92
47
c0
b9
13
e9
a6
dc
65
fe
88
1d
39
2d
59
7a
d9
66
f2
28
a7
b6
10
e0
8b
28
a8
92
47
c0
b9
13
e9
a6
dc
65
fe
88
1d
39
2d
59
7a
d9
66
f2
28
a7
b6
10
e0
8b
28
a8
92
47
c0
b9
13
e9
a6
dc
65
fe
88
1d
39
2d
59
7a
d9
66
f2
28
a7
b6
10
e0
8b
28
a8
92
47
c0
b9
13
e9
a6
dc
65
fe
88
1d
39
2d
59
7a
d9
66
f2
28
a7
b6
10
e0
8b
28
a8
92
47
c0
b9
13
e9
a6
dc
65
fe
88
1d
39
2d
59
7a
d9
66
f2
28
a7
b6
10
e0
8b
28
a8
92
47
c0
b9
13
e9
a6
dc
65
fe
88
1d
39
2d
59
7a
d9
66
f2
28
a7
b6
10
e0
8b
28
a8
92
47
c0
b9
13
e9
a6
dc
65
fe
88
1d
39
2d
59
7a
d9
66
f2
28
a7
b6
10
e0
8b
28
a8
92
47
c0
b9
13
e9
a6
dc
65
fe
88
1d
39
2d
59
7a
d9
66
f2
28
a7
b6
10
e0
8b
28
a8
92
47
c0
b9
13
e9
a6
dc
65
fe
88
1d
39
2d
59
7a
d9
66
f2
28
a7
b6
10
e0
8b
28
a8
92
47
c0
b9
13
e9
a6
dc
65
fe
88
1d
39
2d
59
7a
d9
66
f2
28
a7
b6
10
e0
8b
28
a8
92
47
c0
b9
13
e9
a6
dc
65
fe
88
1d
39
2d
59
7a
d9
66
f2
28
a7
b6
10
e0
8b
28
a8
92
47
c0
b9
13
e9
a6
dc
65
fe
88
1d
39
2d
59
7a
d9
66
f2
28
a7
b6
10
e0
8b
28
a8
92
47
c0
b9
13
e9
a6
dc
65
fe
88
1d
39
2d
59
7a
d9
66
f2
28
a7
b6
10
e0
8b
28
a8
92
47
c0
b9
13
e9
a6
dc
65
fe
88
1d
39
2d
59
7a
d9
66
f2
28
a7
b6
10
e0
8b
28
a8
92
47
c0
b9
13
e9
a6
dc
65
fe
88
1d
39
2d
59
7a
d9
66
f2
28
a7
b6
10
e0
8b
28
a8
92
47
c0
b9
13
e9
a6
dc
65
fe
88
1d
39
2d
59
7a
d9
66
f2
28
a7
b6
10
e0
8b
28
a8
92
47
c0
b9
13
e9
a6
dc
65
fe
88
1d
39
2d
59
7a
d9
66
f2
28
a7
b6
10
e0
8b
28
a8
92
47
c0
b9
13
e9
a6
dc
65
fe
88
1d
39
2d
59
7a
d9
66
f2
28
a7
b6
10
e0
8b
28
a8
92
47
c0
b9
13
e9
a6
dc
65
fe
88
1d
39
2d
59
7a
d9
66
f2
28
a7
b6
10
e0
8b
28
a8
92
47
c0
b9
13
e9
a6
dc
65
fe
88
1d
39
2d
59
7a
d9
66
f2
28
a7
b6
10
e0
8b
28
a8
92
47
c0
b9
13
e9
a6
dc
65
fe
88
1d
39
2d
59
7a
d9
66
f2
28
a7
b6
10
e0
8b
28
a8
92
47
c0
b9
13
e9
a6
dc
65
fe
88
1d
39
2d
59
7a
d9
66
f2
28
a7
b6
10
e0
8b
28
a8
92
47
c0
b9
13
e9
a6
dc
65
fe
88
1d
39
2d
59
7a
d9
66
f2
28
a7
b6
10
e0
8b
28
a8
92
47
c0
b9
13
e9
a6
dc
65
fe
88
1d
39
2d
59
7a
d9
66
f2
28
a7
b6
10
e0
8b
28
a8
92
47
c0
b9
13
e9
a6
dc
65
fe
88
1d
39
2d
59
7a
d9
66
f2
28
a7
b6
10
e0
8b
28
a8
92
47
c0
b9
13
e9
a6
dc
65
fe
88
1d
39
2d
59
7a
d9
66
f2
28
a7
b6
10
e0
8b
28
a8
92
47
c0
b9
13
e9
a6
dc
65
fe
88
1d
39
2d
59
7a
d9
66
f2
28
a7
b6
10
e0
8b
28
a8
92
47
c0
b9
13
e9
a6
dc
65
fe
88
1d
39
2d
59
7a
d9
66
f2
28
a7
b6
10
e0
8b
28
a8
92
47
c0
b9
13
e9
a6
dc
65
fe
88
1d
39
2d
59
7a
d9
66
f2
28
a7
b6
10
e0
8b
28
a8
92
47
c0
b9
13
e9
a6
dc
65
fe
88
1d
39
2d
59
7a
d9
66
f2
28
a7
b6
10
e0
8b
28
a8
92
47
c0
b9
13
e9
a6
dc
65
fe
88
1d
39
2d
59
7a
d9
66
f2
28
a7
b6
10
e0
8b
28
a8
92
47
c0
b9
13
e9
a6
dc
65
fe
88
1d
39
2d
59
7a
d9
66
f2
28
a7
b6
10
e0
8b
28
a8
92
47
c0
b9
13
e9
a6
dc
65
fe
88
1d
39
2d
59
7a
d9
66
f2
28
a7
b6
10
e0
8b
28
a8
92
47
c0
b9
13
e9
a6
dc
65
fe
88
1d
39
2d
59
7a
d9
66
f2
28
a7
b6
10
e0
8b
28
a8
92
47
c0
b9
13
e9
a6
dc
65
fe
88
1d
39
2d
59
7a
d9
66
f2
28
a7
b6
10
e0
8b
28
a8
92
47
c0
b9
13
e9
a6
dc
65
fe
88
1d
39
2d
59
7a
d9
66
f2
28
a7
b6
10
e0
8b
28
a8
92
47
c0
b9
13
e9
a6
dc
65
fe
88
1d
39
2d
59
7a
d9
66
f2
28
a7
b6
10
e0
8b
28
a8
92
47
c0
b9
13
e9
a6
dc
65
fe
88
1d
39
2d
59
7a
d9
66
f2
28
a7
b6
10
e0
8b
28
a8
92
47
c0
b9
13
e9
a6
dc
65
fe
88
1d
39
2d
59
7a
d9
66
f2
28
a7
b6
10
e0
8b
28
a8
92
47
c0
b9
13
e9
a6
dc
65
fe
88
1d
39
2d
59
7a
d9
66
f2
28
a7
b6
10
e0
8b
28
a8
92
47
c0
b9
13
e9
a6
dc
65
fe
88
1d
39
2d
59
7a
d9
66
f2
28
a7
b6
10
e0
8b
28
a8
92
47
c0
b9
13
e9
a6
dc
65
fe
88
1d
39
2d
59
7a
d9
66
f2
28
a7
b6
10
e0
8b
28
a8
92
47
c0
b9
13
e9
a6
dc
65
fe
88
1d
39
2d
59
7a
d9
66
f2
28
a7
b6
10
e0
8b
28
a8
92
47
c0
b9
13
e9
a6
dc
65
fe
88
1d
39
2d
59
7a
d9
66
f2
28
a7
b6
10
e0
8b
28
a8
92
47
c0
b9
13
e9
a6
dc
65
fe
88
1d
39
2d
59
7a
d9
66
f2
28
a7
b6
10
e0
8b
28
a8
92
47
c0
b9
13
e9
a6
dc
65
fe
88
1d
39
2d
59
7a
d9
66
f2
28
a7
b6
10
e0
8b
28
a8
92
47
c0
b9
13
e9
a6
dc
65
fe
88
1d
39
2d
59
7a
d9
66
f2
28
a7
b6
10
e0
8b
28
a8
92
47
c0
b9
13
e9
a6
dc
65
fe
88
1d
39
2d
59
7a
d9
66
f2
28
a7
b6
10
e0
8b
28
a8
92
47
c0
b9
13
e9
a6
dc
65
fe
88
1d
39
2d
59
7a
d9
66
f2
28
a7
b6
10
e0
8b
28
a8
92
47
c0
b9
13
e9
a6
dc
65
fe
88
1d
39
2d
59
7a
d9
66
f2
28
a7
b6
10
e0
8b
28
a8
92
47
c0
b9
13
e9
a6
dc
65
fe
88
1d
39
2d
59
7a
d9
66
f2
28
a7
b6
10
e0
8b
28
a8
92
47
c0
b9
13
e9
a6
dc
65
fe
88
1d
39
2d
59
7a
d9
66
f2
28
a7
b6
10
e0
8b
28
a8
92
47
c0
b9
13
e9
a6
dc
65
fe
88
1d
39
2d
59
7a
d9
66
f2
28
a7
b6
10
e0
8b
28
a8
92
47
c0
b9
13
e9
a6
dc
65
fe
88
1d
39
2d
59
7a
d9
66
f2
28
a7
b6
10
e0
8b
28
a8
92
47
c0
b9
13
e9
a6
dc
65
fe
88
1d
39
2d
59
7a
d9
66
f2
28
a7
b6
10
e0
8b
28
a8
92
47
c0
b9
13
e9
a6
dc
65
fe
88
1d
39
2d
59
7a
d9
66
f2
28
a7
b6
10
e0
8b
28
a8
92
47
c0
b9
13
e9
a6
dc
65
fe
88
1d
39
2d
59
7a
d9
66
f2
28
a7
b6
10
e0
8b
28
a8
92
47
c0
b9
13
e9
a6
dc
65
fe
88
1d
39
2d
59
7a
d9
66
f2
28
a7
b6
10
e0
8b
28
a8
92
47
c0
b9
13
e9
a6
dc
65
fe
88
1d
39
2d
59
7a
d9
66
f2
28
a7
b6
10
e0
8b
28
a8
92
47
c0
b9
13
e9
a6
dc
65
fe
88
1d
39
2d
59
7a
d9
66
f2
28
a7
b6
10
e0
8b
28
a8
92
47
c0
b9
13
e9
a6
dc
65
fe
88
1d
39
2d
59
7a
d9
66
f2
28
a7
b6
10
e0
8b
28
a8
92
47
c0
b9
13
e9
a6
dc
65
fe
88
1d
39
2d
59
7a
d9
66
f2
28
a7
b6
10
e0
8b
28
a8
92
47
c0
b9
13
e9
a6
dc
65
fe
88
1d
39
2d
59
7a
d9
66
f2
28
a7
b6
10
e0
8b
28
a8
92
47
c0
b9
13
e9
a6
dc
65
fe
88
1d
39
2d
59
7a
d9
66
f2
28
a7
b6
10
e0
8b
28
a8
92
47
c0
b9
13
e9
a6
dc
65
fe
88
1d
39
2d
59
7a
d9
66
f2
28
a7
b6
10
e0
8b
28
a8
92
47
c0
b9
13
e9
a6
dc
65
fe
88
1d
39
2d
59
7a
d9
66
f2
28
a7
b6
10
e0
8b
28
a8
92
47
c0
b9
13
e9
a6
dc
65
fe
88
1d
39
2d
59
7a
d9
66
f2
28
a7
b6
10
e0
8b
28
a8
92
47
c0
b9
13
e9
a6
dc
65
fe
88
1d
39
2d
59
7a
d9
66
f2
28
a7
b6
10
e0
8b
28
a8
92
47
c0
b9
13
e9
a6
dc
65
fe
88
1d
39
2d
59
7a
d9
66
f2
28
a7
b6
10
e0
8b
28
a8
92
47
c0
b9
13
e9
a6
dc
65
fe
88
1d
39
2d
59
7a
d9
66
f2
28
a7
b6
10
e0
8b
28
a8
92
47
c0
b9
13
e9
a6
dc
65
fe
88
1d
39
2d
59
7a
d9
66
f2
28
a7
b6
10
e0
8b
28
a8
92
47
c0
b9
13
e9
a6
dc
65
fe
88
1d
39
2d
59
7a
d9
66
f2
28
a7
b6
10
e0
8b
28
a8
92
47
c0
b9
13
e9
a6
dc
65
fe
88
1d
39
2d
59
7a
d9
66
f2
28
a7
b6
10
e0
8b
28
a8
92
47
c0
b9
13
e9
a6
dc
65
fe
88
1d
39
2d
59
7a
d9
66
f2
28
a7
b6
10
e0
8b
28
a8
92
47
c0
b9
13
e9
a6
dc
65
fe
88
1d
39
2d
59
7a
d9
66
f2
28
a7
b6
10
e0
8b
28
a8
92
47
c0
b9
13
e9
a6
dc
65
fe
88
1d
39
2d
59
7a
d9
66
f2
28
a7
b6
10
e0
8b
28
a8
92
47
c0
b9
13
e9
a6
dc
65
fe
88
1d
39
2d
59
7a
d9
66
f2
28
a7
b6
10
e0
8b
28
a8
92
47
c0
b9
13
e9
a6
dc
65
fe
88
1d
39
2d
59
7a
d9
66
f2
28
a7
b6
10
e0
8b
28
a8
92
47
c0
b9
13
e9
a6
dc
65
fe
88
1d
39
2d
59
7a
d9
66
f2
28
a7
b6
10
e0
8b
28
a8
92
47
c0
b9
13
e9
a6
dc
65
fe
88
1d
39
2d
59
7a
d9
66
f2
28
a7
b6
10
e0
8b
28
a8
92
47
c0
b9
13
e9
a6
dc
65
fe
88
1d
39
2d
59
7a
d9
66
f2
28
a7
b6
10
e0
8b
28
a8
92
47
c0
b9
13
e9
a6
dc
65
fe
88
1d
39
2d
59
7a
d9
66
f2
28
a7
b6
10
e0
8b
28
a8
92
47
c0
b9
13
e9
a6
dc
65
fe
88
1d
39
2d
59
7a
d9
66
f2
28
a7
b6
10
e0
8b
28
a8
92
47
c0
b9
13
e9
a6
dc
65
fe
88
1d
39
2d
59
7a
d9
66
f2
28
a7
b6
10
e0
8b
28
a8
92
47
c0
b9
13
e9
a6
dc
65
fe
88
1d
39
2d
59
7a
d9
66
f2
28
a7
b6
10
e0
8b
28
a8
92
47
c0
b9
13
e9
a6
dc
65
fe
88
1d
39
2d
59
7a
d9
66
f2
28
a7
b6
10
e0
8b
28
a8
92
47
c0
b9
13
e9
a6
dc
65
fe
88
1d
39
2d
59
7a
d9
66
f2
28
a7
b6
10
e0
8b
28
a8
92
47
c0
b9
13
e9
a6
dc
65
fe
88
1d
39
2d
59
7a
d9
66
f2
28
a7
b6
10
e0
8b
28
a8
92
47
c0
b9
13
e9
a6
dc
65
fe
88
1d
39
2d
59
7a
d9
66
f2
28
a7
b6
10
e0
8b
28
a8
92
47
c0
b9
13
e9
a6
dc
65
fe
88
1d
39
2d
59
7a
d9
66
f2
28
a7
b6
10
e0
8b
28
a8
92
47
c0
b9
13
e9
a6
dc
65
fe
88
1d
39
2d
59
7a
d9
66
f2
28
a7
b6
10
e0
8b
28
a8
92
47
c0
b9
13
e9
a6
dc
65
fe
88
1d
39
2d
59
7a
d9
66
f2
28
a7
b6
10
e0
8b
28
a8
92
47
c0
b9
13
e9
a6
dc
65
fe
88
1d
39
2d
59
7a
d9
66
f2
28
a7
b6
10
e0
8b
28
a8
92
47
c0
b9
13
e9
a6
dc
65
fe
88
1d
39
2d
59
7a
d9
66
f2
28
a7
b6
10
e0
8b
28
a8
92
47
c0
b9
13
e9
a6
dc
65
fe
88
1d
39
2d
59
7a
d9
66
f2
28
a7
b6
10
e0
8b
28
a8
92
47
c0
b9
13
e9
a6
dc
65
fe
88
1d
39
2d
59
7a
d9
66
f2
28
a7
b6
10
e0
8b
28
a8
92
47
c0
b9
13
e9
a6
dc
65
fe
88
1d
39
2d
59
7a
d9
66
f2
28
a7
b6
10
e0
8b
28
a8
92
47
c0
b9
13
e9
a6
dc
65
fe
88
1d
39
2d
59
7a
d9
66
f2
28
a7
b6
10
e0
8b
28
a8
92
47
c0
b9
13
e9
a6
dc
65
fe
88
1d
39
2d
59
7a
d9
66
f2
28
a7
b6
10
e0
8b
28
a8
92
47
c0
b9
13
e9
a6
dc
65
fe
88
1d
39
2d
59
7a
d9
66
f2
28
a7
b6
10
e0
8b
28
a8
92
47
c0
b9
13
e9
a6
dc
65
fe
88
1d
39
2d
59
7a
d9
66
f2
28
a7
b6
10
e0
8b
28
a8
92
47
c0
b9
13
e9
a6
dc
65
fe
88
1d
39
2d
59
7a
d9
66
f2
28
a7
b6
10
e0
8b
28
a8
92
47
c0
b9
13
e9
a6
dc
65
fe
88
1d
39
2d
59
7a
d9
66
f2
28
a7
b6
10
e0
8b
28
a8
92
47
c0
b9
13
e9
a6
dc
65
fe
88
1d
39
2d
59
7a
d9
66
f2
28
a7
b6
10
e0
8b
28
a8
92
47
c0
b9
13
e9
a6
dc
65
fe
88
1d
39
2d
59
7a
d9
66
f2
28
a7
b6
10
e0
8b
28
a8
92
47
c0
b9
13
e9
a6
dc
65
fe
88
1d
39
2d
59
7a
d9
66
f2
28
a7
b6
10
e0
8b
28
a8
92
47
c0
b9
13
e9
a6
dc
65
fe
88
1d
39
2d
59
7a
d9
66
f2
28
a7
b6
10
e0
8b
28
a8
92
47
c0
b9
13
e9
a6
dc
65
fe
88
1d
39
2d
59
7a
d9
66
f2
28
a7
b6
10
e0
8b
28
a8
92
47
c0
b9
13
e9
a6
dc
65
fe
88
1d
39
2d
59
7a
d9
66
f2
28
a7
b6
10
e0
8b
28
a8
92
47
c0
b9
13
e9
a6
dc
65
fe
88
1d
39
2d
59
7a
d9
66
f2
28
a7
b6
10
e0
8b
28
a8
92
47
c0
b9
13
e9
a6
dc
65
fe
88
1d
39
2d
59
7a
d9
66
f2
28
a7
b6
10
e0
8b
28
a8
92
47
c0
b9
13
e9
a6
dc
65
fe
88
1d
39
2d
59
7a
d9
66
f2
28
a7
b6
10
e0
8b
28
a8
92
47
c0
b9
13
e9
a6
dc
65
fe
88
1d
39
2d
59
7a
d9
66
f2
28
a7
b6
10
e0
8b
28
a8
92
47
c0
b9
13
e9
a6
dc
65
fe
88
1d
39
2d
59
7a
d9
66
f2
28
a7
b6
10
e0
8b
28
a8
92
47
c0
b9
13
e9
a6
dc
65
fe
88
1d
39
2d
59
7a
d9
66
f2
28
a7
b6
10
e0
8b
28
a8
92
47
c0
b9
13
e9
a6
dc
65
fe
88
1d
39
2d
59
7a
d9
66
f2
28
a7
b6
10
e0
8b
28
a8
92
47
c0
b9
13
e9
a6
dc
65
fe
88
1d
39
2d
59
7a
d9
66
f2
28
a7
b6
10
e0
8b
28
a8
92
47
c0
b9
13
e9
a6
dc
65
fe
88
1d
39
2d
59
7a
d9
66
f2
28
a7
b6
10
e0
8b
28
a8
92
47
c0
b9
13
e9
a6
dc
65
fe
88
1d
39
2d
59
7a
d9
66
f2
28
a7
b6
10
e0
8b
28
a8
92
47
c0
b9
13
e9
a6
dc
65
fe
88
1d
39
2d
59
7a
d9
66
f2
28
a7
b6
10
e0
8b
28
a8
92
47
c0
b9
13
e9
a6
dc
65
fe
88
1d
39
2d
59
7a
d9
66
f2
28
a7
b6
10
e0
8b
28
a8
92
47
c0
b9
13
e9
a6
dc
65
fe
88
1d
39
2d
59
7a
d9
66
f2
28
a7
b6
10
e0
8b
28
a8
92
47
c0
b9
13
e9
a6
dc
65
fe
88
1d
39
2d
59
7a
d9
66
f2
28
a7
b6
10
e0
8b
28
a8
92
47
c0
b9
13
e9
a6
dc
65
fe
88
1d
39
2d
59
7a
d9
66
f2
28
a7
b6
10
e0
8b
28
a8
92
47
c0
b9
13
e9
a6
dc
65
fe
88
1d
39
2d
59
7a
d9
66
f2
28
a7
b6
10
e0
8b
28
a8
92
47
c0
b9
13
e9
a6
dc
65
fe
88
1d
39
2d
59
7a
d9
66
f2
28
a7
b6
10
e0
8b
28
a8
92
47
c0
b9
13
e9
a6
dc
65
fe
88
1d
39
2d
59
7a
d9
66
f2
28
a7
b6
10
e0
8b
28
a8
92
47
c0
b9
13
e9
a6
dc
65
fe
88
1d
39
2d
59
7a
d9
66
f2
28
a7
b6
10
e0
8b
28
a8
92
47
c0
b9
13
e9
a6
dc
65
fe
88
1d
39
2d
59
7a
d9
66
f2
28
a7
b6
10
e0
8b
28
a8
92
47
c0
b9
13
e9
a6
dc
65
fe
88
1d
39
2d
59
7a
d9
66
f2
28
a7
b6
10
e0
8b
28
a8
92
47
c0
b9
13
e9
a6
dc
65
fe
88
1d
39
2d
59
7a
d9
66
f2
28
a7
b6
10
e0
8b
28
a8
92
47
c0
b9
13
e9
a6
dc
65
fe
88
1d
39
