0e
3b
4b
03
12
75
08
c8
11
0e
3b
4b
03
12
75
08
c8
11
0e
3b
4b
03
12
75
08
c8
11
0e
3b
4b
03
12
75
08
c8
11
0e
3b
4b
03
12
75
08
c8
11
0e
3b
4b
03
12
75
08
c8
11
0e
3b
4b
03
12
75
08
c8
11
0e
3b
4b
03
12
75
08
c8
11
0e
3b
4b
03
12
75
08
c8
11
0e
3b
4b
03
12
75
08
c8
11
0e
3b
4b
03
12
75
08
c8
11
0e
3b
4b
03
12
75
08
c8
11
0e
3b
4b
03
12
75
08
c8
11
0e
3b
4b
03
12
75
08
c8
11
0e
3b
4b
03
12
75
08
c8
11
0e
3b
4b
03
12
75
08
c8
11
0e
3b
4b
03
12
75
08
c8
11
0e
3b
4b
03
12
75
08
c8
11
0e
3b
4b
03
12
75
08
c8
11
0e
3b
4b
03
12
75
08
c8
11
0e
3b
4b
03
12
75
08
c8
11
0e
3b
4b
03
12
75
08
c8
11
0e
3b
4b
03
12
75
08
c8
11
0e
3b
4b
03
12
75
08
c8
11
0e
3b
4b
03
12
75
08
c8
11
0e
3b
4b
03
12
75
08
c8
11
0e
3b
4b
03
12
75
08
c8
11
0e
3b
4b
03
12
75
08
c8
11
0e
3b
4b
03
12
75
08
c8
11
0e
3b
4b
03
12
75
08
c8
11
0e
3b
4b
03
12
75
08
c8
11
0e
3b
4b
03
12
75
08
c8
11
0e
3b
4b
03
12
75
08
c8
11
0e
3b
4b
03
12
75
08
c8
11
0e
3b
4b
03
12
75
08
c8
11
0e
3b
4b
03
12
75
08
c8
11
0e
3b
4b
03
12
75
08
c8
11
0e
3b
4b
03
12
75
08
c8
11
0e
3b
4b
03
12
75
08
c8
11
0e
3b
4b
03
12
75
08
c8
11
0e
3b
4b
03
12
75
08
c8
11
0e
3b
4b
03
12
75
08
c8
11
0e
3b
4b
03
12
75
08
c8
11
0e
3b
4b
03
12
75
08
c8
11
0e
3b
4b
03
12
75
08
c8
11
0e
3b
4b
03
12
75
08
c8
11
0e
3b
4b
03
12
75
08
c8
11
0e
3b
4b
03
12
75
08
c8
11
0e
3b
4b
03
12
75
08
c8
11
0e
3b
4b
03
12
75
08
c8
11
0e
3b
4b
03
12
75
08
c8
11
0e
3b
4b
03
12
75
08
c8
11
0e
3b
4b
03
12
75
08
c8
11
0e
3b
4b
03
12
75
08
c8
11
0e
3b
4b
03
12
75
08
c8
11
0e
3b
4b
03
12
75
08
c8
11
0e
3b
4b
03
12
75
08
c8
11
0e
3b
4b
03
12
75
08
c8
11
0e
3b
4b
03
12
75
08
c8
11
0e
3b
4b
03
12
75
08
c8
11
0e
3b
4b
03
12
75
08
c8
11
0e
3b
4b
03
12
75
08
c8
11
0e
3b
4b
03
12
75
08
c8
11
0e
3b
4b
03
12
75
08
c8
11
0e
3b
4b
03
12
75
08
c8
11
0e
3b
4b
03
12
75
08
c8
11
0e
3b
4b
03
12
75
08
c8
11
0e
3b
4b
03
12
75
08
c8
11
0e
3b
4b
03
12
75
08
c8
11
0e
3b
4b
03
12
75
08
c8
11
0e
3b
4b
03
12
75
08
c8
11
0e
3b
4b
03
12
75
08
c8
11
0e
3b
4b
03
12
75
08
c8
11
0e
3b
4b
03
12
75
08
c8
11
0e
3b
4b
03
12
75
08
c8
11
0e
3b
4b
03
12
75
08
c8
11
0e
3b
4b
03
12
75
08
c8
11
0e
3b
4b
03
12
75
08
c8
11
0e
3b
4b
03
12
75
08
c8
11
0e
3b
4b
03
12
75
08
c8
11
0e
3b
4b
03
12
75
08
c8
11
0e
3b
4b
03
12
75
08
c8
11
0e
3b
4b
03
12
75
08
c8
11
0e
3b
4b
03
12
75
08
c8
11
0e
3b
4b
03
12
75
08
c8
11
0e
3b
4b
03
12
75
08
c8
11
0e
3b
4b
03
12
75
08
c8
11
0e
3b
4b
03
12
75
08
c8
11
0e
3b
4b
03
12
75
08
c8
11
0e
3b
4b
03
12
75
08
c8
11
0e
3b
4b
03
12
75
08
c8
11
0e
3b
4b
03
12
75
08
c8
11
0e
3b
4b
03
12
75
08
c8
11
0e
3b
4b
03
12
75
08
c8
11
0e
3b
4b
03
12
75
08
c8
11
0e
3b
4b
03
12
75
08
c8
11
0e
3b
4b
03
12
75
08
c8
11
0e
3b
4b
03
12
75
08
c8
11
0e
3b
4b
03
12
75
08
c8
11
0e
3b
4b
03
12
75
08
c8
11
0e
3b
4b
03
12
75
08
c8
11
0e
3b
4b
03
12
75
08
c8
11
0e
3b
4b
03
12
75
08
c8
11
0e
3b
4b
03
12
75
08
c8
11
0e
3b
4b
03
12
75
08
c8
11
0e
3b
4b
03
12
75
08
c8
11
0e
3b
4b
03
12
75
08
c8
11
0e
3b
4b
03
12
75
08
c8
11
0e
3b
4b
03
12
75
08
c8
11
0e
3b
4b
03
12
75
08
c8
11
0e
3b
4b
03
12
75
08
c8
11
0e
3b
4b
03
12
75
08
c8
11
0e
3b
4b
03
12
75
08
c8
11
0e
3b
4b
03
12
75
08
c8
11
0e
3b
4b
03
12
75
08
c8
11
0e
3b
4b
03
12
75
08
c8
11
0e
3b
4b
03
12
75
08
c8
11
0e
3b
4b
03
12
75
08
c8
11
0e
3b
4b
03
12
75
08
c8
11
0e
3b
4b
03
12
75
08
c8
11
0e
3b
4b
03
12
75
08
c8
11
0e
3b
4b
03
12
75
08
c8
11
0e
3b
4b
03
12
75
08
c8
11
0e
3b
4b
03
12
75
08
c8
11
0e
3b
4b
03
12
75
08
c8
11
0e
3b
4b
03
12
75
08
c8
11
0e
3b
4b
03
12
75
08
c8
11
0e
3b
4b
03
12
75
08
c8
11
0e
3b
4b
03
12
75
08
c8
11
0e
3b
4b
03
12
75
08
c8
11
0e
3b
4b
03
12
75
08
c8
11
0e
3b
4b
03
12
75
08
c8
11
0e
3b
4b
03
12
75
08
c8
11
0e
3b
4b
03
12
75
08
c8
11
0e
3b
4b
03
12
75
08
c8
11
0e
3b
4b
03
12
75
08
c8
11
0e
3b
4b
03
12
75
08
c8
11
0e
3b
4b
03
12
75
08
c8
11
0e
3b
4b
03
12
75
08
c8
11
0e
3b
4b
03
12
75
08
c8
11
0e
3b
4b
03
12
75
08
c8
11
0e
3b
4b
03
12
75
08
c8
11
0e
3b
4b
03
12
75
08
c8
11
0e
3b
4b
03
12
75
08
c8
11
0e
3b
4b
03
12
75
08
c8
11
0e
3b
4b
03
12
75
08
c8
11
0e
3b
4b
03
12
75
08
c8
11
0e
3b
4b
03
12
75
08
c8
11
0e
3b
4b
03
12
75
08
c8
11
0e
3b
4b
03
12
75
08
c8
11
0e
3b
4b
03
12
75
08
c8
11
0e
3b
4b
03
12
75
08
c8
11
0e
3b
4b
03
12
75
08
c8
11
0e
3b
4b
03
12
75
08
c8
11
0e
3b
4b
03
12
75
08
c8
11
0e
3b
4b
03
12
75
08
c8
11
0e
3b
4b
03
12
75
08
c8
11
0e
3b
4b
03
12
75
08
c8
11
0e
3b
4b
03
12
75
08
c8
11
0e
3b
4b
03
12
75
08
c8
11
0e
3b
4b
03
12
75
08
c8
11
0e
3b
4b
03
12
75
08
c8
11
0e
3b
4b
03
12
75
08
c8
11
0e
3b
4b
03
12
75
08
c8
11
0e
3b
4b
03
12
75
08
c8
11
0e
3b
4b
03
12
75
08
c8
11
0e
3b
4b
03
12
75
08
c8
11
0e
3b
4b
03
12
75
08
c8
11
0e
3b
4b
03
12
75
08
c8
11
0e
3b
4b
03
12
75
08
c8
11
0e
3b
4b
03
12
75
08
c8
11
0e
3b
4b
03
12
75
08
c8
11
0e
3b
4b
03
12
75
08
c8
11
0e
3b
4b
03
12
75
08
c8
11
0e
3b
4b
03
12
75
08
c8
11
0e
3b
4b
03
12
75
08
c8
11
0e
3b
4b
03
12
75
08
c8
11
0e
3b
4b
03
12
75
08
c8
11
0e
3b
4b
03
12
75
08
c8
11
0e
3b
4b
03
12
75
08
c8
11
0e
3b
4b
03
12
75
08
c8
11
0e
3b
4b
03
12
75
08
c8
11
0e
3b
4b
03
12
75
08
c8
11
0e
3b
4b
03
12
75
08
c8
11
0e
3b
4b
03
12
75
08
c8
11
0e
3b
4b
03
12
75
08
c8
11
0e
3b
4b
03
12
75
08
c8
11
0e
3b
4b
03
12
75
08
c8
11
0e
3b
4b
03
12
75
08
c8
11
0e
3b
4b
03
12
75
08
c8
11
0e
3b
4b
03
12
75
08
c8
11
0e
3b
4b
03
12
75
08
c8
11
0e
3b
4b
03
12
75
08
c8
11
0e
3b
4b
03
12
75
08
c8
11
0e
3b
4b
03
12
75
08
c8
11
0e
3b
4b
03
12
75
08
c8
11
0e
3b
4b
03
12
75
08
c8
11
0e
3b
4b
03
12
75
08
c8
11
0e
3b
4b
03
12
75
08
c8
11
0e
3b
4b
03
12
75
08
c8
11
0e
3b
4b
03
12
75
08
c8
11
0e
3b
4b
03
12
75
08
c8
11
0e
3b
4b
03
12
75
08
c8
11
0e
3b
4b
03
12
75
08
c8
11
0e
3b
4b
03
12
75
08
c8
11
0e
3b
4b
03
12
75
08
c8
11
0e
3b
4b
03
12
75
08
c8
11
0e
3b
4b
03
12
75
08
c8
11
0e
3b
4b
03
12
75
08
c8
11
0e
3b
4b
03
12
75
08
c8
11
0e
3b
4b
03
12
75
08
c8
11
0e
3b
4b
03
12
75
08
c8
11
0e
3b
4b
03
12
75
08
c8
11
0e
3b
4b
03
12
75
08
c8
11
0e
3b
4b
03
12
75
08
c8
11
0e
3b
4b
03
12
75
08
c8
11
0e
3b
4b
03
12
75
08
c8
11
0e
3b
4b
03
12
75
08
c8
11
0e
3b
4b
03
12
75
08
c8
11
0e
3b
4b
03
12
75
08
c8
11
0e
3b
4b
03
12
75
08
c8
11
0e
3b
4b
03
12
75
08
c8
11
0e
3b
4b
03
12
75
08
c8
11
0e
3b
4b
03
12
75
08
c8
11
0e
3b
4b
03
12
75
08
c8
11
0e
3b
4b
03
12
75
08
c8
11
0e
3b
4b
03
12
75
08
c8
11
0e
3b
4b
03
12
75
08
c8
11
0e
3b
4b
03
12
75
08
c8
11
0e
3b
4b
03
12
75
08
c8
11
0e
3b
4b
03
12
75
08
c8
11
0e
3b
4b
03
12
75
08
c8
11
0e
3b
4b
03
12
75
08
c8
11
0e
3b
4b
03
12
75
08
c8
11
0e
3b
4b
03
12
75
08
c8
11
0e
3b
4b
03
12
75
08
c8
11
0e
3b
4b
03
12
75
08
c8
11
0e
3b
4b
03
12
75
08
c8
11
0e
3b
4b
03
12
75
08
c8
11
0e
3b
4b
03
12
75
08
c8
11
0e
3b
4b
03
12
75
08
c8
11
0e
3b
4b
03
12
75
08
c8
11
0e
3b
4b
03
12
75
08
c8
11
0e
3b
4b
03
12
75
08
c8
11
0e
3b
4b
03
12
75
08
c8
11
0e
3b
4b
03
12
75
08
c8
11
0e
3b
4b
03
12
75
08
c8
11
0e
3b
4b
03
12
75
08
c8
11
0e
3b
4b
03
12
75
08
c8
11
0e
3b
4b
03
12
75
08
c8
11
0e
3b
4b
03
12
75
08
c8
11
0e
3b
4b
03
12
75
08
c8
11
0e
3b
4b
03
12
75
08
c8
11
0e
3b
4b
03
12
75
08
c8
11
0e
3b
4b
03
12
75
08
c8
11
0e
3b
4b
03
12
75
08
c8
11
0e
3b
4b
03
12
75
08
c8
11
0e
3b
4b
03
12
75
08
c8
11
0e
3b
4b
03
12
75
08
c8
11
0e
3b
4b
03
12
75
08
c8
11
0e
3b
4b
03
12
75
08
c8
11
0e
3b
4b
03
12
75
08
c8
11
0e
3b
4b
03
12
75
08
c8
11
0e
3b
4b
03
12
75
08
c8
11
0e
3b
4b
03
12
75
08
c8
11
0e
3b
4b
03
12
75
08
c8
11
0e
3b
4b
03
12
75
08
c8
11
0e
3b
4b
03
12
75
08
c8
11
0e
3b
4b
03
12
75
08
c8
11
0e
3b
4b
03
12
75
08
c8
11
0e
3b
4b
03
12
75
08
c8
11
0e
3b
4b
03
12
75
08
c8
11
0e
3b
4b
03
12
75
08
c8
11
0e
3b
4b
03
12
75
08
c8
11
0e
3b
4b
03
12
75
08
c8
11
0e
3b
4b
03
12
75
08
c8
11
0e
3b
4b
03
12
75
08
c8
11
0e
3b
4b
03
12
75
08
c8
11
0e
3b
4b
03
12
75
08
c8
11
0e
3b
4b
03
12
75
08
c8
11
0e
3b
4b
03
12
75
08
c8
11
0e
3b
4b
03
12
75
08
c8
11
0e
3b
4b
03
12
75
08
c8
11
0e
3b
4b
03
12
75
08
c8
11
0e
3b
4b
03
12
75
08
c8
11
0e
3b
4b
03
12
75
08
c8
11
0e
3b
4b
03
12
75
08
c8
11
0e
3b
4b
03
12
75
08
c8
11
0e
3b
4b
03
12
75
08
c8
11
0e
3b
4b
03
12
75
08
c8
11
0e
3b
4b
03
12
75
08
c8
11
0e
3b
4b
03
12
75
08
c8
11
0e
3b
4b
03
12
75
08
c8
11
0e
3b
4b
03
12
75
08
c8
11
0e
3b
4b
03
12
75
08
c8
11
0e
3b
4b
03
12
75
08
c8
11
0e
3b
4b
03
12
75
08
c8
11
0e
3b
4b
03
12
75
08
c8
11
0e
3b
4b
03
12
75
08
c8
11
0e
3b
4b
03
12
75
08
c8
11
0e
3b
4b
03
12
75
08
c8
11
0e
3b
4b
03
12
75
08
c8
11
0e
3b
4b
03
12
75
08
c8
11
0e
3b
4b
03
12
75
08
c8
11
0e
3b
4b
03
12
75
08
c8
11
0e
3b
4b
03
12
75
08
c8
11
0e
3b
4b
03
12
75
08
c8
11
0e
3b
4b
03
12
75
08
c8
11
0e
3b
4b
03
12
75
08
c8
11
0e
3b
4b
03
12
75
08
c8
11
0e
3b
4b
03
12
75
08
c8
11
0e
3b
4b
03
12
75
08
c8
11
0e
3b
4b
03
12
75
08
c8
11
0e
3b
4b
03
12
75
08
c8
11
0e
3b
4b
03
12
75
08
c8
11
0e
3b
4b
03
12
75
08
c8
11
0e
3b
4b
03
12
75
08
c8
11
0e
3b
4b
03
12
75
08
c8
11
0e
3b
4b
03
12
75
08
c8
11
0e
3b
4b
03
12
75
08
c8
11
0e
3b
4b
03
12
75
08
c8
11
0e
3b
4b
03
12
75
08
c8
11
0e
3b
4b
03
12
75
08
c8
11
0e
3b
4b
03
12
75
08
c8
11
0e
3b
4b
03
12
75
08
c8
11
0e
3b
4b
03
12
75
08
c8
11
0e
3b
4b
03
12
75
08
c8
11
0e
3b
4b
03
12
75
08
c8
11
0e
3b
4b
03
12
75
08
c8
11
0e
3b
4b
03
12
75
08
c8
11
0e
3b
4b
03
12
75
08
c8
11
0e
3b
4b
03
12
75
08
c8
11
0e
3b
4b
03
12
75
08
c8
11
0e
3b
4b
03
12
75
08
c8
11
0e
3b
4b
03
12
75
08
c8
11
0e
3b
4b
03
12
75
08
c8
11
0e
3b
4b
03
12
75
08
c8
11
0e
3b
4b
03
12
75
08
c8
11
0e
3b
4b
03
12
75
08
c8
11
0e
3b
4b
03
12
75
08
c8
11
0e
3b
4b
03
12
75
08
c8
11
0e
3b
4b
03
12
75
08
c8
11
0e
3b
4b
03
12
75
08
c8
11
0e
3b
4b
03
12
75
08
c8
11
0e
3b
4b
03
12
75
08
c8
11
0e
3b
4b
03
12
75
08
c8
11
0e
3b
4b
03
12
75
08
c8
11
0e
3b
4b
03
12
75
08
c8
11
0e
3b
4b
03
12
75
08
c8
11
0e
3b
4b
03
12
75
08
c8
11
0e
3b
4b
03
12
75
08
c8
11
0e
3b
4b
03
12
75
08
c8
11
0e
3b
4b
03
12
75
08
c8
11
0e
3b
4b
03
12
75
08
c8
11
0e
3b
4b
03
12
75
08
c8
11
0e
3b
4b
03
12
75
08
c8
11
0e
3b
4b
03
12
75
08
c8
11
0e
3b
4b
03
12
75
08
c8
11
0e
3b
4b
03
12
75
08
c8
11
0e
3b
4b
03
12
75
08
c8
11
0e
3b
4b
03
12
75
08
c8
11
0e
3b
4b
03
12
75
08
c8
11
0e
3b
4b
03
12
75
08
c8
11
0e
3b
4b
03
12
75
08
c8
11
0e
3b
4b
03
12
75
08
c8
11
0e
3b
4b
03
12
75
08
c8
11
0e
3b
4b
03
12
75
08
c8
11
0e
3b
4b
03
12
75
08
c8
11
0e
3b
4b
03
12
75
08
c8
11
0e
3b
4b
03
12
75
08
c8
11
0e
3b
4b
03
12
75
08
c8
11
0e
3b
4b
03
12
75
08
c8
11
0e
3b
4b
03
12
75
08
c8
11
0e
3b
4b
03
12
75
08
c8
11
0e
3b
4b
03
12
75
08
c8
11
0e
3b
4b
03
12
75
08
c8
11
0e
3b
4b
03
12
75
08
c8
11
0e
3b
4b
03
12
75
08
c8
11
0e
3b
4b
03
12
75
08
c8
11
0e
3b
4b
03
12
75
08
c8
11
0e
3b
4b
03
12
75
08
c8
11
0e
3b
4b
03
12
75
08
c8
11
0e
3b
4b
03
12
75
08
c8
11
0e
3b
4b
03
12
75
08
c8
11
0e
3b
4b
03
12
75
08
c8
11
0e
3b
4b
03
12
75
08
c8
11
0e
3b
4b
03
12
75
08
c8
11
0e
3b
4b
03
12
75
08
c8
11
0e
3b
4b
03
12
75
08
c8
11
0e
3b
4b
03
12
75
08
c8
11
0e
3b
4b
03
12
75
08
c8
11
0e
3b
4b
03
12
75
08
c8
11
0e
3b
4b
03
12
75
08
c8
11
0e
3b
4b
03
12
75
08
c8
11
0e
3b
4b
03
12
75
08
c8
11
0e
3b
4b
03
12
75
08
c8
11
0e
3b
4b
03
12
75
08
c8
11
0e
3b
4b
03
12
75
08
c8
11
0e
3b
4b
03
12
75
08
c8
11
0e
3b
4b
03
12
75
08
c8
11
0e
3b
4b
03
12
75
08
c8
11
0e
3b
4b
03
12
75
08
c8
11
0e
3b
4b
03
12
75
08
c8
11
0e
3b
4b
03
12
75
08
c8
11
0e
3b
4b
03
12
75
08
c8
11
0e
3b
4b
03
12
75
08
c8
11
0e
3b
4b
03
12
75
08
c8
11
0e
3b
4b
03
12
75
08
c8
11
0e
3b
4b
03
12
75
08
c8
11
0e
3b
4b
03
12
75
08
c8
11
0e
3b
4b
03
12
75
08
c8
11
0e
3b
4b
03
12
75
08
c8
11
0e
3b
4b
03
12
75
08
c8
11
0e
3b
4b
03
12
75
08
c8
11
0e
3b
4b
03
12
75
08
c8
11
0e
3b
4b
03
12
75
08
c8
11
0e
3b
4b
03
12
75
08
c8
11
0e
3b
4b
03
12
75
08
c8
11
0e
3b
4b
03
12
75
08
c8
11
0e
3b
4b
03
12
75
08
c8
11
0e
3b
4b
03
12
75
08
c8
11
0e
3b
4b
03
12
75
08
c8
11
0e
3b
4b
03
12
75
08
c8
11
0e
3b
4b
03
12
75
08
c8
11
0e
3b
4b
03
12
75
08
c8
11
0e
3b
4b
03
12
75
08
c8
11
0e
3b
4b
03
12
75
08
c8
11
0e
3b
4b
03
12
75
08
c8
11
0e
3b
4b
03
12
75
08
c8
11
0e
3b
4b
03
12
75
08
c8
11
0e
3b
4b
03
12
75
08
c8
11
0e
3b
4b
03
12
75
08
c8
11
0e
3b
4b
03
12
75
08
c8
11
0e
3b
4b
03
12
75
08
c8
11
0e
3b
4b
03
12
75
08
c8
11
0e
3b
4b
03
12
75
08
c8
11
0e
3b
4b
03
12
75
08
c8
11
0e
3b
4b
03
12
75
08
c8
11
0e
3b
4b
03
12
75
08
c8
11
0e
3b
4b
03
12
75
08
c8
11
0e
3b
4b
03
12
75
08
c8
11
0e
3b
4b
03
12
75
08
c8
11
0e
3b
4b
03
12
75
08
c8
11
0e
3b
4b
03
12
75
08
c8
11
0e
3b
4b
03
12
75
08
c8
11
0e
3b
4b
03
12
75
08
c8
11
0e
3b
4b
03
12
75
08
c8
11
0e
3b
4b
03
12
75
08
c8
11
0e
3b
4b
03
12
75
08
c8
11
0e
3b
4b
03
12
75
08
c8
11
0e
3b
4b
03
12
75
08
c8
11
0e
3b
4b
03
12
75
08
c8
11
0e
3b
4b
03
12
75
08
c8
11
0e
3b
4b
03
12
75
08
c8
11
0e
3b
4b
03
12
75
08
c8
11
0e
3b
4b
03
12
75
08
c8
11
0e
3b
4b
03
12
75
08
c8
11
0e
3b
4b
03
12
75
08
c8
11
0e
3b
4b
03
12
75
08
c8
11
0e
3b
4b
03
12
75
08
c8
11
0e
3b
4b
03
12
75
08
c8
11
0e
3b
4b
03
12
75
08
c8
11
0e
3b
4b
03
12
75
08
c8
11
0e
3b
4b
03
12
75
08
c8
11
0e
3b
4b
03
12
75
08
c8
11
0e
3b
4b
03
12
75
08
c8
11
0e
3b
4b
03
12
75
08
c8
11
0e
3b
4b
03
12
75
08
c8
11
0e
3b
4b
03
12
75
08
c8
11
0e
3b
4b
03
12
75
08
c8
11
0e
3b
4b
03
12
75
08
c8
11
0e
3b
4b
03
12
75
08
c8
11
0e
3b
4b
03
12
75
08
c8
11
0e
3b
4b
03
12
75
08
c8
11
0e
3b
4b
03
12
75
08
c8
11
0e
3b
4b
03
12
75
08
c8
11
0e
3b
4b
03
12
75
08
c8
11
0e
3b
4b
03
12
75
08
c8
11
0e
3b
4b
03
12
75
08
c8
11
0e
3b
4b
03
12
75
08
c8
11
0e
3b
4b
03
12
75
08
c8
11
0e
3b
4b
03
12
75
08
c8
11
0e
3b
4b
03
12
75
08
c8
11
0e
3b
4b
03
12
75
08
c8
11
0e
3b
4b
03
12
75
08
c8
11
0e
3b
4b
03
12
75
08
c8
11
0e
3b
4b
03
12
75
08
c8
11
0e
3b
4b
03
12
75
08
c8
11
0e
3b
4b
03
12
75
08
c8
11
0e
3b
4b
03
12
75
08
c8
11
0e
3b
4b
03
12
75
08
c8
11
0e
3b
4b
03
12
75
08
c8
11
0e
3b
4b
03
12
75
08
c8
11
0e
3b
4b
03
12
75
08
c8
11
0e
3b
4b
03
12
75
08
c8
11
0e
3b
4b
03
12
75
08
c8
11
0e
3b
4b
03
12
75
08
c8
11
0e
3b
4b
03
12
75
08
c8
11
0e
3b
4b
03
12
75
08
c8
11
0e
3b
4b
03
12
75
08
c8
11
0e
3b
4b
03
12
75
08
c8
11
0e
3b
4b
03
12
75
08
c8
11
0e
3b
4b
03
12
75
08
c8
11
0e
3b
4b
03
12
75
08
c8
11
0e
3b
4b
03
12
75
08
c8
11
0e
3b
4b
03
12
75
08
c8
11
0e
3b
4b
03
12
75
08
c8
11
0e
3b
4b
03
12
75
08
c8
11
0e
3b
4b
03
12
75
08
c8
11
0e
3b
4b
03
12
75
08
c8
11
0e
3b
4b
03
12
75
08
c8
11
0e
3b
4b
03
12
75
08
c8
11
0e
3b
4b
03
12
75
08
c8
11
0e
3b
4b
03
12
75
08
c8
11
0e
3b
4b
03
12
75
08
c8
11
0e
3b
4b
03
12
75
08
c8
11
0e
3b
4b
03
12
75
08
c8
11
0e
3b
4b
03
12
75
08
c8
11
0e
3b
4b
03
12
75
08
c8
11
0e
3b
4b
03
12
75
08
c8
11
0e
3b
4b
03
12
75
08
c8
11
0e
3b
4b
03
12
75
08
c8
11
0e
3b
4b
03
12
75
08
c8
11
0e
3b
4b
03
12
75
08
c8
11
0e
3b
4b
03
12
75
08
c8
11
0e
3b
4b
03
12
75
08
c8
11
0e
3b
4b
03
12
75
08
c8
11
0e
3b
4b
03
12
75
08
c8
11
0e
3b
4b
03
12
75
08
c8
11
0e
3b
4b
03
12
75
08
c8
11
0e
3b
4b
03
12
75
08
c8
11
0e
3b
4b
03
12
75
08
c8
11
0e
3b
4b
03
12
75
08
c8
11
0e
3b
4b
03
12
75
08
c8
11
0e
3b
4b
03
12
75
08
c8
11
0e
3b
4b
03
12
75
08
c8
11
0e
3b
4b
03
12
75
08
c8
11
0e
3b
4b
03
12
75
08
c8
11
0e
3b
4b
03
12
75
08
c8
11
0e
3b
4b
03
12
75
08
c8
11
0e
3b
4b
03
12
75
08
c8
11
0e
3b
4b
03
12
75
08
c8
11
0e
3b
4b
03
12
75
08
c8
11
0e
3b
4b
03
12
75
08
c8
11
0e
3b
4b
03
12
75
08
c8
11
0e
3b
4b
03
12
75
08
c8
11
0e
3b
4b
03
12
75
08
c8
11
0e
3b
4b
03
12
75
08
c8
11
0e
3b
4b
03
12
75
08
c8
11
0e
3b
4b
03
12
75
08
c8
11
0e
3b
4b
03
12
75
08
c8
11
0e
3b
4b
03
12
75
08
c8
11
0e
3b
4b
03
12
75
08
c8
11
0e
3b
4b
03
12
75
08
c8
11
0e
3b
4b
03
12
75
08
c8
11
0e
3b
4b
03
12
75
08
c8
11
0e
3b
4b
03
12
75
08
c8
11
0e
3b
4b
03
12
75
08
c8
11
0e
3b
4b
03
12
75
08
c8
11
0e
3b
4b
03
12
75
08
c8
11
0e
3b
4b
03
12
75
08
c8
11
0e
3b
4b
03
12
75
08
c8
11
0e
3b
4b
03
12
75
08
c8
11
0e
3b
4b
03
12
75
08
c8
11
0e
3b
4b
03
12
75
08
c8
11
0e
3b
4b
03
12
75
08
c8
11
0e
3b
4b
03
12
75
08
c8
11
0e
3b
4b
03
12
75
08
c8
11
0e
3b
4b
03
12
75
08
c8
11
0e
3b
4b
03
12
75
08
c8
11
0e
3b
4b
03
12
75
08
c8
11
0e
3b
4b
03
12
75
08
c8
11
0e
3b
4b
03
12
75
08
c8
11
0e
3b
4b
03
12
75
08
c8
11
0e
3b
4b
03
12
75
08
c8
11
0e
3b
4b
03
12
75
08
c8
11
0e
3b
4b
03
12
75
08
c8
11
0e
3b
4b
03
12
75
08
c8
11
0e
3b
4b
03
12
75
08
c8
11
0e
3b
4b
03
12
75
08
c8
11
0e
3b
4b
03
12
75
08
c8
11
0e
3b
4b
03
12
75
08
c8
11
0e
3b
4b
03
12
75
08
c8
11
0e
3b
4b
03
12
75
08
c8
11
0e
3b
4b
03
12
75
08
c8
11
0e
3b
4b
03
12
75
08
c8
11
0e
3b
4b
03
12
75
08
c8
11
0e
3b
4b
03
12
75
08
c8
11
0e
3b
4b
03
12
75
08
c8
11
0e
3b
4b
03
12
75
08
c8
11
0e
3b
4b
03
12
75
08
c8
11
0e
3b
4b
03
12
75
08
c8
11
0e
3b
4b
03
12
75
08
c8
11
0e
3b
4b
03
12
75
08
c8
11
0e
3b
4b
03
12
75
08
c8
11
0e
3b
4b
03
12
75
08
c8
11
0e
3b
4b
03
12
75
08
c8
11
0e
3b
4b
03
12
75
08
c8
11
0e
3b
4b
03
12
75
08
c8
11
0e
3b
4b
03
12
75
08
c8
11
0e
3b
4b
03
12
75
08
c8
11
0e
3b
4b
03
12
75
08
c8
11
0e
3b
4b
03
12
75
08
c8
11
0e
3b
4b
03
12
75
08
c8
11
0e
3b
4b
03
12
75
08
c8
11
0e
3b
4b
03
12
75
08
c8
11
0e
3b
4b
03
12
75
08
c8
11
0e
3b
4b
03
12
75
08
c8
11
0e
3b
4b
03
12
75
08
c8
11
0e
3b
4b
03
12
75
08
c8
11
0e
3b
4b
03
12
75
08
c8
11
0e
3b
4b
03
12
75
08
c8
11
0e
3b
4b
03
12
75
08
c8
11
0e
3b
4b
03
12
75
08
c8
11
0e
3b
4b
03
12
75
08
c8
11
0e
3b
4b
03
12
75
08
c8
11
0e
3b
4b
03
12
75
08
c8
11
0e
3b
4b
03
12
75
08
c8
11
0e
3b
4b
03
12
75
08
c8
11
0e
3b
4b
03
12
75
08
c8
11
0e
3b
4b
03
12
75
08
c8
11
0e
3b
4b
03
12
75
08
c8
11
0e
3b
4b
03
12
75
08
c8
11
0e
3b
4b
03
12
75
08
c8
11
0e
3b
4b
03
12
75
08
c8
11
0e
3b
4b
03
12
75
08
c8
11
0e
3b
4b
03
12
75
08
c8
11
0e
3b
4b
03
12
75
08
c8
11
0e
3b
4b
03
12
75
08
c8
11
0e
3b
4b
03
12
75
08
c8
11
0e
3b
4b
03
12
75
08
c8
11
0e
3b
4b
03
12
75
08
c8
11
0e
3b
4b
03
12
75
08
c8
11
0e
3b
4b
03
12
75
08
c8
11
0e
3b
4b
03
12
75
08
c8
11
0e
3b
4b
03
12
75
08
c8
11
0e
3b
4b
03
12
75
08
c8
11
0e
3b
4b
03
12
75
08
c8
11
0e
3b
4b
03
12
75
08
c8
11
0e
3b
4b
03
12
75
08
c8
11
0e
3b
4b
03
12
75
08
c8
11
0e
3b
4b
03
12
75
08
c8
11
0e
3b
4b
03
12
75
08
c8
11
0e
3b
4b
03
12
75
08
c8
11
0e
3b
4b
03
12
75
08
c8
11
0e
3b
4b
03
12
75
08
c8
11
0e
3b
4b
03
12
75
08
c8
11
0e
3b
4b
03
12
75
08
c8
11
0e
3b
4b
03
12
75
08
c8
11
0e
3b
4b
03
12
75
08
c8
11
0e
3b
4b
03
12
75
08
c8
11
0e
3b
4b
03
12
75
08
c8
11
0e
3b
4b
03
12
75
08
c8
11
0e
3b
4b
03
12
75
08
c8
11
0e
3b
4b
03
12
75
08
c8
11
0e
3b
4b
03
12
75
08
c8
11
0e
3b
4b
03
12
75
08
c8
11
0e
3b
4b
03
12
75
08
c8
11
0e
3b
4b
03
12
75
08
c8
11
0e
3b
4b
03
12
75
08
c8
11
0e
3b
4b
03
12
75
08
c8
11
0e
3b
4b
03
12
75
08
c8
11
0e
3b
4b
03
12
75
08
c8
11
0e
3b
4b
03
12
75
08
c8
11
0e
3b
4b
03
12
75
08
c8
11
0e
3b
4b
03
12
75
08
c8
11
0e
3b
4b
03
12
75
08
c8
11
0e
3b
4b
03
12
75
08
c8
11
0e
3b
4b
03
12
75
08
c8
11
0e
3b
4b
03
12
75
08
c8
11
0e
3b
4b
03
12
75
08
c8
11
0e
3b
4b
03
12
75
08
c8
11
0e
3b
4b
03
12
75
08
c8
11
0e
3b
4b
03
12
75
08
c8
11
0e
3b
4b
03
12
75
08
c8
11
0e
3b
4b
03
12
75
08
c8
11
0e
3b
4b
03
12
75
08
c8
11
0e
3b
4b
03
12
75
08
c8
11
0e
3b
4b
03
12
75
08
c8
11
0e
3b
4b
03
12
75
08
c8
11
0e
3b
4b
03
12
75
08
c8
11
0e
3b
4b
03
12
75
08
c8
11
0e
3b
4b
03
12
75
08
c8
11
0e
3b
4b
03
12
75
08
c8
11
0e
3b
4b
03
12
75
08
c8
11
0e
3b
4b
03
12
75
08
c8
11
0e
3b
4b
03
12
75
08
c8
11
0e
3b
4b
03
12
75
08
c8
11
0e
3b
4b
03
12
75
08
c8
11
0e
3b
4b
03
12
75
08
c8
11
0e
3b
4b
03
12
75
08
c8
11
0e
3b
4b
03
12
75
08
c8
11
0e
3b
4b
03
12
75
08
c8
11
0e
3b
4b
03
12
75
08
c8
11
0e
3b
4b
03
12
75
08
c8
11
0e
3b
4b
03
12
75
08
c8
11
0e
3b
4b
03
12
75
08
c8
11
0e
3b
4b
03
12
75
08
c8
11
0e
3b
4b
03
12
75
08
c8
11
0e
3b
4b
03
12
75
08
c8
11
0e
3b
4b
03
12
75
08
c8
11
0e
3b
4b
03
12
75
08
c8
11
0e
3b
4b
03
12
75
08
c8
11
0e
3b
4b
03
12
75
08
c8
11
0e
3b
4b
03
12
75
08
c8
11
0e
3b
4b
03
12
75
08
c8
11
0e
3b
4b
03
12
75
08
c8
11
0e
3b
4b
03
12
75
08
c8
11
0e
3b
4b
03
12
75
08
c8
11
0e
3b
4b
03
12
75
08
c8
11
0e
3b
4b
03
12
75
08
c8
11
0e
3b
4b
03
12
75
08
c8
11
0e
3b
4b
03
12
75
08
c8
11
0e
3b
4b
03
12
75
08
c8
11
0e
3b
4b
03
12
75
08
c8
11
0e
3b
4b
03
12
75
08
c8
11
0e
3b
4b
03
12
75
08
c8
11
0e
3b
4b
03
12
75
08
c8
11
0e
3b
4b
03
12
75
08
c8
11
0e
3b
4b
03
12
75
08
c8
11
0e
3b
4b
03
12
75
08
c8
11
0e
3b
4b
03
12
75
08
c8
11
0e
3b
4b
03
12
75
08
c8
11
0e
3b
4b
03
12
75
08
c8
11
0e
3b
4b
03
12
75
08
c8
11
0e
3b
4b
03
12
75
08
c8
11
0e
3b
4b
03
12
75
08
c8
11
0e
3b
4b
03
12
75
08
c8
11
0e
3b
4b
03
12
75
08
c8
11
0e
3b
4b
03
12
75
08
c8
11
0e
3b
4b
03
12
75
08
c8
11
0e
3b
4b
03
12
75
08
c8
11
0e
3b
4b
03
12
75
08
c8
11
0e
3b
4b
03
12
75
08
c8
11
0e
3b
4b
03
12
75
08
c8
11
0e
3b
4b
03
12
75
08
c8
11
0e
3b
4b
03
12
75
08
c8
11
0e
3b
4b
03
12
75
08
c8
11
0e
3b
4b
03
12
75
08
c8
11
0e
3b
4b
03
12
75
08
c8
11
0e
3b
4b
03
12
75
08
c8
11
0e
3b
4b
03
12
75
08
c8
11
0e
3b
4b
03
12
75
08
c8
11
0e
3b
4b
03
12
75
08
c8
11
0e
3b
4b
03
12
75
08
c8
11
0e
3b
4b
03
12
75
08
c8
11
0e
3b
4b
03
12
75
08
c8
11
0e
3b
4b
03
12
75
08
c8
11
0e
3b
4b
03
12
75
08
c8
11
0e
3b
4b
03
12
75
08
c8
11
0e
3b
4b
03
12
75
08
c8
11
0e
3b
4b
03
12
75
08
c8
11
0e
3b
4b
03
12
75
08
c8
11
0e
3b
4b
03
12
75
08
c8
11
0e
3b
4b
03
12
75
08
c8
11
0e
3b
4b
03
12
75
08
c8
11
0e
3b
4b
03
12
75
08
c8
11
0e
3b
4b
03
12
75
08
c8
11
0e
3b
4b
03
12
75
08
c8
11
0e
3b
4b
03
12
75
08
c8
11
0e
3b
4b
03
12
75
08
c8
11
0e
3b
4b
03
12
75
08
c8
11
0e
3b
4b
03
12
75
08
c8
11
0e
3b
4b
03
12
75
08
c8
11
0e
3b
4b
03
12
75
08
c8
11
0e
3b
4b
03
12
75
08
c8
11
0e
3b
4b
03
12
75
08
c8
11
0e
3b
4b
03
12
75
08
c8
11
0e
3b
4b
03
12
75
08
c8
11
0e
3b
4b
03
12
75
08
c8
11
0e
3b
4b
03
12
75
08
c8
11
0e
3b
4b
03
12
75
08
c8
11
0e
3b
4b
03
12
75
08
c8
11
0e
3b
4b
03
12
75
08
c8
11
0e
3b
4b
03
12
75
08
c8
11
0e
3b
4b
03
12
75
08
c8
11
0e
3b
4b
03
12
75
08
c8
11
0e
3b
4b
03
12
75
08
c8
11
0e
3b
4b
03
12
75
08
c8
11
0e
3b
4b
03
12
75
08
c8
11
0e
3b
4b
03
12
75
08
c8
11
0e
3b
4b
03
12
75
08
c8
11
0e
3b
4b
03
12
75
08
c8
11
0e
3b
4b
03
12
75
08
c8
11
0e
3b
4b
03
12
75
08
c8
11
0e
3b
4b
03
12
75
08
c8
11
0e
3b
4b
03
12
75
08
c8
11
0e
3b
4b
03
12
75
08
c8
11
0e
3b
4b
03
12
75
08
c8
11
0e
3b
4b
03
12
75
08
c8
11
0e
3b
4b
03
12
75
08
c8
11
0e
3b
4b
03
12
75
08
c8
11
0e
3b
4b
03
12
75
08
c8
11
0e
3b
4b
03
12
75
08
c8
11
0e
3b
4b
03
12
75
08
c8
11
0e
3b
4b
03
12
75
08
c8
11
0e
3b
4b
03
12
75
08
c8
11
0e
3b
4b
03
12
75
08
c8
11
0e
3b
4b
03
12
75
08
c8
11
0e
3b
4b
03
12
75
08
c8
11
0e
3b
4b
03
12
75
08
c8
11
0e
3b
4b
03
12
75
08
c8
11
0e
3b
4b
03
12
75
08
c8
11
0e
3b
4b
03
12
75
08
c8
11
0e
3b
4b
03
12
75
08
c8
11
0e
3b
4b
03
12
75
08
c8
11
0e
3b
4b
03
12
75
08
c8
11
0e
3b
4b
03
12
75
08
c8
11
0e
3b
4b
03
12
75
08
c8
11
0e
3b
4b
03
12
75
08
c8
11
0e
3b
4b
03
12
75
08
c8
11
0e
3b
4b
03
12
75
08
c8
11
0e
3b
4b
03
12
75
08
c8
11
0e
3b
4b
03
12
75
08
c8
11
0e
3b
4b
03
12
75
08
c8
11
0e
3b
4b
03
12
75
08
c8
11
0e
3b
4b
03
12
75
08
c8
11
0e
3b
4b
03
12
75
08
c8
11
0e
3b
4b
03
12
75
08
c8
11
0e
3b
4b
03
12
75
08
c8
11
0e
3b
4b
03
12
75
08
c8
11
0e
3b
4b
03
12
75
08
c8
11
0e
3b
4b
03
12
75
08
c8
11
0e
3b
4b
03
12
75
08
c8
11
0e
3b
4b
03
12
75
08
c8
11
0e
3b
4b
03
12
75
08
c8
11
0e
3b
4b
03
12
75
08
c8
11
0e
3b
4b
03
12
75
08
c8
11
0e
3b
4b
03
12
75
08
c8
11
0e
3b
4b
03
12
75
08
c8
11
0e
3b
4b
03
12
75
08
c8
11
0e
3b
4b
03
12
75
08
c8
11
0e
3b
4b
03
12
75
08
c8
11
0e
3b
4b
03
12
75
08
c8
11
0e
3b
4b
03
12
75
08
c8
11
0e
3b
4b
03
12
75
08
c8
11
0e
3b
4b
03
12
75
08
c8
11
0e
3b
4b
03
12
75
08
c8
11
0e
3b
4b
03
12
75
08
c8
11
0e
3b
4b
03
12
75
08
c8
11
0e
3b
4b
03
12
75
08
c8
11
0e
3b
4b
03
12
75
08
c8
11
0e
3b
4b
03
12
75
08
c8
11
0e
3b
4b
03
12
75
08
c8
11
0e
3b
4b
03
12
75
08
c8
11
0e
3b
4b
03
12
75
08
c8
11
0e
3b
4b
03
12
75
08
c8
11
0e
3b
4b
03
12
75
08
c8
11
0e
3b
4b
03
12
75
08
c8
11
0e
3b
4b
03
12
75
08
c8
11
0e
3b
4b
03
12
75
08
c8
11
0e
3b
4b
03
12
75
08
c8
11
0e
3b
4b
03
12
75
08
c8
11
0e
3b
4b
03
12
75
08
c8
11
0e
3b
4b
03
12
75
08
c8
11
0e
3b
4b
03
12
75
08
c8
11
0e
3b
4b
03
12
75
08
c8
11
0e
3b
4b
03
12
75
08
c8
11
0e
3b
4b
03
12
75
08
c8
11
0e
3b
4b
03
12
75
08
c8
11
0e
3b
4b
03
12
75
08
c8
11
0e
3b
4b
03
12
75
08
c8
11
0e
3b
4b
03
12
75
08
c8
11
0e
3b
4b
03
12
75
08
c8
11
0e
3b
4b
03
12
75
08
c8
11
0e
3b
4b
03
12
75
08
c8
11
0e
3b
4b
03
12
75
08
c8
11
0e
3b
4b
03
12
75
08
c8
11
0e
3b
4b
03
12
75
08
c8
11
0e
3b
4b
03
12
75
08
c8
11
0e
3b
4b
03
12
75
08
c8
11
0e
3b
4b
03
12
75
08
c8
11
0e
3b
4b
03
12
75
08
c8
11
0e
3b
4b
03
12
75
08
c8
11
0e
3b
4b
03
12
75
08
c8
11
0e
3b
4b
03
12
75
08
c8
11
0e
3b
4b
03
12
75
08
c8
11
0e
3b
4b
03
12
75
08
c8
11
0e
3b
4b
03
12
75
08
c8
11
0e
3b
4b
03
12
75
08
c8
11
0e
3b
4b
03
12
75
08
c8
11
0e
3b
4b
03
12
75
08
c8
11
0e
3b
4b
03
12
75
08
c8
11
0e
3b
4b
03
12
75
08
c8
11
0e
3b
4b
03
12
75
08
c8
11
0e
3b
4b
03
12
75
08
c8
11
0e
3b
4b
03
12
75
08
c8
11
0e
3b
4b
03
12
75
08
c8
11
0e
3b
4b
03
12
75
08
c8
11
0e
3b
4b
03
12
75
08
c8
11
0e
3b
4b
03
12
75
08
c8
11
0e
3b
4b
03
12
75
08
c8
11
0e
3b
4b
03
12
75
08
c8
11
0e
3b
4b
03
12
75
08
c8
11
0e
3b
4b
03
12
75
08
c8
11
0e
3b
4b
03
12
75
08
c8
11
0e
3b
4b
03
12
75
08
c8
11
0e
3b
4b
03
12
75
08
c8
11
0e
3b
4b
03
12
75
08
c8
11
0e
3b
4b
03
12
75
08
c8
11
0e
3b
4b
03
12
75
08
c8
11
0e
3b
4b
03
12
75
08
c8
11
0e
3b
4b
03
12
75
08
c8
11
0e
3b
4b
03
12
75
08
c8
11
0e
3b
4b
03
12
75
08
c8
11
0e
3b
4b
03
12
75
08
c8
11
0e
3b
4b
03
12
75
08
c8
11
0e
3b
4b
03
12
75
08
c8
11
0e
3b
4b
03
12
75
08
c8
11
0e
3b
4b
03
12
75
08
c8
11
0e
3b
4b
03
12
75
08
c8
11
0e
3b
4b
03
12
75
08
c8
11
0e
3b
4b
03
12
75
08
c8
11
0e
3b
4b
03
12
75
08
c8
11
0e
3b
4b
03
12
75
08
c8
11
0e
3b
4b
03
12
75
08
c8
11
0e
3b
4b
03
12
75
08
c8
11
0e
3b
4b
03
12
75
08
c8
11
0e
3b
4b
03
12
75
08
c8
11
0e
3b
4b
03
12
75
08
c8
11
0e
3b
4b
03
12
75
08
c8
11
0e
3b
4b
03
12
75
08
c8
11
0e
3b
4b
03
12
75
08
c8
11
0e
3b
4b
03
12
75
08
c8
11
0e
3b
4b
03
12
75
08
c8
11
0e
3b
4b
03
12
75
08
c8
11
0e
3b
4b
03
12
75
08
c8
11
0e
3b
4b
03
12
75
08
c8
11
0e
3b
4b
03
12
75
08
c8
11
0e
3b
4b
03
12
75
08
c8
11
0e
3b
4b
03
12
75
08
c8
11
0e
3b
4b
03
12
75
08
c8
11
0e
3b
4b
03
12
75
08
c8
11
0e
3b
4b
03
12
75
08
c8
11
0e
3b
4b
03
12
75
08
c8
11
0e
3b
4b
03
12
75
08
c8
11
0e
3b
4b
03
12
75
08
c8
11
0e
3b
4b
03
12
75
08
c8
11
0e
3b
4b
03
12
75
08
c8
11
0e
3b
4b
03
12
75
08
c8
11
0e
3b
4b
03
12
75
08
c8
11
0e
3b
4b
03
12
75
08
c8
11
0e
3b
4b
03
12
75
08
c8
11
0e
3b
4b
03
12
75
08
c8
11
0e
3b
4b
03
12
75
08
c8
11
0e
3b
4b
03
12
75
08
c8
11
0e
3b
4b
03
12
75
08
c8
11
0e
3b
4b
03
12
75
08
c8
11
0e
3b
4b
03
12
75
08
c8
11
0e
3b
4b
03
12
75
08
c8
11
0e
3b
4b
03
12
75
08
c8
11
0e
3b
4b
03
12
75
08
c8
11
0e
3b
4b
03
12
75
08
c8
11
0e
3b
4b
03
12
75
08
c8
11
0e
3b
4b
03
12
75
08
c8
11
0e
3b
4b
03
12
75
08
c8
11
0e
3b
4b
03
12
75
08
c8
11
0e
3b
4b
03
12
75
08
c8
11
0e
3b
4b
03
12
75
08
c8
11
0e
3b
4b
03
12
75
08
c8
11
0e
3b
4b
03
12
75
08
c8
11
0e
3b
4b
03
12
75
08
c8
11
0e
3b
4b
03
12
75
08
c8
11
0e
3b
4b
03
12
75
08
c8
11
0e
3b
4b
03
12
75
08
c8
11
0e
3b
4b
03
12
75
08
c8
11
0e
3b
4b
03
12
75
08
c8
11
0e
3b
4b
03
12
75
08
c8
11
0e
3b
4b
03
12
75
08
c8
11
0e
3b
4b
03
12
75
08
c8
11
0e
3b
4b
03
12
75
08
c8
11
0e
3b
4b
03
12
75
08
c8
11
0e
3b
4b
03
12
75
08
c8
11
0e
3b
4b
03
12
75
08
c8
11
0e
3b
4b
03
12
75
08
c8
11
0e
3b
4b
03
12
75
08
c8
11
0e
3b
4b
03
12
75
08
c8
11
0e
3b
4b
03
12
75
08
c8
11
0e
3b
4b
03
12
75
08
c8
11
0e
3b
4b
03
12
75
08
c8
11
0e
3b
4b
03
12
75
08
c8
11
0e
3b
4b
03
12
75
08
c8
11
0e
3b
4b
03
12
75
08
c8
11
0e
3b
4b
03
12
75
08
c8
11
0e
3b
4b
03
12
75
08
c8
11
0e
3b
4b
03
12
75
08
c8
11
0e
3b
4b
03
12
75
08
c8
11
0e
3b
4b
03
12
75
08
c8
11
0e
3b
4b
03
12
75
08
c8
11
0e
3b
4b
03
12
75
08
c8
11
0e
3b
4b
03
12
75
08
c8
11
0e
3b
4b
03
12
75
08
c8
11
0e
3b
4b
03
12
75
08
c8
11
0e
3b
4b
03
12
75
08
c8
11
0e
3b
4b
03
12
75
08
c8
11
0e
3b
4b
03
12
75
08
c8
11
0e
3b
4b
03
12
75
08
c8
11
0e
3b
4b
03
12
75
08
c8
11
0e
3b
4b
03
12
75
08
c8
11
0e
3b
4b
03
12
75
08
c8
11
0e
3b
4b
03
12
75
08
c8
11
0e
3b
4b
03
12
75
08
c8
11
0e
3b
4b
03
12
75
08
c8
11
0e
3b
4b
03
12
75
08
c8
11
0e
3b
4b
03
12
75
08
c8
11
0e
3b
4b
03
12
75
08
c8
11
0e
3b
4b
03
12
75
08
c8
11
0e
3b
4b
03
12
75
08
c8
11
0e
3b
4b
03
12
75
08
c8
11
0e
3b
4b
03
12
75
08
c8
11
0e
3b
4b
03
12
75
08
c8
11
0e
3b
4b
03
12
75
08
c8
11
0e
3b
4b
03
12
75
08
c8
11
0e
3b
4b
03
12
75
08
c8
11
0e
3b
4b
03
12
75
08
c8
11
0e
3b
4b
03
12
75
08
c8
11
0e
3b
4b
03
12
75
08
c8
11
0e
3b
4b
03
12
75
08
c8
11
0e
3b
4b
03
12
75
08
c8
11
0e
3b
4b
03
12
75
08
c8
11
0e
3b
4b
03
12
75
08
c8
11
0e
3b
4b
03
12
75
08
c8
11
0e
3b
4b
03
12
75
08
c8
11
0e
3b
4b
03
12
75
08
c8
11
