f00d
baad
f00d
baad
f00d
baad
f00d
baad
f00d
baad
f00d
baad
f00d
baad
f00d
baad
f00d
baad
f00d
baad
f00d
baad
f00d
baad
f00d
baad
f00d
baad
f00d
baad
f00d
baad
f00d
baad
f00d
baad
f00d
baad
f00d
baad
f00d
baad
f00d
baad
f00d
baad
f00d
baad
f00d
baad
f00d
baad
f00d
baad
f00d
baad
f00d
baad
f00d
baad
f00d
baad
f00d
baad
f00d
baad
f00d
baad
f00d
baad
f00d
baad
f00d
baad
f00d
baad
f00d
baad
f00d
baad
f00d
baad
f00d
baad
f00d
baad
f00d
baad
f00d
baad
f00d
baad
f00d
baad
f00d
baad
f00d
baad
f00d
baad
f00d
baad
f00d
baad
f00d
baad
f00d
baad
f00d
baad
f00d
baad
f00d
baad
f00d
baad
f00d
baad
f00d
baad
f00d
baad
f00d
baad
f00d
baad
f00d
baad
f00d
baad
f00d
baad
f00d
baad
f00d
baad
f00d
baad
f00d
baad
f00d
baad
f00d
baad
f00d
baad
f00d
baad
f00d
baad
f00d
baad
f00d
baad
f00d
baad
f00d
baad
f00d
baad
f00d
baad
f00d
baad
f00d
baad
f00d
baad
f00d
baad
f00d
baad
f00d
baad
f00d
baad
f00d
baad
f00d
baad
f00d
baad
f00d
baad
f00d
baad
f00d
baad
f00d
baad
f00d
baad
f00d
baad
f00d
baad
f00d
baad
f00d
baad
f00d
baad
f00d
baad
f00d
baad
f00d
baad
f00d
baad
f00d
baad
f00d
baad
f00d
baad
f00d
baad
f00d
baad
f00d
baad
f00d
baad
f00d
baad
f00d
baad
f00d
baad
f00d
baad
f00d
baad
f00d
baad
f00d
baad
f00d
baad
f00d
baad
f00d
baad
f00d
baad
f00d
baad
f00d
baad
f00d
baad
f00d
baad
f00d
baad
f00d
baad
f00d
baad
f00d
baad
f00d
baad
f00d
baad
f00d
baad
f00d
baad
f00d
baad
f00d
baad
f00d
baad
f00d
baad
f00d
baad
f00d
baad
f00d
baad
f00d
baad
f00d
baad
f00d
baad
f00d
baad
f00d
baad
f00d
baad
f00d
baad
f00d
baad
f00d
baad
f00d
baad
f00d
baad
f00d
baad
f00d
baad
f00d
baad
f00d
baad
f00d
baad
f00d
baad
f00d
baad
f00d
baad
f00d
baad
f00d
baad
f00d
baad
f00d
baad
f00d
baad
f00d
baad
f00d
baad
f00d
baad
f00d
baad
f00d
baad
f00d
baad
f00d
baad
f00d
baad
f00d
baad
f00d
baad
f00d
baad
f00d
baad
f00d
baad
f00d
baad
f00d
baad
f00d
baad
f00d
baad
f00d
baad
f00d
baad
f00d
baad
f00d
baad
f00d
baad
f00d
baad
f00d
baad
f00d
baad
f00d
baad
f00d
baad
f00d
baad
f00d
baad
f00d
baad
f00d
baad
f00d
baad
f00d
baad
f00d
baad
f00d
baad
f00d
baad
f00d
baad
f00d
baad
f00d
baad
f00d
baad
f00d
baad
f00d
baad
f00d
baad
f00d
baad
f00d
baad
f00d
baad
f00d
baad
f00d
baad
f00d
baad
f00d
baad
f00d
baad
f00d
baad
f00d
baad
f00d
baad
f00d
baad
f00d
baad
f00d
baad
f00d
baad
f00d
baad
f00d
baad
f00d
baad
f00d
baad
f00d
baad
f00d
baad
f00d
baad
f00d
baad
f00d
baad
f00d
baad
f00d
baad
f00d
baad
f00d
baad
f00d
baad
f00d
baad
f00d
baad
f00d
baad
f00d
baad
f00d
baad
f00d
baad
f00d
baad
f00d
baad
f00d
baad
f00d
baad
f00d
baad
f00d
baad
f00d
baad
f00d
baad
f00d
baad
f00d
baad
f00d
baad
f00d
baad
f00d
baad
f00d
baad
f00d
baad
f00d
baad
f00d
baad
f00d
baad
f00d
baad
f00d
baad
f00d
baad
f00d
baad
f00d
baad
f00d
baad
f00d
baad
f00d
baad
f00d
baad
f00d
baad
f00d
baad
f00d
baad
f00d
baad
f00d
baad
f00d
baad
f00d
baad
f00d
baad
f00d
baad
f00d
baad
f00d
baad
f00d
baad
f00d
baad
f00d
baad
f00d
baad
f00d
baad
f00d
baad
f00d
baad
f00d
baad
f00d
baad
f00d
baad
f00d
baad
f00d
baad
f00d
baad
f00d
baad
f00d
baad
f00d
baad
f00d
baad
f00d
baad
f00d
baad
f00d
baad
f00d
baad
f00d
baad
f00d
baad
f00d
baad
f00d
baad
f00d
baad
f00d
baad
f00d
baad
f00d
baad
f00d
baad
f00d
baad
f00d
baad
f00d
baad
f00d
baad
f00d
baad
f00d
baad
f00d
baad
f00d
baad
f00d
baad
f00d
baad
f00d
baad
f00d
baad
f00d
baad
f00d
baad
f00d
baad
f00d
baad
f00d
baad
f00d
baad
f00d
baad
f00d
baad
f00d
baad
f00d
baad
f00d
baad
f00d
baad
f00d
baad
f00d
baad
f00d
baad
f00d
baad
f00d
baad
f00d
baad
f00d
baad
f00d
baad
f00d
baad
f00d
baad
f00d
baad
f00d
baad
f00d
baad
f00d
baad
f00d
baad
f00d
baad
f00d
baad
f00d
baad
f00d
baad
f00d
baad
f00d
baad
f00d
baad
f00d
baad
f00d
baad
f00d
baad
f00d
baad
f00d
baad
f00d
baad
f00d
baad
f00d
baad
f00d
baad
f00d
baad
f00d
baad
f00d
baad
f00d
baad
f00d
baad
f00d
baad
f00d
baad
f00d
baad
f00d
baad
f00d
baad
f00d
baad
f00d
baad
f00d
baad
f00d
baad
f00d
baad
f00d
baad
f00d
baad
f00d
baad
f00d
baad
f00d
baad
f00d
baad
f00d
baad
f00d
baad
f00d
baad
f00d
baad
f00d
baad
f00d
baad
f00d
baad
f00d
baad
f00d
baad
f00d
baad
f00d
baad
f00d
baad
f00d
baad
f00d
baad
f00d
baad
f00d
baad
f00d
baad
f00d
baad
f00d
baad
f00d
baad
f00d
baad
f00d
baad
f00d
baad
f00d
baad
f00d
baad
f00d
baad
f00d
baad
f00d
baad
f00d
baad
f00d
baad
f00d
baad
f00d
baad
f00d
baad
f00d
baad
f00d
baad
f00d
baad
f00d
baad
f00d
baad
f00d
baad
f00d
baad
f00d
baad
f00d
baad
f00d
baad
f00d
baad
f00d
baad
f00d
baad
f00d
baad
f00d
baad
f00d
baad
f00d
baad
f00d
baad
f00d
baad
f00d
baad
f00d
baad
f00d
baad
f00d
baad
f00d
baad
f00d
baad
f00d
baad
f00d
baad
f00d
baad
f00d
baad
f00d
baad
f00d
baad
f00d
baad
f00d
baad
f00d
baad
f00d
baad
f00d
baad
f00d
baad
f00d
baad
f00d
baad
f00d
baad
f00d
baad
f00d
baad
f00d
baad
f00d
baad
f00d
baad
f00d
baad
f00d
baad
f00d
baad
f00d
baad
f00d
baad
f00d
baad
f00d
baad
f00d
baad
f00d
baad
f00d
baad
f00d
baad
f00d
baad
f00d
baad
f00d
baad
f00d
baad
f00d
baad
f00d
baad
f00d
baad
f00d
baad
f00d
baad
