0000
0004
0008
000c
0010
0014
0018
001c
0020
0024
0028
002c
0030
0034
0038
003c
0040
0044
0048
004c
0050
0054
0058
005c
0060
0064
0068
006c
0070
0074
0078
007c
0080
0084
0088
008c
0090
0094
0098
009c
00a0
00a4
00a8
00ac
00b0
00b4
00b8
00bc
00c0
00c4
00c8
00cc
00d0
00d4
00d8
00dc
00e0
00e4
00e8
00ec
00f0
00f4
00f8
00fc
0100
0104
0108
010c
0110
0114
0118
011c
0120
0124
0128
012c
0130
0134
0138
013c
0140
0144
0148
014c
0150
0154
0158
015c
0160
0164
0168
016c
0170
0174
0178
017c
0180
0184
0188
018c
0190
0194
0198
019c
01a0
01a4
01a8
01ac
01b0
01b4
01b8
01bc
01c0
01c4
01c8
01cc
01d0
01d4
01d8
01dc
01e0
01e4
01e8
01ec
01f0
01f4
01f8
01fc
0200
0204
0208
020c
0210
0214
0218
021c
0220
0224
0228
022c
0230
0234
0238
023c
0240
0244
0248
024c
0250
0254
0258
025c
0260
0264
0268
026c
0270
0274
0278
027c
0280
0284
0288
028c
0290
0294
0298
029c
02a0
02a4
02a8
02ac
02b0
02b4
02b8
02bc
02c0
02c4
02c8
02cc
02d0
02d4
02d8
02dc
02e0
02e4
02e8
02ec
02f0
02f4
02f8
02fc
0300
0304
0308
030c
0310
0314
0318
031c
0320
0324
0328
032c
0330
0334
0338
033c
0340
0344
0348
034c
0350
0354
0358
035c
0360
0364
0368
036c
0370
0374
0378
037c
0380
0384
0388
038c
0390
0394
0398
039c
03a0
03a4
03a8
03ac
03b0
03b4
03b8
03bc
03c0
03c4
03c8
03cc
03d0
03d4
03d8
03dc
03e0
03e4
03e8
03ec
03f0
03f4
03f8
03fc
0400
0404
0408
040c
0410
0414
0418
041c
0420
0424
0428
042c
0430
0434
0438
043c
0440
0444
0448
044c
0450
0454
0458
045c
0460
0464
0468
046c
0470
0474
0478
047c
