F2
C3
AD
2D
FA
CB
8C
F8
A5
82
10
FD
BC
F5
73
0A
EB
3F
9E
F2
5A
F8
BF
90
C6
94
A6
00
97
65
C6
02
7B
54
AD
79
54
8E
4A
66
31
6B
37
BE
13
96
2B
A8
48
1D
C2
36
05
F0
61
B5
4C
65
7C
DB
30
04
9B
C4
61
C8
F5
9D
C2
DB
68
7D
1A
C7
94
2F
3E
5B
B4
86
18
D4
6B
81
A1
DA
6D
70
48
8D
65
A6
52
BB
59
D1
79
64
2A
D0
91
4B
C9
70
13
55
CF
1E
80
8C
0D
03
96
51
39
9D
7D
91
FD
8D
AA
C3
02
C5
6C
7D
96
E2
F1
70
63
60
EE
14
5D
AF
F2
BF
0D
DF
04
42
85
4A
DF
19
C5
76
BB
66
19
46
6B
E2
97
C6
0A
37
7D
D6
75
AA
1B
3F
CC
61
52
03
8C
3A
4B
6E
F9
D0
32
C6
4E
1F
23
E2
62
3F
99
DF
47
B5
64
B4
A0
2E
35
EC
CB
13
B4
03
DC
3E
56
2E
EC
6E
17
25
35
F6
DD
82
9F
41
26
B0
3A
EA
5F
16
2D
A6
88
B1
FA
53
DD
18
52
46
08
3E
88
26
B8
DE
F4
C0
49
00
B0
BD
FD
84
A1
57
D5
87
BA
61
E8
8B
72
7B
7F
B9
03
1C
36
F6
EC
33
FA
3F
D0
BE
FD
43
6E
3C
27
52
1A
67
16
70
C9
4A
23
75
0B
65
D2
98
69
40
00
B8
B1
D8
C2
F0
C8
8A
21
6C
10
F1
F9
A0
46
47
D5
A7
22
EE
19
CE
2C
02
31
CE
F2
8E
BC
40
58
B5
44
24
0F
C4
8D
EE
B5
C7
2C
1B
52
DD
A0
04
62
06
6D
3C
60
36
BA
32
A3
75
04
C5
4E
B9
0F
9E
17
03
F3
DC
C3
B3
86
35
C6
AE
FD
98
2D
1E
B5
A1
3B
E5
92
E6
8A
7F
BD
B1
1C
8C
48
F9
9C
1D
91
D2
25
6C
83
4F
FB
76
B0
B3
77
5B
7E
EC
33
D9
F9
3F
71
1F
86
4A
AA
79
CC
06
7E
A2
91
E7
34
F9
BE
7C
0D
3D
BD
1B
67
7B
87
BC
5C
68
B0
30
3B
00
16
E5
5D
16
A0
A2
C6
21
9B
B0
21
38
54
88
81
EB
69
AD
E5
B2
09
A9
5C
B2
10
5E
87
C5
D3
FD
27
A8
20
DB
75
1D
A1
1D
3D
A4
A8
89
77
44
61
07
6B
7C
6F
60
5E
CF
94
16
E8
02
DC
56
89
41
90
6C
84
24
25
D9
57
A3
BA
58
36
19
AC
BB
06
AA
2F
BA
76
CC
1D
FD
9A
7E
A1
42
64
A9
C7
C4
D5
03
D0
E4
5A
70
B7
3F
5D
B5
28
E7
8E
02
A0
DB
BE
DD
62
51
C8
5D
3B
73
3E
60
90
14
DC
A2
CD
4D
2B
16
22
C1
A3
3A
1F
AE
24
BA
4A
82
2C
D4
5F
D0
E8
A0
05
86
B1
61
8D
DF
03
A6
92
D0
25
16
68
DD
22
BD
B7
98
92
46
4A
2B
5A
5C
9C
10
48
BC
E1
04
3B
CA
16
5F
25
37
9C
9E
5C
64
6E
FC
8C
89
FA
A7
D8
20
D0
1F
48
57
6F
81
83
1C
1B
FD
34
6F
42
6F
F5
64
E2
79
FE
CE
62
06
30
54
EA
30
7B
FB
D5
12
7E
E9
61
44
20
56
BE
9D
98
6E
19
F2
4A
83
86
94
87
D4
50
97
85
B3
64
C1
1D
5E
C7
E2
94
5E
81
CA
E5
61
A2
DD
DE
EC
FF
B9
02
2E
CC
D7
9C
FB
1C
73
2A
BE
1D
47
91
26
BE
B8
73
02
06
54
54
13
2E
DC
4B
B5
E7
40
14
95
87
59
52
F7
E3
2C
A4
51
EB
AC
8F
1E
BA
8C
F6
4A
22
B2
E9
E9
86
29
85
A0
CB
CA
16
F3
AA
81
B1
CC
24
2E
EF
2F
D8
62
18
3F
D8
C1
A4
B3
95
B3
DE
7F
1C
94
EE
08
B8
86
FE
85
DB
49
B7
69
56
D5
B4
6F
07
2A
7A
4B
72
A0
F9
10
AC
87
39
D9
0C
D7
99
B0
C8
9A
1D
49
48
B2
BD
80
14
DA
E3
7E
25
E4
A1
FB
B5
0E
A1
8A
C3
DC
64
14
FC
D3
15
B5
DD
9F
1A
52
8A
79
40
FE
14
78
C8
E1
93
26
30
B3
99
AB
BF
8A
F8
BE
60
CB
37
73
23
71
85
FE
86
C0
80
A0
9D
A7
03
A0
32
6E
02
C4
73
E8
4E
2C
C6
B4
B4
CD
30
CE
C8
0D
54
3B
24
6A
33
86
82
8B
F2
99
9E
30
BF
DF
1B
92
CD
A1
34
54
9C
32
5F
8C
08
65
15
74
30
D5
00
2A
CA
EE
75
9E
2D
ED
C0
12
47
C9
C7
C0
B6
06
C7
A4
29
F6
CE
DD
43
2F
52
28
A8
E3
99
49
E4
E2
B7
6F
FE
D9
80
B5
BF
6A
B3
38
4D
3D
65
F6
90
ED
62
34
8B
EE
38
68
2F
09
DC
F4
D0
31
43
51
D7
AD
EC
BD
02
4B
86
BA
6D
89
0A
09
22
7C
37
81
FF
78
A3
E9
79
A3
CF
E9
FA
C1
D0
C1
35
03
13
C0
BD
E9
DB
92
12
00
0F
5A
F4
65
1D
E7
0F
1F
72
BA
24
09
73
9F
79
D2
A6
42
B1
CE
F8
5D
A2
1F
B7
FE
D0
0C
14
62
EF
65
A1
13
FB
A3
04
EE
61
E9
15
0F
5F
D4
32
B5
5C
E2
43
42
F0
F1
1E
F3
C3
C7
2C
6A
3A
18
50
6D
4A
8C
7F
F6
B0
E0
E4
83
54
7A
CC
36
0E
86
F0
4C
D7
3B
C6
38
4C
4C
29
E3
93
E4
FA
16
F4
8D
E8
78
83
D0
A3
51
65
59
12
91
1B
EB
07
B6
71
52
DE
B0
95
0C
5C
6F
CC
25
55
25
EC
94
3C
A7
0A
1E
4A
36
19
B2
9E
F9
AB
5B
AE
F8
7C
66
98
17
39
B1
97
61
A4
D0
5D
F5
DF
3A
F2
B5
12
85
26
24
71
6A
1A
D1
F7
12
52
CA
66
84
31
C6
BB
27
34
EA
B8
6D
4E
D2
12
0D
47
CD
CC
69
5F
7A
17
2E
9E
B3
9E
CA
78
F7
43
C5
2A
A8
2B
6C
E5
42
EF
29
96
63
32
5A
F2
30
83
0F
0C
A7
B9
21
9D
55
0F
A6
84
0C
F1
49
35
55
AC
D5
8D
7F
79
E5
1B
D0
96
A9
65
EF
E4
D2
B5
CC
53
FF
F1
6B
08
DF
F9
5D
02
5A
40
BA
7E
48
30
39
49
08
73
99
24
19
63
E2
6C
8D
ED
D7
BA
2D
0A
F4
51
52
78
5B
6A
16
FF
35
82
80
3A
D2
6C
B6
B7
E7
4D
3A
0A
D2
26
6C
B2
22
E9
06
4D
0B
C5
E9
C1
07
D0
F0
0F
74
F9
2F
E2
60
B8
02
84
6D
3A
A3
32
8D
30
81
D1
DF
31
CA
68
9F
D8
90
B2
D1
F2
08
AC
92
A0
D2
CC
24
A2
95
67
8E
9B
05
B0
1D
3D
5D
C7
FC
2E
C5
D5
DF
D6
89
E8
81
AC
0D
2E
D8
27
32
7C
1D
9B
53
C4
73
79
D9
10
8E
56
A7
91
3C
7E
48
03
47
32
8C
61
77
57
BA
04
7A
98
D0
6B
43
0A
90
AD
A0
F9
03
20
05
5F
29
E4
A1
9B
EA
06
4A
95
F1
CE
45
E2
EB
41
80
23
63
AB
2E
7D
C9
C7
BB
58
1F
27
99
C7
43
69
BA
2A
CF
20
4F
29
98
F2
3A
19
D9
D0
F4
73
CD
CD
24
FC
43
79
34
89
0C
9C
CE
12
79
12
7F
B0
1F
8C
3C
D7
E8
94
AF
E6
93
56
83
65
55
78
33
15
3A
7F
D9
CD
1B
8B
64
55
AA
22
ED
18
2B
79
05
A3
F4
85
9E
8E
A6
BC
84
C3
30
37
DE
28
CB
DF
F4
5C
2A
D7
87
4D
50
8C
DD
23
BE
66
B5
C6
B4
F6
51
31
19
61
80
6A
FD
3F
7E
00
47
A2
DE
69
F8
14
BA
CA
56
30
7E
27
79
90
88
03
60
EB
16
C7
EF
11
8D
1E
FA
42
ED
6B
6B
B3
48
AC
31
87
69
51
52
C2
1A
10
B3
23
13
77
A3
CC
9B
91
09
D6
C6
CE
AF
9C
2C
2B
8D
FF
CA
BD
F6
2E
7C
CB
6B
55
13
B0
46
6F
D8
FF
D0
69
2C
4A
72
18
21
03
DD
20
1A
80
E3
7B
4C
98
22
CF
6C
29
45
24
AA
A1
55
EC
41
BF
F4
2D
8F
CA
FC
7F
C0
3A
1A
BE
BD
53
1B
0B
56
52
C9
F8
93
D3
40
2C
13
0A
F2
E0
8A
D4
8A
6F
43
E7
92
08
67
A2
35
8D
8C
88
7D
50
15
5E
35
10
92
9C
60
C0
18
A4
84
A0
E0
5B
02
34
B7
54
7E
3C
CA
13
83
0F
A0
AB
10
A6
4B
A2
48
25
50
7F
BF
60
76
56
7E
FF
12
AB
D0
0F
F9
F7
0D
B5
4C
C0
10
DE
04
40
5F
30
9B
E4
07
02
BA
DF
B2
20
9D
95
66
BC
EE
AE
1A
DF
3E
42
6F
26
E1
0F
E0
1E
A0
49
C0
C9
9E
C7
23
C2
B3
88
32
92
3A
F2
9F
E1
96
FA
F9
77
D0
A0
A4
4F
4A
FC
10
64
4F
4C
18
AC
A9
6E
71
CA
B8
3D
C3
AD
3D
BB
80
C0
0F
78
02
0C
3D
55
A6
6A
83
B7
68
3D
C5
4D
9D
33
B9
6F
4C
B6
6A
FB
FD
25
BB
1A
A1
6C
36
5D
24
8C
71
3F
3A
A3
3E
D8
57
96
C5
0D
31
1F
E0
15
54
4C
AC
17
DA
60
A9
DF
1D
AE
04
A8
3F
15
61
F5
FB
7C
20
FA
EC
D9
0C
E0
B3
83
C3
6E
3D
CA
CA
2C
81
1A
E8
46
57
5B
8F
C0
F2
7D
36
6F
14
1E
E8
02
7F
B4
45
8D
D9
04
14
10
6F
B1
29
C2
18
8E
7D
24
88
B3
A5
12
88
5C
93
7C
B7
59
9B
13
A8
52
CE
C0
13
75
7F
12
AC
05
C6
B9
8F
54
A4
71
AC
E0
1E
16
33
5A
6B
2E
14
4F
95
75
86
58
4E
4A
92
A6
02
19
F3
23
FD
1E
62
3D
96
5D
1F
A7
C6
28
57
88
81
FE
03
14
26
9D
05
55
FB
ED
6B
43
70
6F
09
D3
88
D6
95
9D
14
52
47
39
F0
B7
53
1A
B1
05
78
1E
4E
2D
DF
93
C8
88
36
EA
76
B5
67
10
D4
11
16
F3
D1
B0
13
CE
7F
13
53
AA
3D
36
6B
57
52
25
BD
BB
64
11
6E
82
45
63
2A
1C
82
11
62
D3
6B
07
F7
85
14
19
F2
05
2A
7F
2C
13
80
96
A8
94
13
A7
F5
5E
60
25
4B
CD
12
8D
A1
38
2A
B9
CA
2D
52
01
4C
AC
86
EF
8C
5A
43
7A
04
A3
F0
1F
C7
9C
7F
51
49
98
4C
D0
27
E6
6C
5F
3D
F5
81
6F
5D
EE
4D
A4
08
A3
2A
46
95
E1
F2
E8
15
9B
FB
34
92
70
2B
1E
31
B1
A1
69
91
62
6A
6A
E2
1B
4A
8D
5A
C2
76
3B
F4
CA
FC
43
AF
B1
0F
69
58
84
08
26
32
71
1B
E4
5C
93
DA
C8
B5
16
C1
94
4E
E3
BD
36
59
53
DB
46
A3
45
14
0B
AE
51
1A
36
0C
F5
4C
F9
C6
C4
AF
E9
C5
83
3D
64
B6
ED
A6
6A
BF
2F
64
85
77
AE
7E
D5
A9
FC
69
B1
F1
10
99
49
9D
49
5F
EF
57
F8
67
C1
59
79
8F
2F
4E
ED
04
4C
C9
83
D1
C5
61
4B
C1
82
42
5B
2F
D4
15
5C
8E
97
4C
FE
97
D7
BE
10
A0
22
E5
32
1A
5A
8C
27
EF
F1
DC
C8
53
D9
14
82
56
37
16
DF
50
AD
39
44
20
0B
C7
EF
1B
59
1B
97
87
BE
4A
C9
F3
05
E9
1A
15
5D
EB
F5
61
