6A
3A
A6
3D
95
25
DC
F8
90
F5
6F
73
BF
C8
17
5A
AF
48
E2
50
06
D3
CC
34
BA
DA
8F
A2
82
87
BC
BD
8A
A3
0B
2C
6B
B6
EF
63
5A
70
6E
24
9F
47
30
45
4A
62
D6
B3
21
B6
8D
B7
DC
6F
E2
78
95
91
D8
C2
7A
DF
37
05
C5
FC
28
A1
EE
D0
FF
60
1E
2D
58
44
E8
B2
65
84
34
F0
86
D1
7B
CC
1A
DD
3A
24
96
1E
A0
B6
D4
D0
8A
3D
AD
39
B2
DC
C9
30
23
C0
B6
E0
F1
02
38
CA
26
CA
E0
09
FF
BA
E0
DA
59
8A
1E
5B
66
EF
87
93
A4
C2
A6
B3
10
5E
75
9B
97
4A
73
A0
AD
63
4D
DC
FB
28
35
BF
BC
E3
48
FC
E7
02
4C
0D
98
7F
61
67
06
08
91
B7
B5
5E
A8
6B
ED
FB
46
74
6A
F7
32
4A
55
2C
F1
31
73
99
98
BC
9D
04
DE
8F
70
E3
75
68
45
7D
9B
61
63
4D
EC
6F
74
A7
7A
2F
36
9E
1F
E2
73
24
12
B5
33
73
B9
47
30
AC
BE
65
8A
BE
65
18
BC
8A
1D
E1
CF
45
55
43
CE
1D
90
82
79
1F
BC
AB
3D
58
BF
D4
64
3A
54
A5
8A
42
15
17
50
D8
D8
7C
54
77
3F
C0
60
0D
8B
EE
E1
A5
B1
F5
9B
43
B0
AD
9C
0F
21
15
6E
B6
10
DF
91
0E
0A
2E
