D7
E9
28
BF
53
93
31
1E
B1
92
37
2B
60
84
61
3D
84
BA
BF
FA
22
22
37
B3
77
CD
8F
15
3E
96
E4
F2
2D
32
D7
F2
5B
FA
96
A2
5E
44
85
08
89
FB
2C
19
7C
E9
F6
11
B1
E7
02
93
05
7E
FF
BA
21
56
10
7A
3B
75
D1
3E
46
71
D0
EF
C8
41
46
0A
41
55
B7
6E
5B
5F
13
A9
F9
E1
E0
9B
AC
63
9E
88
83
42
82
B1
D3
8B
75
7A
62
D7
81
44
2D
42
8F
4A
98
C1
18
7C
76
64
E9
96
83
73
EC
48
C6
78
42
F2
D0
82
83
B4
32
BA
35
81
0C
C9
28
2C
DD
E5
8A
55
04
33
A2
62
0A
1C
64
D5
BA
06
99
81
8A
10
E6
42
52
1B
5D
44
DB
A2
B1
19
BC
AB
28
ED
82
A6
BB
6A
3C
80
6D
6D
11
42
C6
52
E9
AE
72
5F
B9
2D
01
70
D7
83
07
6C
68
7B
AE
58
36
D8
B6
1A
B6
53
82
17
66
E9
76
A1
8B
53
26
1D
F7
B8
9D
AC
93
51
08
84
FA
DC
D7
B1
14
52
CB
23
07
0F
0E
F9
55
65
64
A2
80
C9
BC
39
16
F2
B6
4D
6A
08
2C
C2
0C
4A
D6
09
BB
61
4A
02
A5
47
02
4B
54
2A
E4
12
AF
04
A6
FA
B5
C9
29
61
1E
5E
E1
17
79
D9
01
13
F4
27
0A
01
2B
CB
BF
38
