F4
AE
88
41
31
5D
DA
64
FA
95
24
50
DF
42
5E
5A
8B
92
F9
7F
84
37
D8
8F
33
F8
2D
1C
B0
A5
58
6A
79
37
D2
0E
58
A0
79
00
79
45
A3
F6
93
84
9D
33
FE
91
D6
96
A4
66
A3
95
FC
C1
B5
F8
C1
B4
FC
36
44
01
53
9E
E8
72
59
CF
7E
6A
96
EE
4C
A2
F9
C2
85
BA
FD
37
D7
E1
E3
4D
A4
F2
4C
45
3B
40
56
FD
E0
A7
53
58
31
30
AB
21
2D
E6
74
49
DF
65
B2
29
CA
CA
8D
4D
EA
81
CB
5D
0E
83
E7
7D
6C
B4
C2
9A
A8
80
12
C5
D2
E4
F2
5C
1A
81
1F
0E
90
A6
57
D2
35
5C
04
A0
18
40
D5
37
56
F1
73
3F
05
21
88
8F
E0
FD
7B
FE
D6
9D
02
39
93
DD
59
44
CC
F3
CA
EB
7A
47
39
7F
DD
59
24
93
9B
B0
F3
00
B6
C9
4A
CA
59
21
48
1E
F5
4C
2D
F4
69
52
8A
BB
30
E4
9F
53
70
B3
1C
CE
48
56
D9
EE
33
29
B1
E3
B2
43
FD
AD
69
EA
ED
01
F1
55
7A
A9
0A
7D
2D
52
48
5A
63
92
92
B2
61
1C
C0
01
E7
B7
B7
CC
D0
8F
2D
18
20
D9
6D
07
75
C9
82
D7
61
22
E0
15
6C
81
B5
AE
6E
15
18
2F
31
EC
15
37
8B
26
1D
A7
07
CB
0B
34
E5
18
