D1
AF
4D
AB
95
96
09
70
2D
AA
09
69
70
18
F6
56
5A
DC
7F
78
8C
A8
11
B8
20
FD
94
0C
84
F7
77
49
D9
72
E9
30
4C
A2
F8
3F
9A
19
5F
CA
78
31
33
5B
7F
A5
36
74
4D
F7
5D
2D
97
BC
39
4D
42
5F
F3
B1
EE
12
4F
62
72
F2
C1
9D
3E
ED
B9
DA
70
ED
9D
7B
5D
66
BE
BF
E2
63
EC
63
2F
76
B6
45
BE
52
B8
E8
CD
99
14
1E
0B
A8
74
07
9B
F4
82
40
AB
3E
E4
C4
DC
B1
B6
EB
AA
8B
E3
E6
90
01
E3
94
27
4B
44
72
B0
28
92
88
54
0D
FA
8C
38
40
AD
98
56
5F
C8
F1
