84
BF
6A
EA
F1
6E
9D
8D
59
DE
78
7F
58
ED
24
36
09
28
1A
66
07
09
79
49
0B
7D
19
C0
3F
AB
14
E9
75
9A
BB
12
F9
9A
B8
80
3A
0E
E8
16
C2
18
DE
44
DA
BF
E7
A6
31
CA
34
99
96
25
A8
7C
27
BD
A0
33
79
A7
58
CA
60
98
0B
13
CD
B9
90
EA
7E
1E
5A
05
F5
02
6C
63
56
68
97
F3
DE
53
AE
98
4C
18
80
B9
78
A7
2D
80
CB
66
C9
CC
E2
D5
4A
FB
91
6C
1D
FB
94
F2
C1
D4
EC
37
7F
EE
6E
A4
67
E9
E9
57
A6
BC
80
6E
1C
41
FC
22
A9
B1
A5
4A
C4
C5
28
CD
3B
56
A9
0D
F6
43
EE
DF
A0
1A
88
26
70
35
16
7B
DF
92
4D
6D
BB
F1
0A
56
85
93
46
22
F1
04
9E
D2
C5
F3
D7
B6
23
F7
19
52
4C
71
1D
07
36
26
A1
C4
D8
B0
AD
B1
C6
D1
65
46
31
93
44
DC
A2
46
84
28
40
2D
BC
A0
C7
59
D2
86
91
97
F2
6E
7D
37
A5
16
45
8A
9B
3F
E4
95
99
9F
70
7E
3C
CA
1C
59
69
AF
6F
83
16
E9
4A
A8
AD
1D
FB
29
70
76
01
04
1D
7A
A6
76
42
DF
7A
10
DB
17
0C
9B
A0
64
83
19
E9
8A
4C
7D
82
2B
43
6B
C4
89
1A
7D
78
7B
96
D0
52
33
D8
13
C3
29
48
88
9C
F9
09
B3
A5
F7
33
DA
EE
3E
73
57
DB
89
93
57
FF
B0
E4
6E
95
74
D5
55
7E
98
B2
24
87
61
4C
FC
3E
6F
08
2B
DF
D9
96
85
E0
13
0F
2A
8C
9D
04
24
9A
1B
6E
21
91
99
3C
38
11
09
F9
2D
4C
B3
60
7B
D5
5F
E3
33
BD
5F
DF
0A
8D
EF
A1
1C
8A
A0
68
76
66
20
E8
A3
F1
B4
3F
6B
74
F4
8A
FD
D5
94
82
C7
E3
61
12
E1
10
7A
DD
5A
B2
9E
AC
0B
DF
50
88
FB
0D
95
4D
6C
E9
EF
46
2E
38
C7
FB
DB
5C
E7
4A
97
85
0C
7A
22
71
88
F6
16
B8
45
FF
D8
83
82
DE
BB
8A
3A
BB
97
6C
2D
A8
FE
E7
94
69
EE
C9
11
B3
D1
76
19
44
E0
5B
96
42
8E
0A
1F
52
AD
62
02
18
7C
CE
10
67
A8
07
86
C4
D5
D3
ED
91
36
71
FF
9B
EF
BA
85
E3
1D
94
A3
3C
FD
40
39
57
6A
5C
98
83
65
97
B5
C3
2F
9D
C4
AC
FD
67
FB
37
1A
62
C8
EA
27
E0
48
65
4D
53
A3
E8
40
B8
11
49
DC
CF
C2
C9
16
48
D2
63
04
DE
A7
90
45
90
4D
EA
4A
3A
8E
97
C4
1E
AF
8E
6C
3F
40
59
DA
FF
B2
B4
82
2F
82
65
C7
16
DD
7B
2E
C5
86
8D
A1
9D
22
D7
F6
91
B0
38
F0
19
25
9F
5F
DE
3F
18
1D
24
D6
DC
13
45
BE
6C
B4
A8
58
BD
98
4E
6B
CE
D9
A9
78
B2
A5
F0
27
52
F4
FC
A2
9B
5F
59
15
02
36
F2
41
2D
BE
CB
7D
01
81
28
6D
73
7D
AE
D7
38
AE
8D
74
23
6E
80
0B
5A
3F
10
5F
30
68
E0
96
B8
99
B6
FE
5C
6E
DC
AE
F0
41
34
7C
C7
F7
75
70
5D
55
6C
B1
70
AE
9E
5E
07
71
BD
97
B1
50
87
00
79
87
9D
3D
DE
BB
4C
A4
09
73
4F
67
8C
54
C1
0F
42
7E
2C
DA
2E
20
11
50
70
4C
62
37
B1
79
AC
EF
B1
28
92
19
43
C0
CC
20
1F
0C
F2
51
AE
60
43
A9
2B
32
52
32
82
DE
31
42
FA
94
18
55
0F
63
A5
DC
3E
C9
F2
0C
8F
59
78
CF
53
2B
DE
E9
8C
FF
A3
48
CA
1B
43
49
83
7B
37
7E
D1
BF
26
FA
22
CE
3E
DB
1E
4E
7F
B2
13
CE
86
77
95
F3
79
8A
26
ED
F6
8A
DD
B6
B9
AE
BB
15
CF
48
A6
53
3A
B1
6E
45
2F
79
1F
4A
84
23
8B
C4
EE
18
11
86
D6
A6
06
90
23
D3
42
14
DF
EC
42
8F
57
0C
20
1E
18
16
8D
2A
AC
05
05
2D
DB
A4
F9
47
12
49
54
C6
86
26
76
85
EB
27
8C
83
B9
5B
F5
46
BE
15
10
EC
6A
DE
69
DB
68
A2
0C
0D
46
D0
5C
45
AE
0F
B5
7A
53
F0
65
C1
D0
C8
18
B9
02
D1
16
93
EE
CC
AB
64
2D
35
65
0C
E7
9C
9C
37
A3
83
C4
67
19
C9
53
C2
89
C1
14
2F
A1
89
C7
C8
CD
CC
F2
5B
07
BD
35
EC
36
55
23
62
5A
5B
4C
60
89
E7
94
79
B8
B6
99
81
71
A2
AC
99
4E
FC
F5
5C
64
97
2B
92
55
1D
D0
41
2C
57
FB
09
31
B2
43
C0
3F
2B
2D
C0
5E
6C
F3
56
01
B7
FD
F2
AC
33
9B
6D
5E
2D
43
59
3D
28
57
67
8D
E4
03
2E
49
F7
70
B6
DD
8A
3D
8A
63
A7
F4
EA
6E
2C
75
B4
67
86
B0
AA
0E
B6
CC
AD
0D
A3
B9
78
9E
36
B3
9C
9C
FC
79
C7
1A
7A
6F
25
54
B2
16
A4
08
28
3A
D6
13
29
84
0F
E2
88
F5
6C
B9
68
7D
18
4E
2A
B2
38
D7
EC
B4
09
B0
89
15
16
38
EA
F1
74
8F
1A
AE
6A
63
21
6B
D3
4A
7B
33
9E
F8
37
26
50
87
31
56
AA
42
52
58
62
12
ED
75
F6
ED
7D
D3
E8
68
B6
34
27
C2
4D
3F
D6
A3
A9
5B
FC
D8
97
40
AA
BB
D6
98
A7
A3
40
4D
44
0A
5B
48
74
32
6E
F6
1D
7D
B2
60
E3
4F
6E
1C
04
B6
6C
C9
B1
B2
08
5D
6A
DD
CC
96
B3
71
25
8A
A1
7C
6A
4F
63
13
6B
C7
62
A6
80
0B
00
96
2A
F5
56
28
8E
A0
29
2B
49
6D
A2
7C
45
F3
E1
22
D8
4F
97
96
79
02
39
F5
A5
24
4B
39
B1
E7
1C
2F
B3
3B
26
E6
B2
A4
AE
D6
0A
5B
5E
39
23
D2
70
64
64
4A
6A
38
62
ED
CB
D6
74
F1
A0
A6
A7
87
DC
9B
8E
1E
EA
3F
BA
92
D8
3D
68
43
09
52
5F
21
50
70
91
60
3E
6F
75
6B
81
3D
5E
97
31
5D
B0
6F
A6
D4
5D
96
80
D7
7B
6D
52
54
DF
00
6E
19
7C
85
0A
B2
35
A2
BA
78
DC
E3
7E
31
F8
0E
3E
FE
0F
48
03
72
0B
31
98
FB
82
5D
F3
23
78
44
E2
99
75
F3
CB
20
2D
22
E9
7A
8D
27
31
63
E8
72
F5
43
4D
9E
49
48
71
F4
C5
87
4E
9B
FB
C1
D2
EE
E7
DC
E0
A0
5F
16
37
0A
3C
45
07
A2
C8
36
AA
94
32
AA
7F
62
72
E3
33
A9
01
FD
63
35
DD
6D
C0
F3
B4
94
30
29
B4
95
D9
FD
EF
08
6F
DD
05
A1
FE
DA
2F
BA
22
5D
4B
F8
BB
0E
A3
99
95
D8
8E
80
FC
17
BF
E3
BD
19
ED
6B
20
78
ED
84
A1
1E
1A
A8
A1
98
A5
BE
C9
E5
99
95
2B
65
F8
43
74
5B
4D
7F
1E
64
17
B8
5A
FF
27
39
DA
BF
6E
8E
C8
92
63
8F
7D
30
3A
60
DC
21
AB
2E
E4
14
41
BE
60
3B
F0
8B
60
0C
81
66
F2
DA
FC
E6
1C
FD
CF
AA
2F
60
C3
53
6D
68
BE
9C
8B
E2
92
EA
C5
4B
97
30
2C
B1
C1
82
4F
17
8A
6F
D2
F2
45
C4
ED
63
6D
3B
35
9A
48
41
85
03
F9
56
70
83
A7
7D
C7
68
8F
D9
9D
30
DF
19
F1
03
41
46
6F
45
F8
FB
3A
E7
3A
49
B4
61
57
C4
A1
81
9C
2E
F0
EA
CB
4B
06
D8
85
5F
EC
FD
D9
A9
7B
F8
01
1E
48
88
9F
15
2A
7F
D4
10
C8
FB
58
D3
5C
41
B4
93
96
7C
9E
EA
A4
6D
A9
87
71
9E
95
EE
9B
9B
11
61
41
45
9B
30
B1
AF
5C
56
D6
87
9E
25
36
75
EF
34
CE
D8
D8
1B
A6
D2
DC
4C
76
8A
2B
9C
57
19
49
FC
F9
06
5E
C7
02
35
28
8A
35
04
96
AE
6D
F7
72
AC
2A
88
48
11
B3
17
5B
31
3E
68
FA
58
63
A6
AE
B0
D0
5D
43
95
45
68
F7
2C
99
39
78
BC
A9
ED
5C
E2
FE
9A
E0
7E
EC
ED
0F
5C
0D
7F
14
14
08
CA
E5
F7
9B
18
D2
C6
12
B7
09
BC
9A
2D
92
4B
77
E8
F3
A3
2D
24
08
97
E0
21
AA
9F
4C
25
E7
E0
A8
72
8A
DE
CF
E0
6A
A7
9E
4F
19
B9
10
C9
CB
76
F9
88
51
47
60
EB
8A
49
F0
0B
87
80
F7
CB
EF
54
75
56
F2
98
48
36
32
5F
88
27
64
34
7E
7A
FD
BC
B9
9D
10
AD
6E
44
4C
6D
8C
5E
63
C9
E5
75
A4
3B
4B
4F
25
32
7C
79
80
78
99
E0
3A
FC
32
0D
5C
EF
2F
3B
9E
48
C4
A9
23
D3
B0
42
11
AF
7D
84
22
D3
22
F8
76
FA
3E
25
B6
A7
AC
05
9C
06
1B
AD
60
4A
E9
FE
6B
D4
9F
17
F6
E5
76
E5
04
EE
B2
5D
53
12
FF
4A
FC
ED
35
C8
FB
8E
4C
FB
5D
45
9E
96
34
BC
D5
50
C7
37
0B
52
1A
89
91
5D
53
FF
91
04
50
AD
B2
9A
79
4F
AF
B5
E2
6C
5A
72
63
CA
16
98
85
B8
A6
B0
57
22
F7
B9
22
47
0D
98
05
5B
FA
D6
33
02
55
2A
5C
41
C7
AE
4F
B4
9D
B5
E3
CD
2A
15
97
33
9E
BD
B0
5C
C9
16
55
B4
6E
3A
25
B5
EF
3E
BF
2E
EF
55
97
02
6A
C5
9D
C0
3D
69
E4
8E
E9
B2
DF
53
6E
35
B3
D5
08
3F
80
21
2E
10
26
31
FA
C7
54
20
45
2A
DE
48
A7
0B
FF
02
FD
31
4D
01
C9
0A
5B
83
55
3E
74
0F
E7
B8
6D
B5
4A
B1
86
20
F6
22
CF
C5
B1
D1
D7
0A
39
E6
AC
FA
F1
FB
B5
8D
54
F5
9F
3B
B1
FD
81
A3
36
90
AA
FB
C2
38
A0
E7
34
C8
43
28
6D
54
B3
81
E3
7A
68
B8
23
CA
40
6A
AB
B5
97
3B
96
40
CF
93
9B
32
09
15
78
48
F3
7F
11
9B
7B
7D
EC
19
77
66
10
17
DC
83
23
79
B3
B7
CF
0B
7E
DC
BA
AD
BC
6D
10
65
8D
39
0E
89
A9
D7
0D
B0
33
40
BC
0F
8C
D7
15
5A
CB
39
AE
B3
E1
9D
72
DF
5B
4B
DC
EC
72
12
EC
E2
F4
7F
71
A4
0F
E4
17
64
FE
BD
D8
34
D8
F9
02
7F
EA
67
09
8A
AC
6A
7B
BA
15
75
03
69
D9
C3
7D
4B
55
4E
D8
77
23
53
8A
F4
F1
AB
6C
DF
07
D3
E4
F5
CD
75
2B
33
EF
F6
53
43
E9
BC
85
D1
25
94
D8
92
92
09
60
45
CF
1D
56
FB
7A
17
E3
BD
D2
AF
57
43
1B
36
B4
6D
B5
67
9B
E7
D6
7E
66
9A
21
B3
98
C1
BE
E7
A2
DA
AA
7C
89
12
0F
A5
2D
9B
E3
C2
31
9C
35
5C
A4
EF
6C
07
BE
A9
8E
9C
3D
DC
69
F6
FE
34
AF
89
29
5F
71
C4
5B
3E
23
4A
C5
0F
15
C3
D6
AC
3E
B0
C9
5B
E4
B9
AB
6F
31
A2
C4
82
DE
B1
BB
51
38
27
FC
76
FF
FD
DA
B3
EB
