BE
B1
77
C0
0F
02
7C
B4
C9
DC
1E
73
6A
0B
C3
43
D9
16
E4
9C
5C
76
CF
38
84
6C
33
B0
8A
C4
8C
AC
9C
B2
42
83
EC
6D
BB
1A
4E
43
C4
79
45
68
3D
74
2F
1B
25
A5
0E
8C
25
7E
EA
A6
B6
8E
D3
4C
9F
61
21
67
D9
A4
3B
BC
6D
2F
FB
0C
E4
9C
BD
01
F6
5A
01
44
1D
B8
EB
26
6A
56
4F
C5
8E
A4
12
E0
CF
7F
E1
D7
0D
85
30
E2
B7
AC
4D
3C
8A
AE
D7
41
DE
F7
1B
40
11
73
2F
E2
E7
24
5F
2A
DE
3D
A4
0C
7E
DF
C9
F1
5C
00
B0
E3
BF
48
6C
CF
59
8F
AF
34
64
97
48
2E
35
97
D7
F3
F6
8B
63
33
D8
F8
F7
2B
94
8E
1C
D8
89
5C
BB
07
2E
B9
9C
EA
E5
64
39
53
B6
61
2F
23
A9
33
16
89
B0
51
1A
89
0E
12
DE
5D
53
DA
EA
83
D6
C5
06
26
58
38
30
19
EB
3F
B5
9A
24
2E
6C
30
E1
9B
43
D9
FE
03
CD
E4
11
B0
E9
6C
E8
35
A9
F7
A2
78
C9
79
BE
84
BA
9C
58
E0
AB
B7
DB
89
E1
89
9C
71
99
B3
21
41
96
C5
EF
48
48
8F
80
12
FC
45
61
E5
64
C7
A0
BE
07
7A
8F
DC
34
AC
0A
C2
8D
85
FE
29
C6
34
72
FF
86
61
A5
06
88
56
68
E6
65
FF
F3
46
E8
CE
99
E1
AB
23
95
DF
92
F6
F5
E4
AD
13
88
63
6E
EC
44
86
6A
57
7D
1E
65
39
12
23
ED
EC
97
14
02
68
AD
90
D2
E6
10
28
93
09
EE
A0
18
00
F9
3F
4A
17
96
DB
FC
89
0F
7D
B7
7A
07
8D
D0
5D
95
B3
3C
40
24
69
FB
9D
84
FC
7A
40
9A
D6
F0
95
06
71
36
A8
1F
FB
A2
C4
A7
84
CD
7B
25
A5
BA
B6
95
85
26
D4
D7
DF
B8
5E
18
8A
52
B4
46
99
C2
A6
8A
84
21
F2
95
B0
F9
0F
3F
02
70
B8
2B
B0
A8
09
71
00
95
EB
6C
B4
E5
A8
00
19
F7
EF
2D
52
1A
9D
FF
19
94
8B
5E
93
A8
1F
74
B4
1E
45
19
98
9A
60
75
34
A4
88
A8
50
C1
FB
0B
E5
B5
EC
8F
59
EE
24
B9
ED
88
9A
22
C3
52
25
D4
F9
A9
63
2D
95
FF
A1
67
F0
A3
B3
32
26
09
79
9A
45
BA
60
6F
D6
27
BC
80
82
35
C7
13
E2
EC
9D
EA
2C
A6
06
55
77
86
C1
63
CE
03
F5
7A
35
8E
42
70
E3
CB
56
96
F2
AF
10
EE
D9
05
6B
DC
E1
FB
22
F1
6E
48
CD
8F
3E
A2
73
38
C2
C7
D4
78
18
C6
F2
FA
18
C3
AC
CE
70
39
7B
4D
0A
4C
5A
28
AD
12
1A
D4
C0
3D
44
E6
2C
3D
16
5B
16
2A
4F
79
89
C4
AA
13
ED
78
67
15
4F
3A
5E
A2
74
08
A1
5A
74
4C
71
03
5D
BB
18
E6
B6
3E
54
2B
A1
33
B3
05
67
16
A5
80
AC
1D
B6
1F
30
AA
A4
EF
35
F6
C5
75
8A
C3
9F
41
D6
14
AE
AF
39
2A
51
39
4A
C8
E8
6A
F9
86
84
CA
2F
0F
51
ED
63
16
D2
09
68
B9
CD
DF
E8
56
FC
05
BB
1E
E8
BD
39
78
44
28
F7
44
00
70
30
85
0E
2D
CF
72
3B
ED
9D
C0
AB
BA
F0
3A
63
85
C7
EF
BD
FE
23
9B
7B
17
91
91
A4
38
12
D7
E3
D3
3A
4C
BD
C5
8E
E0
71
B3
09
89
EF
50
4A
06
2D
48
9E
24
69
FB
D3
DF
A7
8B
21
AC
65
07
AC
55
68
DA
57
0F
A4
81
F8
D7
3A
00
AD
73
12
3A
41
75
10
18
19
0D
59
5C
7C
8A
8D
93
20
D2
4B
51
80
56
5B
C9
0F
A1
B0
3A
3D
BB
0A
FF
FE
67
5C
10
97
8C
76
17
63
A6
30
7B
71
2B
31
E2
E7
1B
58
5C
72
A7
6D
28
4B
0F
4F
DC
5C
31
E2
D1
C0
72
7B
55
04
FF
BF
14
38
9B
08
A8
85
43
35
92
7F
5B
CD
D2
55
78
04
1A
D3
BB
7F
56
00
8B
4A
FB
D0
0F
66
D5
4E
34
FB
55
CB
B5
2F
54
47
30
42
E0
D2
C7
0D
D6
D7
02
C9
6B
D3
0D
2B
B7
02
D0
45
C3
43
21
90
95
DC
EE
2D
CB
B9
45
49
86
73
44
63
DC
36
ED
CC
07
01
B2
DA
47
C8
E8
37
D2
66
67
56
C6
25
1C
2E
D2
2F
E2
D2
3A
79
D1
B5
D8
9F
E7
2A
65
CA
2F
75
EA
AD
5D
77
B5
47
4E
9B
CE
7C
74
70
4D
D6
CE
7C
5F
0A
8F
0F
E7
A4
B8
0E
F8
A7
E0
05
C4
65
89
DA
8F
D7
92
09
65
6C
E4
2B
67
B8
F1
C7
0D
ED
42
1F
78
D4
A3
26
C1
37
83
97
54
33
4A
36
80
B1
E8
28
8E
E3
A0
3B
11
B5
1B
45
7B
52
DF
A9
25
EC
78
7F
6E
03
FE
EE
91
B6
CF
83
E8
D7
08
A8
9F
95
CA
32
1B
F1
85
B7
0B
E7
7A
A9
D2
A7
30
FF
41
D4
5A
6E
3F
3B
7C
A9
7E
B7
4B
53
72
40
95
0E
57
08
67
A1
72
77
AF
08
9F
5F
E4
41
D8
E5
94
85
C3
A1
20
08
4C
26
D0
35
B2
85
B7
02
73
D3
9C
D8
BE
51
34
D2
92
4A
27
F7
F8
24
C9
80
FF
CE
11
2F
91
8D
AE
E4
96
EB
F3
E4
31
49
0C
3D
70
6D
9A
EB
A5
3B
BD
F5
73
5D
49
20
22
66
5F
60
5E
CD
68
F7
15
C9
AC
30
8C
87
82
F7
E3
7C
95
0D
38
AF
9A
08
6C
37
EF
EB
A0
6F
E2
73
23
B0
0F
A0
17
46
14
ED
40
56
4C
E1
DE
96
E2
31
9A
1C
29
1F
61
24
35
92
1E
48
1F
7D
67
42
71
E8
D5
35
25
E8
D6
8B
C5
11
E3
22
71
4F
CE
3C
E5
6A
45
06
A5
50
DB
AD
B5
BA
8B
EF
BB
5F
D2
7D
CC
E8
C8
EB
6D
13
A1
C5
F4
20
E8
0C
66
27
C0
F2
4C
45
4F
2C
AE
63
A5
1D
8B
4D
B6
23
34
9B
AC
55
FA
39
FE
47
A0
F7
CD
51
9B
DB
3D
34
78
EC
B3
26
02
75
23
F2
D1
06
70
CF
99
31
8C
15
35
69
87
C2
27
0F
30
36
C1
4E
03
7C
43
48
AA
14
71
58
AB
89
DB
88
FA
FA
DB
48
3E
0F
D8
25
1D
EB
D9
BA
35
8E
EC
2A
75
B7
AE
5B
95
CA
81
91
0C
6D
29
5D
E6
92
A1
83
AF
30
5D
1E
EB
43
FC
8C
B3
38
94
71
E4
AA
EB
11
6B
71
64
81
8A
5C
AB
3D
AA
C4
D6
D0
7C
8B
E0
4F
C5
43
7B
15
D1
7C
01
0F
90
4F
5A
AF
94
61
EF
F2
95
99
3A
63
08
B8
D5
D4
DB
3C
61
B4
45
E2
0F
5A
8F
95
93
9B
55
01
99
02
1B
63
0F
7E
01
EF
C5
5A
CC
08
EC
A7
F2
82
6B
6E
17
67
16
2A
63
B3
29
02
66
EB
24
36
0A
DB
47
61
09
4B
AE
7D
14
7B
C5
76
ED
94
87
A6
B2
EC
67
08
AF
3D
D5
93
3D
B8
C0
3C
4A
72
F9
88
8E
1C
0C
A4
69
1F
36
0A
7E
2D
57
87
8C
09
54
E2
80
C9
6C
02
12
52
2A
5A
FA
D5
83
55
4A
46
46
A0
91
8B
BB
F3
2C
68
0B
C7
F0
8D
3A
7E
44
F6
CC
5B
C6
A1
B5
D1
B0
85
2B
E4
69
70
0F
FD
9C
8D
85
87
21
AE
0D
C4
0C
F1
72
6D
C5
1B
6F
4C
D0
EB
7A
65
16
F6
39
29
55
E2
9E
25
0A
C0
E3
2E
16
19
E4
A1
94
A1
A8
50
61
A2
77
7B
FA
50
22
93
DF
CE
F5
60
34
29
09
39
E8
D5
50
B3
CA
68
F2
B8
F1
93
E9
17
5D
A9
9D
96
7A
04
2B
CD
3A
A2
B6
3F
45
F9
46
C5
F4
61
11
E2
E1
78
52
56
00
9D
4E
B3
C2
64
E6
CE
51
D0
EB
5B
1B
65
55
99
BA
06
FC
26
95
6C
A6
E6
5B
73
29
8E
FF
3D
F8
AC
30
C2
F7
22
CC
53
B5
1F
D0
8B
7B
65
40
FC
1D
23
C7
A6
13
42
40
5E
7D
E7
44
84
5F
73
D7
86
7C
7D
EB
FD
29
D0
29
D9
58
AD
FB
0D
56
82
05
87
04
1D
B5
7D
31
61
0F
53
28
13
67
17
5D
8B
14
86
EF
B4
E7
28
A6
C2
34
1D
38
CD
0E
62
DA
22
48
21
5B
F0
56
F6
52
97
36
4A
10
9F
F2
4C
D1
71
25
88
D1
D9
87
DC
78
5F
1C
CD
56
2E
04
EF
27
8C
89
79
B1
0A
41
BF
48
A5
25
A5
1C
55
38
3B
B2
63
FA
7F
29
12
81
55
1C
0F
9B
A1
41
CC
2A
09
7B
FE
55
23
90
1E
DA
D4
F8
D7
E5
09
77
1E
80
D9
6C
F8
0B
23
9E
4D
F9
A1
5B
B0
2C
49
EA
43
3F
5A
6F
F1
DB
40
33
E3
A9
13
A6
21
7C
9D
3B
62
C8
C0
5D
2B
B5
74
E2
9E
FD
B9
EF
94
EF
09
B2
51
A0
E9
D3
F8
EC
08
8F
25
04
BB
61
C6
30
17
0D
5A
25
D4
D9
86
63
5A
D3
E1
F6
BE
A9
34
95
01
32
B7
74
A1
17
F3
75
7E
6A
AB
4D
6D
D1
D8
54
5C
FF
28
F1
E6
AA
66
31
8E
48
E0
A5
A6
92
00
88
B8
53
9D
FA
65
3C
C1
3F
40
69
3E
5E
15
5D
A2
36
28
3E
A2
6B
4A
99
84
2E
47
FE
AC
31
8B
5E
8D
73
00
22
0A
90
46
42
2B
B9
1E
37
E1
A2
38
27
6B
36
C0
FC
42
03
87
9C
DE
09
39
85
58
79
2B
B3
6B
8A
FE
80
AC
E7
CC
B3
01
F7
2A
17
8D
FF
7B
65
F1
EC
C9
A1
AB
E8
92
72
CB
7D
B4
FB
E8
BA
25
86
40
77
52
4A
6F
17
53
0A
52
AB
54
CC
C2
B2
83
D8
D3
14
C3
93
37
CA
91
7F
43
42
AE
98
24
CB
04
A9
AE
FD
8A
AC
FD
12
B6
F0
A6
82
CF
1E
79
5F
B6
F4
6A
F5
A5
40
6D
8F
1D
B3
25
86
E0
4F
36
FB
91
EF
49
8D
61
5B
1E
80
91
94
34
05
97
1D
12
B5
AE
7A
B2
DF
DE
82
9F
DC
15
E1
0D
FE
36
45
85
62
A0
AA
8B
59
7C
1C
5C
DF
47
02
2D
F3
F5
B9
F2
CA
81
A0
F7
3D
79
4A
88
F8
C5
2C
6E
B9
40
44
36
A5
B4
F1
21
E0
59
9F
6D
70
1E
6E
DF
94
E2
D1
E2
57
97
EE
36
73
F4
53
05
18
F8
33
41
3A
F3
BF
0A
22
28
73
E3
ED
B2
66
1E
58
DA
F0
44
75
82
FC
30
DA
B3
A7
B3
C4
2E
DB
14
25
C6
8C
69
8B
1F
D9
6B
2E
48
4F
DD
4C
0F
D8
16
B3
49
C9
F6
88
04
1C
E4
F0
E7
ED
41
CC
E0
BE
F3
1D
5C
E5
47
20
CF
D3
C6
21
10
F5
BD
5C
91
99
B4
C0
99
DF
53
AC
FF
E6
0C
F4
1F
65
38
FB
F3
3A
BB
ED
CB
B0
38
B5
A7
B4
7E
49
A4
D7
5B
EE
76
9E
13
EE
DF
E7
A8
F4
26
0B
18
EB
C8
B9
F4
FD
83
F8
7A
B3
1C
A3
E3
61
28
09
D9
8D
61
85
E7
00
66
86
94
49
C6
F4
62
51
F1
