63
11
D3
9B
C7
A7
0B
43
1F
F2
73
74
8F
D7
67
ED
6F
9C
29
B0
43
06
7C
4E
ED
BE
6E
64
21
F9
75
66
1A
58
BD
9B
8B
0D
C1
69
D9
40
19
D3
87
B1
92
40
F2
9E
84
7E
3E
E7
60
06
90
70
89
82
7D
C7
65
8C
C3
07
B3
B9
37
FC
1F
D6
FF
87
13
71
01
44
D1
9C
9B
6B
BF
ED
95
F4
01
C9
54
FF
4D
E2
50
72
FB
FF
C8
E4
5C
FC
B4
BA
4D
11
FB
8F
0C
57
E6
DA
4A
87
D4
CA
81
05
30
75
87
1E
A1
32
64
8E
80
43
61
46
8F
B8
61
6C
E8
8F
74
A2
33
20
AA
8B
1C
B9
25
8B
40
6F
DD
11
AA
33
CC
D5
ED
FC
F8
FC
BD
02
CB
12
02
D8
9C
ED
D0
93
38
EB
99
2E
C2
7B
A1
2D
BE
DF
B3
81
68
30
13
AC
4A
A2
B3
25
0D
09
A9
FE
90
9C
E1
C4
37
F9
0F
A7
86
6A
E8
DA
EE
67
92
3D
E6
5C
59
3A
3E
AC
A3
EC
B0
F5
26
87
B9
96
58
F4
A7
6E
27
BB
F2
E7
EB
26
CF
33
99
A4
03
D6
39
6B
F5
65
9A
61
08
8D
44
3D
27
56
AE
E9
A2
A9
B1
2B
38
11
3D
85
75
BE
4B
5A
3E
CF
12
51
AA
D1
7E
FF
13
82
DE
C0
6D
DB
DD
E5
D7
4E
B3
15
70
4D
9C
ED
6C
0B
