7E
AB
43
1F
BF
A0
DF
A7
06
73
A5
4A
A6
E2
8D
AE
D5
A5
C5
C1
55
1C
04
6B
82
07
13
7F
11
BF
76
CE
2E
5F
AA
22
46
C3
31
98
4E
91
3E
7F
BE
61
54
6D
8E
77
3B
7E
3D
E8
D9
E9
57
59
33
C3
E8
AD
10
89
D5
8A
F5
73
DC
6B
49
40
31
18
1B
71
2F
E5
8C
07
9D
0B
2B
22
B7
D2
D9
1D
86
64
C7
88
82
C8
61
B4
21
AE
B0
CD
FF
96
15
EA
35
B5
63
C0
0E
AE
21
CB
95
42
75
F9
4F
57
26
6B
3D
DD
5F
4D
EE
02
42
92
DC
C8
54
47
CB
F0
7E
76
74
2D
97
73
35
FC
82
91
04
AF
06
13
37
2A
3D
EE
EF
80
E4
F9
C1
88
2B
D0
3D
32
9E
EC
7E
2D
8D
6D
61
ED
24
5E
7F
57
B5
E5
AA
16
F8
CD
66
09
25
9A
7C
7C
CC
AB
61
CE
8A
A8
18
80
BE
77
E9
DD
3E
91
98
55
29
21
D6
57
C1
87
00
26
19
E8
11
F1
FB
A8
99
3E
C6
7C
0F
64
AC
AB
3F
76
97
AC
D1
49
50
8A
8E
50
48
88
D8
AC
2B
46
96
23
EA
7D
B5
4C
E1
54
69
BA
4A
2B
F6
B9
3E
35
B6
70
48
9E
C6
4A
A6
C7
CF
40
DC
6A
B5
50
CE
05
5F
D0
D7
21
86
91
81
C5
4E
57
C9
0B
0F
5B
BC
89
AA
2D
B9
93
F0
CA
37
2B
FB
51
E1
75
2E
98
F1
01
67
72
45
A3
C6
26
A1
CA
4C
39
BB
D5
DC
1D
E2
43
E4
E6
84
5A
1E
94
E4
97
0E
4F
6B
BA
5E
A5
14
64
FE
69
8A
74
5E
5E
5B
0F
84
48
82
19
46
EA
D6
00
93
42
FB
62
4C
B0
A3
EC
54
03
13
46
6F
F0
4C
E7
9A
B6
BF
00
26
03
D1
5B
35
D5
08
A4
A5
07
01
BE
0E
61
77
40
37
6C
83
E1
FF
CB
D5
26
00
47
31
B3
9A
28
99
82
A7
6C
77
B1
16
1E
D8
AC
F4
29
3E
6B
41
AB
A3
4C
01
FC
C0
9B
5E
60
4C
B7
BC
3A
53
DA
FE
3A
AE
C0
FD
67
01
18
45
07
23
A7
A5
2B
54
56
05
42
A6
A2
AF
62
5C
6E
BC
F9
17
A7
14
28
63
69
0C
A2
6A
CD
0A
E6
68
DC
53
FA
22
5B
49
65
C2
CE
9E
8B
5E
CC
5E
D1
5B
14
D2
CD
B8
96
30
D2
CF
59
90
5C
85
AC
A7
06
28
AF
67
73
0A
5B
8D
C9
85
C2
90
26
96
7A
4C
E1
D5
7C
AA
F2
6C
22
E8
96
DE
53
F8
24
3D
8B
5F
09
D2
F7
A4
8F
FA
21
B3
4F
21
03
0B
1E
FF
49
47
59
72
66
A6
22
D5
2F
45
F4
E2
D7
AA
D1
B5
1D
AB
55
19
A4
C8
E2
AA
56
FC
31
D8
4A
4E
98
55
D9
2B
51
CD
46
19
40
74
62
95
DC
66
F6
64
5D
55
18
CE
82
E9
A6
70
C1
41
C4
61
4F
3B
16
DE
5D
04
1D
32
11
21
51
89
64
FE
C2
82
D5
18
02
4B
C1
5D
6B
11
2B
A6
DD
6F
A4
DB
84
07
00
93
4A
2F
1D
0F
D4
15
FE
F8
5D
C2
D4
83
24
FD
E5
6D
3D
9B
8A
1E
E0
DF
31
6D
D5
1B
C8
FB
A6
69
AC
DC
92
EB
8C
04
9D
FD
C7
98
E3
25
5F
A3
30
B1
52
FB
50
07
90
37
F6
74
98
43
5D
12
2F
6F
D7
84
48
84
D9
A5
93
18
B8
4A
95
4E
69
0D
A7
C5
4B
5C
20
45
C0
4C
D4
19
0A
CF
FD
3D
56
8D
28
15
91
29
64
D5
61
B2
A2
A4
8A
90
56
E9
E9
3A
D5
31
80
52
40
C7
49
76
F6
45
0D
47
81
64
35
F8
B4
EA
20
74
01
28
13
5F
B9
DF
6D
EA
65
F4
84
AF
6D
D1
9E
1F
2A
D9
83
1E
F7
1A
52
77
18
4A
A6
27
A5
EF
29
E0
CD
3E
94
7E
29
5E
F8
55
90
0C
E7
94
C3
F6
52
7D
6F
03
9C
5C
15
CB
73
27
8E
2C
97
C5
37
26
A6
97
EC
F4
AD
3A
A1
9C
E9
C7
D6
3B
8E
88
A7
1D
49
60
B0
E2
F7
2E
01
9C
19
70
07
41
71
9E
F5
60
B6
C9
C6
39
AA
CD
11
46
9B
A7
FE
55
01
9E
91
0F
70
F2
E8
9C
FE
DD
F3
ED
73
ED
4B
20
A4
DF
80
31
94
24
B7
AD
A9
99
CE
DA
A2
BB
7C
D8
CD
51
6B
1E
ED
F4
31
EF
E7
3D
66
40
FC
D6
64
62
BE
79
AC
9C
88
9A
00
B2
BB
65
1C
12
AE
D1
AA
EA
43
BA
F0
80
EE
08
B4
6B
94
75
B3
9B
13
B8
C3
2D
75
8B
B0
FC
B0
53
58
7E
BC
E4
AE
93
86
4E
9A
C8
EF
6D
13
55
14
23
95
F7
37
C5
2C
20
8D
BC
02
E1
44
39
7B
2F
B1
EE
0F
C4
A9
FC
EC
62
A0
08
FB
7E
62
43
43
10
36
5C
13
73
B5
7A
10
1F
B1
20
9A
A1
D2
9B
6C
F5
45
5E
BF
26
E5
D0
28
2B
23
29
8D
84
90
AB
3F
34
B4
57
16
16
2A
09
52
00
9E
72
30
92
B3
F3
B1
DC
7B
58
22
8F
CD
29
9E
12
3A
EA
A3
F6
61
BC
D3
AB
28
D2
51
D1
03
70
92
2D
D9
3C
46
87
32
B6
FD
F2
C2
A4
BF
07
AA
B6
C5
B7
6E
3F
01
B3
E8
D4
19
A0
41
CB
78
4A
0D
1F
7C
A9
E4
C2
8E
30
4B
57
1F
40
21
E8
A2
38
BC
22
1E
E1
2D
1F
67
7B
46
91
9F
22
3B
14
EA
0A
A3
78
93
DC
26
BD
67
80
26
38
86
86
D9
19
22
D4
8E
65
EB
84
94
30
45
E1
0C
53
A1
C0
D4
A7
00
10
C0
22
BA
56
53
37
9F
A1
1E
47
D7
E7
A6
98
C2
75
C9
27
D4
00
04
39
E1
FB
62
5D
2F
12
CA
07
D4
A4
5B
58
35
FC
D6
1C
90
80
F0
AB
86
61
5F
E9
2F
F5
50
C6
0C
40
CF
09
B0
B4
F1
0A
AF
90
B6
9D
BD
78
49
1C
8A
CE
B3
BE
A7
22
13
E2
6B
89
EE
4A
05
F9
6F
BE
3C
8C
A9
90
3B
3B
CB
30
7A
21
FB
4D
00
F8
CC
8C
7D
98
8E
60
AE
7B
D5
13
C2
56
F9
98
EF
0B
85
17
CA
50
94
09
AA
70
92
17
B2
AE
BB
BE
E8
30
A3
1D
EC
20
86
45
8E
B0
E5
20
08
46
90
77
1A
75
09
F8
AE
45
8E
3C
37
F6
73
29
5D
08
A5
B2
4D
DC
CD
E9
37
A8
C5
BE
25
1D
EA
A2
BA
6B
75
7E
4B
B4
43
C8
10
71
AF
65
FB
58
3D
BA
A1
EE
A7
D7
89
FE
02
2F
84
48
3B
70
F1
1A
32
67
D9
82
BF
D9
33
78
D3
5D
88
80
5C
FC
03
49
F8
6C
F6
CC
9A
D8
A8
06
3C
0A
62
88
37
59
F0
9C
F1
11
C5
E0
DE
9E
A7
57
7C
79
D1
81
3F
09
00
0F
BD
3A
AD
BB
DA
DA
99
A5
04
54
0B
87
9A
25
35
2B
39
6C
2C
A0
44
42
62
49
E7
2A
D8
DB
C2
4F
94
CA
A2
F8
62
E1
59
E7
FA
8A
0D
30
1B
84
3D
2C
A6
81
5F
1E
32
36
39
8E
EA
BB
7F
F9
97
EC
16
87
93
0B
31
61
26
CF
70
B3
2C
BB
0B
E9
50
72
49
B4
58
BD
D2
4B
B0
26
F2
2C
41
7F
36
C2
9B
52
84
55
9F
01
12
5B
49
11
45
F3
98
2A
EA
95
E5
81
BE
CC
93
E7
B4
32
FA
DB
79
65
B7
AC
2F
3B
76
06
DC
3D
EC
22
04
39
05
BB
DF
15
0E
3A
F0
34
7D
9C
0D
77
1E
E2
A5
93
AD
89
39
E8
1D
92
FC
26
AD
29
3E
88
79
D9
3E
93
98
7B
0A
71
AE
18
44
CA
1A
18
8C
AF
B4
00
10
02
1A
E5
E0
1A
63
90
66
9F
18
EA
34
41
FF
71
87
FE
1E
46
6E
FE
21
56
7B
E3
8F
ED
FE
18
DF
26
F2
C8
80
C2
81
4E
70
77
5C
4E
F2
80
11
B2
AE
76
36
DB
44
73
53
90
27
98
88
07
F3
1F
FA
0C
D3
AC
0B
92
30
EF
8B
6D
2B
62
73
1A
DB
82
E6
46
20
09
A5
2D
1F
D5
29
E4
51
C5
80
78
C4
D3
C9
1D
53
D6
DA
76
EE
65
C1
E4
25
B0
D7
07
CB
72
B7
7E
A8
08
18
CD
8E
E5
D5
5F
1A
44
19
C1
38
04
30
15
28
93
F1
91
5A
5F
92
08
57
97
06
C3
AF
C9
31
E9
AC
2C
D8
16
25
39
5D
46
DB
94
3E
46
37
2C
41
2C
A2
04
28
84
1F
10
7B
3D
A6
11
3B
BB
70
4D
D6
CC
A0
20
B6
66
9E
FA
DD
3D
77
51
48
27
43
EF
75
F1
9F
EB
10
14
03
5B
EB
5C
DB
EF
9A
28
BA
57
A4
44
59
C4
52
EC
6B
AA
E6
28
59
4C
15
A8
E4
5F
3C
80
29
AD
9E
3F
FD
53
77
47
3B
B4
90
10
0E
EC
23
F6
E9
6D
F0
70
29
5B
33
8B
FB
15
6D
B8
D6
F3
3A
66
09
4E
E3
91
E0
15
FB
3C
2C
97
C2
11
48
02
82
19
32
84
16
46
63
FF
EC
DD
55
D3
63
F3
87
E1
94
21
15
CC
0A
DE
24
66
3D
5F
B7
9A
99
6E
0B
D8
A7
55
D5
F8
5F
3A
5F
FD
82
4D
A2
EC
AF
C1
C2
B9
82
8C
36
1E
F1
F2
3C
F4
EB
6D
37
48
45
65
F9
79
4A
6C
CB
48
F7
B2
56
D3
E4
4C
1D
70
29
65
41
30
B5
93
C9
A6
34
F2
14
BC
A8
67
24
CC
07
26
70
A3
55
58
A8
FF
64
25
C0
99
EE
3C
07
9E
F0
5E
E5
E7
38
17
AA
19
43
7D
AC
CC
BF
79
C3
D0
B1
77
17
67
1D
76
42
ED
30
27
00
DC
E0
32
13
ED
2D
16
84
52
FC
B0
9A
BE
BC
DD
31
09
22
AD
28
81
9D
3E
AD
47
31
AC
C8
5F
CB
74
31
45
BD
8D
5A
15
1E
3D
EC
72
42
51
6A
B4
21
41
5F
4F
47
39
19
C9
4D
65
87
94
13
CA
73
4E
2C
D5
AB
55
00
AF
51
F6
6D
02
73
BE
E3
40
11
0C
27
D9
CD
1E
DD
FB
AC
31
60
A0
60
1A
96
74
18
89
1B
8D
B3
2B
F7
9D
50
33
1F
03
88
29
BF
D6
53
87
38
6F
19
5A
84
EA
3F
19
04
C4
B8
F3
DE
39
32
8E
61
87
0E
98
0B
C6
AA
BE
31
C3
DD
CA
B0
66
B5
8E
A7
41
7E
28
B4
D9
12
61
36
F7
BA
C6
79
53
F3
7F
1D
53
73
A3
D9
14
DA
B4
5E
9C
1F
7C
3B
0E
2C
82
49
BB
5C
D5
69
63
E9
78
7E
18
69
DD
04
82
25
F3
AE
DF
54
3D
49
E1
E1
18
CB
CD
30
37
B6
A2
CE
78
63
E8
AF
33
B5
80
0B
9D
2B
90
98
86
D7
3A
13
FD
BF
29
9D
86
CE
E1
FE
09
C7
28
0D
AC
F8
94
6C
1E
C6
FB
27
C8
56
CE
60
F0
33
47
C4
B3
E3
A9
6D
04
B3
75
1D
6A
BB
DE
5F
79
21
FE
42
6E
64
C6
80
5B
D8
8B
4C
04
C8
95
DE
5B
76
8E
FB
26
59
C4
20
62
96
3E
E4
FC
AA
A2
F3
76
6E
DA
42
53
00
98
ED
F6
DF
DD
CD
94
94
00
24
CA
BD
