51
05
BA
9C
A7
64
C5
47
81
83
9B
6C
63
2D
ED
C2
B5
79
88
B9
B9
EE
E2
BC
C0
EB
F2
B3
9E
46
45
CD
5B
34
4F
7C
2B
69
FF
C1
A0
80
96
A9
1F
9C
B8
18
91
50
C3
C5
5A
BC
61
86
8F
F9
59
CE
63
B8
AB
73
E3
25
DB
B5
E4
12
8D
7D
39
51
52
E2
29
61
C2
F1
20
4E
CB
AE
A4
D2
48
56
8B
C0
D5
E7
6B
A2
E2
E2
53
A1
07
50
B8
A6
97
03
B2
BF
78
1E
69
C4
32
D8
C9
3A
45
7C
7E
77
C0
B4
1C
07
0F
08
9D
4F
15
A2
11
70
7B
54
91
6F
47
DC
75
92
B0
66
C7
0D
30
52
54
F2
18
16
7B
1A
05
5A
CD
15
8B
B0
5B
FA
6A
A0
1D
33
7E
6B
E8
96
4E
4A
9A
D2
E3
F7
98
0D
D6
6E
7A
CB
AD
F5
04
12
68
5A
58
CC
56
7C
6B
6C
2D
0C
B6
D4
5A
95
2E
76
96
BA
75
BA
BA
C0
52
A0
D4
4C
5F
A7
7A
6D
01
ED
5E
DC
9D
97
23
83
09
73
6F
3D
41
DC
42
DD
5C
DF
86
71
BE
9C
E7
C8
8E
EE
E4
31
6B
4E
26
86
5A
F4
11
69
03
40
9A
CE
1E
59
58
BA
28
14
DD
49
5A
17
46
F6
DB
3E
11
17
35
3D
2F
A7
06
87
5A
48
F8
6F
A9
88
F2
8D
62
64
90
64
0F
0B
