53
3B
BC
CF
FF
91
CB
B3
91
0F
2C
0E
2C
A8
1A
DA
6B
4C
C2
89
DA
B8
4A
5B
BA
91
0F
12
3D
EF
EA
42
3A
C9
1C
EF
B0
48
54
F2
E3
98
2F
C4
BE
06
EF
B9
D6
67
6F
A8
9F
16
3D
38
89
DF
EA
D2
0A
21
F7
72
65
DB
C3
A5
45
43
E4
CB
7A
BD
0C
F8
E8
51
0C
8C
BD
F2
C5
B6
AE
42
63
A6
21
6D
B6
EC
E3
F3
F6
C0
64
C1
62
84
90
FE
3B
9F
E7
EE
F7
1D
67
A3
42
8A
B5
A7
36
87
CB
B8
E6
BF
D4
BC
7A
20
27
92
41
BA
12
A7
AD
97
42
51
3F
A1
51
AA
84
7B
B4
28
1B
5C
28
1A
E7
4D
D6
6C
5C
96
46
14
22
16
37
12
99
2C
96
9B
5D
00
EB
10
80
F6
18
E5
17
73
DA
CB
F2
2C
68
AE
3C
D6
85
6F
74
2D
76
3F
83
92
A1
64
48
EA
BE
0C
CC
FF
08
B4
17
77
3B
C8
6E
49
7C
1B
2D
10
30
E7
CB
47
E0
D0
22
99
32
57
E5
28
BB
4A
11
9A
45
12
00
2A
24
1F
83
10
1E
FD
01
49
E1
3B
F7
F8
A8
90
F7
CA
3D
8C
45
8B
5C
AD
DF
E7
B9
C5
4E
8F
0D
50
9F
F9
A3
48
26
85
A3
55
77
3B
F4
EA
58
9C
4E
B7
9C
E1
07
26
A9
43
99
86
08
54
23
A6
88
49
