76
5E
EC
04
8A
2E
25
8B
9F
3A
B9
1C
E7
78
99
86
93
AE
95
FD
60
7F
C3
4A
A7
E9
C7
47
87
53
46
98
F2
32
BD
F9
22
C6
09
07
44
63
BA
2E
7D
33
90
10
62
AF
70
5C
EE
E8
DE
BB
4D
0D
BC
C0
94
78
67
52
6E
2A
64
A8
97
D5
D2
58
10
70
C4
94
91
BB
58
35
E1
78
A7
87
8B
32
14
72
8F
B6
EB
D7
03
71
4F
0D
D8
96
25
3C
A1
9A
E4
4C
5B
C6
45
71
FF
97
F1
86
AD
B8
CB
27
4A
A7
33
77
CC
A0
8F
98
9E
59
EA
FF
FB
AD
23
40
98
14
86
63
66
AC
76
55
C9
5E
12
63
17
E3
A3
78
40
BC
EA
80
FC
6F
DA
06
74
B4
B7
30
98
3E
89
17
9B
7C
55
E0
A3
0E
99
AF
51
24
80
92
05
FA
D0
6D
41
F7
2D
31
42
E4
62
DD
ED
FC
1E
CB
47
06
D6
B1
5E
FE
C9
08
2F
E7
12
02
D2
53
89
FB
F1
DB
E0
9D
45
6D
7A
DD
4D
5A
FE
17
42
40
63
94
AF
3C
EB
C7
40
DF
7D
1C
AB
72
D3
FD
DD
1D
1C
37
FE
A4
FC
87
3E
10
89
47
2D
A3
CA
AE
92
41
B4
3D
F5
9E
C0
3C
BF
78
5D
7F
D2
67
06
70
48
B5
CE
F1
46
10
29
DB
6D
4B
B5
71
E4
3A
DC
2A
B1
4B
5C
A9
A9
A0
5F
E3
3D
93
D6
30
B9
EA
AB
3E
38
44
2B
52
EF
E4
09
93
00
53
5A
6B
65
91
B3
C4
C8
48
0C
98
BB
B9
F0
49
44
2F
04
DD
3A
BB
B4
68
2D
05
BF
28
69
2C
23
86
21
CF
DC
03
64
28
87
22
60
34
01
73
98
C6
A6
06
A9
4B
9E
6E
1C
48
1E
27
F9
65
49
8D
98
7A
79
A0
B5
05
4E
D5
7A
A5
D8
12
48
80
67
CD
FD
F0
8F
30
C2
6F
9C
19
8E
97
7D
56
03
52
1A
EF
EC
4A
EF
13
25
1E
44
1C
13
34
13
31
70
36
73
A2
16
FA
48
E9
A4
D1
22
AC
BD
C9
F0
04
6E
73
0C
AE
87
50
47
A7
F8
0D
EE
43
A4
9F
68
62
F7
7E
91
54
2C
B5
32
AC
60
16
76
8C
20
80
B4
96
86
2A
18
33
FE
36
37
39
15
11
33
05
84
B8
E2
D8
ED
B2
E8
8F
0E
CE
EF
7D
14
7F
1C
77
7D
B8
91
D2
58
89
1F
A8
10
70
F0
67
37
2B
8E
25
31
5A
14
FC
86
DA
46
D7
75
CA
3E
C5
79
C5
6E
25
31
83
48
F7
3B
18
2F
E4
7C
E6
AA
83
D2
D1
13
73
73
D2
43
79
86
09
C0
8C
A7
6B
65
C1
AC
5A
86
E5
BA
C4
5A
E1
F1
19
C7
4C
57
42
D2
F6
CA
36
8C
2E
68
D5
15
53
36
C7
1C
72
36
4F
93
83
06
06
31
94
F7
A4
6D
B5
6F
09
A9
85
E7
AA
0D
64
69
32
42
02
ED
FB
5F
D7
CA
D7
57
7C
61
54
5C
AD
0B
95
71
D6
3B
54
A3
B2
FB
9F
3A
38
F3
19
33
89
33
BD
E8
59
EC
5D
9E
E2
EE
2B
44
05
9A
09
84
40
F9
EB
17
FA
8B
E4
92
61
8C
17
10
11
47
95
13
C7
CF
D1
F1
E5
BD
CA
24
7E
7C
F6
1F
50
9C
87
A3
E3
A2
18
6A
96
3B
A0
AD
58
9C
9F
E7
AD
1E
6C
8C
5E
4C
61
0D
24
4B
30
84
E3
F2
36
9A
71
3C
F9
E0
76
01
BF
51
53
A0
BD
20
84
C7
7F
7D
0E
BD
00
30
55
E8
2D
4C
D5
78
D7
D3
46
3A
1D
90
0B
27
41
EC
A7
F4
E9
3B
A7
B0
E0
AD
1E
E8
5F
67
50
1F
03
18
E1
25
63
2F
31
5B
DB
79
C7
CE
26
C6
AA
D6
E0
D4
30
57
E7
14
93
8C
4A
AB
B1
54
A2
B4
50
B5
26
46
9A
4B
65
51
83
7F
B0
3D
2F
0C
65
09
3F
26
AA
F0
45
16
36
1B
DD
F1
56
B3
68
6D
6D
56
50
6A
92
01
B3
5B
59
C2
3E
8D
60
83
A3
90
2C
78
C0
17
8B
40
88
F4
F0
80
04
B9
8D
B6
C4
BE
6A
9C
44
21
35
08
C2
B2
E6
19
60
6F
04
2C
9E
D5
58
DA
E1
E8
86
B4
02
D0
17
D5
35
41
94
6B
AC
4F
2E
77
16
A6
F5
76
6C
FE
A8
DD
27
7C
38
C7
82
91
84
D4
C4
66
52
D0
36
80
E9
01
B8
BE
99
41
8D
82
C1
BB
0B
7E
C9
A9
FA
14
6D
0A
34
7D
45
CD
12
7B
00
7A
8F
9D
CF
AE
48
0A
BD
97
52
15
17
35
3E
6E
7C
C0
D2
7C
ED
A0
3F
38
0F
F5
C8
58
E6
F2
60
82
9F
3E
E4
9D
A4
6F
D1
D7
42
1C
90
7F
1B
B1
E9
2C
AF
21
5A
23
5E
C4
33
56
0E
27
9B
75
C4
FE
8A
47
A9
D1
16
BF
CF
0B
A3
B5
3A
74
02
43
7C
96
85
B1
3D
60
04
66
A1
1F
6F
EA
BB
54
68
9E
4E
25
31
1C
4B
63
3A
BA
F1
FB
7C
A3
48
47
28
CC
03
B6
66
68
01
86
9D
48
0A
AA
CB
76
8C
BE
FE
54
93
7B
C3
F2
3B
81
2D
C2
BC
4D
22
58
46
E2
8B
58
2F
A9
16
4B
76
A6
1E
DC
C6
7C
E8
8A
1E
2A
EF
FF
13
17
89
73
77
B0
4A
8A
D7
98
DB
F0
E0
DA
E0
FC
FD
E2
0E
99
B2
77
48
34
BA
C9
86
8D
74
59
CE
3F
DB
17
8A
CF
03
9A
35
F7
F7
56
DC
89
3F
F4
4A
1E
F8
FC
18
DE
10
46
31
23
D7
8D
3D
09
89
A6
43
19
E5
12
68
13
C3
B9
D5
35
0D
65
1B
10
88
45
59
BD
99
E7
4A
A9
70
53
E2
17
1D
42
8D
90
4F
A7
AA
2F
4F
62
10
53
01
E7
B2
D5
D2
DF
22
C5
CE
79
E5
06
4E
5B
2E
8D
67
CB
72
0A
94
C9
A1
0B
DE
2A
A8
6D
66
A4
9D
84
F0
A3
BE
84
FB
FE
8C
7F
6A
35
74
93
DC
20
40
35
1E
5D
15
36
B3
01
5F
B9
13
7D
C5
4E
A8
C0
18
59
B1
3D
0C
60
52
F9
39
F8
3C
C9
B7
7E
02
D0
E5
1D
1E
2F
E9
17
14
CD
FA
D6
F5
D2
58
C8
04
CD
A5
82
B8
20
1A
79
EE
B4
EA
63
F9
9C
3B
AF
BB
8A
A4
46
AF
F1
8F
95
90
7F
08
0D
26
52
F1
2F
D5
2B
FF
1C
F6
24
83
31
F0
54
19
CF
59
DC
1C
EF
9C
C1
AE
E1
65
B6
A0
89
DF
B9
40
C6
B9
9B
BB
D8
DF
58
64
1A
3D
AE
64
4E
F1
5B
A5
5F
25
B5
B8
9B
A2
BD
6F
88
96
27
53
46
C9
23
40
FA
CF
01
CA
F7
43
9E
55
4F
81
50
57
99
B2
6F
57
E2
3B
90
41
50
40
96
F5
56
08
12
E1
07
E7
71
CC
01
C1
68
8C
DE
73
63
75
B8
00
00
49
B3
76
27
33
B9
DA
61
EF
7A
C0
9E
CF
78
9F
DB
B0
5F
1C
3D
28
5C
D2
7F
38
02
DA
E0
35
87
33
59
9D
AF
7F
3C
58
41
FC
AA
E3
8F
EA
94
59
CF
27
E2
C3
34
DE
02
8B
7F
D6
A4
5E
F7
2D
2D
62
F7
45
C7
2A
D5
6F
5D
00
EA
87
F1
02
40
69
55
BB
CE
AA
02
9F
3F
87
70
C0
D7
BA
F7
67
43
BA
39
BF
BE
E1
93
50
3D
46
53
58
D1
E0
49
FC
50
C3
B4
85
46
17
55
77
71
39
27
5C
AC
77
F5
BF
33
F6
1A
04
73
E6
6A
2D
7C
A7
FC
8F
C9
CD
71
03
7E
C7
AE
1F
40
62
E5
6A
81
96
7D
14
B0
02
69
AA
15
63
68
C1
DF
73
B0
81
9C
FF
6E
02
A2
98
F5
E3
D0
93
81
F5
4B
45
19
6F
97
C6
E7
83
5D
E1
9D
4F
EB
F6
A6
FB
9D
2A
82
EA
D3
ED
D8
0E
A9
31
24
68
46
31
62
95
69
A4
07
45
31
7F
6D
59
FE
50
00
19
F5
77
EE
D7
65
59
16
CB
C6
17
79
5C
BB
31
39
D3
70
50
AF
42
1D
34
86
08
0B
9A
88
DB
B0
32
D0
5B
DE
43
E9
5F
51
E7
F7
BF
2D
30
4F
04
AA
14
46
F2
81
FC
E9
63
F4
B2
B8
60
60
C5
8E
A7
CA
E4
3E
DF
E1
B4
1D
41
4F
DC
CA
64
35
BD
96
6E
22
5C
F3
2D
33
E2
84
0E
A0
D8
E1
00
D4
3F
8D
96
53
BE
86
54
47
8B
9C
C1
B2
BD
E3
60
5A
8B
12
F1
DF
CD
08
0A
BA
E5
1C
33
5F
50
E5
83
5F
4D
6B
0A
D9
4F
8D
0C
4A
54
FB
7C
6D
2B
3A
12
51
0E
5C
73
7F
D2
1F
E3
66
AD
DC
54
84
24
0D
C4
8F
F9
28
F5
8A
BC
6A
32
F5
D8
94
D2
22
FD
D6
9E
6F
70
5D
A9
CA
1E
70
CB
A9
14
B1
29
56
36
BC
E3
76
9E
FC
BB
61
F6
E2
77
EF
7C
1D
BA
50
8D
C2
E5
89
44
D1
6C
51
76
02
82
EB
C4
BE
EC
87
B6
2F
B0
FA
0F
BF
2A
19
AB
A1
FA
02
3C
70
44
3A
56
67
3C
73
78
2F
10
D7
35
24
2B
82
AC
A2
CB
A5
8B
8E
57
81
9F
2B
9F
E2
0D
16
2A
90
ED
9F
50
C8
E4
BE
48
23
B1
EF
29
55
49
34
BE
DE
1F
47
0A
F6
03
3F
7A
61
D6
AF
2A
D7
B4
02
60
7B
76
0A
74
48
B2
64
5E
6D
FD
46
3F
79
B7
CC
31
EA
A7
4C
42
81
8E
89
72
D4
C5
25
E0
A1
1D
E8
9F
1A
10
E0
83
A4
A6
9F
23
C6
41
B0
BA
95
43
0A
F9
43
5A
24
09
0D
E0
7A
71
61
58
7B
5D
16
91
AD
F2
AB
D7
AA
7A
E9
01
79
22
D8
03
B9
2F
C0
43
68
C4
72
DF
C4
1E
F6
86
1D
9E
6F
3A
CC
DE
CE
B8
EF
D1
5F
97
7E
F0
4D
07
C6
99
08
CD
BA
D9
38
DD
B0
16
27
D4
7D
EE
E5
03
F1
62
33
BB
FD
ED
D1
18
F1
15
0F
49
09
02
87
8C
A9
23
56
E2
00
EC
3B
24
30
01
FD
4D
EC
0D
A3
7E
71
02
02
BE
09
44
0E
8C
5A
61
65
3E
D6
83
FE
5B
25
CF
FE
68
DC
7A
E0
EA
45
96
D1
42
CE
9A
16
BA
89
A2
EA
FC
BC
7A
82
84
ED
84
9D
3E
33
EF
AC
F6
DD
D1
FF
9B
94
3D
10
80
60
E1
71
7B
26
46
B9
9B
88
D9
39
7B
B5
EB
DF
E3
E7
CF
6D
33
A5
13
B8
48
C6
2E
86
2D
0C
9C
A6
45
08
98
4D
3F
86
AE
B9
A5
08
95
B7
2E
6B
81
8E
56
27
87
2B
2E
B9
B1
0B
8C
16
7B
07
A6
39
2C
4F
E0
D3
16
28
1B
46
DA
A1
5E
27
1A
2D
B9
D8
23
D7
EC
FB
E6
F7
A4
9B
66
1C
E6
53
A1
0F
15
44
13
84
38
27
43
04
F4
92
8B
F3
3A
80
47
1D
76
74
AB
74
BA
35
9C
B1
E6
F3
F0
F1
E3
2C
68
04
23
45
BD
EA
9E
FA
70
8C
B8
85
8A
E2
C1
86
0F
30
FD
BF
EE
58
69
84
23
31
D6
7A
7A
0D
9D
B2
64
6B
2C
AB
8F
2D
A6
1E
B3
D9
E9
99
98
51
64
4B
0C
7D
6E
F4
68
53
94
A5
55
21
CD
A6
D6
46
3C
F0
B1
