C0
E1
16
B3
E5
79
5C
FC
6D
AE
2F
1B
C3
42
4F
B6
4D
98
E6
70
7F
E9
19
DF
32
37
00
B5
BA
41
19
45
02
9A
E1
B1
BC
26
45
DA
E5
7D
A2
E4
54
33
C9
8E
84
17
27
01
F9
43
54
25
D5
65
EB
93
C3
87
90
2C
A3
64
6D
CC
DD
8F
C2
EB
96
12
A7
D0
D5
42
03
98
B0
81
74
C9
6B
AF
4C
94
29
0A
32
39
2E
B3
D2
C3
F5
62
1B
27
B7
E5
03
65
D7
C9
12
16
B3
60
35
86
DB
FD
1A
23
14
A4
B1
F6
CE
48
72
FA
A0
0B
5E
6F
B5
8D
68
42
F4
FD
A1
1E
51
C9
FD
56
7C
A5
D4
9C
75
3F
7B
25
B8
F7
D2
10
F3
64
CB
81
8D
33
A2
26
C2
39
67
40
B3
BB
5D
A3
A1
52
09
1F
9E
FF
81
53
C8
59
0D
5B
37
8F
28
44
7C
A0
0C
55
BE
B2
47
52
7F
81
6C
73
48
D8
15
C5
59
7D
30
88
EA
DE
55
07
4B
BF
0C
74
E5
AA
AC
47
DC
C7
92
EE
D5
13
C6
AD
17
59
E3
9C
29
8C
4C
50
3E
F2
B2
49
5C
7E
9D
AE
19
2A
82
5C
38
21
CD
DA
55
CF
31
68
37
0B
9F
9E
2B
9B
C5
70
E5
BC
B8
45
B0
85
56
82
1A
7D
CB
8A
B7
4A
14
58
2C
78
98
E6
19
5D
5B
B8
50
19
6A
28
62
7D
A5
B3
1A
2F
F7
9E
06
1D
81
BE
49
4A
A7
6B
FA
DA
33
70
68
42
C9
16
EA
F5
72
A7
91
DA
5B
61
0B
2A
1C
47
97
3F
9F
A3
38
C6
99
2D
D2
5D
95
E1
F6
2C
34
61
F0
6D
61
B6
E3
E5
95
B4
7F
85
CD
7A
04
45
81
F3
5F
4C
4A
11
5A
2E
D7
D2
D9
CE
20
08
A7
D4
3C
EB
2A
18
69
A6
7F
CF
32
4B
64
70
57
52
36
0E
00
80
C0
B5
48
62
2D
63
ED
FF
B0
D4
4C
AA
50
B0
EB
41
13
50
39
1C
44
75
4C
F8
D1
A9
97
7D
DE
3D
AA
13
EF
DD
D0
E3
47
7D
8F
C8
34
30
32
03
A6
B9
58
1B
47
66
BE
D5
1A
F0
0B
EB
27
CB
B8
37
0C
AC
14
29
D2
5E
53
22
D7
53
3C
9D
8E
FF
14
04
A7
0D
23
9F
DB
31
C6
11
A7
C2
0E
93
B5
7D
70
BD
CA
86
CF
6A
F4
FE
A6
B4
4E
BF
1B
B3
9D
93
63
9B
74
FE
B2
89
49
7F
1D
4D
3F
F2
3D
A9
A3
F0
D2
B5
A5
F8
54
DC
C1
5B
DF
9F
5C
E9
2F
71
81
69
CB
96
27
E1
DA
40
7F
84
DC
B3
8E
7C
03
A7
F3
B1
3B
AE
3E
4F
C8
A7
B3
97
9E
4D
57
26
6C
DB
19
47
0E
57
9F
00
D5
33
C5
D1
7E
61
63
5B
EB
00
AD
74
F7
0F
28
09
C0
65
E5
F0
E6
F7
ED
40
C4
95
54
DE
6C
94
A6
8B
93
F2
95
93
BE
60
87
00
55
98
98
B3
37
D6
2A
4F
BB
13
27
41
A3
47
EB
EA
F3
7A
E7
C7
4B
FC
31
10
CF
B0
21
69
B5
9C
16
51
B5
B0
03
D3
5F
70
3D
0F
75
D4
D6
8D
05
B6
80
97
A4
97
3C
F9
01
F5
B9
2D
CE
4F
BF
5C
51
31
36
1C
91
13
31
06
06
DD
E5
03
0C
97
7F
96
01
39
73
B4
A6
FD
DA
ED
21
35
68
73
E2
95
42
2B
42
8A
34
AD
D0
A4
E2
C5
EC
1C
D0
8C
23
D9
1C
01
C9
DA
73
5F
0D
1B
38
05
A8
8E
97
22
07
94
1D
8F
B9
A7
67
E0
46
22
05
BC
6B
28
01
41
46
39
2D
1F
06
E7
D2
85
70
59
F8
C5
EE
B8
71
50
91
AF
F5
AF
2A
62
0F
54
07
F6
74
A6
DB
E8
F4
1D
3E
BE
0C
A1
5C
A7
B5
22
DB
3E
6C
67
AC
15
F8
C4
DB
71
F1
BE
D0
78
6C
DB
7A
7D
B7
DA
C5
9E
1D
F8
43
09
76
05
F7
ED
52
05
C7
58
E4
AC
DD
05
2F
57
60
FD
16
61
77
88
58
BB
A1
39
C0
D1
EC
5A
A4
D5
4E
F5
1A
37
05
99
C9
4B
51
F1
56
CF
EF
31
38
37
C8
DC
86
57
B1
B1
68
45
D3
F2
3F
13
C6
B9
00
FC
C8
45
A2
F5
33
2F
80
0C
7E
B4
1A
4D
83
03
F7
4E
47
8E
A3
78
E0
B1
7D
71
D5
F3
20
DF
20
D3
24
D4
0A
A0
74
5D
7C
23
F1
FC
A3
A9
DC
EC
89
EA
C9
97
9D
16
C7
C0
85
C7
7B
1D
22
36
48
7E
E7
89
D3
59
C1
F1
2D
DF
99
BB
47
73
6C
E9
CC
2F
3E
D2
D6
0C
D6
03
DE
E2
C8
C5
26
57
1C
91
01
ED
A1
C6
37
C0
1D
EE
69
08
DF
69
2F
F7
70
82
D9
B4
CC
94
01
74
AB
AB
23
73
06
95
CC
AE
A3
3C
0E
24
C8
E6
8B
6A
35
C8
CB
CA
13
D1
A6
C8
25
39
10
05
98
EE
45
96
2E
C0
DB
27
43
96
06
70
B8
40
E9
FD
13
77
CB
78
C3
08
4A
77
7B
23
93
F2
8C
7E
E2
94
60
74
73
6C
AF
F6
0C
0B
13
92
12
BD
6C
EE
41
8A
55
29
6B
D0
C6
FA
10
D6
86
4E
2B
C8
57
74
E8
4F
80
E0
66
8C
62
42
CF
44
4F
3C
23
70
C9
A1
C5
9E
88
1F
8B
CA
49
EF
3A
F9
64
6F
17
BE
18
B9
FA
8F
04
4E
5C
01
93
9B
1D
2B
AD
EF
92
F4
C5
82
2E
EB
F1
FE
97
7C
A5
C9
4D
70
0B
93
E0
C7
F0
14
09
2E
3E
64
5C
7D
3A
F7
57
64
D4
EC
06
9B
10
5B
30
55
F0
85
D1
F7
93
F2
97
D5
D1
B3
E9
7C
E7
44
F5
A8
D4
48
17
DE
80
9F
E9
7D
6E
A0
53
45
7F
D4
8B
2A
2D
56
E4
6B
E4
89
AD
7D
5C
5C
D0
87
7B
AE
93
2B
39
05
D4
64
2C
13
92
23
64
50
7D
F3
4A
35
B7
B0
59
6F
DD
67
D3
61
84
A4
CD
30
DE
A2
A2
CC
2A
E8
77
BB
79
9F
9F
7A
58
A3
5B
81
D8
0B
C0
4F
5A
08
58
47
F3
94
EE
BC
E7
EB
24
AC
A8
23
4F
09
84
37
E9
67
B7
E3
FD
62
88
CF
C4
B3
80
22
8B
0E
56
C1
AA
4B
E8
82
0C
9D
75
47
2D
61
35
78
E7
81
85
47
E3
DA
3A
43
60
96
9D
17
9D
35
E5
BC
E0
CA
C0
5B
95
B9
29
EB
40
5A
8C
5B
49
AF
A3
41
50
92
A2
31
84
3C
DD
E9
12
4D
70
0D
4F
BB
ED
5F
0D
AD
D4
4B
54
F6
07
75
F6
CD
9C
11
18
03
C7
FB
BE
EC
B0
E7
0F
DE
91
2A
B4
B2
8C
F8
DE
57
25
A9
89
45
6A
E5
AE
65
2C
BF
B0
D3
74
53
C2
0B
D9
E4
13
AE
DE
91
13
1A
4B
B3
99
33
96
2F
DE
FD
80
F8
1E
6A
84
36
AE
27
67
70
BB
C3
33
40
6A
88
D2
08
54
02
A6
A2
78
F7
0A
9C
A4
91
60
B0
5B
E9
1E
D7
60
BD
BC
BD
F6
8E
24
73
BC
7A
D7
D3
43
62
1D
77
AF
C0
31
11
84
48
39
A7
BB
7A
B7
95
F9
E1
AC
8B
60
E9
DD
7D
0A
E7
23
EE
F0
B6
EC
33
01
CC
42
50
F5
A0
7D
85
78
F0
65
D2
7D
AF
CC
09
68
22
59
F8
E4
09
80
D7
BA
DA
11
32
2A
4D
06
66
FA
61
50
46
F5
8C
39
0C
5E
A3
7C
61
58
17
DD
8D
F0
8D
0E
4F
87
70
E7
5D
91
37
CE
EF
EC
3C
0C
2C
A9
30
C1
8F
D5
52
FD
72
43
84
E6
91
92
CC
D6
0E
6A
67
BF
23
EC
A3
88
78
4F
47
23
C2
02
59
DE
0B
25
81
3B
EB
AF
3A
FE
2D
C7
02
D4
46
C4
97
FF
AB
53
07
18
1B
E2
43
3E
2E
94
B0
5D
3A
C9
58
F9
3B
A2
71
7E
AA
43
93
DB
F1
8D
5C
B7
60
A7
A3
E6
D8
76
F3
BF
E0
E1
07
96
22
D9
6F
2E
2F
CC
F3
75
25
2A
87
8A
7D
1A
B0
C3
FE
9E
09
41
45
2E
6F
31
23
E2
22
5D
A7
6E
BD
3F
A5
5B
D2
0B
58
38
2E
A0
E9
DE
4F
DD
51
14
7B
FD
30
86
20
D0
E8
45
BD
5A
58
69
94
8A
65
2E
34
23
7C
F6
14
0C
20
51
8E
EC
AC
77
DA
24
1E
F8
1E
AA
4C
83
BC
95
B3
DE
D3
F0
B4
46
CA
5E
5D
8A
9F
F8
58
39
2B
9D
05
BE
DD
6E
37
AF
3E
A0
88
BE
FC
13
84
72
62
AE
B3
27
00
6E
38
D7
47
58
13
81
F3
47
9F
13
B2
D0
27
7D
AB
B6
A8
41
CA
87
23
AC
48
C8
7E
D2
D2
9D
3F
57
78
F5
EF
01
B1
09
90
C9
E4
52
72
36
61
E3
1E
B3
AC
ED
03
88
10
4C
32
C0
B6
29
AE
0F
09
4C
3F
DF
E8
B2
73
E6
16
F1
66
DB
D5
13
44
87
B6
5A
5C
DD
79
4F
2B
A5
51
2C
E2
D9
FD
AC
21
72
28
BA
82
4C
6C
D2
D6
60
D5
55
19
5D
E5
EF
DE
CD
92
22
C7
92
DE
C0
D0
25
40
36
24
45
F1
26
BE
63
5E
5A
9A
8F
0A
C6
15
44
06
FC
02
54
84
65
37
38
F0
9C
33
4C
FB
CE
64
5D
CF
4E
EF
B0
FE
D9
EA
58
E2
A9
F1
BA
2C
FA
4F
36
39
55
7C
A8
C3
C8
2C
7C
22
FA
BA
A8
EA
2E
C7
FC
D4
9D
D0
77
85
4E
65
D2
2F
87
79
A8
E0
83
B3
70
1E
C2
73
AA
2A
5A
B2
B0
E8
1B
97
BD
FA
31
91
D7
E6
5A
7F
B8
46
B0
B8
86
3E
A5
63
22
FE
63
72
A3
AB
79
A5
1F
BE
E8
59
4D
85
77
DB
70
E0
16
78
4B
97
AC
86
97
14
4B
D0
74
19
76
9B
0A
D2
FA
55
16
3F
E9
67
50
6F
31
8E
E6
E9
CD
5A
90
C9
A9
AE
CC
1F
FB
CD
D5
2D
E7
69
03
34
1A
0E
BB
AA
72
4F
3A
35
77
53
6C
08
D9
2D
97
61
54
5E
59
F2
18
E2
9E
32
6D
21
3F
DF
65
C0
8F
32
5C
CC
E4
E4
43
CF
A5
78
19
68
26
48
A7
7A
CC
A8
03
4C
A8
40
46
5C
01
B3
92
73
C5
50
22
71
5C
15
16
D7
2A
B6
76
58
66
C3
D1
8C
87
7B
08
40
7A
78
32
7D
75
26
00
A9
FC
2B
6D
20
3C
E8
AF
38
92
D8
DF
A5
AB
51
26
0B
8E
D5
35
A9
89
CA
0A
71
A3
A7
B4
C9
23
E8
61
78
86
1B
0C
AA
B7
79
8C
B7
12
38
C0
6B
12
78
A0
F4
8F
59
DD
00
FB
7A
E6
5F
4D
80
76
7F
EF
75
86
B8
E4
0F
E1
1B
C8
DA
29
F7
BD
F9
45
0A
BC
C3
7D
82
EA
B0
B0
9D
3E
0A
62
0F
44
F8
B6
44
06
FE
1A
23
F8
32
A3
7B
C4
74
06
11
E2
0C
9F
82
B4
38
E2
42
2C
EC
6A
1B
48
28
FA
DF
75
96
01
7C
33
1E
52
7F
C9
35
F6
A4
6A
E0
CE
C8
FC
24
26
D5
AB
D2
5A
20
59
1E
B2
67
44
23
81
B9
AD
AA
63
3F
B4
BA
34
87
ED
3E
7B
06
09
69
83
70
E2
65
70
57
15
74
15
E0
E8
88
B7
BC
5B
E2
C6
A2
00
99
