3C
A2
2C
0D
55
C9
DE
9B
D4
F4
2F
0B
D7
22
05
D9
17
D1
16
5A
65
26
E3
EF
F5
DC
3F
A9
EE
B2
96
F3
5B
A9
50
51
60
56
90
5C
0B
16
69
21
EC
44
79
E8
5F
DC
FA
F6
76
FC
AE
F4
F5
84
CA
DA
EE
61
3A
9B
FE
BD
05
9C
7F
3A
63
64
7E
91
ED
D3
9C
E6
0A
CA
2F
E5
57
D5
B3
87
13
E9
2E
5E
1B
E1
3E
6B
C5
97
FF
21
1B
5E
38
2F
87
4A
CC
1A
A5
94
57
BB
26
6D
73
E1
54
F1
E2
0E
5D
17
F3
71
C1
59
61
BE
DF
A7
57
F6
90
7E
57
A1
6E
23
22
F6
99
F6
A5
88
2A
72
3B
6F
1C
CB
65
EF
DB
F5
F9
8B
22
45
52
7F
5F
3C
AC
A7
68
01
B1
B8
75
C0
4F
B1
3B
DB
B4
28
D3
A4
38
EC
0C
05
ED
D7
8C
CE
E2
E5
DA
F6
C8
E1
C6
37
52
25
72
0B
D2
6B
92
9A
28
0E
2C
C0
ED
9F
5B
80
3A
B3
90
31
B1
B5
5A
CC
F9
05
C6
5D
C5
40
2C
00
AD
49
C9
C7
6B
F1
58
BD
C7
19
1C
10
D2
4C
A9
A4
52
D6
B1
DA
66
E3
41
BD
53
FE
D2
F4
46
8A
50
B9
3C
A0
FC
AE
CA
00
AE
AD
10
5A
90
C7
CE
C9
D7
CE
D6
67
09
94
79
22
1B
AE
9F
DB
D3
0E
3F
DE
28
E8
