7C
71
B3
CF
C2
90
CE
B8
77
D0
31
E9
B7
7B
F6
7A
13
5E
F9
74
31
57
FC
59
AF
1B
FA
43
02
01
87
9B
3A
E0
17
21
34
9D
6A
84
A7
8F
0F
FA
BE
57
49
E3
0C
69
DF
E3
83
7A
D4
1A
E3
63
1E
8C
F4
68
34
B8
8E
3C
02
DB
32
05
96
A8
84
47
07
6B
0E
44
B2
77
AC
C4
0F
AC
AC
FD
8A
46
3F
24
A4
62
2B
AA
4C
A8
17
A5
30
2C
56
1D
CE
EA
78
98
A9
0A
32
73
1E
FE
53
39
CC
90
64
C0
4C
F9
D5
8D
D3
7D
3B
50
FC
8F
39
11
E5
C5
E0
E4
98
77
3B
C4
5D
37
DB
F4
2E
CB
88
4E
73
18
7F
C8
78
E7
51
58
6F
D0
9D
7B
BE
D7
9F
01
6A
48
49
1F
E0
E5
AB
CA
67
18
34
7A
AC
0A
EB
26
EE
A3
32
53
2A
27
83
FA
C7
4F
8F
88
49
E7
12
18
90
D6
22
7D
E7
33
5B
79
9B
31
D2
57
77
42
1D
E8
A3
5F
4B
71
AF
C0
15
DC
FC
F4
40
95
5F
54
11
DD
8A
93
60
59
7F
7C
40
9C
EB
03
1B
B5
65
F6
5D
5B
F3
1A
FD
55
2E
37
A8
A0
16
F2
A0
B8
E1
3F
B8
76
23
9C
A8
6F
86
65
37
78
76
62
72
5A
CD
9D
77
DB
3F
22
02
FF
AA
2D
70
EF
8A
86
71
91
A7
39
97
CE
FC
47
76
7C
B5
C5
21
77
15
77
BE
62
FD
D2
A8
AB
CF
2F
C2
BC
7E
5F
19
D7
76
CB
7A
B2
56
A9
86
AF
EA
14
A6
0C
B5
BB
47
F5
87
72
EE
70
BC
95
07
DD
D3
F6
9C
A0
0B
88
82
B3
D4
EE
B2
75
6E
4A
8E
1A
F0
FD
3B
29
8A
8B
19
AD
85
1A
CC
65
6D
5A
BC
CA
72
BF
6A
4E
54
33
77
BD
56
A6
5F
4E
B5
5B
94
B7
EF
2D
03
A2
23
4F
76
48
63
1B
AE
10
DA
84
9B
62
E6
0E
1F
F7
48
32
61
6D
02
57
D3
AB
4C
C6
58
0B
31
B9
B5
35
E5
81
3B
C3
08
E4
74
40
1E
17
7A
10
B6
9C
27
06
CC
39
DE
CC
77
00
3C
D8
61
AF
55
61
EC
5A
9D
1D
CE
A3
12
B9
7C
3B
3E
AA
8F
1F
85
8A
F8
EC
14
B2
AD
67
1C
2E
55
F5
98
16
87
2E
76
8C
8E
55
89
32
FD
A5
76
EC
F0
D5
57
54
9A
A6
8A
8E
A6
F8
CC
EE
65
A5
F0
03
F4
97
07
0D
D4
49
33
49
AD
EF
77
12
BD
81
7E
21
BD
49
84
AF
39
E3
66
2E
E6
DF
FC
C6
2F
B1
11
04
8F
A6
59
10
18
55
BB
61
24
B0
9F
BD
A2
0F
05
5F
5D
77
13
61
35
C6
F0
23
A3
56
E9
CC
58
4B
FF
A2
1C
22
08
DE
BA
34
B8
0F
09
AA
2A
6C
7C
A1
34
E8
81
AF
F8
A2
35
12
CA
A9
CD
A3
80
16
C7
EE
0E
6D
69
EF
C6
E9
AB
CE
E5
C9
CF
3F
F8
74
B3
6D
91
5A
01
9E
CE
43
85
A3
75
73
11
46
B2
47
E0
61
74
64
96
0E
AB
B8
36
D6
80
D4
71
5A
DB
A6
A8
76
A7
35
55
64
42
3E
F8
99
26
4D
BA
FB
E6
98
03
F2
AA
8C
31
2E
A0
45
37
3D
27
00
DF
6B
EF
0C
7E
A2
88
AD
07
ED
F6
E1
1C
DE
C8
14
44
73
6E
62
56
E0
94
61
4E
3F
BE
D6
98
F1
37
73
76
C8
85
84
B3
D8
8B
34
05
63
B5
E2
CD
0A
37
F6
C9
A6
24
09
A2
18
E9
33
A8
C8
84
48
A1
FB
95
FD
9F
D3
24
33
15
79
EA
D7
FC
67
D7
DE
3E
30
F1
92
7C
A4
32
15
A3
67
87
D5
72
E7
93
40
E6
F3
E3
45
07
3D
67
E2
DC
29
80
02
A4
06
34
D2
B3
95
27
1D
EB
CA
FC
08
F0
18
E1
88
51
45
12
F8
23
06
E9
E3
CD
00
66
14
1A
F9
60
61
6F
51
CD
AC
05
3E
0E
69
E8
81
14
0D
25
E9
39
A7
D4
9C
5B
A2
2F
DB
F3
20
ED
8A
5B
3E
79
9D
37
F2
3C
E4
87
29
47
4E
BF
E2
3B
51
FF
22
A4
32
E2
2F
66
9D
DC
F9
3B
F3
65
65
B5
59
65
59
E0
E3
5E
8B
49
CB
5F
46
9D
C0
46
87
8F
AE
3B
C7
2C
3A
35
F6
2E
77
3E
D8
43
39
2F
E2
9B
16
9E
76
EE
7D
2D
33
70
5E
A1
E9
46
05
15
15
49
F1
4B
BE
2A
27
DF
80
5A
62
4B
92
3C
C3
50
03
5E
37
42
34
91
62
88
07
76
23
B4
AB
7F
0F
1E
A6
0C
A7
D9
75
BE
9B
D0
E6
A0
AA
93
74
AE
CD
60
29
44
A0
5C
03
5A
3C
C8
E3
DB
5F
F0
06
23
CE
D8
43
BA
F5
81
CA
3B
E7
25
D6
94
74
55
90
6B
74
DC
18
91
0F
15
CB
E1
28
46
07
13
83
39
CA
C5
C9
9A
2C
D6
B4
BC
0D
6D
3B
90
17
5F
75
37
FE
3F
11
E5
14
88
3B
0A
2C
C9
28
F8
6D
A1
1E
28
13
FE
09
E1
D9
11
9C
B4
8F
B4
09
7A
31
E5
69
1E
D9
E2
D8
20
CB
3E
36
39
98
DA
32
74
BE
1E
19
D7
0E
A7
5E
EB
34
0E
5C
2F
E9
CA
8E
BA
BE
7B
03
95
7E
A9
B2
F7
9F
77
7C
9D
50
43
8E
07
A9
DD
8A
D3
25
79
BF
7A
51
42
8C
BE
29
FA
78
35
8E
ED
DE
CF
E8
11
7E
54
E8
9B
4D
3E
19
0F
F9
3C
F5
8D
EB
DA
99
46
E7
8B
1C
14
47
9C
15
24
E1
30
89
18
0A
61
00
21
57
81
F8
68
67
91
6B
D3
4B
C0
B7
F4
3A
93
AB
B3
AC
18
0B
0A
D1
91
33
EE
54
D1
93
9F
0D
85
4A
09
92
F3
8B
13
3E
94
4F
A6
38
B6
06
1E
A2
6E
8C
DB
D4
90
BE
6C
E8
E4
D3
1B
C5
0F
52
28
54
A8
63
0C
C1
2F
2A
A1
00
57
83
01
70
F9
1B
C4
A6
05
01
25
4E
A8
40
C4
B7
E4
7F
29
7E
16
26
C1
A6
0C
A9
D0
7C
14
01
3A
E1
EF
1D
D6
EC
6E
CB
6C
BD
71
0E
AC
FF
03
26
01
1B
8C
80
FD
BE
4B
DC
8B
42
E1
03
CC
B6
6A
32
44
DF
72
CF
BE
E3
F8
AB
5D
B2
33
32
36
C7
03
C2
3B
84
8A
E1
0D
9F
8F
75
F9
90
17
D3
41
B9
69
6E
7F
92
58
51
60
A5
E2
F8
7C
1F
10
A0
C5
B7
B5
2C
D4
B7
82
2C
F6
11
E2
88
26
19
58
12
5F
E9
C0
7B
6F
D9
75
1F
8B
4B
36
52
70
1B
BF
DB
0E
F0
B2
2D
E6
CC
3E
22
1D
C0
34
6A
C0
60
99
6B
CF
23
28
5F
42
09
21
35
9B
59
79
B8
D7
8E
D7
3E
BD
51
CD
38
53
C7
21
59
00
DB
00
C1
A1
21
A7
12
19
CC
A6
54
0D
19
68
70
0D
43
DB
B0
2E
4D
77
A0
E9
C1
C2
32
A1
17
F4
76
81
24
E1
74
D0
4F
66
58
15
DF
05
CB
E7
CC
92
A1
C9
1E
23
5E
25
B3
1D
A5
6F
D4
B4
7E
EC
B8
25
5F
14
8B
62
0A
76
95
CE
8F
70
7E
89
B9
9E
6C
5B
B8
7A
42
09
0B
5E
EC
EC
6A
9A
43
5F
3A
D8
FC
FC
D2
45
0A
04
25
9B
7A
72
85
91
88
B6
94
74
B5
CD
84
12
C0
24
24
FB
3F
2A
E0
9D
97
80
A7
CC
29
1B
D2
4D
5D
80
57
96
41
E9
32
71
0E
6D
17
05
75
63
B5
3B
EB
C7
28
79
E1
60
32
CE
FD
B8
34
FB
5D
E1
B3
47
A3
3A
A7
72
A7
B4
EB
2E
74
3D
4E
57
9D
37
A1
4B
B5
36
4A
F5
1C
ED
B2
B2
BE
6B
FD
7D
65
94
AA
61
87
87
DC
71
B3
9F
6F
59
8B
DB
77
1F
59
4F
B5
1D
F7
53
BA
56
AF
05
CD
15
BD
C6
94
18
BF
03
F8
1C
71
3E
45
9F
26
3C
1C
27
06
85
C7
DE
92
73
E9
5E
BF
11
66
E3
A1
D1
E8
2A
9A
85
DA
77
5E
BE
AF
AD
44
96
23
B8
BA
65
58
D0
B4
87
6A
A0
5D
08
D3
FC
D9
8C
93
73
44
5F
F4
DE
47
02
13
CE
35
67
29
1A
31
45
88
79
C9
08
82
7F
9E
5A
9F
9C
FC
4F
92
EC
E9
0A
8A
CA
82
CD
AA
9C
1F
7B
03
E7
C4
7E
67
B5
F3
04
E8
BB
AC
A4
73
96
87
15
46
E0
0E
8A
67
B8
5F
FB
50
63
A1
22
2B
EE
86
8D
FE
E3
99
15
0A
56
3A
26
25
A6
5F
3E
CE
32
B3
68
84
0B
5F
6E
04
0C
E0
14
C2
EE
DA
CF
0F
B0
FE
93
23
74
9D
F9
41
95
F7
84
6E
B9
35
1D
8B
5E
8C
B0
BB
AA
05
0E
A8
1C
36
3C
14
2A
12
92
D3
AF
20
70
39
36
71
5A
C0
BA
4E
40
17
65
5C
B4
D5
E1
A1
A7
5C
32
DA
DA
4B
0E
35
F1
9A
E3
F2
10
86
CA
71
52
3F
4D
CE
28
F4
58
4B
1A
B2
49
58
2C
B0
C5
4D
B1
44
55
80
70
8B
97
C1
63
84
42
D3
5D
C5
A5
F0
35
03
D0
CC
93
FE
4B
8B
5F
86
75
E4
52
4E
00
09
CE
FC
6F
87
5E
80
0B
77
A5
09
A7
CA
B8
D7
65
AF
B7
97
88
E9
6B
CB
66
F6
4B
80
CF
D0
20
DB
0D
18
1F
A9
BA
ED
63
39
1E
F7
0E
02
3B
19
FA
D9
B1
A4
25
96
88
FD
3E
3B
D9
89
9A
BC
A9
BA
9A
C0
FA
5D
91
F9
C4
82
6C
B0
FC
6B
86
77
D4
68
81
FE
6B
ED
C7
72
50
01
7B
26
39
0E
A6
29
EF
F9
E1
16
AF
93
7E
19
7D
1D
C4
D8
46
F8
2C
8C
6F
1B
F2
EC
D0
26
CC
E4
C7
EF
93
A0
FC
A9
9F
1F
61
C0
B8
7B
4C
E7
29
0E
B1
FB
A6
57
D6
C5
B0
BA
F9
D1
0F
BA
6B
9B
59
B3
2D
24
1D
59
39
68
DF
61
C7
15
6A
76
7B
9F
86
28
7D
DC
A4
72
4D
21
A3
5D
68
D3
94
E6
BF
21
B5
E0
86
7B
DF
97
A9
68
1D
46
67
EA
0C
2C
7F
E6
66
B2
AD
F7
FE
F3
DD
B5
05
92
E2
19
9B
1F
8C
AF
22
3F
85
6C
7F
17
26
B9
CE
DD
58
78
FB
2A
90
A2
20
D1
45
C8
AE
24
57
D0
FC
F4
C5
40
E8
FA
7C
97
D9
C1
40
9F
66
4F
B7
C5
B8
B4
24
9E
3E
8F
AF
1B
9C
52
43
2E
C2
E5
6F
C1
B8
9E
31
AE
17
4F
61
0A
67
F6
D8
24
57
13
A3
ED
41
19
BE
C7
65
FE
16
16
A5
89
B5
9C
09
56
90
58
E5
26
2E
4B
41
11
42
A9
39
25
23
F3
B3
22
C9
4B
56
73
68
F0
F9
BA
55
64
41
50
65
1C
C6
F6
52
32
DD
1A
B8
42
5C
B7
9A
59
25
53
BA
30
48
73
34
12
E9
CD
57
AA
11
97
DF
7B
90
E8
E2
1A
73
99
E2
C6
D5
BB
16
BB
0A
C0
D5
02
36
D2
C8
AE
E0
F6
29
A4
8A
A0
14
08
01
DC
BA
40
2F
6D
C0
8D
17
3D
8C
2E
A3
FB
BB
3E
99
08
B8
FD
9F
7D
6E
83
A3
F8
9C
E9
D5
8F
B7
5A
91
AA
8A
B5
