C9
55
62
34
D3
68
8E
04
4D
6C
CE
AE
0D
63
AC
70
99
AA
AF
C3
DC
04
C2
40
70
09
01
D7
BD
BB
F0
AE
5A
19
CC
4A
18
D8
67
B9
CF
E3
57
EE
A3
2D
39
E5
61
ED
8D
8D
CF
16
BC
C2
A0
61
50
B2
02
BA
59
0C
D6
E0
C3
98
8A
AF
22
5F
6F
E4
6B
1F
B9
DB
E4
45
BF
AE
8E
F6
91
93
D9
62
2E
C6
74
1F
E8
B7
FA
28
AB
F1
3F
41
DC
22
03
19
BA
EA
49
D0
31
3E
5F
85
C4
5E
5C
9E
D7
E8
6A
B8
9C
F1
90
D6
DC
6E
B0
B3
7B
49
07
84
59
16
71
73
E7
A0
82
60
42
13
B4
85
01
11
FE
EB
98
1E
2E
84
FF
D4
47
09
92
C1
0A
B1
A7
59
2B
DB
01
D3
44
0C
D2
DF
16
3B
40
C0
BB
B5
BD
C8
46
D9
5A
1E
0B
95
B5
63
A2
23
AC
40
B7
32
F6
3A
89
94
FF
1E
8F
0C
73
0A
5B
E3
30
7A
C8
1B
E2
E4
39
79
E8
2B
52
86
44
FE
1E
BF
A5
0F
27
C2
83
F5
FE
CD
90
19
AC
55
7D
E2
8A
BC
B4
43
0E
61
D4
68
E2
EC
34
38
24
EF
6F
BA
63
72
9E
06
88
36
EF
F2
51
2C
95
52
8F
1A
8A
58
3D
0C
A1
B9
E9
57
70
FE
17
3F
8E
C0
F4
BE
71
97
A8
24
FC
99
46
A0
DA
9F
45
FC
0F
DF
FC
D0
D4
C6
27
57
84
F8
14
DA
F6
5D
DD
4F
9C
48
3D
A0
2E
AE
EC
E7
64
87
1D
EC
6A
1B
C9
95
7D
29
26
09
15
CC
01
37
CD
03
48
C4
B8
CF
9B
E3
52
AA
B3
AB
A2
E5
4C
FE
D7
99
B1
0C
E9
90
30
16
3B
DA
41
8B
C5
85
BC
DC
BB
FE
DA
83
39
D6
F8
63
02
63
08
B1
A1
9C
29
86
2C
19
D9
13
31
61
31
EA
01
C0
26
CE
0E
61
2F
F9
A4
F1
AF
23
8E
2C
1D
43
BB
9A
2D
6B
5F
63
7D
36
54
17
9C
E1
BF
BB
9C
14
D0
FF
7E
8F
E1
FB
D1
8F
DF
DE
2C
61
F1
93
7B
03
6E
FB
56
0C
B3
2A
72
69
16
1E
1A
AC
62
4B
C9
12
24
54
8E
FC
6A
E0
BC
67
28
7D
6B
E9
E4
FE
38
0A
38
B7
A0
B7
60
CC
D0
D5
18
79
F4
1A
6D
74
B1
35
24
F2
4B
3D
27
0A
0C
54
54
56
D5
2F
2D
77
BB
DE
BB
88
FF
5A
EF
4A
0B
BF
65
DB
4A
3C
E7
E5
12
38
61
95
93
3E
12
00
68
12
5A
03
E2
9D
88
65
36
B7
44
7F
96
51
04
15
05
64
D8
8B
5A
AD
99
D1
1D
C4
92
E5
A8
F2
9D
D6
FE
71
E3
49
73
A3
2F
9D
93
58
6F
92
6C
C0
8F
32
82
73
FF
92
67
C0
01
73
DF
88
36
61
72
4D
8A
7E
2B
05
E2
20
8A
B1
10
E1
99
28
A9
1B
48
02
3C
91
45
A4
82
27
4A
30
55
CC
8B
B7
22
49
74
B0
D4
55
25
95
D8
FA
DD
10
66
F7
AF
24
41
46
F0
77
00
17
06
72
86
0E
9F
A9
93
7D
E7
5A
AA
D5
15
C4
76
A9
E3
7E
85
47
2D
74
36
E2
CD
DE
63
4B
5A
A1
F2
DA
9E
C6
FB
A0
21
8A
14
56
80
15
32
E9
63
0D
AD
4D
EB
E3
A2
72
28
BE
63
BB
C5
78
07
E9
1F
2C
F1
BF
6D
BE
43
68
24
08
6A
9C
D9
23
8F
BD
7F
73
42
46
B4
AB
C6
6C
9A
DD
BF
DC
7F
3C
01
C2
9C
26
00
BB
39
70
B9
A1
4A
03
00
20
51
04
65
99
27
1C
72
F4
CF
26
86
C3
18
5D
57
96
92
17
C4
24
86
94
D4
DF
5F
3D
5B
3E
69
31
11
C9
9A
19
57
83
4D
CD
F9
03
21
B1
9F
14
D8
C0
AC
28
6F
07
20
1E
24
B2
C9
3D
24
9E
48
D2
CA
7C
B0
6D
05
24
A0
DB
7E
5D
E0
19
F6
F1
C6
71
26
60
C3
40
DF
EE
1B
3B
C9
80
56
92
BA
39
34
E5
CA
13
DF
B6
4A
9D
2B
92
AB
AE
4F
5B
2B
07
ED
65
FC
59
B6
B1
89
EE
89
CA
89
39
0D
7F
E2
85
66
71
40
47
A2
F1
DA
8B
5A
E5
86
74
04
2E
E0
B3
C6
29
4D
76
C9
12
FB
FF
C9
D8
A7
6D
B2
40
6F
6F
38
B8
09
88
B9
7E
97
6D
5B
9E
09
46
23
DF
B3
D7
89
07
42
ED
B1
73
35
CE
E2
B7
7F
7D
F4
C9
27
BB
E2
D2
8D
D7
A4
37
96
76
6F
80
AD
79
93
AC
ED
52
0C
DF
E1
B7
CA
C2
D5
9B
79
E5
3D
56
6C
2B
50
E0
92
57
F3
9F
5B
3D
3F
E2
65
45
95
7F
37
8C
C6
1B
2C
33
FB
5D
3B
5D
A8
6D
C3
AB
AD
E1
B8
04
F8
76
35
AC
DA
1C
24
00
45
FA
D2
FE
A6
7C
24
47
91
AD
F4
2B
C2
31
0D
4D
41
68
5E
1B
6E
DC
DB
BA
AB
06
FB
5D
E3
40
E3
14
BD
90
AB
7D
28
A2
65
6F
98
18
D2
5E
62
2A
29
83
9E
D5
00
6C
A8
67
16
10
A5
C0
F6
45
3C
E6
BF
ED
E3
75
1B
33
83
2A
EF
C1
E0
6D
83
33
C7
A9
A8
01
B8
E5
BB
CA
5A
34
11
68
D8
49
BE
87
6E
6A
BC
C5
BF
3F
30
DE
65
8A
2E
3E
6F
F0
72
5A
CA
93
26
BC
2A
CF
D8
2E
3E
9A
D1
84
14
D2
05
A7
DF
A3
D2
38
F8
31
34
A2
92
45
CB
0B
AF
24
18
05
C0
66
62
DF
A9
06
40
B7
8D
09
84
C0
AE
3C
C0
41
CD
C4
E4
77
92
EE
5A
13
6D
FD
E8
82
C0
A0
DF
29
3A
AD
83
D8
7A
FE
01
6C
9E
E6
72
30
90
89
E0
91
5D
C6
D4
D3
C9
B5
00
24
2A
8A
EB
BF
63
0E
4A
79
10
26
40
76
B9
A1
AD
C3
40
59
BA
13
C0
C3
CA
FF
6F
95
7C
B6
4C
C7
FF
C2
E1
DE
86
09
26
C5
41
E3
C7
44
8E
A8
ED
39
47
B9
08
1F
F5
B6
B3
F9
73
A2
0F
8F
78
41
C4
FE
2E
2F
2F
2D
59
40
5A
13
27
AB
40
9C
FC
F3
BA
EF
29
24
76
43
B2
57
19
4A
22
64
20
3B
F3
EB
74
B0
ED
B5
30
66
E8
6F
8E
56
28
6A
DB
97
54
BF
BE
F7
7B
F0
99
8B
38
28
FC
19
25
EB
A6
3E
C7
55
6C
7F
EA
38
20
E4
5F
8A
94
6D
87
39
21
1C
EB
45
76
53
C9
8B
1A
0A
3E
B7
41
A5
56
F5
4A
9A
83
DE
8C
21
AF
9C
97
1F
33
30
77
B7
25
86
40
81
DD
15
08
FB
E8
69
A7
F3
56
8F
F7
CD
04
28
D6
B2
D4
0E
2A
DC
77
A2
11
9E
45
27
11
5C
70
6F
26
93
D0
C4
2B
53
D8
48
F6
2D
FF
47
5D
84
17
02
C2
6E
55
BD
B4
0B
CC
9E
AF
57
90
FD
02
F2
CD
AD
FC
F3
E1
1A
CF
24
D9
B2
08
3E
D2
DC
2B
E7
19
4C
B5
78
00
5F
7B
C2
74
20
E2
93
B1
A9
78
90
12
BC
69
5E
E1
3B
21
DB
3A
36
80
34
C3
C0
01
E5
6A
12
DE
B5
C2
65
13
A6
A8
A9
62
17
89
3D
B3
B9
1B
75
75
F8
21
B0
99
8C
26
39
8F
FA
EE
EB
69
62
FA
44
56
21
7D
0E
EB
A5
52
81
9B
1A
69
9A
85
E8
B7
CD
A7
69
B3
90
AB
6A
6D
F2
B3
F6
E3
2C
7D
50
78
C6
7A
66
6A
9A
70
63
82
22
22
5D
16
38
76
6F
90
26
1E
B4
46
E5
D4
12
99
54
C1
2D
6A
E2
99
7F
91
C4
02
5D
FB
60
8B
7E
ED
1F
93
4A
2D
41
A4
96
45
2C
FE
99
1E
C6
E1
5C
5C
2C
AA
29
88
9E
F4
9C
75
AF
77
8C
A2
C8
D2
E0
50
2C
88
DB
3B
BF
99
F4
4B
AE
A0
83
3E
9C
67
95
63
A2
F9
AE
B3
3D
E7
0A
2F
74
43
13
BC
D9
1F
F8
97
07
F2
72
49
60
B3
B4
39
EB
4A
18
BF
B6
01
56
1D
52
76
99
9C
20
AC
25
E6
2D
F3
47
09
15
B7
24
FF
40
8A
49
26
4C
F1
2A
36
FC
A6
13
1B
A4
AA
0B
91
BF
6B
4F
A8
93
F3
E6
75
98
B5
81
71
C9
6F
8A
D0
48
AC
95
4A
8A
30
B3
40
FE
10
11
50
EB
FE
D3
63
07
C6
A6
63
6E
A2
CA
2D
F6
26
7D
0B
F3
BF
71
44
23
AC
98
FD
A9
BB
A8
48
3C
BA
5D
2B
AB
94
70
33
5A
15
70
08
F1
83
B2
E2
3C
63
91
C0
14
4C
A2
75
65
48
7E
EE
8E
59
1D
09
D8
4E
A4
2D
71
F2
C7
66
AD
54
2E
E3
3E
7E
B8
B9
F7
6B
8A
24
C3
E4
A7
33
84
45
73
EF
36
B4
27
62
70
05
76
50
6A
9B
44
0C
6C
29
78
FF
3F
A7
64
85
25
A8
E1
B9
77
A9
47
64
91
91
D1
7F
C6
51
3A
2F
7F
2B
A1
9F
EB
2B
CE
0A
B0
6B
B7
50
30
63
A3
04
1D
F5
0A
05
C8
C2
90
C9
3D
76
BE
74
09
D8
39
E0
49
75
7C
DD
10
07
EB
94
E7
57
51
29
5F
F1
30
50
6C
C8
23
9A
E7
81
CB
02
E2
40
13
3B
DC
77
F7
DC
A0
7D
0B
C1
BF
22
BA
5C
79
6B
29
30
FE
2B
FE
E3
80
B7
07
21
49
AB
A6
24
71
8E
BB
29
7B
AB
37
C0
2C
A5
3F
BB
83
2D
34
D9
C5
65
5E
00
A5
16
53
BA
87
9D
D2
F9
45
D3
01
83
31
5A
1D
66
CA
83
AE
8D
7D
E9
D5
6D
69
C7
44
91
EA
B8
A3
21
D9
AF
D0
00
3F
8F
57
34
BD
F2
5B
15
9D
28
1E
CF
6D
DE
7A
BC
10
6C
17
95
63
37
F7
B1
44
E4
55
0F
FE
FE
3D
9B
73
ED
23
37
B8
11
0E
CE
D4
3C
12
68
88
E2
F0
22
22
18
DA
D0
1E
8D
8F
18
F3
5C
C6
70
A7
A5
A8
62
15
84
43
92
E6
20
5E
E8
01
01
53
1E
C7
30
C8
50
5E
6E
4F
F6
15
A4
2A
31
CC
D6
A5
56
7C
85
0C
BE
8E
AB
0F
2E
99
40
65
00
6C
49
7D
7C
CD
8B
DA
B9
7F
45
22
89
E2
42
C1
87
62
DA
D1
69
55
64
84
7C
21
73
61
99
9E
77
92
A1
F8
0E
87
12
A8
40
21
CD
5B
81
07
47
E7
36
D7
F2
68
EA
0E
80
30
76
C9
AF
64
D0
AC
98
71
0E
A8
17
13
4B
C4
AE
4B
58
77
53
E4
C4
B5
77
CD
E6
F6
DD
40
AD
BC
44
3D
08
E1
C2
5D
C8
1A
9F
65
F9
A4
90
FE
85
B1
BC
59
2E
5F
69
02
87
2E
44
B5
36
9E
0A
8A
17
19
A5
18
50
93
C3
4A
D5
C1
E6
0A
ED
64
92
1E
B0
E3
66
2F
82
4E
ED
4C
7A
B7
F0
DB
31
68
D6
0F
3A
CE
90
DB
EB
92
0C
F4
B7
FD
DA
3E
9A
6D
00
5D
7F
22
01
9E
79
43
D1
3C
14
F7
E3
7D
CE
C2
6C
19
E8
99
E0
40
0E
88
E3
5B
31
D0
C1
28
53
11
C3
7C
71
A6
8F
FD
49
5E
03
FF
ED
91
38
B0
89
E2
C8
5F
20
B4
70
2E
57
C1
D4
78
FC
51
