9E
A7
45
AF
52
B4
DF
D9
2C
60
6C
C3
FA
92
42
3C
DF
31
BE
FB
47
44
DA
E1
20
58
02
7F
48
22
24
D8
41
66
07
68
2C
18
DD
65
F5
C0
1B
44
CB
23
88
7F
D3
1F
94
96
1D
D7
EC
54
D7
10
4B
53
C0
DB
93
C2
E0
75
1C
66
77
6B
4C
DF
33
01
68
2D
A5
D5
A9
72
F6
C0
93
F9
D6
FD
82
78
B6
8D
86
92
37
D9
70
A0
E2
9A
2D
B1
19
F6
53
CF
4D
EB
FA
85
72
F1
CD
9E
B0
DB
61
2E
5C
FF
C5
D7
26
96
5A
45
94
66
E4
FB
AF
9E
E2
52
FC
01
1B
BE
AD
46
7A
54
19
BF
1B
89
19
29
E1
6D
5B
CC
FA
5B
28
DF
93
63
DE
99
11
22
30
31
E3
21
1B
FE
12
0F
1B
DD
19
4E
9E
D3
F8
B2
B9
F3
84
85
1A
82
01
CE
3E
5A
F2
D2
E4
8C
30
DC
C1
49
3A
3A
75
03
CC
88
BE
CF
B3
31
EB
0E
DF
32
94
4C
BA
21
89
68
B8
6E
08
F5
2F
EA
33
E1
6A
85
C0
54
F9
5C
F3
DB
4A
F3
C9
C6
7E
BE
77
CF
75
E7
12
FC
2B
4B
90
C6
48
C6
EF
7A
F2
B0
B4
E0
E6
A7
97
1B
C7
8F
7D
D0
B5
D8
A6
8A
22
FF
28
5D
E1
58
9C
CA
80
0A
17
E3
D8
5B
5C
AF
E2
2E
4F
D0
CD
C9
