D7
10
C3
EF
CB
BB
2C
C8
2A
2A
F0
4E
76
0B
03
32
16
40
9A
DE
9A
28
35
16
B9
C4
9B
C3
F8
68
FE
9A
EC
A2
70
3F
24
C3
9D
0E
85
A0
4D
09
40
51
3E
AC
85
A9
12
1A
B1
E1
C9
87
15
94
7E
BA
68
53
AC
A9
57
8E
1D
33
98
6E
15
97
7C
9C
0B
5F
4E
3C
36
6C
59
5B
6F
80
C7
AF
6C
33
32
48
B8
B9
D7
7E
42
4E
AF
B8
FC
1C
65
AB
45
86
FC
A0
07
68
C5
D3
E0
A6
F5
BC
2D
7C
E2
32
8C
C7
69
A4
73
8A
C0
4C
65
C4
3B
15
80
D1
2D
21
02
F9
23
1A
F3
2B
B9
E7
2C
49
