1B
B9
4D
42
03
46
4D
1F
89
BA
03
7D
B2
3A
CB
2E
EC
A0
16
A7
11
5C
6A
F3
2E
D3
0D
1F
9F
A3
AA
D7
9D
51
EE
2C
A3
57
4D
63
08
D8
46
3F
A3
E1
71
A3
1C
90
47
F9
8F
7E
66
F1
5B
C9
AB
65
94
62
3C
36
3F
6A
57
99
6E
4F
1B
0F
F7
BF
D5
3D
C1
81
97
89
7B
C1
8E
7D
BA
3A
81
24
6D
79
F9
12
E2
24
F4
2F
75
DC
E4
08
9B
E9
3B
E4
B6
EB
FE
77
63
31
E5
01
FD
88
0E
66
1E
1E
1B
D1
A0
96
0A
23
D6
E2
56
84
BB
A5
06
B0
A8
EA
2D
8F
50
EC
2E
FE
2D
FC
F8
AB
30
1C
49
65
C0
2D
73
6E
29
13
E3
9F
96
BD
98
1D
6F
97
85
F6
1A
6D
52
1A
D8
79
DF
D4
9F
E1
1D
C1
D2
5B
AB
76
57
C2
95
38
78
1C
CC
BC
02
AC
31
07
3B
75
CD
20
CB
F9
C7
FA
E2
3C
19
83
4E
F0
FA
FA
90
7E
70
47
F1
DE
CD
60
1F
06
42
29
06
BB
88
06
D2
BE
20
6D
46
04
2E
BA
7F
2B
8A
21
C4
34
BD
D4
39
B0
F0
B2
A7
E5
00
20
D4
25
CC
74
6F
6A
AD
22
2F
18
F9
87
B2
45
7D
D2
B8
E4
78
25
6E
1F
02
EC
46
13
C8
23
A4
E8
6E
CA
D6
B6
5A
95
4A
05
64
33
46
FD
61
16
FB
A6
B0
02
C6
28
79
A1
93
37
FD
C2
58
0E
0B
81
6C
F8
49
1B
22
1D
D5
86
6B
48
EB
1D
97
0D
3D
ED
27
3A
0A
9B
CC
EB
17
08
33
00
C8
FB
6F
08
FD
C5
26
11
17
3E
43
4E
53
0D
BC
DC
53
A5
4B
6F
C4
09
D0
3E
BC
4D
40
88
08
6E
3D
EA
12
E6
D0
B1
25
10
01
B9
F0
97
85
56
05
CA
EB
3B
1D
35
79
72
91
87
4A
05
1B
43
F4
15
6F
07
AA
0E
B7
6E
D1
40
5E
0A
27
3F
3E
1F
58
D8
D7
9C
A6
DE
27
14
1B
58
5D
CE
ED
80
18
AE
4F
A1
13
70
3E
F8
3B
68
BF
FF
F8
8D
FE
EE
E9
B9
8B
9F
C1
CC
28
C6
2C
1C
F3
21
4A
9C
1C
26
20
9C
16
E3
89
39
D4
8D
7C
71
4F
FA
F0
9C
F4
FF
D8
0E
32
EC
D6
A0
6F
24
78
8B
68
6F
EE
BB
2C
A9
32
15
59
9C
F1
9E
E4
70
E5
D3
95
40
20
F8
F2
F6
C7
A1
89
7C
81
32
86
6C
95
8E
C8
AD
7A
F3
58
06
2B
22
ED
9D
D0
89
0E
CA
96
49
4C
51
05
AC
69
1D
2D
7E
AD
50
76
19
59
DE
1E
A2
D4
6C
6D
61
56
35
E8
2E
3C
08
F6
C4
6B
0F
45
02
DB
1E
F8
B4
3C
34
42
58
32
93
46
0A
A5
76
9D
7B
AA
71
4C
69
79
F0
AA
D7
94
08
54
9A
53
2B
1A
40
C0
3A
F3
FF
E6
FE
6A
E3
6E
C0
34
7E
90
BE
6F
C1
DC
E4
5F
35
87
17
9A
BA
3F
50
B0
29
7D
EA
B6
58
D9
6E
D7
0A
1B
8F
3D
E3
61
A5
0E
8F
D9
9D
52
A3
8C
13
69
8B
EB
26
12
DA
E4
35
8A
34
0C
A0
68
5C
A5
1B
01
B2
98
74
49
25
EE
30
B9
BD
BD
0C
14
55
96
42
54
42
55
34
8C
74
14
EC
16
58
B5
62
8D
88
3E
8D
8F
FD
9D
64
C4
82
CA
CB
CF
5F
C3
3B
CA
8B
E0
E5
C3
C2
6E
07
7A
D7
4B
D0
E5
73
48
C1
8B
2B
9F
A5
18
CB
CA
BC
E8
50
E4
B4
DE
C4
97
D8
7B
E3
06
0F
F2
AA
47
30
7A
8F
E0
C0
D2
DA
D8
09
59
95
80
9F
70
F0
82
4E
62
7A
67
C9
79
94
1B
9A
89
8C
2A
C3
CA
3C
60
5A
B5
32
2D
8C
0C
66
00
78
FF
8B
A5
52
20
C2
F4
BC
46
FF
DA
4C
A0
A6
65
7E
E8
90
22
31
84
2D
C9
F5
5D
0B
CB
08
1E
0D
C9
34
E3
CB
35
92
D6
AE
E1
69
7F
65
17
B7
46
40
FE
51
57
27
9B
63
EA
7F
15
19
CE
DC
EC
CB
2A
BF
0F
60
AE
32
0C
EE
0A
90
63
69
B7
EB
63
51
53
15
3D
93
19
71
22
FB
FF
BE
80
A5
11
5F
9C
AE
B4
AB
08
C1
C9
F1
08
2F
C5
A4
15
4C
98
B4
FF
3E
64
3E
BE
52
13
C1
C1
65
B8
05
CF
5F
0F
3E
E7
F8
07
CF
B9
30
28
2B
45
41
BB
7D
B6
84
F3
64
8C
F1
8C
4E
E0
A5
44
C4
92
35
18
1A
CE
ED
54
F0
A0
85
0E
10
C9
7C
65
6D
40
54
4F
59
BB
23
2F
C6
8B
3F
03
CE
2A
A2
6C
78
DC
7A
31
EB
10
14
94
4B
43
7F
91
E5
1C
7B
40
BD
B6
2C
85
EB
86
F9
56
CC
2B
B0
60
E8
CC
5F
ED
33
84
33
F8
86
BB
96
1F
4E
85
9F
2B
38
E1
B1
A9
7E
F4
C7
4C
CC
06
E5
BF
2F
AD
E4
B5
36
B8
15
C8
ED
35
B2
67
44
DB
A8
61
97
2D
8E
B6
3B
89
2D
07
1F
03
E3
D5
83
C2
94
1C
2F
98
49
63
52
D6
A1
50
F4
5A
C5
76
27
CD
9D
F8
BC
3C
2C
03
74
A5
F8
01
BC
9F
62
B8
DF
96
44
8F
12
6E
C0
0F
92
E7
4D
32
E5
24
9A
DA
E0
02
A4
98
71
E2
AD
24
32
0C
3C
E3
A8
A1
CC
BE
2A
57
31
AE
F5
C0
05
59
93
4B
69
9A
19
07
B9
9C
76
52
78
76
7B
08
13
01
A9
9B
6B
B3
0C
4D
A9
6C
CB
7B
35
E2
7F
DA
AC
55
C0
91
12
94
40
BB
8A
82
D4
38
3C
66
CF
70
1C
F7
AD
DE
2A
9B
03
45
C4
75
3C
E2
AA
F6
E7
FF
AA
82
60
B3
8E
05
3A
B7
DC
B7
81
BE
FE
B7
B4
C3
2F
34
87
E7
32
96
8D
13
A9
83
E3
E8
80
6C
89
35
C8
6C
61
00
B1
C9
B7
EC
07
95
E8
59
D8
09
35
E1
76
FD
70
F6
DE
B5
28
89
47
12
BF
96
BE
E3
A6
B2
25
25
EE
70
66
63
4A
97
E1
56
E8
0C
CD
54
F9
9C
76
94
0E
B9
47
96
73
6D
09
A9
34
5A
9F
91
1C
5E
79
16
7A
2A
95
91
AF
89
57
7A
6E
9E
74
60
4E
E6
79
11
A4
49
D3
09
26
D7
73
D8
F1
E0
26
3E
6C
0D
8E
C6
1C
62
45
D7
F6
6C
02
AD
73
A1
83
53
69
90
D9
41
31
94
DD
EA
58
5F
3C
E4
E4
C2
56
CB
71
39
BA
EE
F6
CE
03
1A
03
87
31
8C
7A
5F
F1
12
22
25
6B
A0
1A
99
46
84
D9
3F
12
09
C9
9D
76
60
FA
08
DB
77
B2
78
DA
6E
28
1F
B5
CB
5A
0A
B2
17
89
D5
22
2D
E3
A1
A0
61
F7
68
1E
D0
F9
91
B7
15
28
92
82
CF
8E
B5
FC
B1
2F
51
8B
D3
90
24
D6
43
ED
51
D8
29
4C
0B
F2
A7
B4
03
30
A2
95
EE
49
E7
26
2A
66
8C
70
9A
EF
BB
64
78
BD
E6
AE
97
0C
E6
0E
41
15
47
7B
5E
A6
83
DF
D5
9C
C0
AA
3F
32
F8
49
40
94
6D
14
7C
73
52
4A
0D
41
FF
D9
18
5E
CB
34
E3
57
38
0E
63
A4
B3
79
68
EC
13
26
82
5C
A5
83
84
7D
A8
93
40
ED
51
35
B5
11
4A
BD
12
44
CB
9B
E0
38
85
13
69
86
16
B9
35
3E
B7
EB
DD
FB
B3
5F
CB
59
3E
F9
89
29
E0
95
E1
8C
1F
9B
8F
DB
96
80
67
C5
32
7B
AD
75
0F
32
9C
0F
CC
BD
0E
00
E2
BA
2F
3A
0F
54
8A
06
2C
CD
EB
93
46
7E
21
4E
17
A6
A3
DF
88
EA
9D
D9
EA
52
62
D5
A5
F4
C8
45
42
ED
D1
66
54
ED
12
5E
92
74
E6
CB
2F
43
C3
9C
10
44
45
17
83
3B
72
10
82
68
A0
BD
33
4C
5F
D5
2B
B1
CF
C3
F9
70
4A
FC
8E
D8
95
46
6D
50
23
88
48
5B
F1
68
CC
5F
96
46
8D
3B
3E
10
E2
9E
99
DA
61
A0
FC
E1
34
C3
BB
C0
D4
EB
DE
8A
4D
BC
5C
50
EC
2E
04
10
7E
D0
B5
AD
92
CD
A5
3C
3D
08
BD
ED
02
7A
18
48
38
0C
FB
D9
AC
CC
61
00
15
CA
0B
25
6B
81
95
DA
77
88
88
8D
98
60
FB
06
01
94
53
9E
5D
B2
1C
55
76
0D
AB
82
8F
E6
6E
ED
EF
85
A0
B3
28
96
29
2B
CA
5C
81
1A
4D
5F
26
A3
6B
3F
FE
DB
89
14
2D
FD
9E
68
2F
12
96
5C
1A
48
07
84
FB
F9
9B
2E
0E
62
01
BF
06
1B
FB
F5
6C
0D
FD
1E
B8
53
0C
B7
29
61
BB
38
08
93
D7
BF
68
01
31
61
85
AE
9B
6F
F7
11
43
5C
B8
A7
26
1C
4B
9A
49
64
1D
88
47
44
B6
35
24
CB
53
6D
7C
42
7D
C8
FB
52
53
92
9D
7C
35
66
7C
80
6D
C5
02
76
1A
5F
B8
9F
53
D7
F3
6E
BA
0D
70
3B
06
61
F8
7E
A7
6B
FC
B7
67
8B
AD
FC
DD
7C
0F
8C
47
E7
60
4C
01
40
60
72
8D
47
82
9D
89
01
4E
CF
31
61
50
3D
91
B4
55
3E
11
82
73
77
0F
D2
17
E2
33
6D
36
33
C4
E3
A0
8F
B3
AF
E5
8E
9E
E2
F2
9B
E4
CF
D7
43
53
DD
03
E0
96
FF
6A
09
5F
19
4D
D1
29
9B
B5
D0
D0
F8
FF
99
BD
53
D5
20
CC
E8
D0
C0
70
CA
37
5E
B1
06
EE
6E
CC
4F
28
7A
D0
F2
20
8C
7B
02
B7
6E
0E
D4
E3
0F
59
3B
C5
B9
AB
ED
00
17
DB
59
C6
98
29
39
55
D4
2C
72
9D
4B
5D
A4
46
0F
6A
68
3C
0D
A2
BD
5D
2B
15
1D
81
C4
7F
B0
BB
CB
C9
37
3F
5A
57
22
13
5B
70
1D
D1
E0
B7
CC
9F
D7
0F
E4
09
A1
D0
4F
15
BF
EE
7F
4B
3A
F3
A2
FD
FD
F9
AD
F0
77
55
4C
0F
9D
C6
AA
19
CF
09
FC
97
76
DC
41
3E
EC
A3
14
0F
17
17
78
A6
3C
3F
A6
1E
FF
37
89
23
8A
ED
1C
31
8D
CD
79
AF
28
CD
7D
52
B3
58
5F
3B
7F
ED
44
20
68
15
B8
11
17
B3
18
37
8C
31
17
15
F1
2E
C6
4C
F1
16
AB
57
A3
DF
76
9A
2A
D9
F2
AD
DA
F2
ED
D8
4A
DA
45
90
FF
EC
62
ED
26
CB
32
C3
2E
52
A9
CE
CA
12
62
B3
B1
B3
32
E2
0F
A1
88
11
E3
DF
CF
E5
14
1C
AF
70
93
3C
1C
6A
4C
54
24
C3
A3
22
D6
A1
83
E9
21
5D
68
04
A0
01
68
4B
20
BD
AC
FC
14
79
0B
06
98
44
65
A8
2A
1E
F5
81
BE
03
7A
D8
41
EF
F3
89
6C
58
1A
65
E5
83
47
2B
BB
FF
01
45
43
45
BB
5A
62
1E
0E
A2
84
1D
94
3D
19
49
31
C9
45
CB
3C
FC
FC
E3
74
C8
AC
1D
43
13
DE
5F
05
E4
36
BC
7D
A2
76
EB
27
A4
1C
53
6B
E7
C0
0C
C8
47
01
8E
4A
ED
58
1D
C3
77
14
B9
CE
B5
C3
2B
CA
5E
27
41
7B
7E
1B
EA
EB
70
1F
A4
A7
FF
6F
7B
1E
