90
B2
80
3D
81
18
A6
8A
8C
18
45
78
9E
E9
21
A1
5C
64
99
74
71
22
C5
41
1B
71
07
95
BB
67
01
CD
9A
4F
55
5B
8E
C6
D2
A1
DE
A0
0D
2A
E7
42
E6
80
CE
C1
F3
80
20
46
63
0F
13
2D
88
D4
A9
B6
7A
EA
8B
B4
FC
A9
64
39
8E
9D
C8
46
9F
56
16
34
54
31
C7
6F
7E
EF
DF
1E
3C
9B
6F
6F
86
E9
0D
3D
6E
AD
5A
DB
97
35
98
E2
98
86
4C
45
17
0A
F6
83
D5
B7
54
68
C6
BD
6C
2A
DA
94
1E
44
DE
D3
E4
06
A1
F2
EF
F8
C5
F7
79
17
BF
0D
6A
51
CC
E3
35
EB
32
1B
46
D8
B9
16
8E
53
B0
32
91
4F
70
DD
51
32
22
70
73
25
14
52
68
6E
A3
68
57
22
A7
2D
01
A2
CD
6D
67
57
47
3D
53
58
E7
95
E1
FB
FF
6A
2A
A4
6B
85
99
1E
4E
40
46
CB
57
26
A5
B7
10
52
5D
CA
C9
10
29
F3
8D
22
84
F8
BA
BA
8A
3D
D2
4B
40
A4
49
8F
21
31
81
92
77
79
E7
5B
00
53
1D
71
D2
89
F0
CE
81
8F
C2
58
D4
CC
57
63
93
7C
17
BF
3C
5E
C4
CB
D6
11
BD
E4
94
08
46
4E
57
F0
BC
C1
43
FD
A5
12
7E
FF
FD
54
8B
79
C1
EE
15
C3
93
BE
93
4D
01
65
