49
99
29
FC
78
74
59
69
D4
E0
A3
18
36
CF
D0
99
FA
B1
25
49
28
FE
08
29
60
DF
94
DE
93
0B
EA
35
20
6B
80
12
A7
38
6B
48
E2
0B
3A
E0
21
76
6F
82
3D
9B
37
86
E3
1B
C4
82
DA
2B
84
68
12
9B
75
D0
AA
39
47
4F
C4
46
C5
C0
BE
DE
0F
4C
DC
94
EA
E9
F7
13
49
4E
09
0C
39
D5
77
74
82
E2
7A
1E
FE
40
F6
A4
4A
B9
67
DD
CF
54
8C
F7
72
AB
DC
BC
1B
80
04
D3
7A
CC
F9
45
A7
03
39
44
D2
41
3A
1F
66
E7
CB
0D
38
9E
7F
24
5A
0B
BA
E6
C6
75
CC
82
8B
52
55
18
4E
C8
67
70
B5
91
8E
68
2B
4F
CC
40
91
84
80
5A
A7
A4
F5
AE
8A
A7
25
AC
D8
E1
FE
8F
0B
87
6A
55
F3
66
6C
D6
9F
3A
34
25
0E
11
33
DC
79
33
00
E8
1B
84
0A
58
41
E8
39
A7
91
58
EA
52
93
43
7F
F6
16
AC
A7
1F
EE
47
D5
E4
76
F3
E2
47
B7
69
BB
D3
50
7C
F2
3A
B2
23
2B
3E
58
77
05
A2
DC
81
9B
DE
92
A7
9E
85
3F
AA
F6
CF
7E
1A
07
54
37
C9
04
C8
E5
40
69
DD
21
B6
B5
3A
42
EB
6F
78
CB
25
EB
5B
81
AB
10
D1
C0
74
A5
11
71
03
08
C9
E0
09
0B
9A
ED
8B
D7
08
37
2F
4C
66
99
16
E7
8E
FE
7D
6F
72
F0
FE
41
02
A7
56
B5
3A
B5
E5
A6
C1
80
74
CB
8A
65
05
A6
FD
F2
58
72
75
D0
DB
CD
44
E3
A0
1D
BD
5F
EB
68
4C
FB
0A
F1
22
82
5A
EA
72
C0
2B
AF
42
31
B8
D2
C2
C8
6E
1E
B6
2D
71
EA
42
36
5B
F1
50
BD
A7
EA
FD
41
64
98
0A
1F
57
C3
42
C3
CD
F1
3D
93
52
B2
A1
E6
E2
0C
B3
A7
6C
E3
C1
A8
3F
BE
ED
43
25
7F
B9
1D
D6
FD
85
C5
D4
A9
40
73
75
FC
43
44
59
B5
1B
19
46
64
33
70
66
42
D9
46
FC
4F
C3
E0
E4
D9
35
26
D3
E7
BC
22
7F
B7
62
87
FE
66
39
54
8B
12
8D
0E
2B
AD
0F
DD
F4
8E
DF
D2
24
1F
80
00
E3
B0
60
DD
80
94
2B
62
2B
40
28
7E
A3
C5
9E
24
79
1A
98
CA
2B
96
DE
A6
F8
2E
2F
45
DC
DE
65
53
5F
0B
09
32
88
54
6A
1F
5F
F3
7B
33
69
41
80
ED
31
84
30
20
9A
88
47
44
1D
93
53
8C
A2
6D
9D
84
BD
51
D8
F3
0A
7C
B7
20
C5
3E
F7
F8
FF
D5
3B
11
F8
47
D5
29
5D
61
BC
FE
C5
48
42
C1
0F
46
59
4C
3E
1D
DA
31
DA
7C
14
45
0A
D1
78
36
FE
AA
2F
82
2F
56
8A
27
BE
4D
E4
25
38
9F
EB
07
8C
42
64
03
42
5A
4B
B2
41
D2
46
BE
90
D5
90
CC
AB
B8
E6
03
81
C0
C1
39
F5
C4
4B
02
34
B0
ED
06
C5
20
46
4B
11
72
EC
A0
9A
12
FB
E2
2B
A3
CD
99
FD
F2
69
00
FC
C5
72
EC
43
7B
B1
F2
77
8E
9C
F5
0F
E3
5A
0A
DE
77
BA
39
08
60
D7
47
D9
17
A4
EF
B5
1A
F2
F2
82
B0
1B
8A
D4
4A
7C
E9
B4
F0
F2
95
A2
16
32
58
31
A0
D2
AF
E7
28
C4
3A
B0
ED
8E
AE
B2
EE
FE
BA
45
37
E2
F6
5E
9C
05
02
D5
9E
F1
66
2E
C0
F1
6E
15
61
B2
B5
EC
91
6A
EC
C5
D1
57
85
1A
05
77
95
19
B3
49
01
8B
27
9E
95
E1
C0
D2
62
50
EE
58
E0
4D
29
74
7B
45
DD
52
86
A7
C3
6E
55
A5
1F
F3
CC
7C
09
58
32
3B
EA
0A
C6
5D
44
E7
96
EA
08
AD
3B
A5
44
7E
F2
67
BC
DD
90
F2
8A
78
68
AD
62
A7
90
0A
DA
32
4E
BA
C3
F0
39
EB
49
44
D5
AE
66
C6
EC
9B
E0
3C
45
E7
7A
26
AC
CE
65
64
2B
3B
07
A1
45
62
B0
AB
07
16
97
B3
CA
78
E6
FF
32
0E
A0
00
6D
DE
E8
64
BA
E0
EA
79
33
6A
12
57
29
F9
29
07
38
F1
28
97
3B
E9
C5
21
F4
65
A0
9A
03
66
E4
C2
D5
34
E9
76
45
A2
58
9C
08
8D
4C
C9
3B
DC
35
A9
59
1C
D6
3A
D3
FB
A3
25
F2
49
60
4E
FA
80
D4
26
38
35
61
89
AC
74
37
33
85
65
63
AC
63
13
90
B0
78
1C
09
DC
42
03
D6
C7
26
08
2B
74
DA
9B
FA
A6
23
A8
81
45
C2
10
E2
46
39
9C
8D
83
60
61
F8
02
57
B5
EE
59
EC
00
EC
15
0F
A9
A8
8C
7F
9D
81
6A
42
1D
12
02
E8
6C
4F
25
84
4A
EA
6E
84
20
EB
A7
28
21
58
BF
DE
4B
00
0A
CD
D7
81
48
D5
91
EF
13
35
BF
1A
5E
1E
A8
01
46
97
33
F9
A4
5B
76
DD
0A
60
57
B2
43
D0
CD
89
14
74
F7
12
E5
C8
1C
E9
D3
1A
98
CF
C9
A4
15
8C
88
18
CD
AF
97
53
0B
FF
3C
BC
43
71
03
2C
89
37
07
C6
35
C7
99
CB
B4
B7
C7
AE
C8
B1
D9
69
21
5E
56
95
AF
AC
F0
91
A3
D8
91
54
AE
BA
3F
19
7A
A6
75
79
8D
FB
9B
C2
FC
94
AB
46
90
B6
59
AC
B7
F7
AB
56
BC
38
2C
50
A8
F1
E1
1E
45
65
FE
08
92
A8
08
4F
5A
DC
63
53
FF
45
96
23
DF
51
5F
FF
FA
30
CA
11
4F
AB
E9
C1
89
32
64
5C
4D
04
B5
67
0E
85
0C
33
11
CC
8F
C3
6E
56
76
B1
40
69
8D
24
C7
37
9A
A6
32
D8
1C
D1
8D
6D
43
C3
8A
43
C4
BE
A5
F3
0B
07
9A
F6
7B
AA
53
5F
5B
CB
9B
2B
3E
51
29
8E
D4
5F
63
59
9D
5B
03
29
B6
D5
6B
8A
86
41
D2
48
A6
90
D5
0A
CB
FB
A2
C1
64
EA
79
EC
CB
B4
3A
9A
B6
DE
FC
F5
7C
1E
6B
39
C1
8A
70
D9
62
2B
CD
C7
EF
4A
A6
7F
41
E8
89
FC
96
E4
0C
14
47
D7
4C
14
49
41
A7
47
34
66
44
80
14
F7
D9
65
8D
B5
37
B9
EA
44
F1
0C
F6
DF
D2
48
67
50
FF
DB
CC
F4
94
05
DC
3C
48
EE
52
8B
B5
D6
73
4B
93
6F
DA
30
DC
E3
40
62
73
FB
F7
A2
FC
B9
57
56
90
10
28
DE
3F
48
D6
4E
28
0B
A0
4F
2E
55
9E
2C
DB
F2
85
45
76
B3
82
D9
E8
79
6E
FA
08
CB
06
1D
73
F5
05
AE
CA
45
40
CA
47
6B
18
3E
E2
C8
A8
0D
24
33
4C
A0
AF
24
36
0B
AF
74
52
9B
44
02
6D
EE
4F
E1
1D
87
1F
07
85
D7
E8
89
33
D4
61
2E
79
C7
AB
A8
7B
55
D5
3F
A2
4B
A5
29
3E
0B
59
2A
FA
34
8F
7C
E8
C4
08
88
FF
B7
0B
0D
3D
37
46
DC
3E
5C
41
6C
04
FC
51
1A
30
6B
A3
F5
96
F3
75
36
58
F3
DB
D0
FF
B9
3A
84
6C
BF
EA
33
EC
F3
2E
EC
7D
1B
80
FC
CE
23
C7
0C
33
A4
8B
29
B9
5E
33
8E
BD
42
D5
4E
E6
16
CB
11
C4
A1
89
31
2B
E1
6D
01
D7
50
84
56
83
BB
FE
6A
96
B3
E7
8C
F7
84
32
EA
07
39
CA
C3
67
CD
17
2E
FA
B8
E8
F5
94
4F
13
F6
09
DF
37
58
F4
DD
D5
CA
78
3D
86
B1
1B
12
70
EF
40
AC
D7
E9
C1
CC
00
0B
2F
74
1C
0C
04
F1
DF
88
FA
6E
CB
3A
E5
7D
E0
F4
57
D7
2E
AC
52
71
CE
E5
DE
E0
CE
C5
CC
91
3F
EA
17
AC
9C
F2
B8
6C
5F
FA
E9
77
31
2A
7C
B3
BE
49
BD
2D
79
16
3F
46
7D
4E
56
91
AE
AC
2D
61
27
16
2F
44
A2
E7
06
28
3E
64
12
60
6D
A1
A0
FB
F8
8F
E2
3C
E6
BE
CB
A8
26
6C
72
EE
84
B2
6D
E0
B9
E8
84
80
81
6E
68
5F
7A
9F
A7
EF
0F
A5
5B
A4
BF
E7
14
10
EC
B7
B7
3E
A9
ED
82
57
2D
C4
42
6D
70
10
99
41
87
55
E6
99
5A
26
9B
B6
CD
28
B0
1D
C1
2F
F2
27
37
D1
61
B9
52
9B
EF
01
87
4C
64
AB
C9
B1
86
9D
3D
E9
31
0A
AE
CA
19
4B
00
25
00
C5
E3
60
A6
4B
48
C5
70
22
65
BF
8E
83
95
64
79
B8
B7
06
68
6F
98
F5
4F
87
F0
2B
7E
F3
C6
4B
ED
B1
A6
06
62
84
81
C1
68
DA
69
3B
29
68
82
00
14
41
91
3D
F4
AD
B9
56
39
1F
8B
58
DA
A5
7F
11
C4
B6
95
6B
12
C6
9B
86
FE
95
25
72
85
D4
E5
35
8B
D1
B2
42
7E
C5
66
5C
8E
21
25
89
8E
97
62
BC
EE
BD
03
3A
96
E8
00
BA
96
F1
9F
EA
80
09
9D
44
0C
EE
1D
BE
21
9F
07
61
B2
39
C5
07
E0
0F
81
CD
F1
AF
DD
E7
43
E2
CD
36
45
DA
F1
85
A0
C7
8C
80
29
1B
AA
37
E0
06
45
E0
53
65
7B
67
55
42
C9
CA
17
2F
5A
71
2C
0C
45
57
44
AD
7D
89
F8
A7
BB
6B
EC
BA
30
F3
E5
39
9C
16
3A
32
59
8F
E0
84
2B
64
4B
CA
B7
8F
DA
B6
E7
37
08
A9
37
6B
62
5D
33
5E
E7
99
43
05
94
55
FD
1D
FA
D3
BF
BE
19
DF
01
E4
A7
86
2D
80
A5
73
43
32
7D
F2
3E
69
0B
2A
33
58
FF
7D
04
7E
12
95
03
2D
4D
55
B8
78
76
7C
BB
94
ED
2E
9E
62
5A
84
B1
A5
3E
C3
B1
44
83
D7
CA
3E
2F
DE
36
F0
FE
B6
41
31
E6
F7
AF
6A
3A
74
30
F9
88
C3
29
4F
F5
93
88
1B
C5
63
55
C5
E0
66
51
9F
B1
46
EA
DB
0A
C3
86
8A
B5
85
C6
A9
33
E4
C7
96
9C
F9
52
1D
7F
D7
C4
08
4D
6F
16
DB
34
AE
5A
D7
14
CB
9D
3A
25
BC
B1
9B
E6
BE
41
D7
60
F8
F0
4E
9D
F9
87
66
DD
2B
A0
71
06
1A
F1
A0
34
FE
25
2E
0B
97
92
61
62
01
AE
FE
69
80
EC
95
03
DB
1A
9C
30
9E
64
A1
A0
42
DF
29
50
23
A2
B3
DC
43
84
2E
F9
D5
E4
49
95
98
62
32
56
86
96
F5
FB
97
0E
FB
FF
69
9D
FB
0A
7B
61
AC
F5
5F
B7
5D
8D
38
E7
77
D0
D1
E1
4A
24
5F
05
F5
F7
92
16
A1
8A
82
79
94
6A
3C
56
7A
60
60
EE
8C
AA
CE
65
B5
4C
14
65
98
BB
E2
E8
F5
EB
9C
6D
79
EF
BC
F4
14
83
1C
94
00
41
D1
1E
B9
0F
83
76
44
D7
7D
1E
F4
7A
29
2B
55
1A
53
EF
46
0E
C0
04
0C
B5
B7
4B
EC
9D
1C
9C
B3
8C
E7
3D
16
FB
B9
EB
94
94
1E
09
05
AE
3A
1B
93
74
8D
46
4B
FF
00
36
A7
F2
8A
B1
08
5C
C7
5E
B1
B4
10
6D
1B
BB
09
CF
8A
9D
51
84
73
3E
EE
44
5F
E2
D3
EA
4A
51
CE
E1
57
4F
5C
1D
