7B
85
38
8C
12
CA
56
51
4B
C1
4D
15
3D
1D
BC
FD
8C
F2
4D
EA
18
AE
1D
6C
E3
C2
7D
67
58
74
93
21
5B
F6
C7
64
FE
B1
23
F8
29
60
81
4D
74
93
F0
FB
26
0F
EE
75
9D
07
E2
2F
84
4D
73
40
50
C8
63
DD
91
51
F6
5F
6A
C8
F2
63
6E
54
C9
CC
14
5D
A1
61
D5
C4
91
D5
E6
26
40
43
31
E7
DE
4D
F9
21
72
0B
78
54
11
78
85
3C
9C
44
31
A7
B2
DF
CF
52
C4
0D
C1
FF
7B
0D
72
A5
A3
EC
00
01
9F
E3
B8
86
66
A9
1D
77
1C
38
B9
B3
F9
E2
6A
BF
B4
AD
B3
5C
A0
B7
A4
1B
22
95
2F
04
9C
21
56
86
8D
8D
80
F3
C9
F0
12
08
FF
DB
2D
64
5F
E6
C2
A1
00
1A
81
83
1B
59
37
D4
D6
58
E4
72
8D
1C
90
EE
CA
89
5B
7C
43
B4
51
A0
B0
CF
E0
E2
75
BA
4E
D0
68
37
95
96
96
E5
68
CF
8C
CD
1A
D9
7A
0D
36
B5
4E
66
E4
B3
46
24
9F
A8
5C
30
3B
D5
26
99
6C
EF
4C
C2
D2
67
7F
9E
9B
26
45
17
9B
A4
9A
08
77
CB
C7
83
C9
56
9D
65
D3
29
5A
10
98
9F
8B
95
54
33
3E
5B
CD
C1
E7
BC
55
2B
E0
99
74
40
EF
50
99
96
5D
8E
6B
19
E1
7B
82
AE
71
C8
C3
AF
97
B9
85
F1
F4
4B
56
95
04
04
04
B3
11
90
F1
DA
14
4A
82
8D
D5
3F
89
E1
35
A4
AA
D2
25
D1
92
8E
9A
2F
0D
D1
49
1C
94
70
7E
4D
7B
9D
56
D4
2A
73
6D
7C
1B
80
4C
9A
94
BC
09
6C
A3
4D
D9
2F
17
99
24
1B
B5
D4
C2
8A
A5
30
30
F0
10
D8
51
48
95
C4
56
0B
52
C1
CE
52
2C
24
EF
BF
F5
BD
FD
59
49
C3
48
12
BC
B0
35
10
8A
B2
A0
77
3C
FC
67
FC
25
C1
E7
2C
41
A7
12
08
20
FC
1E
24
2A
65
99
A9
9E
D9
3A
20
6F
C6
08
5F
22
D3
E9
73
24
EE
60
A5
AE
D1
F6
83
EE
15
33
5B
63
7C
25
22
16
EC
7A
AC
A3
AD
B9
FA
A7
2D
AF
BA
E6
F1
FC
41
D9
0E
C8
B0
58
A0
76
75
D0
9C
2C
1D
0E
71
5D
37
A4
27
2A
A8
EC
B6
71
7E
83
43
AD
47
95
4D
8A
C1
D0
86
5F
07
15
F1
66
85
D0
57
32
6A
CD
48
20
49
4D
AE
FC
6E
90
EB
96
3F
47
B9
98
77
61
86
49
C2
59
5B
6F
B4
6C
DB
44
1E
5D
63
10
4F
D5
1F
B6
5E
4F
39
B6
50
5D
92
C7
26
4F
5A
80
0F
25
B4
0A
42
F5
83
D3
AF
97
3F
16
27
E3
0C
5D
91
E2
85
03
E3
D9
3B
53
86
CA
3E
BD
0A
F9
32
B2
05
69
DF
C8
AE
00
8B
7A
B7
4A
04
B5
4E
57
39
38
1C
C9
86
34
8F
8D
C8
14
CA
CD
8A
C7
EE
C6
C4
08
2B
96
B7
4C
4E
AA
2C
6F
58
95
D9
72
0C
3B
AF
E2
C2
E3
F0
F5
AC
9A
81
48
F4
B7
6B
6E
C9
81
4B
16
5F
A6
DF
36
F5
B2
92
53
D4
6D
A3
65
28
12
C3
D7
30
3D
48
63
64
46
55
A3
CE
CB
96
19
D8
C2
87
51
A8
BE
1F
8F
CE
6E
A3
57
31
84
9C
F2
9F
47
E6
70
4D
4D
56
F5
44
BC
BC
BB
21
63
89
B6
48
46
20
0A
62
06
A9
BE
1F
31
51
22
34
2D
9A
FE
EB
DF
0C
DD
A4
47
3D
45
2C
F9
E2
97
FE
4B
B2
A8
92
49
08
13
03
FE
0D
98
95
8D
B8
79
8A
48
76
9E
5E
65
D0
DB
92
5D
A6
3E
5A
44
96
09
EA
40
9C
28
AB
C0
90
89
81
B8
7B
67
63
3D
04
30
8B
13
3E
4F
41
F0
3C
BE
78
CA
7E
2D
66
99
E9
D6
44
2B
F1
C2
CE
C2
EC
57
0E
C5
21
6B
F7
3D
CA
9D
68
6A
A2
CD
A2
7C
A2
76
0D
2C
C9
37
C8
0A
13
ED
8C
C7
35
67
88
DC
CB
AA
4E
C9
68
F4
9F
A1
2A
9A
88
57
3F
F3
FC
2D
49
61
22
FC
37
3C
70
DA
EC
71
C8
8E
3E
D7
5C
3A
55
47
2E
B1
81
8D
EF
88
2B
D7
CC
19
79
CD
90
02
E1
48
A4
63
03
DD
20
2E
6A
40
AB
04
38
BD
7F
3D
2E
0F
D5
D3
B7
54
A7
53
22
E6
92
84
D6
97
D6
89
01
4C
77
4F
F1
BC
EF
3E
E8
FA
A2
18
2F
42
51
2B
F0
46
4C
98
A8
CF
27
9D
AF
BE
2E
0D
6F
E6
12
55
B3
D8
9D
AA
CE
04
BD
9B
7C
DD
3B
DD
7D
8F
CB
12
51
75
14
65
AD
CC
68
A9
51
24
00
13
5E
5B
65
E2
D1
BA
9B
D5
E0
48
F4
4E
C8
B5
5C
8A
A0
AB
EA
B5
73
97
C0
61
50
B7
3B
78
8F
0B
60
97
02
E3
C7
C5
B8
6A
7C
10
4B
69
9F
9B
B8
36
68
31
24
7B
27
DE
11
8C
A6
E3
58
55
5B
B6
EF
2B
5B
C8
DD
6E
2D
09
7A
B9
F6
94
58
8F
4B
39
54
A7
EF
A1
60
84
9D
5E
5B
18
D9
DC
65
11
60
6A
CC
98
EB
AA
15
E1
64
8A
D1
FA
72
20
53
26
8A
B9
80
53
89
2D
52
54
16
BC
C7
F9
BD
BD
D1
21
BD
80
9E
36
B2
94
6F
D6
66
3D
83
03
E4
BF
4D
FB
7A
56
78
61
B7
F8
B4
6B
F9
48
5F
75
FF
B7
6D
28
58
00
AD
37
59
14
AD
F1
A5
15
57
3F
D5
B5
29
7B
64
40
CB
CE
73
D4
BD
F5
3E
A7
C2
AE
20
E6
A1
50
B0
24
CE
73
CD
42
EE
51
E4
6E
B2
C6
90
9E
E5
DF
A1
DA
50
CE
E6
D0
9A
EB
58
7C
39
D7
7E
56
78
B5
7B
CC
45
01
F1
2E
BB
94
C0
9A
79
51
E4
B2
C2
47
11
93
DF
92
93
ED
17
98
37
F4
A3
13
EF
0C
DA
6B
76
BE
F1
B5
52
2B
89
AF
9A
97
B9
9A
5D
7C
8E
D3
56
76
71
A4
0B
E8
58
63
4C
FA
DE
D5
96
82
27
98
0A
7D
02
D0
B8
EA
96
58
08
89
5A
05
C6
C0
8B
58
47
30
5C
5A
26
7B
3F
CF
87
B9
68
B4
71
CC
5C
6E
8E
4D
E8
46
2D
E0
95
78
7E
81
2D
81
A9
C1
F0
ED
68
66
2C
6F
28
68
2E
96
40
77
45
77
E7
1E
E9
93
66
43
DF
0A
3B
E1
C5
85
23
D2
56
99
4A
F9
A0
81
1D
24
FF
D4
D9
C8
14
C9
4C
17
22
5E
75
CC
2D
CF
FE
2B
99
24
06
DD
4D
95
53
52
34
9D
7E
28
9B
BB
EF
C9
A1
A4
15
B2
4A
6B
64
29
8D
3F
FC
6B
F5
62
70
CD
7A
8E
96
27
50
0C
CC
2F
1F
AC
41
70
AE
F8
17
53
CD
4F
90
03
16
AC
2E
E5
8F
AD
13
6B
98
4D
F9
3B
AD
C5
CC
71
CC
83
81
A6
4C
E2
EC
04
E1
57
0B
B7
44
09
7F
90
A6
2B
97
25
8E
78
E6
18
0D
D4
26
1F
DD
85
52
8E
46
07
3F
0C
6E
EA
A6
B9
2A
2A
4B
D9
6D
49
B5
B1
EB
9F
9B
0A
39
57
C7
0C
A3
8D
5F
60
5A
5D
90
B1
03
7B
81
64
4D
07
67
25
1F
83
A6
00
5C
8E
F7
26
37
CE
F4
1A
2C
80
9C
23
62
CC
C3
FF
3F
83
BA
9F
E8
BE
67
A8
CB
50
58
8E
F9
8E
BF
1E
CA
81
AB
7E
28
1F
F3
05
07
FF
41
58
67
D7
7F
F0
AB
BE
3E
B3
53
16
69
D1
08
F8
B6
95
08
F9
13
1E
20
7A
85
63
62
72
E4
48
37
EB
AE
2D
51
16
3F
C2
EB
F9
44
60
8B
5F
10
DA
EE
45
99
FC
2A
86
89
AA
A2
A5
71
00
E1
8C
D8
AB
63
D2
98
38
3C
19
68
08
18
77
4A
04
1C
77
C8
4E
CB
27
B7
71
0C
1E
D6
08
63
51
CE
AC
CA
53
74
DB
E2
89
42
CC
D4
48
97
17
78
F5
4C
EC
79
AE
88
FA
67
41
A9
C9
23
6F
F0
A9
DE
11
B2
95
BD
BA
B9
66
E0
3F
B4
3B
44
E3
EC
55
54
C5
AE
FE
92
52
38
FE
0B
8F
64
A4
AE
6B
4F
73
21
15
65
A6
62
27
12
53
BA
3B
41
C9
F7
F9
7F
C9
40
26
28
59
76
B9
DF
58
C0
4C
B1
B4
39
AC
53
CD
1A
6C
4B
34
2A
99
CF
9B
36
EE
01
11
05
BB
54
99
B9
F1
4B
65
01
68
2C
86
F6
03
48
AC
BF
8D
35
61
B8
D4
E3
EE
D3
82
9E
F0
40
95
F7
2C
2A
FC
3E
C6
5A
08
12
E0
6F
95
E0
22
C7
A6
78
B3
9F
98
1A
71
7C
5F
8C
E6
4D
49
08
14
0F
C9
17
F0
F4
9F
16
9B
B0
A3
60
5F
11
7C
D8
2B
50
2C
51
4F
FA
B6
A6
37
FD
3A
89
89
C0
2E
F5
96
CE
43
A9
AF
87
17
56
B3
99
17
B4
F1
12
72
36
8E
60
02
23
FF
9B
DD
8F
36
57
1D
D0
2A
1D
AF
89
31
EE
B4
AD
05
59
4D
97
FF
69
9A
E3
A0
FA
F7
58
3D
B0
07
73
36
76
82
01
A6
F5
D5
E4
8B
D5
F7
08
73
5F
A3
DD
E3
87
F0
A9
1E
98
3B
70
49
3D
F4
85
B4
9B
92
61
21
CB
2D
D2
A8
C4
CC
EE
09
A9
E7
4C
33
09
15
B7
CA
C9
C2
D0
B8
7C
A1
ED
4D
01
ED
6C
02
8A
06
CC
B8
39
C1
18
A0
EA
FA
9B
86
69
58
FA
03
87
A8
1D
A6
3B
0E
83
2F
7A
9E
4A
FD
80
25
A1
49
0E
06
F8
4E
5D
B9
AB
8F
A5
C5
51
A5
0C
C7
5C
03
8D
DF
17
03
04
5E
BF
77
37
22
B5
76
C8
C9
DE
E3
B3
E7
BB
9A
AF
1E
63
D0
71
15
A4
CF
43
5F
B4
38
BA
F8
9D
E9
17
0C
DC
04
84
B1
8D
0D
42
51
F1
17
09
A5
16
F2
49
1A
8B
43
C3
C0
BA
B3
89
91
26
2F
EB
1F
9A
D7
F4
ED
E0
AE
8A
56
A9
3B
7B
69
0A
C8
7B
18
E6
02
A6
AD
CE
76
A7
B1
C8
88
1C
30
AE
D1
0F
EA
C7
63
3A
9C
E7
52
EA
5B
ED
17
25
C0
E5
83
60
6C
FD
88
81
9B
0D
E0
F1
CE
94
00
AE
04
9C
73
AA
DF
1B
F2
77
EA
1F
A2
89
89
75
C9
84
16
14
8B
3A
A0
C9
91
4A
C2
72
CD
01
19
07
09
27
FC
18
C9
2C
90
0E
91
CF
57
BA
97
40
31
11
80
7F
0C
F8
DD
28
25
BB
4E
30
D0
91
C7
74
4C
80
F9
06
34
3C
62
18
70
5E
D1
5F
DC
D7
E8
B7
09
1B
8F
FB
64
DA
D4
18
74
BB
8E
DC
97
BB
BD
5A
2E
52
84
4D
79
9D
2C
47
EC
43
75
A5
27
DE
33
64
FE
A6
C6
7B
CD
29
6F
56
1B
8F
86
58
7D
EE
9A
F1
C6
5C
D8
E7
7B
F2
D5
85
38
A4
6F
E4
3A
DF
0C
C6
6E
45
10
63
2B
40
E8
FE
79
CB
2B
94
B1
DB
8C
A5
B4
3A
D9
37
65
7F
48
96
A9
28
04
59
4D
98
E6
F2
4D
C8
20
9A
31
D7
83
69
38
B5
DB
BD
92
07
