4C
9E
10
11
24
5B
62
E8
50
AE
A1
FF
94
3D
D2
BA
AB
6B
5A
06
7B
56
47
BC
12
8E
D2
D5
C6
13
7C
14
65
AE
88
5D
87
DF
05
5C
4C
1C
74
D7
E4
18
BE
DB
C1
9B
FB
8D
28
ED
8B
3B
FD
4D
D1
E6
CA
CA
91
1D
D7
FB
1A
ED
C5
AF
7B
53
3C
42
54
02
19
9E
6E
38
46
36
4E
13
F8
AF
DF
EC
66
82
17
40
D2
0F
33
DE
45
41
58
AB
6A
3D
EB
7F
9C
CE
65
E3
6A
3B
B4
0F
66
C1
BE
75
C1
8E
ED
B6
12
97
62
9B
43
E9
97
9F
B9
86
41
30
45
45
76
F8
70
4E
12
CE
38
8F
17
8F
90
47
48
03
CA
6F
A1
AA
13
CC
A8
CB
2F
B2
BA
CE
C8
43
26
7A
81
1C
39
82
24
6D
81
21
80
BF
01
0E
83
0C
4E
3C
63
99
14
89
35
94
B8
EE
79
43
8D
EF
18
63
08
DC
82
2D
FD
98
08
79
B4
B5
D5
A3
36
CF
D6
1C
73
7B
CB
CD
D6
CC
C9
ED
33
85
21
03
A0
EE
2A
A0
A9
F9
49
B6
2D
C5
5D
BB
3C
F7
15
4D
69
BF
45
DF
1B
37
F1
26
EE
3B
81
8C
A4
CF
5D
41
57
0F
C1
7E
7E
32
1F
66
81
84
69
64
AA
36
8F
EB
DA
1F
CB
6E
14
AD
00
78
52
F6
F4
26
AE
67
47
82
38
4A
