20
97
6F
AA
8C
D4
06
EE
91
EC
50
86
A8
2D
A7
F2
39
11
AE
A3
B7
F0
BD
11
97
16
87
56
C8
82
D7
74
7F
68
28
E8
1E
95
14
9C
36
DF
5D
96
FC
DC
80
41
E8
EF
DC
15
09
2F
36
68
BB
5A
26
73
81
89
7C
AD
E5
8C
A0
C1
0E
41
0B
3A
02
67
4C
CB
2A
73
1B
9A
9E
E9
9D
7E
C5
F0
8B
B2
42
2D
0E
E5
37
C4
2A
17
3E
EB
85
44
CA
14
5E
7F
0E
FF
1C
69
6C
36
59
43
73
72
0A
E6
5B
62
71
B9
89
14
71
E5
A5
B5
86
30
2E
DF
8A
AF
38
B4
69
E4
31
26
E6
DB
F1
2B
52
6E
