73
7E
DB
8C
A6
93
34
8F
60
E1
D7
BE
02
07
54
F5
8C
DA
FF
16
6E
89
F8
B6
01
CB
51
FB
AB
06
26
A7
A6
91
C4
86
0C
15
6E
A6
19
B4
E8
DA
99
26
F4
91
12
82
08
D9
34
45
5F
BE
20
F8
3B
40
F5
21
33
0C
75
64
52
EC
2E
FE
44
54
01
8F
87
F6
26
1B
BD
9A
5C
D1
F8
26
CE
98
94
15
82
0D
3E
AE
3C
AA
87
20
5D
4B
C5
8F
04
5B
DB
D9
80
03
C1
1C
8A
94
5E
A1
8D
F3
52
98
45
E2
79
61
FF
D4
53
11
2D
7B
59
98
8A
03
7C
FE
4A
F5
2D
8D
DE
28
9D
3E
F7
A6
64
EC
E7
16
DE
FA
91
25
13
00
D5
05
C8
C1
25
2B
3F
BC
68
3E
7C
FB
CC
E2
1A
E5
C2
F1
5B
11
F0
93
00
E8
C9
7C
77
71
AF
56
3A
D5
3A
76
A2
66
F8
18
C9
86
50
1C
74
32
2F
CC
8A
E9
11
C7
4F
98
99
E4
16
83
B0
6B
28
81
66
37
2C
7B
47
FF
07
A7
4D
84
BC
A5
5A
C8
7C
21
14
8B
1A
60
69
5B
B3
C8
70
C3
20
58
2C
F6
4D
EE
8F
EC
3C
51
7F
EB
4C
37
5C
DF
98
C0
A6
1A
54
58
B1
56
D6
A1
E7
6C
A6
7E
81
21
6D
E7
BD
3F
0B
4D
69
5E
53
81
19
09
D5
18
82
88
7F
87
09
FC
05
C3
C1
27
80
A6
D7
A3
9A
EC
DC
84
BA
94
B5
3E
F9
B8
B6
0A
72
F9
0F
D6
43
B8
10
AF
D8
09
1D
B9
B5
4B
42
BB
E6
A8
3B
10
1D
EC
E6
26
EF
87
EE
24
DD
C5
F2
90
31
C2
43
C5
2F
BE
96
19
CC
89
C9
CA
50
EB
80
35
DF
66
D9
A2
42
E7
F6
B8
77
D8
72
D8
55
D6
39
77
9E
EB
E9
0A
CB
3E
D3
73
C3
B7
17
0D
E5
E7
27
92
97
22
C4
FF
C8
55
3C
4A
A9
36
01
38
F3
0B
16
FA
E8
89
D3
2C
6F
04
BC
1A
64
9A
73
19
A7
00
D6
58
4E
1E
DF
09
A3
5D
3F
36
2C
AC
D3
C1
1F
32
5E
DF
87
2E
96
C0
D9
7F
CE
4B
E3
91
79
2E
C9
70
37
05
92
2F
D8
F7
38
04
90
5E
29
8A
A2
8A
5B
AE
F9
6D
19
FB
79
9E
83
94
C5
4C
BE
68
F6
73
61
78
76
09
22
E8
BD
1D
C4
2E
84
BB
C8
4C
D3
56
61
FC
EB
35
0F
37
F8
DA
2E
D5
3F
1F
CE
01
EE
C6
DC
B9
87
0C
5A
AB
5D
60
55
25
15
F1
A3
EF
50
58
A1
B1
53
57
1E
3F
A3
BB
F6
4A
C6
D0
AC
67
8D
F4
43
94
A4
BE
4A
F7
C8
66
A9
FD
3E
89
90
E8
A6
0D
FC
AA
9E
85
A6
48
24
E2
DC
C3
7E
84
06
4F
A6
72
BC
19
7E
83
77
D1
6A
DE
B6
75
85
9B
86
24
60
CD
4F
27
F6
15
18
90
B9
A8
7C
1B
61
F1
FB
2B
FB
BF
17
4B
05
6C
1F
61
C0
05
5E
51
7A
8F
B4
B9
3B
78
23
41
52
29
7F
19
6F
C7
92
55
0A
82
70
D0
27
EB
3C
B2
FF
69
3E
E4
1B
01
AC
A3
F8
65
26
DD
94
26
3A
EF
15
3C
B0
16
FB
F3
4A
4E
E3
84
CB
87
76
05
04
70
AD
4D
5A
2E
1C
4F
0E
43
FA
05
D6
5E
14
7D
16
E2
AF
CE
F8
EB
EB
C0
6A
1C
51
A0
45
F0
9A
40
B4
62
A9
FE
4E
24
5A
5C
F4
2A
08
7C
55
3D
3C
A2
2C
0D
55
C9
DE
9B
D4
F4
2F
0B
D7
22
05
D9
17
D1
16
5A
65
26
E3
EF
F5
DC
3F
A9
EE
B2
96
F3
5B
A9
50
51
60
56
90
5C
0B
16
69
21
EC
44
79
E8
5F
DC
FA
F6
76
FC
AE
F4
F5
84
CA
DA
EE
61
3A
9B
FE
BD
05
9C
7F
3A
63
64
7E
91
ED
D3
9C
E6
0A
CA
2F
E5
57
D5
B3
87
13
E9
2E
5E
1B
E1
3E
6B
C5
97
FF
21
1B
5E
38
2F
87
4A
CC
1A
A5
94
57
BB
26
6D
73
E1
54
F1
E2
0E
5D
17
F3
71
C1
59
61
BE
DF
A7
57
F6
90
7E
57
A1
6E
23
22
F6
99
F6
A5
88
2A
72
DF
B6
D2
E5
0B
57
0A
D2
87
E7
4C
BE
C1
04
EB
1B
68
55
7A
68
83
F2
0E
29
A5
FC
28
99
45
9F
70
BC
13
C8
ED
B4
D5
6C
76
FB
18
67
25
2E
D6
E9
77
33
7F
8C
D5
F5
36
AB
12
9A
15
B5
BF
FA
67
DC
F3
84
65
64
AC
1E
94
0D
B0
F5
0E
71
AF
87
89
04
9B
95
4E
9E
41
CF
AD
27
32
D8
F8
CF
B2
34
5E
8A
23
96
FE
40
8D
2D
1C
A2
39
50
1D
5D
25
D7
6C
7F
15
62
B1
77
23
87
68
67
4F
33
8C
F7
A0
32
A5
AB
79
E6
06
8E
86
97
35
51
C0
6C
E8
B8
74
36
2C
C5
10
5C
73
66
BF
25
5A
5C
31
6C
68
DE
0E
B7
B8
29
98
78
61
1C
AC
82
6E
9F
2B
82
78
C2
FB
F4
25
35
09
FD
CD
9C
E6
34
12
2D
0C
C9
3E
D8
11
84
EA
A1
C3
46
ED
A9
3F
22
82
1D
DF
E0
1A
D8
5D
32
13
17
17
F3
E1
53
90
8D
AC
5C
CE
26
11
60
6C
31
96
81
7A
55
2E
B3
82
74
37
41
25
AC
B8
41
C6
24
AB
F9
D5
DF
85
4E
B1
9B
4E
45
C5
83
BC
FA
D6
DA
5F
C3
DC
1A
51
EE
0B
29
89
9B
C9
C7
AB
5F
27
DF
E7
F4
E8
69
7F
B2
BC
72
C7
20
F6
F6
4A
55
88
AC
A9
AA
A3
30
FE
8E
47
E3
56
97
2D
D0
FD
30
56
FD
EC
23
05
D3
33
02
BF
65
03
90
41
A3
87
1B
F9
C8
98
4B
CE
67
49
8A
AD
6A
97
E5
72
88
A3
21
78
F2
D1
91
58
3E
DE
6A
F8
0C
86
BB
B1
F0
1F
2A
59
29
43
32
95
91
75
6D
55
46
5B
78
5A
3C
D4
A5
73
8F
75
43
EF
AC
2C
39
C8
30
7F
F3
A2
EE
BF
AC
5F
11
4F
C5
0D
AA
8A
6A
BC
F5
8B
BF
D9
04
08
05
98
46
76
02
E4
4F
BD
EE
7C
D0
C5
0D
46
ED
01
7E
A6
64
FA
B3
27
73
DF
53
7B
63
CF
32
8D
3E
21
E6
CA
9C
2F
DE
E5
86
F4
AE
88
41
31
5D
DA
64
FA
95
24
50
DF
42
5E
5A
8B
92
F9
7F
84
37
D8
8F
33
F8
2D
1C
B0
A5
58
6A
79
37
D2
0E
58
A0
79
00
79
45
A3
F6
93
84
9D
33
FE
91
D6
96
A4
66
A3
95
FC
C1
B5
F8
C1
B4
FC
36
44
01
53
9E
E8
72
59
CF
7E
6A
96
EE
4C
A2
F9
C2
85
BA
FD
37
D7
E1
E3
4D
A4
F2
4C
45
3B
40
56
FD
E0
A7
53
58
31
30
AB
21
2D
E6
74
49
DF
65
B2
29
CA
CA
8D
4D
EA
81
CB
5D
0E
83
E7
7D
6C
B4
C2
9A
A8
80
12
C5
D2
E4
F2
5C
1A
81
1F
0E
90
A6
57
D2
0C
CF
65
68
B0
49
12
D3
34
AD
04
71
8C
CE
41
C6
BD
AF
95
B9
23
F2
3E
3F
C8
98
2B
5A
EA
92
8E
14
B4
1F
50
2D
23
03
B6
A9
15
31
E4
2C
66
34
46
A1
63
E6
6A
4F
8F
56
7C
92
64
92
16
07
B9
BE
0C
D7
65
CD
A0
9B
8B
E4
22
4F
28
26
FD
1F
1F
45
70
2D
64
3C
9E
6C
CC
D3
27
75
48
81
8D
59
C5
0B
1F
32
FF
AE
55
A0
1C
D1
CC
D2
C4
83
0E
A5
7F
18
18
D5
D6
55
AC
63
4F
06
07
4F
80
D5
00
F2
C5
FA
00
8B
E2
AC
15
B8
68
39
AF
E9
BA
B2
6B
3C
20
55
AF
E4
5B
6C
A0
CB
23
5E
AE
9E
1C
7F
90
DB
46
16
00
BE
26
67
F4
D5
5E
6A
B0
64
F4
5B
E2
70
A2
ED
FC
00
9B
ED
C4
24
A3
D6
54
D4
89
4A
9C
CE
04
49
1B
1A
DF
A7
18
44
C5
99
82
B5
C2
90
AA
E4
9C
EB
93
7F
0D
8F
94
C3
0B
38
75
3F
4D
94
B2
3E
EC
25
C8
49
89
D4
D4
3D
D6
49
21
5C
13
91
EF
54
3F
BF
87
A7
BD
D3
2E
B3
24
F9
C1
C0
C4
F9
D0
6F
ED
C8
80
F1
21
8D
D8
BC
7B
FF
26
43
EC
CE
66
F2
52
AD
E1
5C
18
62
82
1B
78
9D
3E
F9
FD
62
EF
87
41
F6
DB
C7
16
E6
41
B8
AB
D3
D7
8E
43
AF
C3
A4
5C
9D
AA
D9
DE
A8
79
75
BF
B1
9D
45
26
D1
0B
30
7F
FD
A5
E8
8A
7E
16
DE
4B
73
54
00
12
53
DE
AE
A5
61
2C
00
A9
03
C8
69
0D
0F
8A
49
B9
14
4C
BE
61
A7
BD
3A
3A
B4
E7
24
6F
A9
5C
83
AA
E6
AB
1F
89
1E
FF
FE
00
C0
25
FF
47
A3
63
10
FC
F5
5E
EA
67
A6
C9
7E
AE
E8
5B
80
70
67
8C
8B
EC
36
5B
EF
D4
3A
0E
3F
BF
48
CA
24
38
15
8F
CC
A7
04
78
93
D3
3F
73
48
C6
7A
6B
90
15
38
DD
C9
B4
EF
F2
F5
09
89
59
D2
D6
14
65
02
E7
D9
F8
07
CD
51
AA
7C
FE
48
4D
F6
6A
29
D8
65
D6
54
FE
2D
70
45
80
D8
BE
D8
68
7B
A5
28
04
45
40
1D
57
22
4C
8F
B6
C9
D6
E8
4B
26
2A
18
57
43
60
87
7F
29
DC
7A
81
08
92
21
7F
8F
4D
2B
23
E0
82
C1
4E
C6
B0
FE
A4
DC
54
8E
2D
79
0B
9F
C6
55
C3
58
3E
1C
E8
BF
32
F0
B5
69
1A
D6
80
01
6E
AB
9D
42
88
51
9E
08
51
F9
43
F3
24
46
A3
C7
AC
A1
AA
05
03
15
04
22
AC
70
B8
77
86
D4
E3
68
65
2D
48
51
16
9C
A0
47
BA
C9
CA
2E
0B
ED
73
6F
96
DC
6B
E6
D8
36
29
F0
2A
86
D2
B8
C0
82
7D
D9
DA
79
AA
E7
0D
E6
56
26
BB
A9
FB
23
DC
60
6F
F6
63
76
8F
B6
A8
2F
23
1C
DE
7D
49
86
65
0E
2E
F8
99
69
1D
59
10
68
C5
D5
46
DC
E3
E3
FD
E2
E3
4D
34
DF
E1
75
58
7D
56
5A
CC
5A
9C
C1
28
BC
96
08
34
5B
1A
E7
69
14
C3
36
86
14
F8
F4
D0
90
AD
44
C2
BC
3B
51
34
16
CD
C8
47
2F
92
87
D7
43
DD
26
7C
B9
29
71
B7
7E
8D
7A
C3
D9
09
BA
17
82
20
54
B1
89
C4
CF
92
92
06
7E
A1
CA
AE
F6
94
A3
D7
E9
28
BF
53
93
31
1E
B1
92
37
2B
60
84
61
3D
84
BA
BF
FA
22
22
37
B3
77
CD
8F
15
3E
96
E4
F2
2D
32
D7
F2
5B
FA
96
A2
5E
44
85
08
89
FB
2C
19
7C
E9
F6
11
B1
E7
02
93
05
7E
FF
BA
21
56
10
7A
3B
75
D1
3E
46
71
D0
EF
C8
41
46
0A
41
55
B7
6E
5B
5F
13
A9
F9
E1
E0
9B
AC
63
9E
88
83
42
82
B1
D3
8B
75
7A
62
D7
81
44
2D
42
8F
4A
98
C1
18
7C
76
64
E9
96
83
73
EC
48
C6
78
42
F2
D0
82
83
B4
32
BA
35
81
0C
C9
28
2C
DD
E5
8A
55
04
33
A2
62
8A
12
CD
18
3A
1A
77
09
9E
02
5B
9D
2E
F5
35
A6
AB
E7
82
EC
CA
C9
58
13
12
E6
79
8E
DA
8D
6A
F3
57
96
2C
6C
1A
23
F9
62
3A
4B
C4
71
33
2A
04
5D
90
F9
C5
3E
E8
0C
8F
B6
EA
0C
66
95
A3
29
E4
71
EF
DB
BD
F7
3A
84
15
2B
7B
C4
88
B7
22
5C
D0
A8
93
EF
83
BF
FE
18
A4
B4
2D
84
E3
01
50
4F
F7
5E
46
45
FB
13
B2
BC
B9
FF
80
7D
60
A3
BB
3C
B1
94
1D
7E
7F
BB
8A
F9
55
3A
98
85
0D
BF
8F
04
F6
0A
4E
EC
B7
57
0A
DA
9E
4D
4C
61
26
83
9A
59
CE
24
CA
20
07
BF
E8
46
B4
F9
A8
29
55
FF
15
91
2D
C7
73
41
D7
D2
A3
A0
D4
54
FC
F0
FA
0B
0A
01
0B
99
FE
84
7E
28
85
6D
D6
5E
F9
35
24
AD
AE
62
D9
DA
C2
F4
DB
E3
4B
9D
64
9A
FE
EF
6A
AE
77
34
F2
C0
EE
1A
D0
3F
DD
3C
C8
07
29
65
32
4B
D7
96
DB
3E
5C
CA
84
C9
BB
D2
37
DD
84
50
D0
9D
5D
C2
B0
EA
A1
34
57
F6
82
99
D3
62
4D
42
26
EC
FB
24
A8
66
69
FA
A7
02
47
96
FE
A6
99
0C
2B
C3
9B
49
7D
4F
CF
8B
36
19
DA
5F
F6
F3
22
B7
EE
03
35
B2
70
15
D1
01
F2
8B
0B
64
8C
A1
09
B6
A8
26
2E
46
F2
7F
EC
D3
6B
C3
CB
E3
88
91
FB
AE
14
0E
F6
9A
34
40
39
89
1F
D0
B9
79
2A
00
02
2D
2D
22
46
ED
A0
95
8A
3B
7B
70
1F
05
D9
14
7E
11
75
C3
1F
51
35
F1
6B
89
DA
93
64
72
2B
C2
C2
D4
B3
ED
07
E2
08
F9
72
39
71
8E
74
26
61
36
4B
91
02
F3
A7
F5
4C
80
DC
96
71
52
A3
67
04
E7
82
C7
8B
65
F9
E7
1D
0E
38
0F
7E
39
95
D2
7E
B1
D9
C5
DC
BE
A5
A5
BA
6C
F4
8A
8A
82
6A
25
8C
BF
12
B4
ED
ED
AF
72
22
44
35
31
18
E3
51
5D
F4
28
8B
CF
A3
13
35
68
86
8C
24
D0
50
B4
E2
5F
F2
5E
42
8D
83
E0
8D
36
9E
DA
2E
73
6C
F9
FA
3E
93
8A
8B
EE
CE
9E
92
C8
E5
2A
81
F0
A2
5F
EB
C1
F6
29
4B
A1
5B
B4
44
5C
53
C6
71
79
B7
10
62
72
D1
36
EC
DB
EF
4A
2E
B4
C8
90
9E
12
D8
CC
7E
8B
20
EE
C0
12
29
55
7A
0D
02
79
C2
43
0A
0D
9D
B9
14
10
93
4D
B2
2D
20
78
AE
D8
D9
9B
69
15
DE
28
28
67
1F
49
D4
1A
66
06
BF
8C
A4
1D
1E
44
29
70
83
16
02
32
A6
F2
97
8E
ED
18
B8
BE
19
16
C3
87
6D
F2
28
F1
82
03
48
67
FA
22
2D
42
C4
DF
6D
27
BE
AB
4C
8E
38
BB
47
60
67
3A
AD
ED
2D
41
9A
01
1B
8E
3A
9A
85
65
59
2F
B1
47
B1
17
4E
2F
AE
43
F4
96
20
A4
41
CD
D7
6A
E6
10
E6
3C
BD
90
47
93
75
13
48
64
01
C1
79
BB
74
61
0C
8B
FE
9D
72
9E
29
D3
FF
71
4D
CA
23
CF
55
DD
D5
19
CC
7B
77
14
B2
A7
98
5B
59
B1
56
AB
76
D5
18
1F
CA
D3
B3
9B
1A
E4
63
B1
4C
05
E6
79
C4
5E
3E
E1
58
91
AB
DC
36
6F
FB
D8
01
95
40
C2
06
7F
3B
6F
1C
CB
65
EF
DB
F5
F9
8B
22
45
52
7F
5F
3C
AC
A7
68
01
B1
B8
75
C0
4F
B1
3B
DB
B4
28
D3
A4
38
EC
0C
05
ED
D7
8C
CE
E2
E5
DA
F6
C8
E1
C6
37
52
25
72
0B
D2
6B
92
9A
28
0E
2C
C0
ED
9F
5B
80
3A
B3
90
31
B1
B5
5A
CC
F9
05
C6
5D
C5
40
2C
00
AD
49
C9
C7
6B
F1
58
BD
C7
19
1C
10
D2
4C
A9
A4
52
D6
B1
DA
66
E3
41
BD
53
FE
D2
F4
46
8A
50
B9
3C
A0
FC
AE
CA
00
AE
AD
10
5A
90
C7
CE
C9
D7
CE
D6
67
09
94
79
22
1B
AE
9F
DB
D3
0E
3F
DE
28
E8
87
ED
60
90
72
D0
68
BE
13
D5
AA
CD
53
37
5E
40
1F
30
3C
7F
BA
A1
74
3C
70
64
83
56
2C
B3
20
A2
E9
C4
CB
46
80
1F
16
23
43
C0
05
9C
67
FD
B1
47
CE
C3
C5
46
61
20
BE
38
76
BE
5D
61
BD
29
DA
9C
93
16
06
40
37
DD
BD
68
13
D5
5B
0F
48
47
68
80
2C
76
A8
F0
56
38
F1
04
72
6B
C1
02
37
29
BF
8B
54
F2
E2
4E
6C
5A
F2
6C
70
6C
E9
C8
ED
D5
6F
D8
73
7D
FD
6F
AA
8D
E0
8B
13
3F
28
9A
D7
D9
43
E1
FA
40
7D
8D
5C
26
F6
24
53
DD
66
CC
72
22
FD
47
EB
AA
CB
99
40
4E
8E
23
29
67
C7
AC
38
4E
A6
E7
D0
F5
73
FD
51
A8
0A
91
C8
A7
C4
3E
1E
08
36
33
A9
2A
2D
0D
9F
E2
61
9F
18
DF
BD
E4
D5
2A
2C
AB
C1
36
01
FF
64
5E
4C
A4
40
2A
0C
9D
B0
1C
35
4D
C2
D8
D1
84
16
4E
AA
77
A5
6F
07
92
17
F8
AF
64
A7
A1
6A
9F
54
7B
97
0A
BF
DC
8A
6B
0B
86
CE
1D
27
88
B3
66
01
54
E3
E4
51
4D
FA
58
28
AA
70
A8
34
F9
BB
D4
00
E6
5C
83
29
50
FF
01
82
B1
E4
BE
05
B4
8E
45
37
EB
93
77
05
6E
7E
D2
3D
12
39
BB
97
7E
A3
80
48
D9
9B
85
83
DA
9A
31
FE
B1
2D
24
CE
67
AF
84
FD
DB
D7
19
D6
94
3D
AD
52
52
A9
1A
AE
8D
0A
FE
DB
BA
E1
AB
EF
CD
48
6E
63
33
25
DE
33
91
C1
AD
49
9B
FF
57
41
D3
54
86
00
F8
4F
D7
9A
48
06
A7
39
26
92
95
F0
0A
E3
F3
B8
A0
F1
A1
F7
20
B2
8A
EC
79
C4
E4
A4
D7
BA
19
86
AE
8C
04
99
07
8C
35
DB
22
DD
F4
A9
83
41
3A
57
92
23
1B
41
20
81
B7
9E
D5
57
72
AA
81
2D
9E
B1
A8
44
C6
D6
57
B3
47
B9
94
DB
74
2F
2E
D1
24
5C
3C
A3
C9
35
5C
04
A0
18
40
D5
37
56
F1
73
3F
05
21
88
8F
E0
FD
7B
FE
D6
9D
02
39
93
DD
59
44
CC
F3
CA
EB
7A
47
39
7F
DD
59
24
93
9B
B0
F3
00
B6
C9
4A
CA
59
21
48
1E
F5
4C
2D
F4
69
52
8A
BB
30
E4
9F
53
70
B3
1C
CE
48
56
D9
EE
33
29
B1
E3
B2
43
FD
AD
69
EA
ED
01
F1
55
7A
A9
0A
7D
2D
52
48
5A
63
92
92
B2
61
1C
C0
01
E7
B7
B7
CC
D0
8F
2D
18
20
D9
6D
07
75
C9
82
D7
61
22
E0
15
6C
81
B5
AE
6E
15
18
2F
31
EC
15
37
8B
26
1D
A7
07
CB
0B
34
E5
18
19
79
7F
5A
A7
B9
18
27
AD
CB
A2
67
7B
3B
82
D5
51
38
3E
DC
BB
20
17
52
64
88
D2
59
07
26
B6
E8
60
63
59
10
EB
1D
27
5C
FF
C0
47
1D
97
CB
8A
29
29
B9
C9
06
44
E8
D4
16
ED
9F
DA
7D
09
33
98
A1
D0
CC
89
0A
F6
EB
87
B6
C5
54
20
B0
57
0D
7A
BB
40
1E
D9
A2
47
C7
F5
E5
75
19
CF
AE
32
4A
D5
F2
78
61
13
0B
77
D3
9A
EB
6C
70
F7
7E
E9
B9
20
19
8A
84
1B
AD
8A
1F
BE
DE
C8
74
54
88
39
ED
FB
4C
C3
8A
96
16
56
82
21
E1
C8
9F
25
06
82
BE
78
71
18
98
B9
35
AD
EF
48
AC
EA
24
C6
52
17
50
81
28
A3
6F
6B
89
75
90
DF
1B
B5
24
30
DA
E0
2F
DF
78
32
DB
8E
70
15
38
83
06
A6
15
94
81
B6
E4
03
DA
B6
61
5A
15
00
63
0A
24
1B
F7
40
F7
19
E1
29
9D
42
A1
61
B8
BF
A5
5B
83
A3
2E
1C
D2
EC
F9
9C
9B
60
64
03
41
2A
D3
A3
7D
62
09
25
4F
A8
DF
CC
6F
BE
9C
27
E6
38
03
2F
F2
04
5D
2C
BA
20
75
C4
AE
60
70
BC
A3
9A
21
C2
8D
34
8B
49
25
45
C5
C9
2C
07
C2
C7
BD
D3
72
3D
64
40
B3
66
16
39
0A
CB
44
D0
06
E1
92
2D
43
01
06
BC
C0
CA
79
56
CA
2D
28
3D
14
4B
06
70
A5
35
BD
24
91
74
98
B5
9E
4A
13
17
1D
83
83
CA
8A
E3
C5
9F
53
BD
85
5B
3C
51
0C
0B
94
9D
DC
94
AD
44
4C
2E
51
25
6C
5F
24
8A
59
82
D5
70
78
E2
06
53
97
FA
9E
41
DB
34
AC
E9
8E
00
27
79
B0
BF
48
8F
3E
9F
00
56
AD
A2
B0
C5
B7
E3
43
FE
FA
31
B3
92
E7
9E
F4
A7
70
53
24
D6
14
EF
1D
72
D2
F9
22
17
D3
E3
3B
F9
8B
45
B4
D2
EF
24
AB
86
22
3D
45
89
C6
F1
2F
3E
3E
DB
30
15
99
33
DB
A5
EF
73
C4
A2
C9
1F
A3
BE
EF
3C
38
EC
A9
A4
A5
BD
46
CC
45
BE
60
E4
02
59
9B
71
86
87
FB
31
F5
0B
CD
B7
FE
DF
96
CB
73
52
EC
3E
79
90
40
C4
7B
87
56
75
8B
52
E2
03
BD
03
1E
BB
6A
DF
6B
65
BA
4F
1D
59
D0
ED
2B
FE
BC
19
38
5E
49
ED
97
43
5D
89
85
7D
C9
61
69
71
A2
C4
B9
4C
79
83
A1
96
1B
5A
6E
4C
46
68
79
56
A2
30
23
4D
96
CF
12
88
A5
85
2F
5C
D1
62
EB
CE
EE
82
1E
CD
F3
75
3D
C8
E3
5B
F1
17
0E
D8
09
B9
09
AD
05
3F
9E
87
4A
26
2A
59
84
16
B7
91
99
9B
33
B5
66
29
6B
F0
4F
87
A0
50
13
FD
5B
5F
9F
93
46
3E
7E
23
E0
8B
29
AF
79
37
4B
3F
1F
07
73
E8
B8
52
7C
AA
E2
C8
1F
9C
5A
DE
FE
35
32
AB
3C
43
55
02
B9
56
AB
D1
97
38
B5
92
3C
6B
EF
69
F5
EF
EF
B3
51
F0
DC
BB
2C
BC
90
F0
29
27
E9
29
26
4A
54
2E
91
9D
22
85
05
28
E2
20
4A
A4
62
3B
44
2D
7F
61
0A
36
4D
19
07
51
61
11
F9
C3
C2
38
04
23
88
85
E1
8B
44
B7
7D
E5
1E
78
03
1A
15
AD
A5
ED
83
47
BA
02
85
72
EF
0A
1C
64
D5
BA
06
99
81
8A
10
E6
42
52
1B
5D
44
DB
A2
B1
19
BC
AB
28
ED
82
A6
BB
6A
3C
80
6D
6D
11
42
C6
52
E9
AE
72
5F
B9
2D
01
70
D7
83
07
6C
68
7B
AE
58
36
D8
B6
1A
B6
53
82
17
66
E9
76
A1
8B
53
26
1D
F7
B8
9D
AC
93
51
08
84
FA
DC
D7
B1
14
52
CB
23
07
0F
0E
F9
55
65
64
A2
80
C9
BC
39
16
F2
B6
4D
6A
08
2C
C2
0C
4A
D6
09
BB
61
4A
02
A5
47
02
4B
54
2A
E4
12
AF
04
A6
FA
B5
C9
29
61
1E
5E
E1
17
79
D9
01
13
F4
27
0A
01
2B
CB
BF
38
