BE
37
E3
F4
E8
9B
9B
BE
D9
98
AD
7B
8F
ED
3A
BC
DA
61
BE
80
A4
10
B0
8B
9C
7D
1B
A9
6E
24
C5
CD
92
B9
8F
5E
2E
B9
E2
A5
79
25
76
D0
D9
3A
60
A2
BF
CF
79
AB
B0
AB
AD
61
4C
05
53
69
D4
24
4E
C3
E1
DC
F2
A3
94
1D
CD
28
9C
B4
0E
3D
DB
BA
6F
5D
2C
37
7A
27
D1
83
C2
AE
AC
73
C2
2B
2C
4D
83
A8
52
F3
D6
B3
18
CD
48
DF
7A
DF
A7
57
7C
DD
36
E3
9B
E8
C0
3A
1B
B6
F0
3C
EE
37
1F
60
29
AD
8A
2E
E2
6F
C1
69
FB
1A
21
90
7D
97
5A
6C
2C
BA
F1
2D
25
8F
FA
C6
F8
22
17
FD
3D
F5
15
59
74
1D
EA
2B
71
C1
82
1D
5A
BB
06
FA
4C
B4
94
68
DB
A9
EA
17
A3
A5
40
D0
32
80
C1
B7
C7
3F
78
2A
21
81
02
6E
CD
55
D4
5F
EE
6C
71
48
23
9F
2D
47
71
92
14
34
6A
00
4A
2F
91
A7
FB
16
D0
B0
F6
8A
D8
8D
21
BD
A9
67
C1
E1
CC
9E
F3
15
7F
BA
F5
3C
68
EB
2E
D2
99
97
E5
44
72
90
79
41
AE
57
CC
AC
06
A1
EC
34
71
40
00
56
1F
9B
8E
DC
E7
BD
14
A1
D9
D4
CD
90
14
88
29
CB
08
7A
5C
4F
54
CF
EB
7A
AD
B3
DA
4E
D4
7D
27
4D
67
03
BA
A9
55
6E
24
18
A4
E2
77
8C
6B
E2
7E
3A
DF
0F
55
8F
14
C9
5A
53
4A
16
47
2C
6D
6F
31
2F
09
0F
0D
60
E5
5A
31
B8
5E
31
16
B1
23
C8
D7
63
29
D5
67
89
9E
33
69
FF
5B
58
B7
35
1A
46
6A
53
0B
A3
1F
E5
30
C5
19
5E
01
81
73
C5
9F
7F
68
AC
63
3A
C3
ED
43
AF
00
1F
78
97
63
CB
B8
00
55
C5
5B
C6
A9
6D
2C
05
C7
90
4F
1E
FA
33
29
6F
9F
F3
A9
5A
6C
9F
5B
3C
92
14
CF
6F
C0
1E
73
E7
4C
3E
50
B0
97
A9
8E
93
B8
47
90
A9
1E
0F
25
C7
85
43
06
26
2A
20
22
EF
D2
1B
81
DA
ED
AA
00
4F
BD
94
35
1A
DE
70
45
BC
80
0B
FC
4C
C3
A4
FA
EE
D8
8F
68
DA
51
8F
08
56
06
38
91
EE
56
D7
99
FE
85
4A
2C
F5
8E
4C
4E
27
16
5A
C9
C6
41
30
39
C0
C7
13
0B
43
3B
59
79
ED
67
22
E0
5B
82
36
14
F1
DF
DB
10
F0
B1
19
05
9D
6C
6C
4E
03
21
B5
03
64
0C
5F
D3
B6
26
B5
2A
1D
4D
BD
C7
1F
A7
36
DE
16
1C
F0
F9
AD
BB
42
BC
9E
09
6B
E7
D9
94
5F
E9
99
C7
8A
65
69
5D
E7
0B
76
5B
50
BD
B5
67
8B
EE
B1
37
27
7D
CE
F8
4B
E9
64
4D
73
88
01
01
FB
0E
56
3F
A1
1A
E8
67
10
6F
6F
29
9F
80
5C
71
6A
12
7A
CB
AD
F3
C5
7F
1A
D1
20
8B
80
13
AD
0A
84
02
72
DC
8A
BD
97
31
A2
3A
1D
91
69
BC
EB
57
D5
22
70
6A
CE
55
7A
F0
61
48
3A
80
09
06
CD
B0
95
A3
1E
13
5D
83
0C
C3
96
E8
8E
7E
4A
F1
81
74
82
56
74
C0
57
66
EE
6D
3E
A3
9E
72
58
E2
EF
8C
B0
BD
AD
9C
A1
00
4C
1F
63
F3
82
8F
2A
32
7C
FD
77
51
09
8E
2C
44
72
14
EF
9C
3A
F7
7E
A0
F6
1D
BC
C4
C8
EE
4E
82
CC
5A
D4
B7
A1
70
54
D2
9F
8A
BF
CD
0D
C8
2D
CD
58
7B
AB
02
43
BA
5E
27
72
8D
13
AE
C7
E4
C9
58
02
27
E7
69
29
CA
31
38
2A
EF
2A
09
2B
81
27
2A
C8
CF
E2
FF
4D
DD
8D
C4
A1
9D
97
38
39
2A
C2
06
04
C7
CB
F9
3C
F9
FE
67
4A
A4
3A
A0
52
3B
6B
CE
0F
D7
A1
E0
19
87
F3
EE
FA
67
CA
B6
F3
03
F1
0D
99
22
49
A8
9A
2B
9D
7D
A8
F1
D8
11
DA
6A
58
3D
04
04
B7
F3
F6
B6
80
62
71
84
F4
F9
FB
FF
FD
2D
08
F8
5A
57
EB
95
35
87
BF
B0
0A
6F
ED
26
A2
1C
2F
49
47
A1
02
72
3D
CE
0F
FE
B5
D0
4B
49
DE
CE
36
58
13
87
47
99
32
2A
40
56
9F
A7
BE
D9
2C
43
CB
C9
FA
0F
EC
87
5F
E9
A9
DD
C4
94
AF
7C
33
10
34
5F
DE
9B
FE
7B
EA
21
35
E4
8E
17
C3
56
73
26
7B
48
A8
5B
4A
37
2D
4C
D1
50
50
FE
21
71
87
FC
D9
C9
CD
6E
89
D0
AD
2C
50
7D
6D
E3
2A
E9
0E
C6
38
BB
80
81
0B
6E
CA
98
BD
DA
2E
A3
17
11
0A
BF
BA
73
82
7A
98
52
26
E5
F9
F5
F8
79
F7
3A
6E
1D
33
A7
FA
E6
B3
B8
D6
0B
67
F5
DF
DF
94
48
2E
BF
4D
8F
18
C3
82
33
A4
A8
E5
A1
C4
4A
AF
4A
FC
2F
5D
5D
B1
64
B8
B7
CD
D6
F9
72
A0
08
A9
DE
4D
AD
8F
1F
41
1C
99
64
06
49
C9
43
B6
27
48
EA
30
88
E5
D2
68
DF
B4
B7
22
5E
4F
15
95
00
FD
6E
AF
6A
CA
3B
37
E6
D2
6C
22
88
6E
93
8C
C6
F9
27
38
DB
54
CD
88
59
78
42
13
94
8C
6B
7F
EA
B0
BB
68
F6
19
FA
CF
9D
2A
18
25
3B
DD
25
EC
4E
32
36
7A
D4
6B
FF
52
DD
FE
84
E0
39
90
22
48
B9
42
8D
7B
CB
E8
0B
B0
69
D0
D6
10
F0
3F
4F
AE
F1
83
84
6E
48
28
CE
AA
91
E2
14
95
1F
AF
72
AD
7D
FA
F2
1E
4C
AB
DE
1C
9F
10
17
52
0D
A2
7E
3D
D3
A6
5F
8F
DD
6E
EB
04
85
BE
49
B5
8A
C8
DA
90
33
5C
89
62
6A
A2
4E
32
BC
D8
B1
C6
3C
4B
D6
CD
A3
8A
C0
43
C1
C7
87
C5
C0
1C
15
70
74
94
A3
44
A1
DE
CF
82
5D
1E
99
F6
69
85
C4
A5
59
5E
BE
1D
3D
BA
04
84
40
5A
AF
EA
13
94
F3
0A
81
1B
29
0A
AE
38
CB
79
F9
6F
89
89
EE
27
A8
D8
C6
FB
FA
F2
E5
A4
E4
91
D8
AF
A2
D4
C0
EA
86
D4
D8
C7
B5
94
E4
CD
B7
C8
30
E2
E1
B5
98
5A
AA
9E
F9
67
D7
D8
9E
BB
81
66
01
49
8B
BB
FD
AC
68
3C
C0
5C
53
80
4E
1A
9B
5B
CE
84
65
2C
6C
06
84
46
69
03
47
BD
6C
9A
B2
13
E3
29
6A
1F
B2
5B
F8
75
77
50
F7
5E
53
26
AE
41
34
57
AD
68
5F
C6
A4
EA
94
BF
CE
D1
5D
D9
1F
5B
B1
61
38
17
93
B0
CB
6B
92
C9
C8
D0
28
58
77
F6
C0
6F
B3
DA
68
5B
71
FF
59
10
8A
2C
72
D4
3E
9C
A1
18
BC
51
FC
5E
98
4D
39
81
75
FB
F6
06
FA
AE
1B
F3
16
BA
66
89
DF
0A
07
F9
CE
41
7C
1D
96
FC
D1
20
01
1A
56
7A
C2
2E
99
59
EE
2B
95
BB
39
59
4D
0F
16
66
47
C7
94
96
2A
AA
C8
3A
5C
80
7B
34
0B
76
47
A7
DB
24
DA
62
5A
05
FF
4B
36
96
3E
A8
DD
C4
F9
0E
D6
F7
69
CD
03
51
84
6E
08
58
AB
FC
E9
C6
56
94
AF
F9
6D
EF
31
C9
08
17
B0
59
6D
8B
49
A2
08
E8
84
F7
10
56
6C
70
A7
0D
9F
6F
DF
9D
94
41
57
88
7A
FF
40
BC
E4
41
D5
AF
9D
43
0C
03
0F
34
E9
B7
A7
F7
F8
13
44
59
FD
36
AA
59
7F
F8
38
16
E8
5E
A8
0E
2A
D1
97
84
F8
52
B4
AB
9C
CF
05
CA
D6
DD
5A
0A
FD
B5
66
18
97
71
37
81
3A
AE
E3
B7
10
6B
67
1F
18
B3
10
5A
28
9A
28
75
40
E4
49
7D
32
EE
8A
17
54
AB
92
AA
18
92
D7
CF
D9
9B
90
85
6E
C1
05
D9
AB
EC
F3
94
14
49
85
55
D9
2E
21
AD
89
6D
B5
9B
4D
29
00
E2
EE
72
38
D7
09
F8
6B
53
2B
41
DD
22
78
BF
F7
21
28
61
02
94
5F
26
1A
ED
F3
2B
E6
C3
23
4E
FD
BE
CD
11
74
DC
74
FE
79
AE
AC
3D
02
A2
6C
64
32
C9
D9
EC
30
EB
82
D5
97
51
FC
F2
E7
B5
63
FD
49
C8
DB
CD
AE
D5
61
81
74
07
76
6B
8A
34
0B
A4
61
EC
09
2F
45
35
BB
1A
34
56
C7
89
24
91
1E
72
9B
16
5A
9F
E4
2B
48
02
F8
1E
64
D5
C3
82
91
59
ED
76
DE
C0
E1
75
31
24
32
C4
7F
36
E6
0C
F1
34
C5
CB
92
AA
BF
DC
24
64
93
F0
F7
10
AB
CC
B2
A8
94
78
2F
EA
6E
5C
15
26
C5
68
04
81
5F
E5
5F
AC
6F
4F
F8
F5
AF
0A
E5
42
38
EA
36
36
E7
DE
A6
BF
97
B9
25
8F
D9
0D
64
C4
EF
9A
A0
8E
41
23
AA
7A
5B
04
2C
B3
6D
1F
3C
FB
74
22
A7
1B
27
46
D2
DF
2A
68
69
C5
B3
80
AB
33
36
1D
50
B4
54
5B
5F
64
D4
E8
53
F7
DC
FE
59
3A
C9
7E
F6
AD
63
93
91
1D
AF
00
69
5B
96
F0
32
01
E5
71
33
6A
D5
87
9F
84
6B
5C
80
14
8E
01
98
04
D8
C3
F8
40
A5
32
6B
62
43
23
B1
E2
53
EF
09
6E
CA
D3
19
A7
C9
8C
94
AF
36
B0
0C
2A
08
11
7C
27
98
84
AA
10
DB
96
34
EA
2D
92
11
01
3C
D3
ED
18
0D
AA
E6
D6
27
34
B3
4A
1A
08
15
39
25
00
E6
6E
4D
67
C8
03
55
7A
C1
4A
B2
E5
12
B8
F9
52
40
62
74
A3
82
07
8D
AB
6D
13
BD
EE
83
5A
49
25
5E
57
3B
6C
8A
55
90
6D
45
F1
11
A0
3A
B3
E2
7F
3F
C4
C6
00
99
00
51
C4
6A
A6
5B
EF
90
73
D2
4D
5D
5D
5B
1A
85
6B
2A
AC
B4
71
22
E1
A6
F7
81
A7
E7
75
93
47
00
BA
48
1A
0F
F6
09
24
FF
FE
05
40
1C
17
27
BD
32
EC
E7
98
12
F0
D4
48
E3
A4
9C
BC
DA
DE
EE
EF
F5
73
95
8B
3F
25
BE
A9
2A
8A
E1
69
C6
12
66
B8
C7
47
FB
A0
6E
05
1B
1F
8B
23
DD
F2
F2
21
99
58
80
62
AD
0D
15
7D
03
CB
43
A2
E4
A9
38
C4
87
25
45
DE
3C
4A
8C
FC
1D
75
E9
45
C4
E7
AF
69
4F
B2
03
C9
45
BB
B2
F0
2D
2D
DB
BB
5A
E6
FB
E1
BF
13
3D
C4
4D
9F
C3
DA
36
BE
78
7F
52
ED
88
21
F4
B8
E1
35
45
A9
5A
C4
B8
13
84
08
1B
1E
86
7D
6E
03
25
2C
9E
8C
DB
8C
7A
31
66
19
36
4C
16
0D
4E
79
E4
22
20
15
3D
C8
59
E5
4F
93
A0
5A
77
34
5E
C3
BA
89
D9
EA
7E
50
C0
63
CF
C1
E7
06
3C
BF
1A
C5
C9
9A
4C
A4
B2
DF
83
BA
D3
1B
DB
F2
C7
A2
66
54
A6
A7
1E
82
18
6F
53
0A
4A
4A
FB
FD
9C
C7
42
B1
EB
7E
8A
44
35
A1
6D
A1
6A
E2
