73
6F
96
DC
6B
E6
D8
36
29
F0
2A
86
D2
B8
C0
82
7D
D9
DA
79
AA
E7
0D
E6
56
26
BB
A9
FB
23
DC
60
6F
F6
63
76
8F
B6
A8
2F
23
1C
DE
7D
49
86
65
0E
2E
F8
99
69
1D
59
10
68
C5
D5
46
DC
E3
E3
FD
E2
E3
4D
34
DF
E1
75
58
7D
56
5A
CC
5A
9C
C1
28
BC
96
08
34
5B
1A
E7
69
14
C3
36
86
14
F8
F4
D0
90
AD
44
C2
BC
3B
51
34
16
CD
C8
47
2F
92
87
D7
43
DD
26
7C
B9
29
71
B7
7E
8D
7A
C3
D9
09
BA
17
82
20
54
B1
89
C4
CF
92
92
06
7E
A1
CA
AE
F6
94
A3
26
2A
59
84
16
B7
91
99
9B
33
B5
66
29
6B
F0
4F
87
A0
50
13
FD
5B
5F
9F
93
46
3E
7E
23
E0
8B
29
AF
79
37
4B
3F
1F
07
73
E8
B8
52
7C
AA
E2
C8
1F
9C
5A
DE
FE
35
32
AB
3C
43
55
02
B9
56
AB
D1
97
38
B5
92
3C
6B
EF
69
F5
EF
EF
B3
51
F0
DC
BB
2C
BC
90
F0
29
27
E9
29
26
4A
54
2E
91
9D
22
85
05
28
E2
20
4A
A4
62
3B
44
2D
7F
61
0A
36
4D
19
07
51
61
11
F9
C3
C2
38
04
23
88
85
E1
8B
44
B7
7D
E5
1E
78
03
1A
15
AD
A5
ED
83
47
BA
02
85
72
EF
