05
85
72
CF
F7
B2
1A
8E
DF
D2
73
8E
F7
82
BC
E9
82
4A
69
11
BC
C5
BC
12
11
02
95
17
8D
29
8B
30
94
62
3B
52
D3
F2
E0
A0
76
A7
25
E8
9B
77
37
71
07
64
1D
F4
18
A3
4C
E8
FB
FC
76
02
1F
74
A4
FD
EA
2A
84
97
AA
7F
04
DC
CE
79
1F
A6
56
6A
F7
65
88
CC
25
1C
E5
70
4D
AC
5B
D8
F5
55
BC
E1
97
7A
6F
A4
F4
A4
66
9F
AC
CA
4F
10
0C
D0
0F
A2
27
4D
6C
4B
28
91
09
75
E6
E7
98
5C
B9
17
4B
B7
8D
2F
8B
9A
34
83
ED
9B
01
F3
62
34
92
6C
AE
68
ED
B2
89
EA
67
86
16
89
F8
C5
BD
AC
8A
5E
49
40
67
3C
8D
1D
16
9F
55
2D
E7
64
9D
D1
CC
87
01
80
6A
E6
75
B2
70
48
36
FC
28
9D
01
7C
4C
88
82
77
1A
1A
0F
41
AA
E1
96
5D
80
21
D4
E6
5E
61
C8
2D
5B
29
68
A4
39
0B
92
FB
F4
E0
45
88
97
54
11
EC
53
A5
CC
F4
D2
A7
87
BD
C9
0C
C0
1C
CD
E2
DA
3C
67
5D
CA
89
6A
D7
12
CD
84
15
F3
99
14
CC
DE
E7
3B
63
2D
FD
36
FB
10
95
EB
AD
CA
3A
C1
12
1D
F5
B5
09
02
29
AB
B4
9E
BC
01
C4
72
77
6A
F7
D2
B0
FA
DE
