17
4E
C8
2B
93
FF
1C
36
A5
FE
B1
4A
C0
88
7D
9C
8A
25
9B
D2
40
60
81
22
D7
A8
A8
09
7D
C3
11
24
83
70
7A
5D
02
96
4F
D2
95
07
51
97
E3
A6
A3
3D
F8
ED
E5
55
75
7F
8B
B4
D7
F0
DC
3A
CE
09
E8
5F
F4
3B
E4
34
1A
22
DD
BE
6C
63
20
5E
D3
B1
A8
C9
73
DA
D2
FD
76
3E
9A
F6
8F
C5
1D
21
A6
E8
02
17
FE
6F
1F
6C
D0
D6
A4
50
C0
8F
6A
6C
04
0A
80
51
94
37
80
70
F8
0E
1C
30
92
B8
8E
CC
36
4F
72
47
E8
8F
8D
90
A5
2A
68
1E
7C
FF
A3
CA
43
CF
E6
92
94
3C
A2
0F
CD
6D
78
07
85
35
01
73
E6
6B
6D
CC
C9
4A
01
8D
2C
5D
51
2A
D4
A2
5D
84
5E
4F
A5
15
74
24
54
0B
22
0E
23
B5
DE
88
B2
6A
BA
1C
28
C9
0C
E8
54
2E
B6
09
BC
8D
93
AA
10
B7
D9
09
E0
3E
C5
85
7A
5F
D3
61
9E
20
FB
55
05
1A
1D
A3
40
6D
1D
B3
F1
66
EE
32
E6
E3
E3
12
ED
8B
06
54
A4
99
5A
F8
DA
53
D4
66
E7
90
45
D4
46
B0
13
72
63
27
A2
E8
87
78
AE
DF
4F
FD
03
DA
85
67
85
74
5F
31
7B
4B
D3
D6
E4
B1
40
2B
A0
02
89
21
7F
6A
36
8F
B4
F2
84
B0
E4
1C
D5
E5
6B
8D
88
EE
FD
7C
24
D3
CD
F0
DA
A5
14
E5
38
2A
7A
82
62
56
88
49
00
16
E6
37
8F
E9
50
B6
3A
15
E0
F1
D3
E6
96
11
E7
BB
B0
5A
2F
5E
03
3B
1E
C0
E5
8A
CA
2E
C5
C6
89
B7
47
AC
D7
0B
5D
E5
D3
DA
AF
57
D2
CB
D6
00
E0
62
2F
F3
FA
76
66
B2
78
59
39
D8
8D
56
5F
E1
7B
D4
BE
5A
26
8D
43
BE
87
B3
72
A6
0F
3C
4D
6E
4D
5A
61
AF
C4
8F
FE
DF
32
6D
8B
F2
91
C4
2B
3C
D4
40
15
5A
C9
AE
E6
9D
7F
80
83
A7
71
39
9F
F9
A2
FF
58
F0
ED
38
E0
10
F3
56
48
07
58
AF
FC
41
19
93
03
E6
54
3D
DE
05
F8
5B
2B
A9
15
11
84
9E
4B
C2
1E
03
89
A8
C2
F4
3F
F1
E7
FF
0D
7D
D8
1F
1C
14
7C
FC
C0
92
84
2E
8B
42
92
7C
8E
07
43
BF
89
40
94
11
31
73
CD
73
21
C8
31
EF
D2
9B
63
F8
9D
87
1A
8C
43
F0
F0
32
04
B7
D8
44
A8
E5
71
8A
EF
2B
6D
3C
B5
D4
FF
8C
D0
9F
02
9B
BE
C1
43
F9
46
B3
56
AD
70
5E
F1
27
8B
87
7E
5B
F1
7E
B9
F3
0A
7D
54
9F
2B
7A
5C
E5
43
E8
D8
AA
B3
8F
88
22
9D
DC
F8
51
3C
1E
6D
96
82
E6
8D
2E
81
C2
12
D9
7C
18
1A
85
F9
9D
69
D7
E5
0E
84
08
43
FF
A4
15
A0
BF
FC
1B
FB
BA
1D
B5
E9
E6
EB
C8
91
3E
89
05
B8
EF
FA
AC
6F
41
DB
75
D4
8F
17
2C
D4
22
06
15
C3
C6
22
3C
FB
38
B6
9F
3F
AE
B3
8B
ED
0F
8C
3E
07
8B
85
5C
C6
6C
6D
57
B3
96
5D
C7
BA
9A
1F
D0
26
24
7A
47
4B
61
B6
23
1F
7E
67
12
6D
83
43
DB
D2
22
12
F1
82
0D
C6
68
76
7C
17
DD
B9
1C
A2
22
9C
A6
C0
39
EF
D4
F1
9E
1B
CA
BF
84
77
ED
5E
D1
66
7B
73
66
15
0B
33
04
75
22
A6
B1
3B
9C
84
33
D7
49
53
F9
90
7F
9C
F5
50
B2
A6
F7
1C
5F
57
85
6B
80
6B
67
3C
EB
A5
1D
77
02
61
77
0F
02
5B
3A
F9
85
68
F3
68
45
81
16
08
B4
0D
4F
D6
E7
8B
C1
19
59
1D
5D
7F
4A
B5
3C
57
FA
B8
58
A1
F8
38
53
FF
C6
94
81
C0
15
B1
CD
8D
58
33
92
E6
B8
3D
0B
60
29
33
9E
CD
F1
60
F3
AB
9B
02
9D
05
B6
22
A6
1F
0A
A7
55
C1
6A
8E
D1
C3
89
3D
86
7E
E6
E5
E2
20
30
82
42
32
67
26
E2
B0
CD
69
8F
52
2D
34
85
0D
AA
05
50
94
68
81
66
72
32
75
49
C1
B3
E1
30
9C
51
AC
54
78
91
FB
0F
36
80
FA
A3
40
99
E4
00
4E
D2
D4
20
B2
23
63
DA
95
46
59
FE
F7
37
D5
58
9E
56
67
81
67
DD
75
76
2E
4C
AC
58
AE
E9
DB
FD
7B
B8
6C
00
EC
B4
F3
31
59
3C
96
A1
18
C7
F9
C2
2D
CA
C1
E0
23
16
65
88
95
20
21
A1
FC
8C
67
85
1D
CA
B7
FE
F6
D3
B6
F9
E3
90
F9
60
F1
2A
95
13
47
B6
D0
90
B7
52
5F
4A
4E
2C
AF
19
75
05
80
98
D7
15
99
1A
36
44
98
C4
8D
0E
C3
3E
40
E4
2A
68
DC
B0
35
C3
9C
21
E3
29
E0
33
D1
3D
69
F8
24
2E
2E
1E
62
D6
D1
2A
50
BB
01
F2
4B
19
7C
BC
7D
21
6A
0D
99
8F
8B
42
7D
3F
31
47
AA
D8
45
61
24
A7
C3
75
88
05
00
F7
7B
99
B1
35
AD
0B
04
67
D0
85
32
6F
EA
00
35
F2
D1
CC
FD
AF
F5
03
A1
93
97
B4
91
13
CE
A5
ED
A9
81
C6
19
67
D0
87
A5
E9
73
5F
90
4A
E5
41
B2
DA
41
36
C9
01
E2
16
65
25
0C
01
6D
D5
F4
06
68
CD
79
C0
6F
07
9F
15
67
E1
58
56
F3
A1
13
A8
B7
74
2D
4F
55
F7
86
F6
23
D1
ED
AC
7B
A2
D4
5F
1A
C2
37
59
15
FC
F4
32
BB
D2
00
89
16
B4
54
F6
1E
42
B5
4C
71
3C
10
75
C3
68
16
31
42
F9
DE
6B
02
A3
81
94
83
73
F5
10
9D
24
2E
5F
23
9E
05
EC
11
5E
1C
A8
5B
16
26
FC
F4
B8
3A
E3
5A
25
67
30
70
46
01
A5
70
B8
FA
22
22
B3
16
3C
23
85
67
B9
9D
61
E0
9A
87
29
41
3A
42
33
91
CC
07
B6
E8
48
43
31
CA
C5
45
66
7F
4B
E0
E1
FC
72
C4
90
1F
DB
22
7A
C3
68
BE
B7
68
A2
DD
CA
96
85
9D
27
13
FA
14
5E
EC
2F
7D
7E
C3
68
AA
76
6E
4B
62
56
48
3D
9B
5C
0A
71
E4
D4
F6
CF
0C
C0
64
0A
9E
D8
CD
E5
3A
EF
ED
D9
0F
8B
95
1B
BF
C3
C1
02
53
0E
F7
8D
D0
92
D8
2E
D2
3E
EF
14
1C
ED
BB
8E
AB
A7
F7
80
3E
7A
A7
AE
17
C6
70
20
82
1C
58
52
E8
04
9C
97
B2
2C
0E
B9
F2
61
15
E5
54
D2
FD
75
4C
1D
D8
97
0A
1A
89
54
FC
03
5F
2E
6B
57
41
EE
30
81
D4
E1
3F
36
26
45
11
0E
C3
B8
32
B3
1E
61
C9
02
45
8B
1A
D1
A6
C2
4A
C1
A7
EE
EE
4D
44
01
20
DB
18
7E
77
AE
C7
0F
35
98
53
CE
58
76
0E
CD
88
4D
E9
8E
64
77
27
48
EE
94
14
E3
BC
BA
BA
CF
DD
D8
A8
E8
07
24
70
ED
BE
A1
59
73
88
91
9C
B4
47
C3
FE
D7
67
EF
B1
19
E7
78
83
F1
9E
A1
17
7A
AC
FF
B6
93
95
AF
17
B7
C2
76
08
5E
4D
D0
50
E9
26
87
50
F2
C6
0C
14
BE
54
4E
70
B0
A7
E2
CE
53
88
59
FB
E6
7B
F7
BE
CE
99
56
BD
C6
88
21
34
C7
C0
E1
F4
F4
29
FE
EF
CA
4E
19
6E
A7
06
87
43
7F
87
DB
B0
87
70
F6
F3
48
18
F6
B7
BB
CE
C0
2E
46
70
0F
FA
BF
A9
17
39
55
9C
84
18
49
DB
10
21
15
3D
E1
97
6B
35
D2
E5
D4
F3
49
74
D7
25
E1
64
21
18
7F
C4
D8
B9
16
F6
B0
6A
EA
71
DE
DB
57
BB
F8
C5
C1
D2
38
D4
B6
7D
B1
F9
60
BC
E2
CD
14
4B
0C
A3
C1
88
E8
7E
3D
DF
3B
2F
78
06
2B
EF
A9
BA
8A
14
3A
8C
02
21
3A
05
EC
24
74
A1
E3
75
EC
CB
5A
A1
36
8F
BF
EA
13
9B
81
66
C6
17
E6
66
AF
56
8E
7F
CB
76
7A
3D
FF
5B
A2
BE
61
D1
83
77
70
A9
99
6A
AB
17
A6
60
19
AF
E5
E3
A1
30
69
DE
06
15
41
00
4D
E0
66
FC
BF
FB
12
46
C8
EC
21
DD
9B
F6
7F
C7
08
94
59
A2
AE
12
29
CF
0E
C2
51
59
75
99
6D
88
CD
30
1B
B1
BE
6B
B6
A9
A1
33
07
CF
24
36
1A
CF
5B
1D
56
53
B2
8A
43
20
04
50
50
BA
D4
39
CE
BF
6F
1F
E4
71
B6
6B
96
74
A9
EA
A9
B0
13
AE
E1
5B
91
A0
33
CD
F5
25
51
A2
50
96
35
10
4C
BA
3E
29
31
29
D2
95
33
C5
A8
2A
27
DC
88
31
C8
2F
6B
B3
40
76
6F
20
B8
AC
69
BE
FB
10
14
81
2E
3C
8A
43
C1
F2
5C
03
96
B7
85
6D
EE
AB
8D
25
08
45
1A
36
F3
F8
87
83
08
48
41
C0
4B
AF
8B
6D
70
5B
4B
46
78
07
C8
71
8D
7B
F2
7E
50
30
08
94
B5
1D
AB
0D
5D
81
70
CB
F2
54
D6
21
E7
2F
F9
5E
04
ED
76
BA
2C
84
C8
A5
14
D7
B0
66
84
15
A9
77
CB
2E
C9
FC
0B
0C
55
86
BC
66
16
82
81
73
30
49
D9
4B
69
6D
C6
F7
5F
27
33
C0
1A
3C
90
3E
D8
1D
67
A5
7C
10
98
00
C9
2A
31
3E
BC
E8
37
0E
70
7C
18
0A
21
39
2A
1B
1D
E5
6E
5A
11
BD
91
CA
15
A9
BD
42
33
C2
C4
9E
E2
B5
CB
56
30
D6
84
C5
CC
30
E8
14
37
A0
6B
1C
2E
AA
4C
5C
FA
C5
2F
83
E7
BA
89
61
E9
A6
25
33
0C
52
79
00
7B
EA
DE
1F
CC
89
82
09
66
A7
67
31
B9
84
7B
6B
91
76
45
06
55
5F
D8
FB
DA
65
47
FB
5A
FC
AD
09
42
D6
43
5B
2B
49
D5
2B
01
B4
EF
C3
7D
C3
24
AE
12
A2
3E
79
BA
FE
81
BA
0D
15
2F
CD
7D
0D
F0
F5
E5
88
FB
13
52
87
5E
E7
DB
2A
A1
EC
2E
68
24
FF
85
98
CB
E0
58
A1
A3
32
A9
17
96
39
4B
EA
E8
A2
C2
4C
80
35
92
C4
81
25
62
45
CE
CC
A4
7D
72
5E
81
03
01
93
99
8F
B3
74
4E
71
94
C2
82
99
D0
38
9F
E4
82
92
E8
80
0C
89
8B
3F
2E
0F
9D
F0
10
E2
3C
9E
E3
32
56
EF
F5
72
DA
C9
C7
B7
7F
1D
FB
27
27
30
B6
37
22
CB
74
61
EF
DA
B1
7C
03
C9
51
10
53
99
5A
E9
5F
02
D9
C5
91
23
31
E7
6E
4D
40
DA
FB
30
35
FA
45
6C
7F
0E
10
F0
27
69
AC
82
D8
FC
EA
8F
53
10
4D
DC
CA
E1
32
81
AD
A1
CD
12
BC
66
F0
42
7C
6A
6E
AD
32
C4
D6
55
5C
41
7F
8F
54
2E
B0
50
FC
65
52
14
7D
09
32
2C
5C
A4
D5
C2
15
D5
A4
8B
74
8F
C1
09
D8
46
F9
D7
AD
FA
66
70
27
EA
EB
70
A2
EE
FE
C1
C7
9E
00
C7
37
