02
4B
09
17
4D
67
12
ED
90
2B
5B
49
F1
15
57
CC
AB
04
E6
F8
55
98
91
9D
2D
EA
FA
8E
59
63
E8
20
B9
14
8E
5F
9B
EC
4F
9F
EC
E5
82
E3
8D
1F
53
0E
08
BE
00
74
72
F6
A2
E2
99
7A
B3
50
81
A4
58
7B
4A
C3
F3
F0
50
94
8D
B2
7F
FD
79
D9
21
D7
5F
0D
92
A6
FA
D7
26
81
C4
88
D1
17
25
83
0C
99
1F
4D
84
A2
18
CA
31
AE
F3
48
16
1A
EA
2D
79
7D
C0
63
77
BD
BE
92
57
E8
29
00
9C
53
DD
FB
6F
16
77
77
6E
40
7C
4A
47
A2
8F
7C
99
AC
5A
CB
CE
25
F6
DC
38
FE
8F
7D
00
93
D2
72
9B
B4
30
0A
70
06
12
5D
3D
3D
55
C3
2E
BE
A7
FE
ED
58
27
2B
4D
09
3B
92
69
40
A8
A1
E1
2D
FD
78
BA
16
EE
15
9E
A6
F5
7E
C5
E6
65
F2
7D
81
26
CF
B0
6A
AE
4A
04
91
36
57
1E
97
F9
39
24
05
A0
63
4E
15
0F
21
8E
EA
80
C1
33
33
2D
F2
EA
0F
AF
12
C4
52
3F
B6
DB
B9
7B
DD
E0
7C
DD
BD
8A
C3
21
6E
2A
FA
D8
7F
C5
9D
CF
94
96
C2
87
79
27
F5
E9
C1
3E
5A
2A
1C
81
FA
1B
44
FE
BE
51
8F
CE
A1
EB
E3
56
EB
35
3F
D5
7C
AE
FA
46
15
E4
6C
89
E7
61
83
18
51
DC
FE
AB
07
E8
6C
F9
A6
E5
18
E2
28
FB
E3
7E
6A
0A
DB
39
14
F8
6D
98
2B
E0
7A
DC
91
A5
88
77
1D
C0
D3
CB
A2
8D
F4
F2
40
2F
D1
6E
99
B8
4C
A7
73
7E
EA
4B
4F
FB
49
F3
E5
3F
4C
45
43
B2
CC
FB
0C
26
F3
89
CB
0C
47
41
A5
D3
26
77
29
F5
D4
EC
E7
FB
14
98
05
75
18
C6
5A
7E
6E
E7
9D
7B
1C
56
F9
0C
D4
EF
20
BD
E6
8A
20
32
79
79
AC
72
8A
A3
21
4C
D4
30
36
04
B8
2F
C1
CC
BA
72
88
AC
39
56
19
9D
35
FA
F4
90
2A
EA
E7
E9
F2
06
90
BF
D5
DA
5A
8F
0F
4C
BE
CE
5B
B2
A8
F5
E5
90
04
7D
74
9F
01
F0
4D
99
2A
29
07
78
B4
09
80
7B
14
C9
62
95
40
1F
6C
8C
69
3B
C5
7C
59
FD
2B
0B
17
3F
D2
46
83
AF
5B
00
98
E1
B2
A0
26
64
31
F3
B0
32
B1
76
E7
31
34
8D
E5
98
81
FA
F4
E2
2F
6E
F3
CF
89
3F
3E
30
7D
2A
1D
1D
BE
F7
3A
45
CC
B9
2B
4F
3F
28
05
A8
91
D0
B3
44
3B
C3
2F
A9
E4
F3
45
2E
F3
72
94
F4
A2
26
AF
16
07
00
98
78
B0
28
02
B4
23
AC
4E
E8
AA
57
4E
01
92
A3
04
B9
64
3D
0C
23
36
53
0D
C1
21
99
86
72
7B
37
91
F7
81
77
89
20
7C
59
C5
43
B1
95
F8
F7
E3
77
D7
53
A1
48
1A
01
4C
44
E2
C2
CD
D0
83
76
EE
B0
D0
B6
73
61
59
67
73
01
32
E3
84
34
29
77
AB
76
80
76
CF
06
86
D5
44
FE
D2
7D
6D
E3
4B
09
69
CC
03
9C
B3
93
83
B5
B5
DD
19
42
6F
9D
65
43
83
4A
C2
F0
6A
5E
E1
42
EE
F9
D5
9C
C2
C2
38
B4
BC
BA
1C
C2
2C
C1
B5
7C
90
EF
91
AD
56
02
CA
FC
E2
B7
5A
63
39
4E
E7
61
AA
10
A1
EE
5B
6F
CB
B6
A5
33
D8
F9
3A
06
31
12
3F
6F
ED
53
94
84
58
15
65
E1
EB
54
CC
E0
FC
EC
AE
35
79
5F
C9
3C
76
4C
E4
6C
EF
4F
5D
0F
B8
C7
50
E4
66
1F
FD
C2
10
2A
37
FA
D6
06
98
BA
75
FC
97
2E
19
3F
66
2F
D4
33
11
EA
E6
E5
D5
78
34
EC
B6
F2
05
D9
BA
3F
E3
00
B4
31
82
D0
BF
D4
0D
DF
5A
28
30
36
32
C7
85
86
E4
15
1A
E4
77
72
F1
8E
80
B5
C4
A0
DC
04
DA
50
A5
90
A2
08
81
64
EF
A6
35
4D
C2
F6
AE
E6
D0
D6
6A
28
D3
82
96
5B
65
C7
DC
DE
B1
A4
D7
D0
34
83
36
B6
BC
71
9F
42
5D
ED
1D
20
B9
23
27
01
A1
BD
7F
4A
2E
44
D8
AD
98
5B
CB
49
51
1E
32
E6
14
1F
A7
F6
0A
AA
EE
FB
1B
6E
3B
A0
70
25
40
B9
00
CC
6F
86
9F
DF
BB
8E
60
F0
DA
19
2D
DF
48
8A
DB
7A
2D
7F
62
5A
51
A5
6E
36
88
1A
48
5C
4F
F5
FC
31
5B
E6
DD
75
BF
86
3E
CA
1F
80
6F
8B
8E
C9
80
C6
0C
14
2C
09
E2
4E
96
4D
8E
9D
FA
AF
4E
5D
CC
4F
05
07
6C
26
B1
D7
71
7B
1A
52
3D
C1
C0
02
F9
F9
58
36
88
C7
26
8E
23
24
0B
23
06
8D
66
05
94
83
66
78
ED
99
7B
29
9A
5F
21
31
54
0E
5B
6F
48
91
59
91
F8
75
52
E5
70
89
CA
D2
36
B9
AF
F0
69
59
A0
31
05
43
37
1D
CE
05
72
CC
A1
9A
B5
26
63
82
17
73
0E
5F
EF
8B
97
80
9E
E1
C8
B0
90
3A
E0
E8
29
4B
F4
86
9C
AB
29
9B
13
D7
92
A5
11
83
A4
FB
A9
A3
5B
4E
DD
F1
C1
7C
E9
2F
1B
13
49
8D
73
E9
75
50
FE
73
9D
30
B5
7E
0A
42
18
A7
FA
E5
30
5B
E1
D6
DB
72
98
4C
31
25
11
88
8F
86
B9
14
59
15
DE
68
77
00
72
47
46
4E
64
D0
22
74
0F
0F
7F
8A
5D
85
1B
94
77
A4
24
A5
52
73
DC
C0
D5
95
80
E1
10
05
7E
78
2D
F5
BF
73
9D
1F
34
BF
28
90
F2
67
D9
25
0B
50
A8
90
27
59
5A
24
B1
C1
DE
96
BB
80
3D
B0
0A
76
E4
BC
83
E4
F4
B0
2C
CC
A4
3C
14
BD
BE
4C
76
86
86
9F
A1
31
91
7E
2D
D6
54
55
4A
37
4E
BE
4E
E1
FA
06
38
86
38
95
93
D7
51
54
00
3B
B7
05
FB
82
BE
BC
F3
93
85
8D
F5
2F
88
8F
07
46
85
02
77
C7
9B
88
A5
DE
12
2E
24
BB
64
54
2D
1F
83
F1
A5
FE
F6
5D
5A
9F
D2
DD
C5
59
92
FB
6F
61
F2
A9
D9
12
F0
A9
89
4F
1B
DF
82
F1
01
16
0B
94
A1
02
8A
9A
92
80
34
7F
91
42
8F
99
B7
F8
84
EB
E3
E4
92
BD
BE
46
87
51
C0
82
90
AC
E7
E3
66
1B
F7
B0
76
20
01
42
B1
C4
F5
36
A3
15
00
83
7F
C6
39
1E
42
E6
78
41
98
B0
B9
CD
CA
7F
07
64
5C
D0
87
3F
F7
7A
F9
1E
28
F0
36
74
43
D9
38
BE
F0
E2
31
41
8E
00
79
9E
F1
C1
14
2E
B7
A6
0F
EA
DA
A8
CB
15
F7
A4
85
C9
BE
12
53
F3
CD
44
61
5D
4F
62
DB
E0
D6
6E
0B
52
8E
BA
9B
2D
B4
CA
55
58
3C
73
AC
B8
79
D1
27
E9
07
B1
B1
A4
33
B4
F6
86
B3
DE
EA
84
D0
60
F2
CE
0A
C6
B9
32
48
0B
56
69
DA
19
13
87
81
C6
A3
B7
2A
24
67
C8
0E
A4
88
0A
5A
A7
00
FD
4E
CA
D0
FB
71
DE
82
95
46
A0
A0
61
D9
75
31
62
8B
10
00
CC
DB
3E
DE
8A
65
5F
C3
BB
B3
B5
1A
5F
70
31
BF
69
F0
5D
00
FA
2F
7D
82
8E
4E
7E
73
A5
B2
25
E7
00
7A
CA
27
2D
EE
8F
E8
F1
AC
EC
BC
57
13
1F
86
AA
D7
80
EB
E7
1D
A5
9B
15
73
BC
0A
02
12
1C
FF
8D
DE
44
65
81
7B
7F
4C
3C
44
2F
FF
9F
1D
1A
53
EF
63
90
BB
25
45
CA
2E
E0
1A
04
F4
2D
89
57
E5
A9
5C
01
2A
85
CA
96
BE
28
9C
AB
38
E6
68
0B
1B
98
B5
A1
27
E1
1A
55
FB
8A
0E
68
4D
6D
4E
20
BB
E4
3B
71
B9
28
D1
BB
D9
C6
F1
39
2A
38
9C
53
0C
AD
33
34
86
7A
1E
45
81
EF
F0
EA
44
55
56
D7
B2
AF
2C
46
D4
3E
8C
FE
8A
26
0A
B0
01
89
68
A9
AA
D4
0F
1E
39
C5
31
60
D1
F0
0E
F1
9A
C0
8D
D4
5F
E1
04
C2
18
BA
59
42
D9
CD
3C
60
77
A3
DE
B4
29
1A
48
AB
6F
C8
C9
58
45
B6
F2
3E
DA
23
A3
FB
68
93
EA
44
90
3E
09
E7
CE
4F
30
35
DA
BE
2C
29
C5
C4
25
DD
62
57
0D
15
39
1D
7C
A9
0F
9D
E9
BD
9D
66
EF
D9
5F
F8
27
53
3E
6F
71
12
35
EE
C3
FD
FC
E4
DE
6F
F0
E0
63
BE
F3
53
92
80
B2
F5
1D
32
90
95
5E
03
0D
68
47
EB
B2
F9
4B
01
4B
BC
8A
2A
CD
14
F4
DA
0C
24
5A
93
B8
F5
F8
7B
D4
1A
F9
27
B3
65
0A
03
E8
A2
CB
63
F5
25
5B
BE
1C
E7
58
B1
98
3B
D9
B6
70
45
BB
E4
A2
1F
E7
8F
EE
4F
AD
69
D9
DB
97
2C
25
CF
F7
7D
AB
9A
31
BA
4A
F4
78
A1
BB
82
F1
E4
4D
B0
7A
F2
3B
D4
E6
B1
07
65
59
0B
5F
FD
33
49
09
65
8A
B5
25
1D
3B
EA
F3
15
D8
79
81
12
20
33
92
1E
8D
AA
74
13
81
80
4E
EE
0F
46
FF
92
D2
F0
60
81
2B
78
9C
27
F2
FF
B6
A6
72
54
C9
5A
12
D4
5D
47
FC
81
55
6C
81
4E
3A
B5
27
E0
D4
1A
03
12
1A
4E
35
76
9D
8B
5A
9B
BA
EE
16
6E
B2
4D
82
39
2E
C6
D0
5F
4B
10
78
D4
11
D9
90
73
8C
E4
E2
4C
6D
53
3F
50
A2
89
52
21
0A
92
E8
CE
96
D1
1C
0A
F7
9D
22
4A
EA
9D
45
96
A0
1E
E4
D6
6A
5A
EF
8B
57
C7
F1
EC
F8
02
11
1D
27
67
7C
59
BC
AE
F1
17
95
7D
CD
F7
03
D4
89
34
9A
00
BE
46
E1
AC
27
9D
31
B5
57
CE
19
B1
7F
53
32
CE
5C
F9
23
86
22
53
FD
BE
B1
07
BC
0E
AB
47
3E
58
94
6E
DD
C2
C0
93
D6
9D
35
4E
89
79
24
67
78
CD
29
FF
49
73
74
5B
6F
C3
D0
EF
59
23
A8
82
4B
42
98
C7
57
84
72
19
C6
18
2D
A1
53
DE
FD
72
E1
0A
54
2F
3E
C7
3F
D9
42
D9
B6
DE
9B
41
41
58
18
9B
F6
80
E6
EF
28
0D
23
F8
F3
9C
4E
3B
2C
F5
CA
89
32
CB
2F
31
5A
92
6F
A6
06
AD
D6
A4
28
C5
21
3E
83
E5
BD
BC
20
1D
57
E6
55
4B
EE
D4
EF
A4
83
5B
80
5F
2A
25
0F
20
DA
77
A7
ED
24
20
49
49
A4
FC
1D
9B
8A
4A
7C
10
2D
2C
86
4B
9D
AB
BD
A0
28
80
A5
EC
7A
34
BC
8E
69
AE
E0
55
99
A0
D6
3F
13
42
5E
2D
2E
D9
81
6D
C1
8E
F7
C7
7A
68
AD
C5
66
0D
C1
78
A8
FC
67
D0
57
96
D9
C5
6E
7B
EC
54
82
B5
42
F0
AD
77
31
7E
B5
87
45
81
73
B5
B8
C0
91
23
C8
66
55
D3
44
6A
CD
7F
0F
B9
4D
B3
E7
1D
A1
