B2
70
9C
E6
3D
EB
F2
61
FA
72
B8
73
81
D8
F4
6C
6D
FF
35
97
2C
DD
C8
B1
0B
8B
28
F4
D3
5F
52
84
0B
CB
70
22
F5
4F
86
A6
8E
0B
C1
B3
69
F9
EE
C5
78
4C
7A
10
84
D6
39
B5
87
D2
D8
CD
5C
E8
64
8B
B2
91
A1
55
7F
7D
9F
B1
0E
B7
77
36
93
0E
04
0C
09
21
B3
73
F9
31
63
43
52
E4
E8
F0
D8
F5
C1
C8
FD
89
20
84
F6
36
69
05
49
BA
FB
08
D4
9E
87
A8
43
14
EC
41
5C
2A
93
A8
AC
A2
83
B1
00
A5
17
1C
F0
64
47
A3
32
61
C9
DE
3B
9D
90
BC
83
31
8D
9F
6D
34
80
84
CE
DA
DE
03
B6
C9
60
C7
94
BE
87
5D
9C
CC
04
66
D1
BA
38
C6
57
58
5A
9E
CB
39
DA
70
F9
F3
2E
C9
95
11
0A
7F
61
91
8F
2B
6B
89
0B
DD
76
46
8A
9E
44
B4
8E
8C
13
72
01
DA
78
37
33
A1
6B
74
93
DE
D0
87
C3
89
16
E8
7B
4B
EF
36
A0
FD
54
1F
9A
41
5F
F8
C9
C5
84
9A
F5
99
80
7F
08
CE
01
8E
B4
EA
09
E8
56
4D
60
87
E6
7B
8F
D2
49
6E
26
39
D2
1F
4D
EE
5C
E7
81
EA
5F
6A
B8
AA
EE
4F
0F
85
42
43
65
0A
CB
2F
64
92
57
18
4A
B4
09
BB
E3
A2
52
21
1B
53
B8
1F
A4
FE
50
69
A1
EF
C5
44
DF
7E
AE
1F
61
AE
FE
AA
9E
9B
AE
70
DD
06
60
2F
94
AC
74
FF
AF
97
A9
08
2B
B8
4A
23
7A
39
75
31
D5
34
23
7C
98
C2
1E
9C
F5
B7
1D
8D
DA
1C
59
A1
47
AC
4E
5E
3B
58
EE
AB
0F
2B
45
D0
6E
DC
9A
9B
D1
7D
75
57
E2
4B
DF
E3
04
03
DB
92
96
4B
D7
36
C7
F0
8E
59
7A
77
42
84
F9
29
F9
E8
4A
2A
3F
7B
C5
BC
AA
78
0A
28
94
3F
4D
C8
BE
97
B6
7B
C9
F8
8F
D9
1C
DE
7F
8D
83
1B
A6
CF
9A
40
92
AE
5A
7A
37
79
D0
E3
06
F1
5C
4B
D9
B0
B1
71
04
8D
CE
3E
8F
D9
30
00
3B
96
57
AA
75
E7
6E
80
DF
35
E7
F0
D4
A3
5E
D2
A3
50
B0
49
4C
B1
10
4D
08
D4
D0
3A
2E
79
67
96
25
3E
AA
DE
0D
26
A7
DB
EC
EB
27
0E
BC
37
31
48
F8
E7
42
EC
C4
24
3A
B9
1D
CB
AF
08
A9
D1
5C
52
00
EF
76
C5
05
B9
80
52
92
71
FF
12
1E
6E
60
D6
B3
FC
73
8C
7A
90
5F
1B
DD
80
EC
40
E5
43
3A
93
BE
66
B5
CC
32
B4
50
C5
B3
B1
3F
0F
CF
A0
C6
6E
8B
DA
A3
DA
33
AE
5B
F8
8D
77
D0
57
0C
6A
45
86
6E
6F
A6
52
B0
29
97
28
CF
BA
AA
22
D6
86
1B
67
F8
2D
A2
C4
81
58
20
D2
CB
6A
E8
2E
53
B3
19
CB
ED
67
D6
F3
CD
5C
13
C1
16
93
DA
F1
CF
14
EF
BC
4D
2E
AF
68
D1
99
65
E9
B3
F8
D0
FE
DD
AB
5F
23
74
EA
F9
73
37
47
14
2D
B8
E4
17
08
E1
91
04
2B
F0
15
F9
37
CD
F3
59
62
35
84
8B
E8
EE
3F
06
D0
DE
EE
64
97
5B
F1
E3
94
15
CB
01
BA
12
1B
5E
FE
20
F9
58
A1
08
3F
EC
9B
FF
FD
67
29
43
2B
AF
8F
9F
A3
02
E9
6E
37
46
95
3C
5E
10
70
15
CA
99
18
CF
C3
95
BA
08
F0
75
E5
3E
AE
5D
CA
28
D8
69
9E
A1
DA
F5
71
36
D0
BC
19
8D
35
A6
3A
90
CD
BF
9B
A6
5C
1D
CD
2F
05
02
12
60
F3
9A
9D
2F
78
45
52
52
FA
6C
6F
D0
B2
A9
E3
CB
CF
F7
81
A9
72
F7
9C
E5
99
34
4C
34
C9
0C
4E
09
33
28
A9
05
FE
56
1B
8D
F6
D5
E2
96
92
E3
B1
8C
42
21
36
34
8A
75
CC
13
54
BE
F7
FA
67
67
F6
83
91
60
0D
7E
51
B1
65
0F
C1
31
F0
BA
9D
71
66
A5
5A
43
3E
85
38
A0
20
CD
90
B0
10
C2
78
0C
A0
91
84
4E
5A
E1
C9
4C
91
62
DB
B4
DA
B4
5E
FF
24
F8
CC
B2
C8
9A
4D
3A
08
CA
92
5B
A8
1C
91
8D
A7
5C
1E
01
33
7C
A5
14
74
92
61
3B
CF
EF
BC
17
FA
CE
DD
D8
BF
61
5D
6B
E2
99
77
10
B2
2A
C2
AD
A3
CB
1A
81
AB
D4
04
0D
57
F0
14
33
84
FF
4B
45
06
B0
4B
DA
D4
2D
B2
E0
15
FD
97
54
97
53
8A
61
F1
32
A0
D1
6E
3C
95
B1
38
09
03
63
62
39
13
9D
A2
A3
78
47
97
C5
26
34
F2
1A
DF
8C
4B
14
49
A2
82
1C
73
8E
6F
7A
37
D0
0B
77
48
C1
9D
38
3A
75
C9
15
FD
E3
36
AD
8B
14
E1
4E
AF
C6
D4
A4
57
DB
95
E9
A8
2E
58
CD
B4
E7
01
B2
35
4C
52
AC
07
45
DE
AD
60
B1
61
2E
DB
87
B5
98
8B
29
12
8D
09
72
FA
E0
35
9C
89
55
FF
CA
99
24
A1
20
D9
2C
50
6D
FE
54
84
D5
C7
1F
A6
63
89
D4
D1
46
AE
EB
E0
B1
76
1D
5C
3B
71
E9
6E
1D
2C
F6
92
6F
C9
E8
66
41
55
38
C3
1D
8A
54
0B
74
FC
27
91
7E
46
B4
B1
AB
91
7C
31
F0
9D
C1
C4
A3
77
9C
8A
AB
B3
94
70
5B
BB
11
8E
3E
17
EC
89
7B
E9
2F
A4
A8
AC
D6
43
46
FC
47
93
0E
9C
26
EC
55
A6
57
DA
95
BB
F5
BF
3C
87
69
56
F1
BE
39
9E
A0
18
7B
DA
4C
E6
F8
58
45
8E
19
23
CF
7D
83
F7
84
A0
1B
72
90
89
83
C0
47
FE
60
99
56
B1
58
38
3A
D4
FE
BF
9F
28
6C
62
5A
B8
2F
2D
67
77
A5
1B
3C
3F
B0
4C
75
2E
6F
98
87
C8
FB
1B
F3
4A
DD
48
D3
BF
40
AC
8E
05
A4
8A
C0
B4
53
30
12
B2
52
1C
B3
29
2C
C6
75
3D
DB
17
71
C5
8E
D6
1F
50
08
09
45
DA
3B
81
EB
A2
DE
7E
22
0F
4A
49
43
B8
85
6F
40
0F
24
D5
C4
4A
8B
99
7E
74
0E
62
32
2F
5B
72
21
F4
F3
A8
77
26
E4
9F
A8
84
FD
6A
77
E6
5B
F6
D3
AA
4A
63
D8
72
90
7C
D7
50
7D
D1
A8
B4
BE
FC
07
28
94
C4
EE
E2
07
D6
8B
A8
8A
C0
E4
2F
E8
38
6C
F7
C7
E5
DD
7E
1A
99
9C
73
3C
40
CD
AC
B9
07
CF
47
90
32
D8
67
BF
6A
51
B0
3B
64
BF
5D
23
6C
82
A8
F1
5A
D7
9C
B5
31
6C
63
B1
6A
D4
76
C7
7A
28
0F
7C
CC
41
B6
D7
37
EA
41
07
22
A6
4F
6C
24
68
25
35
43
9C
27
80
B4
12
03
38
BE
E1
6E
43
4B
37
39
FD
45
89
9F
87
5B
89
7A
2C
50
EC
7E
32
92
6E
5B
7D
EC
B6
4A
C5
0B
79
9A
18
4D
9E
84
BC
D3
8B
0D
3D
D0
39
CB
E0
E6
D8
FE
1E
EE
21
EF
41
83
BB
D2
9D
57
6B
5C
99
6F
61
13
F6
0D
77
FE
43
7D
BD
97
E0
FE
D4
C7
6D
55
D5
9A
D0
A5
D3
62
D1
0C
C2
B5
D2
1D
31
14
CB
5C
01
E8
2C
FF
B3
31
9E
97
F1
8A
3C
6B
05
92
A2
C2
3D
83
BD
05
3C
5A
D9
F7
98
AE
BA
A3
7B
42
79
1C
5B
31
57
A2
58
D7
8A
7A
21
DC
79
77
9B
D9
F3
08
DE
48
46
70
83
1A
FF
56
43
17
78
38
4D
6E
35
FA
57
02
EE
D6
82
13
93
26
47
3F
BF
A8
CA
82
CE
74
AB
31
F8
09
27
2B
49
93
7A
0F
DE
CF
2A
C9
0A
1B
1A
F4
43
08
90
B1
11
2A
1B
2E
C0
BE
96
14
C4
C3
40
E4
0F
8E
EE
54
99
DB
0A
D5
FC
62
D0
9B
5E
B5
05
72
11
69
FC
84
FD
E6
77
72
96
5A
79
43
20
BD
BC
91
7F
6F
78
41
F7
AB
AC
2D
21
DB
CE
83
DF
88
FC
4C
AE
9C
42
3F
B8
16
68
07
2C
51
60
12
31
BA
58
FE
9F
D9
6C
E8
BE
DD
E5
2F
3E
29
30
69
04
89
C5
CA
15
EF
EE
33
36
1F
2D
35
50
8F
41
6F
CC
D4
14
C0
53
E6
68
3B
39
6F
01
6C
0A
ED
95
DB
9E
50
49
D3
20
66
10
61
53
D3
11
6E
3B
43
64
C4
BF
9D
B0
1C
3F
35
8C
81
36
04
F4
BD
17
51
84
CF
2C
74
B5
9A
FC
0F
62
D5
1E
BC
C7
41
DB
94
FF
87
B2
0D
14
99
7E
92
0B
F4
4C
BF
4B
CC
41
C9
2F
4D
9D
4B
15
DD
29
78
DE
00
59
64
41
1F
8B
98
71
35
83
96
47
68
80
34
BE
62
93
2A
02
1B
B6
71
19
A1
F6
B4
D1
CD
F4
FE
3D
C9
EF
2C
65
1C
BE
F8
24
55
E4
EA
86
EF
AF
AC
0E
36
A3
98
DE
DE
D2
E0
D3
5E
03
CF
AC
2D
DD
AA
79
EE
55
26
EA
14
F3
13
3A
91
98
FE
48
74
9C
33
C4
9D
29
63
0F
AC
D7
C0
3E
A7
BB
74
94
F7
5A
82
97
B7
05
19
18
92
3D
35
38
B6
B9
84
EE
6A
C6
25
82
B8
2A
D8
C1
E8
E3
61
58
22
09
82
52
61
2E
9B
CD
26
C2
C1
70
FD
6D
CC
7B
78
D7
A7
64
FA
29
70
F8
AD
8E
FF
BB
22
1B
E5
F5
BC
6D
12
BE
7C
D3
4E
CF
CF
67
F7
42
69
64
AF
69
88
DC
61
E2
8A
6F
36
CD
59
E8
FD
A9
42
02
99
1A
AC
DB
7E
BB
9B
B7
8B
DE
7B
9A
23
3B
07
81
5B
76
0C
37
31
5A
64
B9
2B
EC
B5
04
BF
0C
EC
B8
B4
5F
5D
B2
45
45
2B
E8
D9
95
E0
EA
ED
5D
9C
02
30
2D
7B
16
28
A2
2E
66
2D
11
C5
71
05
69
FC
E2
C5
D0
7C
22
43
79
E9
E8
CF
4A
8B
3C
2E
70
16
34
75
19
E3
16
89
24
DA
A0
B3
B4
D6
44
19
31
49
3A
5E
72
50
BE
67
EA
D5
EB
10
89
08
4C
2D
28
2F
DD
C3
F0
4A
64
F1
F2
C1
73
99
D1
2C
1A
7A
17
1C
A2
C1
97
92
7B
34
77
9F
15
21
3F
F4
A0
F6
E4
B7
24
28
F4
F5
CB
65
90
E4
4C
C6
30
19
73
1D
12
EF
50
E7
64
40
27
B6
E3
16
54
5E
11
B3
83
B6
88
84
74
F6
58
1E
B7
CE
6E
01
68
89
53
62
14
FC
73
0C
74
35
B4
81
39
16
D4
9C
0B
23
A5
04
67
A5
93
73
95
58
BB
F4
03
57
0D
D2
DE
31
52
D6
3E
AC
7B
3F
F5
86
34
AE
F5
65
14
86
33
23
FC
FC
3C
37
23
2E
2D
D1
6D
D9
BC
96
5E
B7
0A
59
D2
3D
D7
45
97
45
86
00
66
0A
B5
AF
53
D5
30
3B
F8
EA
01
48
CB
64
0D
5D
B5
4C
94
C5
F0
15
E3
95
5C
BD
34
01
46
4C
01
95
67
9B
A2
CF
EC
3E
03
85
B8
67
8D
B2
D9
E9
26
0E
FA
4C
0B
4A
F6
25
C8
2C
EA
46
