16
E6
41
B8
AB
D3
D7
8E
43
AF
C3
A4
5C
9D
AA
D9
DE
A8
79
75
BF
B1
9D
45
26
D1
0B
30
7F
FD
A5
E8
8A
7E
16
DE
4B
73
54
00
12
53
DE
AE
A5
61
2C
00
A9
03
C8
69
0D
0F
8A
49
B9
14
4C
BE
61
A7
BD
3A
3A
B4
E7
24
6F
A9
5C
83
AA
E6
AB
1F
89
1E
FF
FE
00
C0
25
FF
47
A3
63
10
FC
F5
5E
EA
67
A6
C9
7E
AE
E8
5B
80
70
67
8C
8B
EC
36
5B
EF
D4
3A
0E
3F
BF
48
CA
24
38
15
8F
CC
A7
04
78
93
D3
3F
73
48
C6
7A
6B
90
15
38
DD
C9
B4
EF
F2
F5
09
89
59
D2
D0
06
E1
92
2D
43
01
06
BC
C0
CA
79
56
CA
2D
28
3D
14
4B
06
70
A5
35
BD
24
91
74
98
B5
9E
4A
13
17
1D
83
83
CA
8A
E3
C5
9F
53
BD
85
5B
3C
51
0C
0B
94
9D
DC
94
AD
44
4C
2E
51
25
6C
5F
24
8A
59
82
D5
70
78
E2
06
53
97
FA
9E
41
DB
34
AC
E9
8E
00
27
79
B0
BF
48
8F
3E
9F
00
56
AD
A2
B0
C5
B7
E3
43
FE
FA
31
B3
92
E7
9E
F4
A7
70
53
24
D6
14
EF
1D
72
D2
F9
22
17
D3
E3
3B
F9
8B
45
B4
D2
EF
24
AB
86
22
3D
45
89
C6
F1
2F
3E
3E
DB
30
15
99
