AC
B8
58
99
26
85
84
9D
BF
04
66
19
29
73
58
CE
AB
4A
FC
A7
16
66
CF
F9
FB
66
01
09
1B
56
84
CF
1F
8B
63
F9
89
CD
55
33
EB
BC
92
A6
56
6C
E5
BE
16
53
02
31
9C
65
1B
3D
BC
7D
AE
31
19
FF
A1
2E
DD
BB
90
2F
AD
15
66
47
DC
63
2A
2A
DE
97
1C
EF
00
1E
01
14
57
08
BB
C3
F6
68
1C
53
64
FE
FC
12
4E
13
89
42
78
A5
DF
61
F9
C4
D9
AE
A8
3C
26
E8
D2
74
9F
59
2E
96
D7
13
12
F0
F4
7A
E6
9B
BE
02
DA
5A
F6
3A
D4
C4
E9
0A
AC
A6
45
38
9C
A3
2A
31
28
38
FE
3C
80
AB
79
95
5C
A1
36
BE
FE
A7
A0
49
3D
87
69
F1
7A
6C
1F
DC
D6
48
01
1D
A2
73
10
7D
18
95
69
7B
48
C5
D1
91
54
F2
92
B9
E0
82
86
30
C5
3A
71
7A
05
5E
93
A6
04
19
7E
D3
F5
1E
26
F3
92
90
37
CF
10
20
AB
4C
52
75
9B
EC
5D
D0
55
97
0C
F0
B0
9C
04
33
9C
F3
EB
FF
FD
C5
D5
60
BA
2D
FF
F2
10
41
C0
02
2D
4C
BC
F0
FA
5E
5B
D7
38
07
7A
70
CE
5F
60
34
61
49
F3
C1
26
F9
2B
7F
F4
B4
C8
83
9E
D7
40
B4
7F
1B
FC
2C
56
17
C3
E1
55
07
