2D
1C
D4
44
15
E7
B1
B6
BF
AC
62
05
07
66
9D
40
7A
FD
0B
B9
13
0B
25
A8
B2
0A
51
08
4D
A5
BD
32
26
10
64
98
24
65
DD
24
B1
9A
08
8A
A1
20
DD
FF
4A
3D
04
F8
75
07
54
9F
67
64
F5
7B
A0
38
55
6E
1E
2F
48
10
7A
26
C5
49
35
6C
3B
8D
AB
87
9A
9A
21
14
52
D7
F1
28
B2
0C
C6
83
31
FF
79
03
3D
18
70
F8
2A
6E
F5
4B
69
08
3D
19
FF
51
16
98
C9
7F
2D
6E
1A
E8
37
5B
C1
99
86
3E
F5
30
75
AC
FE
0F
D8
BF
8C
9D
BC
2A
A2
B8
82
E6
DC
67
FA
2B
FB
3A
A0
BA
27
F6
41
6E
96
DB
1D
B3
A8
CE
EE
C0
5E
79
13
7E
AA
75
BB
1A
0D
01
51
04
3E
39
6A
C5
D1
02
F8
E9
F6
EE
C9
A8
A8
6A
97
7B
37
58
F7
A5
AE
27
83
46
36
29
24
70
19
AA
83
8A
2B
90
4C
DE
73
B5
58
2E
9B
F1
CC
87
89
2D
91
05
FB
00
FC
EA
76
E3
FA
BF
F5
3C
57
DF
20
71
C1
1A
3E
F0
AF
8C
91
24
20
4A
CC
2B
39
FE
A5
C3
D2
85
FD
1C
C8
C4
3B
CA
1B
CA
F7
91
22
DE
A8
A3
F8
CB
A1
DC
E6
B7
7C
DA
7C
DE
23
7A
89
79
C4
BC
40
C3
9B
FE
29
3C
D8
E1
