A0
23
43
5C
52
A0
55
C8
6C
76
AC
7C
65
8E
99
58
2B
70
93
C3
16
66
D0
F3
1A
DE
12
69
42
11
C4
BA
59
E2
45
95
EA
09
84
02
6C
70
CD
E8
B6
DD
E2
D2
B9
D2
4E
F2
6D
B2
F6
67
0C
24
F1
BB
7F
BC
99
B0
15
D9
E2
3C
7B
C9
EB
D2
E9
34
D3
E3
99
B7
CE
A5
7D
CF
78
13
31
F9
69
35
2F
17
09
A1
42
16
A5
42
3D
CE
C3
58
EC
29
B3
C0
4B
88
67
76
F6
62
85
58
E1
2E
B9
2C
49
84
50
E5
EA
7F
03
22
73
65
10
F8
37
8A
90
F1
25
71
04
54
FA
35
31
A7
B5
27
2E
73
FA
0A
B2
A3
C2
85
0A
7B
D6
A9
B5
74
40
B1
12
3E
7B
74
AB
11
70
8C
C1
F1
A4
B7
2C
30
AF
7D
62
34
F0
14
D5
7B
7F
80
82
DB
63
FE
C6
0F
05
A3
74
6F
E5
41
26
FF
8C
8A
D0
AB
C2
78
9B
D1
00
EC
F0
00
28
95
D2
00
74
13
72
12
AC
5C
FD
78
9D
5F
B9
38
C6
E8
50
1E
54
C4
6C
00
51
25
83
45
18
48
F5
A8
0C
54
54
3A
89
86
02
A6
1B
8B
02
B9
EE
2D
08
22
86
32
D2
76
B0
81
BB
77
B9
87
8E
95
DD
D9
98
B5
02
1B
01
32
A7
20
5C
21
17
52
7C
DA
E2
55
89
B4
