E2
69
DA
FE
E5
37
37
37
E9
60
80
03
97
C1
71
41
B5
02
EA
5A
91
84
09
4C
31
72
F1
47
AD
E9
BE
C4
AF
21
27
43
66
9E
77
6D
20
B6
F7
38
F0
E9
BF
D1
D6
23
89
B5
58
2C
EC
C8
E4
CB
B2
15
9A
15
F3
ED
80
13
DA
BD
54
CF
B0
C1
3A
5B
84
B1
F0
0C
4A
0D
09
B3
34
40
DE
10
58
D6
EB
B6
B9
40
98
86
25
F0
D3
01
FD
A0
38
6A
62
FE
41
A5
1D
C3
76
89
11
20
6F
5C
61
E0
0E
7A
FF
9C
9B
D1
25
DA
0C
B9
0F
33
71
92
02
F7
FB
D4
33
43
F3
A3
D5
94
75
9D
DE
BE
8D
A6
9D
E8
71
6E
48
FA
C1
B9
FA
CE
21
73
48
98
E2
EF
08
E5
64
E7
BF
D9
18
F6
F9
02
6F
35
46
02
35
6B
45
F7
FE
B0
60
09
CE
45
39
79
0B
ED
C2
98
7D
B8
55
CC
88
65
94
63
F9
72
90
20
1E
2B
C7
E3
4D
65
5C
65
DC
AF
4E
4D
34
72
7E
45
6F
E5
9A
6E
2A
26
AA
4A
A5
0E
25
87
29
AE
8D
1F
7B
DF
E5
45
C7
89
46
CE
AF
1E
93
E8
42
B4
5D
02
41
AC
EB
76
8F
5B
00
50
52
76
95
6C
5D
2B
A6
2C
68
6A
89
D9
8F
41
CB
96
1E
D1
DD
4F
75
AF
16
41
B9
68
45
D1
44
C5
B6
FB
31
F9
FB
94
0B
67
2E
54
CB
08
97
71
54
AB
5D
E0
7A
5C
A4
05
39
E6
DB
D7
52
DF
4F
0A
BE
19
BA
F3
C8
7A
BE
D3
EA
9D
44
CA
B0
C1
90
9B
6F
56
DB
A8
7F
94
1A
86
23
1E
49
DB
E9
0E
C1
F1
35
73
5D
13
2E
44
51
2C
F8
11
7C
76
72
60
0A
42
9F
E5
3F
FD
FE
A6
B9
C1
E2
83
04
C5
DE
D0
75
C6
7B
92
4A
F6
B4
57
A7
67
F6
1D
96
C7
9F
52
73
F3
BD
43
F8
DF
A4
73
31
F0
5F
20
DF
B4
6A
48
2D
03
77
42
B0
C2
64
AE
1D
2C
66
FE
EE
85
A5
E6
F9
D1
9D
D7
9A
EC
B9
C2
D0
55
1F
C0
35
D3
EC
3D
70
18
41
D8
08
D8
B2
B4
F5
C8
0A
53
4A
AC
BA
95
5F
74
93
F3
F8
4D
24
A2
0E
7E
C8
08
1F
09
65
E7
B5
2F
30
18
87
EF
12
6B
30
A9
B6
FB
0B
96
A7
26
1E
8D
06
19
53
4C
84
84
E8
34
EE
B7
2D
26
29
F7
1F
57
57
A1
5B
D4
AF
14
CD
98
E8
2F
26
D6
86
6D
C4
EC
0A
98
83
D0
C8
C8
9D
EB
B0
23
24
A5
9D
33
B4
49
28
2F
B3
5D
02
A8
51
BC
D5
8C
D7
4D
27
6B
88
C6
32
A5
30
02
D3
07
0F
CF
1F
4E
67
D5
2F
7A
1D
92
8D
C0
AF
8F
4D
EE
D2
62
41
29
77
56
B5
46
34
ED
CC
B1
57
12
C2
7A
E6
A6
9D
72
89
F1
91
1C
A4
E9
35
78
FA
C5
63
6D
5E
D5
14
E9
C0
D6
34
67
05
B0
52
16
EB
5D
8F
C1
29
5B
9B
D2
C5
C2
03
6A
B9
3D
F2
65
41
7C
36
A5
EE
38
0E
35
7A
33
3F
AA
C1
F3
C0
35
DA
1F
6F
18
65
F5
EE
40
55
58
8F
8C
8E
B9
75
9D
36
23
13
74
40
E2
3F
8E
8E
FF
20
55
43
EB
50
A6
97
0C
C4
58
F5
82
7D
C9
EE
70
44
0E
0A
A1
B9
66
BC
73
A6
7E
33
6B
CC
36
F6
4C
EB
35
22
6B
A3
18
44
92
5D
7A
D6
09
F8
E4
64
26
43
EC
0E
6F
56
7B
AE
C8
14
D4
69
AC
3E
4B
1B
55
FF
05
07
6C
54
3A
62
97
85
3D
56
DF
17
22
34
B7
6E
D8
22
55
B4
43
98
E3
5E
73
F7
21
52
2A
F6
D5
65
4F
C2
CF
FD
23
BA
9B
CB
D9
87
AC
4D
BC
6D
63
B1
E1
E7
3D
7B
05
D2
80
8B
DE
54
89
B7
CD
CB
C4
77
CB
DF
66
0E
D3
A6
E0
52
1D
59
F0
DB
73
91
1A
A7
1D
7A
9B
A8
F0
85
62
C4
32
8C
28
C4
93
AF
C6
05
CD
8C
80
D6
BA
80
6E
42
86
D0
DC
E4
E0
0C
55
A0
34
E7
AB
3D
3A
8C
7A
0A
35
6B
C9
48
5B
A6
2F
75
C8
F5
DD
B7
6F
C1
4A
57
16
E9
1A
58
3E
33
C7
36
5C
3B
5B
98
C4
DB
E4
EE
BC
BF
A3
08
3D
76
B9
0B
99
E3
08
8A
9F
15
77
70
28
CC
B0
A5
78
25
16
9B
3A
2D
87
07
24
94
0E
C9
7A
DF
49
D8
CC
D3
5F
AE
31
8D
D0
23
05
BD
76
7C
C3
40
4A
31
54
EF
9B
6A
60
CD
FD
08
4C
A9
01
E8
A2
FD
D0
BB
7A
5E
FD
C7
35
3E
B5
42
19
2B
5D
34
79
B4
0F
51
BB
1C
D9
6D
E2
80
E7
E2
93
F3
88
90
10
41
CA
E3
7A
64
21
34
63
A1
3A
9B
41
2D
CC
71
60
6A
64
3E
3A
B7
B5
8E
09
C5
44
12
0D
06
87
7B
B0
02
FC
55
C0
B9
83
45
9E
AC
DA
2E
10
65
16
C6
3E
23
EE
6B
B7
E5
A7
AF
1B
ED
C9
C8
5C
47
E9
13
3D
D3
74
24
E6
DE
17
CA
56
97
34
81
7C
75
43
BF
BD
44
35
D5
A7
FD
E6
EF
AF
D4
26
23
C3
CA
48
84
39
F1
8B
3F
DA
68
A7
06
ED
82
EB
C5
D7
E9
88
77
7A
E6
FD
15
ED
A8
98
C9
7A
8C
49
2D
24
71
6A
A7
34
83
B2
BC
3D
CC
4C
6D
6A
DB
98
2D
B0
6C
0C
D3
EA
2A
7D
1B
32
89
BE
56
D0
6F
AA
4F
52
BC
C1
BE
D4
F7
49
64
A8
41
D6
E4
25
C3
24
1C
75
6D
92
91
43
72
7B
DC
CA
FA
DE
85
A1
A3
B5
34
DE
3E
A5
D1
6F
C6
9C
9F
70
38
F2
7B
D3
7B
F3
29
CE
05
48
2E
E4
59
D1
9E
DC
66
98
BD
F5
74
DE
B7
72
AC
B0
F5
B2
AA
8A
0A
8A
97
64
99
4E
C8
53
DB
8A
34
E1
9A
F8
A4
B3
52
61
D4
FA
B8
C7
65
70
6C
AD
67
7E
1A
43
AA
49
BA
06
01
64
3D
36
FB
26
93
EC
D0
78
82
C3
22
87
8F
F4
4C
DA
66
00
21
98
2B
6B
3D
A5
5C
F0
9B
91
CE
33
76
0B
1D
1D
D6
1D
A7
A5
CB
8A
76
B0
EA
91
F0
C7
6D
04
C0
2F
1D
2B
1C
18
4E
C7
F4
2B
E9
A9
FE
45
0C
54
1D
1C
EC
6D
67
7B
D5
78
6D
35
4A
D9
1F
2B
76
CC
89
6C
3C
C7
DA
11
E4
0B
32
1A
71
B9
87
2D
96
28
B2
81
63
B3
23
BB
E0
65
E9
24
7C
8F
36
60
DC
3A
A2
23
A5
0F
23
B5
80
56
EF
2A
CE
A7
37
61
88
FF
23
36
88
77
58
5C
4E
D3
D3
BC
34
78
BC
63
47
E2
3D
99
07
61
F3
CF
E2
EF
6C
97
D7
ED
F4
92
47
57
D0
09
DC
3F
56
3C
0D
4C
98
55
0C
51
EF
84
EB
3B
3F
D7
89
F6
AA
80
29
C1
C2
FB
B9
C3
F9
0A
49
25
51
9B
DE
D5
F9
DE
79
DE
32
69
92
9E
ED
E6
B0
A4
37
5A
AC
BF
AA
2E
BB
3A
97
0F
D0
85
DF
5B
60
28
21
68
4C
9E
3A
03
AC
A0
81
A6
02
65
81
40
9D
E6
89
45
B8
CA
96
74
E6
B7
8E
9A
E0
77
75
5A
3A
59
CB
6E
22
AE
7F
C5
5E
96
EA
FE
15
9F
10
14
8E
4F
51
E2
CA
B3
0D
44
C8
FF
50
E8
03
C9
CE
EC
B3
BF
CB
30
41
83
7A
1D
48
9D
0F
17
25
D0
1F
B6
5A
6C
16
40
4C
7F
65
3A
3F
9E
A1
FC
E5
F4
61
26
74
57
8F
18
AF
C0
A1
AF
63
07
67
F0
CF
2B
7D
85
24
65
C6
A5
5F
D4
A0
FD
33
EE
43
D9
34
8D
AA
44
55
A0
3F
A2
05
FC
F3
1E
7E
15
46
86
04
B8
11
F1
8E
E2
C3
A1
9A
15
70
FB
D4
44
7C
20
1C
65
7E
AD
67
3E
3C
29
6C
84
4A
27
0E
4C
6A
98
C9
D6
93
86
C3
93
8A
63
B6
BA
CE
AD
70
8B
AD
61
8E
5E
BF
4A
CD
7D
50
5D
47
A7
E1
7E
B0
B7
F1
6E
B0
93
EF
9D
08
51
CB
FB
44
20
69
61
35
C8
1B
B3
1F
3C
AF
E1
E1
2C
A2
CA
53
57
07
D6
59
C8
5A
33
0B
32
95
75
EF
A9
F5
2B
6F
26
F6
66
3F
37
D5
96
3B
1E
96
FE
7B
67
23
9F
A2
B9
2A
74
B0
C6
B1
FF
97
8E
71
CA
13
F4
49
B7
A4
86
50
DE
35
14
5D
E9
BB
40
8C
EE
18
89
1D
5C
94
27
B8
75
01
50
ED
53
E0
34
1D
6A
B3
39
C6
8D
78
66
09
CF
7C
81
62
06
7A
BD
C1
AB
28
9B
5D
00
28
41
D2
6E
80
02
26
4D
D8
B2
24
9E
BB
C7
FB
B7
D3
7D
82
CB
E3
D1
58
40
AC
E2
A1
B7
2B
F7
F6
49
A0
3B
FE
AA
3E
2E
F9
57
6B
73
D5
98
34
98
A5
05
BF
18
0D
52
37
6D
BF
98
CC
55
26
47
B7
55
B5
EA
C2
81
81
5A
CD
90
DF
DC
94
BB
2A
42
4A
C8
B4
2E
B5
32
82
C9
E6
05
A8
E2
D4
37
07
9B
2A
F8
D9
15
AF
A1
5F
66
54
CF
CA
C0
E8
61
F1
9B
4B
C0
BE
91
6A
7B
40
BF
A8
C2
4E
EF
0C
D6
83
7B
99
63
43
EC
C3
7F
5B
34
6A
C0
09
33
0A
A7
4A
5F
03
63
B1
68
22
A8
96
A6
11
E6
3C
83
B9
CD
2E
72
5E
2D
02
1C
5D
A3
E6
47
D7
4A
66
60
97
10
10
75
24
8D
15
A6
98
57
73
D0
B7
51
5A
D3
43
FD
F7
CF
9A
6C
8F
7F
4E
32
CF
69
0F
7E
67
E0
33
96
02
F9
39
DB
33
F5
CA
D7
57
0E
7C
10
4D
13
53
F9
04
67
E9
44
B2
30
83
68
44
C6
60
9B
6E
47
C7
54
9F
AF
82
1F
EC
11
37
07
B0
6D
BA
78
E0
5F
2C
73
3B
2A
99
A0
2D
49
C0
A6
C3
D3
46
D9
F8
9E
BE
D0
DD
BB
D8
3A
A8
F4
77
44
D0
9B
3D
D1
C2
B7
7A
83
0C
D1
22
3C
6B
75
79
A9
6F
92
40
AD
63
D8
35
8D
91
9F
40
6E
D6
38
26
46
E2
BF
5B
1D
70
2A
D9
CB
60
F8
D9
B6
32
63
61
2C
75
4A
BF
37
23
C2
AC
E7
50
31
37
2D
66
61
DD
F3
21
0D
BB
5B
8B
35
96
5D
84
07
3E
A7
2F
73
4D
60
67
31
E7
3B
F6
7B
47
BE
5A
71
04
2F
7B
54
CF
74
27
52
8C
02
8C
FE
52
07
19
9A
BD
78
8D
0A
7D
EB
5F
B7
BB
6D
8A
A7
45
6E
A5
C1
DE
3B
4F
41
18
34
F6
25
BC
0D
38
00
40
8E
95
B6
E3
6D
F8
3B
0A
38
6E
CF
C7
C9
8F
DB
BD
34
CC
BA
1C
B7
4B
0C
B5
8B
D1
0D
5D
DC
1C
59
1B
64
D1
02
74
02
ED
AF
AF
92
81
41
67
F7
B5
F3
2F
FF
01
CB
66
57
02
9D
E8
DB
DC
B5
8A
FD
B7
B6
F6
01
47
AB
AB
40
0A
38
F1
0C
CB
9B
B6
78
9F
2A
2E
9C
03
01
9B
5A
88
51
52
A0
