96
5D
CB
70
FB
05
33
EB
69
15
61
DB
7C
5D
BC
70
70
53
28
AF
3F
D6
7C
8C
7A
AA
E7
E1
FD
60
D9
CB
DC
4D
19
34
71
EC
43
95
13
98
94
DF
0F
DA
D0
F5
90
94
4C
0F
CF
C4
0B
A9
12
3E
7B
E3
77
49
D0
85
F7
2D
3E
54
87
1F
0A
06
A5
D0
88
50
25
66
EA
69
B4
3C
18
83
5C
8B
9B
4C
68
12
D1
F0
63
DA
83
BF
59
66
3B
0C
9E
AF
51
35
2B
CF
2B
5A
BB
4D
89
34
4B
4D
48
DB
F6
51
84
30
90
D3
63
65
4E
58
28
20
48
F2
FB
32
A6
27
9E
4F
A9
4F
BF
6C
AF
CA
CB
E2
26
75
66
5F
29
F8
21
4C
9B
A7
09
5A
1C
85
85
AE
AA
CB
21
8B
82
C1
31
35
F3
D7
9E
12
89
E4
87
CC
BA
0C
46
CA
E9
D7
93
CD
8D
7B
C0
37
CB
92
4E
6A
AE
59
52
AD
29
9A
96
48
5D
4F
9F
CD
9F
3D
AC
48
1F
2B
D7
8F
A9
71
77
7B
9F
85
AA
BD
19
58
36
B8
72
AD
6F
A9
80
D1
DE
5B
37
00
04
5B
FC
CC
2B
9C
79
5A
11
CF
69
80
EA
61
81
8C
71
4B
50
3B
F5
4D
9D
02
3B
92
77
31
5D
06
E6
62
D2
BE
C6
83
00
01
33
41
03
61
5A
48
2A
3A
88
2D
82
4D
15
3E
0A
68
