45
41
58
AB
6A
3D
EB
7F
9C
CE
65
E3
6A
3B
B4
0F
66
C1
BE
75
C1
8E
ED
B6
12
97
62
9B
43
E9
97
9F
B9
86
41
30
45
45
76
F8
70
4E
12
CE
38
8F
17
8F
A4
D0
A2
F7
3C
E6
1D
56
5B
E6
C2
44
1D
9B
DE
84
C6
E9
AC
7E
C8
FF
B0
FA
98
B4
0B
16
E0
CE
44
B2
7E
94
23
8F
C0
A0
06
AC
72
6A
B6
80
05
4F
9D
3D
11
CA
F9
24
09
BC
5C
BE
5B
40
2B
71
8A
D0
11
C0
E0
E1
87
55
C0
D9
39
51
4C
B5
96
85
64
AB
D4
7B
53
71
ED
95
C0
1F
6B
4B
33
C4
2C
02
C2
7E
3A
42
45
DF
1B
37
F1
26
EE
3B
81
8C
A4
CF
5D
41
57
0F
C1
7E
7E
32
1F
66
81
84
69
64
AA
36
8F
EB
DA
1F
CB
6E
14
AD
00
78
52
F6
F4
26
AE
67
47
82
38
4A
AF
B1
79
EE
31
8D
5A
DA
8C
57
C9
16
0E
5E
3B
63
34
58
F3
82
AB
DB
BC
52
07
3A
24
EB
49
8D
66
EF
2D
FE
73
E7
44
B5
02
5D
71
4C
12
28
92
E8
E9
63
EE
F7
DB
5D
A5
D4
28
1B
7A
BD
7E
9E
8A
64
A2
AB
74
1A
CE
28
2A
61
F1
49
13
4D
D0
F7
93
27
EA
95
14
03
2D
EA
51
D3
62
97
38
3F
BD
2A
B1
78
1D
B8
