01
DF
CC
10
5C
B5
E7
73
E0
40
A6
8C
C9
F6
E5
D5
E1
02
43
97
EB
40
2C
F6
B6
30
19
A7
C7
C2
6B
C6
64
57
73
41
F5
3E
37
9F
BB
39
54
5D
60
C7
56
9B
6E
72
FB
D7
05
DC
76
D9
EB
C4
E7
31
7E
54
8C
8A
67
9C
AD
D3
EC
C2
C9
CD
92
2F
0A
90
DF
4D
46
82
9A
B8
1E
C3
00
59
FC
0F
EA
F8
AE
B6
F3
59
4A
62
20
79
1F
35
FD
E1
C6
71
27
B6
9D
91
1F
07
41
24
C4
1A
23
DE
10
33
3D
1A
7D
2B
9F
6E
07
3B
14
89
38
7E
72
F7
29
F9
CB
15
61
5E
C4
73
88
D0
8D
4D
34
93
7A
3D
90
5A
F9
97
55
82
D2
52
FC
E5
9C
9B
98
5C
0E
2F
01
E2
42
67
F6
15
B2
93
55
47
2D
AD
84
AF
A3
27
03
6F
9F
30
A3
86
2F
5B
05
64
99
D1
F3
71
6F
B2
94
56
DF
1D
CC
C2
63
8F
75
B4
EF
A7
E4
35
EF
62
F6
8F
55
57
58
7A
95
6B
99
02
5D
BF
B6
7F
E6
8F
A6
5E
BD
8C
D3
59
80
01
A0
68
CD
73
0D
39
19
14
37
44
5F
2B
E3
20
9A
E1
50
BB
06
A3
94
E0
EF
13
2D
84
8A
F9
8F
14
F1
B4
ED
BE
5A
D3
0F
9F
87
EB
77
B2
5C
0F
53
85
4B
45
9C
91
50
60
