5B
6C
A0
CB
23
5E
AE
9E
1C
7F
90
DB
46
16
00
BE
26
67
F4
D5
5E
6A
B0
64
F4
5B
E2
70
A2
ED
FC
00
9B
ED
C4
24
A3
D6
54
D4
89
4A
9C
CE
04
49
1B
1A
DF
A7
18
44
C5
99
82
B5
C2
90
AA
E4
9C
EB
93
7F
0D
8F
94
C3
0B
38
75
3F
4D
94
B2
3E
EC
25
C8
49
89
D4
D4
3D
D6
49
21
5C
13
91
EF
54
3F
BF
87
A7
BD
D3
2E
B3
24
F9
C1
C0
C4
F9
D0
6F
ED
C8
80
F1
21
8D
D8
BC
7B
FF
26
43
EC
CE
66
F2
52
AD
E1
5C
18
62
82
1B
78
9D
3E
F9
FD
62
EF
87
41
F6
DB
C7
18
98
B9
35
AD
EF
48
AC
EA
24
C6
52
17
50
81
28
A3
6F
6B
89
75
90
DF
1B
B5
24
30
DA
E0
2F
DF
78
32
DB
8E
70
15
38
83
06
A6
15
94
81
B6
E4
03
DA
B6
61
5A
15
00
63
0A
24
1B
F7
40
F7
19
E1
29
9D
42
A1
61
B8
BF
A5
5B
83
A3
2E
1C
D2
EC
F9
9C
9B
60
64
03
41
2A
D3
A3
7D
62
09
25
4F
A8
DF
CC
6F
BE
9C
27
E6
38
03
2F
F2
04
5D
2C
BA
20
75
C4
AE
60
70
BC
A3
9A
21
C2
8D
34
8B
49
25
45
C5
C9
2C
07
C2
C7
BD
D3
72
3D
64
40
B3
66
16
39
0A
CB
44
