4B
B9
BB
47
9D
9B
D4
FF
A7
23
86
46
FA
F2
02
5A
6C
D5
F0
10
0E
E9
05
17
5E
03
D8
80
BE
4E
F1
7E
25
36
23
6B
15
85
1D
0C
CD
CC
3B
16
BF
05
A2
F1
44
76
8B
BB
8F
D9
DF
90
DF
B9
05
09
F9
1F
F7
02
D6
6E
9C
A1
99
8C
52
94
C4
42
C9
99
AA
E6
18
44
28
37
0A
FD
90
88
B9
48
E6
21
5F
49
4F
E2
68
87
C6
29
CC
F0
11
F6
9B
1D
F3
4D
DA
D8
A4
DC
8D
DB
7E
DE
15
DB
F9
3F
BC
C5
D9
01
8F
48
A6
DE
6C
93
5D
2F
5B
60
65
0C
21
31
C4
B5
13
D9
93
30
29
3F
8D
E7
54
0F
89
0B
E8
98
62
66
62
C8
39
E9
02
AE
74
B0
81
EF
B4
2A
A5
0B
07
7B
14
E1
60
1E
66
76
44
CF
7D
F2
C5
A8
19
EB
B4
8A
A7
E6
13
BE
5A
1B
C9
DC
7D
79
99
EC
08
EA
55
CC
71
D8
4F
D2
C4
F0
11
B1
F6
26
4E
A1
77
F9
18
BA
06
F8
52
A1
C9
85
69
67
9D
D9
3F
AE
AB
48
68
0E
3C
C6
99
B7
CE
AB
5D
57
66
B3
0A
3E
29
49
F4
C0
26
05
E0
DA
77
73
BC
19
88
16
8D
B8
B6
AC
A8
08
1C
B4
25
15
A9
2E
91
87
76
A2
E3
C6
57
63
B1
62
B1
15
A4
B1
8B
6D
