5A
8A
0A
C0
20
B5
3D
A2
ED
B7
82
B1
50
49
F8
23
29
C3
9A
FD
CB
3C
65
71
6F
DF
23
47
ED
6C
BA
8F
7D
55
89
7F
9A
EE
5A
D9
EF
1A
5C
54
87
C4
92
71
96
5D
CB
70
FB
05
33
EB
69
15
61
DB
7C
5D
BC
70
70
53
28
AF
3F
D6
7C
8C
7A
AA
E7
E1
FD
60
D9
CB
DC
4D
19
34
71
EC
43
95
13
98
94
DF
0F
DA
D0
F5
90
94
4C
0F
CF
C4
0B
A9
12
3E
7B
E3
77
49
D0
85
F7
2D
3E
54
87
1F
0A
06
A5
D0
88
50
25
66
EA
69
B4
3C
18
83
5C
8B
9B
4C
68
12
D1
F0
63
DA
83
BF
ED
A6
CA
A7
40
F9
31
E0
F0
2D
B2
3B
4A
BA
99
C0
B2
83
49
DD
A2
64
84
04
2A
C7
32
4F
1C
86
5A
84
A4
9C
B2
B1
50
13
92
87
B9
BE
20
04
35
36
A0
66
26
75
66
5F
29
F8
21
4C
9B
A7
09
5A
1C
85
85
AE
AA
CB
21
8B
82
C1
31
35
F3
D7
9E
12
89
E4
87
CC
BA
0C
46
CA
E9
D7
93
CD
8D
7B
C0
37
CB
92
4E
6A
AE
59
52
AD
29
9A
96
48
5D
4F
9F
CD
9F
3D
AC
48
1F
2B
D7
8F
A9
71
77
7B
9F
85
AA
BD
19
58
36
B8
72
AD
6F
A9
80
D1
DE
5B
37
00
04
5B
FC
CC
2B
9C
