A2 
21 
44 
68 
07
FB
D7
87
60
0C
96
BA
B1
92
D0
E9 
D7 
4D
59
60
77
9B
24
1A
35
E2
14
3F
26
2E
10
EB
87 
1B
56
31
AF
F6
11
60
42
1F
2D
84
A8
B1
6A
30
BD 
65
AF
7B
CA
B4
A2
49
B5
3C
75
CC
74
65
02
4A
C7
44
1B
20
27
C0
1B
07
F9
F3
C1
96
08
D3
3F
08
32
11
8D
40
62
41
03
0A
BE
3C
27
A4
21
C2
C4
7D
CB
64
3C
3C
57
A1
1E
04
EE
50
FB
F6
BB
3E
76
F8
9E
17
9B
B5
25
8A
72
E5
B8
A8
D3
CF
13
8D
7B
0C
FA
43
60
8D
27
E3
42
E0
88
FD
83
AE
A7
3A
38
89
6A / 0/0/0/1
40 /
80
E4
FC
D6
15
63
0B
49
20
56
34
0E
52
80
BB
A8
30
1C
80
CD
AE
22
2E
C4
00
C6
B6
11
AD
41
FC
54
E5
D5
CF
6F
14
0B
1F
E7
B7
40
6A
8D
6F
5F
78
5D
53
F0
48
A6
8B
52
4A
6B
1B
44
CF
09
FC
AB
BD
1B
71
8F
87
9B
98
66
5C
4A
3F
95
9F
51
FA
34
98
28
72
11
69
B7
00
F8
43
BB
7B
32
D9
6C
4E
4C
15
5D
CD
1A
0A
A3
C9
FA
2B
39
61
5D
BA
A3
1C
84
83
D2
35
88
C9
48
36
9D
81
7C
C8
97
BE
80
CA
AE
6D
E1
A0
7E
42
CF
CE
52
F2
7D
C5
A1
A3
CB
FC
D9
A0
23
43
5C
52
A0
55
C8
6C
76
AC
7C
65
8E
99
58
2B
70
93
C3
16
66
D0
F3
1A
DE
12
69
42
11
C4
BA
59
E2
45
95
EA
09
84
02
6C
70
CD
E8
B6
DD
E2
D2
B9
D2
4E
F2
6D
B2
F6
67
0C
24
F1
BB
7F
BC
99
B0
15
D9
E2
3C
7B
C9
EB
D2
E9
34
D3
E3
99
B7
CE
A5
7D
CF
78
13
31
F9
69
35
2F
17
09
A1
42
16
A5
42
3D
CE
C3
58
EC
29
B3
C0
4B
88
67
76
F6
62
85
58
E1
2E
B9
2C
49
84
50
E5
EA
7F
03
22
73
65
10
F8
37
8A
90
F1
25
71
04
54
FA
35
31
A7
B5
27
2E
73
4B
B9
BB
47
9D
9B
D4
FF
A7
23
86
46
FA
F2
02
5A
6C
D5
F0
10
0E
E9
05
17
5E
03
D8
80
BE
4E
F1
7E
25
36
23
6B
15
85
1D
0C
CD
CC
3B
16
BF
05
A2
F1
44
76
8B
BB
8F
D9
DF
90
DF
B9
05
09
F9
1F
F7
02
D6
6E
9C
A1
99
8C
52
94
C4
42
C9
99
AA
E6
18
44
28
37
0A
FD
90
88
B9
48
E6
21
5F
49
4F
E2
68
87
C6
29
CC
F0
11
F6
9B
1D
F3
4D
DA
D8
A4
DC
8D
DB
7E
DE
15
DB
F9
3F
BC
C5
D9
01
8F
48
A6
DE
6C
93
5D
2F
5B
60
65
0C
21
31
C4
B5
13
D9
93
30
29
3F
AF
34
53
5F
B2
46
10
91
22
22
3C
0E
E8
5C
29
B0
03
47
F2
F9
7D
16
0C
57
9E
41
1E
A6
61
2B
13
F7
24
01
6D
90
A3
E5
DC
34
27
4C
0F
A4
FB
A4
CA
65
20
3B
39
C4
41
5C
84
18
E9
BB
A3
47
F4
12
74
8B
44
0D
0A
76
B5
64
48
34
52
46
AF
11
C9
FE
75
3A
1C
D1
D7
C8
9A
25
B0
FA
0E
E9
49
C2
36
30
73
84
76
1F
D3
1A
CE
0A
7E
1B
0A
DA
C6
5D
38
B2
53
B8
5F
D2
75
0D
6E
BB
B8
87
73
93
B9
21
0D
CC
39
69
24
01
70
83
D7
20
A3
70
B6
CE
F9
91
32
07
8B
66
51
05
BA
9C
A7
64
C5
47
81
83
9B
6C
63
2D
ED
C2
B5
79
88
B9
B9
EE
E2
BC
C0
EB
F2
B3
9E
46
45
CD
5B
34
4F
7C
2B
69
FF
C1
A0
80
96
A9
1F
9C
B8
18
91
50
C3
C5
5A
BC
61
86
8F
F9
59
CE
63
B8
AB
73
E3
25
DB
B5
E4
12
8D
7D
39
51
52
E2
29
61
C2
F1
20
4E
CB
AE
A4
D2
48
56
8B
C0
D5
E7
6B
A2
E2
E2
53
A1
07
50
B8
A6
97
03
B2
BF
78
1E
69
C4
32
D8
C9
3A
45
7C
7E
77
C0
B4
1C
07
0F
08
9D
4F
15
A2
11
70
7B
54
91
6F
47
DC
75
92
B0
66
C7
0D
30
52
F7
DD
DC
38
CF
F5
F1
29
AA
98
AF
38
E1
06
6A
39
87
5A
DE
C9
56
B3
C3
8F
E8
92
A1
C1
2B
83
E6
E9
0F
00
36
E9
81
92
02
3C
9D
39
5C
80
1F
0E
09
31
1B
27
D8
B8
EF
BB
33
A4
75
86
F4
37
7D
6F
7A
24
7A
69
FB
97
7B
97
1B
76
5D
B3
BE
E6
3F
B0
1B
12
37
9E
13
28
43
CF
C0
A3
83
38
50
D0
A5
19
14
8B
A0
E1
D4
4A
A5
4C
66
5E
52
CE
7E
75
2A
34
C8
62
42
89
34
21
3C
36
92
15
79
6E
5E
95
8B
C9
DD
A7
E9
2F
69
0B
E7
F8
08
7C
E5
51
44
32
C6
E2
37
AB
A4
AE
E6
AB
C1
3A
D0
82
C1
F1
C6
8D
17
C7
FC
FF
BE
1D
61
E1
29
E4
2C
58
7C
06
B7
27
FC
01
91
74
C4
D5
CF
CF
BB
21
A2
70
C2
89
2F
C0
32
5A
9A
1C
85
71
64
D5
53
59
F8
7B
81
B3
80
5B
B5
DB
FD
46
0C
C8
97
94
10
34
31
69
E4
FD
41
37
C2
CC
DF
84
A8
F4
1C
EE
4D
9D
94
6C
5A
21
47
D6
D7
B6
A4
A8
E3
4E
E7
03
A9
BB
A5
F4
8F
17
A5
F9
B0
63
F2
C1
8D
6E
2E
34
FF
F8
29
B3
71
18
B3
A1
4B
DB
AE
22
B1
2E
67
22
6E
FE
26
9A
2B
9D
03
0E
E5
68
FC
5B
9E
A7
45
AF
52
B4
DF
D9
2C
60
6C
C3
FA
92
42
3C
DF
31
BE
FB
47
44
DA
E1
20
58
02
7F
48
22
24
D8
41
66
07
68
2C
18
DD
65
F5
C0
1B
44
CB
23
88
7F
D3
1F
94
96
1D
D7
EC
54
D7
10
4B
53
C0
DB
93
C2
E0
75
1C
66
77
6B
4C
DF
33
01
68
2D
A5
D5
A9
72
F6
C0
93
F9
D6
FD
82
78
B6
8D
86
92
37
D9
70
A0
E2
9A
2D
B1
19
F6
53
CF
4D
EB
FA
85
72
F1
CD
9E
B0
DB
61
2E
5C
FF
C5
D7
26
96
5A
45
94
66
E4
FB
AF
9E
E2
52
FC
01
1B
BE
AD
46
7A
54
19
BF
1B
89
6A
3A
A6
3D
95
25
DC
F8
90
F5
6F
73
BF
C8
17
5A
AF
48
E2
50
06
D3
CC
34
BA
DA
8F
A2
82
87
BC
BD
8A
A3
0B
2C
6B
B6
EF
63
5A
70
6E
24
9F
47
30
45
4A
62
D6
B3
21
B6
8D
B7
DC
6F
E2
78
95
91
D8
C2
7A
DF
37
05
C5
FC
28
A1
EE
D0
FF
60
1E
2D
58
44
E8
B2
65
84
34
F0
86
D1
7B
CC
1A
DD
3A
24
96
1E
A0
B6
D4
D0
8A
3D
AD
39
B2
DC
C9
30
23
C0
B6
E0
F1
02
38
CA
26
CA
E0
09
FF
BA
E0
DA
59
8A
1E
5B
66
EF
87
93
A4
C2
A6
B3
10
5E
75
9B
97
4A
73
A0
CD
18
F6
8D
E1
8C
C3
E7
D1
01
DC
76
DA
09
99
00
33
54
FA
58
FA
D3
3C
98
6F
1C
AA
AA
60
11
B6
0D
E4
BC
48
D5
4C
7E
56
F4
57
69
B5
B9
A5
EA
2F
96
6E
AB
D5
26
74
B7
96
6E
36
E0
11
64
67
5E
A8
AD
9E
B8
D6
AB
4F
E8
C2
B7
FA
BA
14
AB
A2
75
07
A4
81
BD
BF
06
FA
B8
DE
C0
CF
70
52
D1
94
78
70
0B
64
D3
47
16
D2
11
2E
B9
22
BB
A0
55
BA
F1
4A
B2
D3
52
61
FE
74
1C
39
13
A1
94
14
F9
D0
A9
38
AC
9C
D4
44
1F
BD
42
C3
80
38
35
02
BE
D3
A8
1F
49
CC
32
63
19
CA
2C
D1
F1
14
16
FF
E5
01
37
25
1A
B0
84
74
CD
F8
C3
A9
96
A2
F0
E1
EE
D6
E0
AF
F0
D4
24
6C
5C
E5
30
CE
E1
90
BD
BC
9C
10
6B
61
DC
06
AB
80
28
6C
DC
07
83
CA
B4
E6
EE
AC
E2
21
2F
53
F1
24
D1
AB
70
58
6C
7D
50
F3
26
E6
8D
14
7A
08
11
0F
38
FF
D5
05
CD
16
49
B9
C5
3B
F6
9E
8E
B1
61
35
7F
05
33
95
18
43
98
4B
8C
69
E5
65
7C
1C
7D
CA
06
9A
F5
CD
FE
F0
76
01
7B
6D
63
4E
96
56
3C
44
6E
DB
C3
B0
70
4A
5D
6D
D5
83
BA
7D
6B
AC
B8
58
99
26
85
84
9D
BF
04
66
19
29
73
58
CE
AB
4A
FC
A7
16
66
CF
F9
FB
66
01
09
1B
56
84
CF
1F
8B
63
F9
89
CD
55
33
EB
BC
92
A6
56
6C
E5
BE
16
53
02
31
9C
65
1B
3D
BC
7D
AE
31
19
FF
A1
2E
DD
BB
90
2F
AD
15
66
47
DC
63
2A
2A
DE
97
1C
EF
00
1E
01
14
57
08
BB
C3
F6
68
1C
53
64
FE
FC
12
4E
13
89
42
78
A5
DF
61
F9
C4
D9
AE
A8
3C
26
E8
D2
74
9F
59
2E
96
D7
13
12
F0
F4
7A
E6
9B
BE
02
DA
5A
F6
3A
D4
C4
E9
0A
AC
A6
45
38
9C
A3
2A
31
F2
1D
84
07
08
59
99
B6
76
DD
DE
AB
86
1D
0F
87
E9
57
7E
20
A8
BC
AC
C8
5D
D0
16
D3
A2
13
51
53
CA
E1
59
26
CF
97
27
33
8C
F7
81
F0
2C
CE
16
28
E3
D3
CA
FB
DC
D3
4F
26
72
0B
F5
84
A2
D6
C3
D5
C0
88
C6
BF
6A
99
A9
12
BB
06
86
50
C0
F4
FC
6D
30
96
82
D3
57
52
FA
A9
54
1F
8A
55
84
32
A7
3F
3E
D9
72
D8
C1
A7
48
DC
6A
D1
94
D4
2B
D8
E8
DE
38
68
4D
B0
03
81
D7
DB
6B
D4
7C
4D
30
70
25
1A
AB
9D
06
7C
BC
08
2B
18
03
21
54
82
53
C2
03
04
63
11
D3
9B
C7
A7
0B
43
1F
F2
73
74
8F
D7
67
ED
6F
9C
29
B0
43
06
7C
4E
ED
BE
6E
64
21
F9
75
66
1A
58
BD
9B
8B
0D
C1
69
D9
40
19
D3
87
B1
92
40
F2
9E
84
7E
3E
E7
60
06
90
70
89
82
7D
C7
65
8C
C3
07
B3
B9
37
FC
1F
D6
FF
87
13
71
01
44
D1
9C
9B
6B
BF
ED
95
F4
01
C9
54
FF
4D
E2
50
72
FB
FF
C8
E4
5C
FC
B4
BA
4D
11
FB
8F
0C
57
E6
DA
4A
87
D4
CA
81
05
30
75
87
1E
A1
32
64
8E
80
43
61
46
8F
B8
61
6C
E8
8F
74
A2
33
20
AA
8B
1C
B9
25
8B
05
85
72
CF
F7
B2
1A
8E
DF
D2
73
8E
F7
82
BC
E9
82
4A
69
11
BC
C5
BC
12
11
02
95
17
8D
29
8B
30
94
62
3B
52
D3
F2
E0
A0
76
A7
25
E8
9B
77
37
71
07
64
1D
F4
18
A3
4C
E8
FB
FC
76
02
1F
74
A4
FD
EA
2A
84
97
AA
7F
04
DC
CE
79
1F
A6
56
6A
F7
65
88
CC
25
1C
E5
70
4D
AC
5B
D8
F5
55
BC
E1
97
7A
6F
A4
F4
A4
66
9F
AC
CA
4F
10
0C
D0
0F
A2
27
4D
6C
4B
28
91
09
75
E6
E7
98
5C
B9
17
4B
B7
8D
2F
8B
9A
34
83
ED
9B
01
F3
62
34
92
6C
AE
68
ED
B2
1B
A9
CF
5C
6E
FA
40
20
1A
51
6B
50
B4
3F
AD
A5
A7
D2
EC
3C
29
BB
2A
DE
6D
AC
59
84
1A
04
71
1A
FD
AE
C1
84
FA
46
82
DF
49
7E
B2
09
DF
C1
20
63
29
16
C3
D5
00
46
4F
13
DA
41
0A
1F
3D
BE
DC
10
7A
22
A6
11
97
A3
D5
AC
8D
AD
37
49
B4
84
0D
F1
7B
2C
61
58
5C
86
9A
1B
0F
BB
4D
46
FE
DD
56
19
FA
CC
28
0C
2C
57
61
10
4E
A4
A2
18
1B
D2
9D
D8
03
DC
6F
CC
24
C1
31
7D
76
E2
C9
00
45
AB
06
BF
E5
75
ED
7C
A1
AB
4D
92
F4
2C
9A
7E
FC
F1
F7
9F
2B
F0
95
3A
40
40
3C
C1
75
7D
27
55
FA
6E
15
89
A3
E5
9D
69
DE
E7
C2
BB
E7
0D
C7
84
3F
2A
45
CE
5A
2E
7A
A9
97
4B
E4
70
76
56
0E
4D
06
6F
AB
FF
9C
E4
E1
DB
CA
53
E7
11
8F
0F
D2
31
CC
C5
AC
EE
F7
60
C7
21
13
29
50
11
E0
33
27
F1
4F
F6
EE
AA
38
3A
61
DB
4F
37
E5
1E
55
FA
63
8E
8B
0A
56
86
6C
4C
23
AB
9B
24
AA
2C
1B
DD
1A
48
BE
4B
09
11
E0
AE
C4
70
54
DA
E3
6A
9F
95
21
A1
64
41
6B
1E
20
BB
37
4D
18
82
17
49
8F
1C
8E
5A
3B
B5
22
BD
FA
0A
B2
A3
C2
85
0A
7B
D6
A9
B5
74
40
B1
12
3E
7B
74
AB
11
70
8C
C1
F1
A4
B7
2C
30
AF
7D
62
34
F0
14
D5
7B
7F
80
82
DB
63
FE
C6
0F
05
A3
74
6F
E5
41
26
FF
8C
8A
D0
AB
C2
78
9B
D1
00
EC
F0
00
28
95
D2
00
74
13
72
12
AC
5C
FD
78
9D
5F
B9
38
C6
E8
50
1E
54
C4
6C
00
51
25
83
45
18
48
F5
A8
0C
54
54
3A
89
86
02
A6
1B
8B
02
B9
EE
2D
08
22
86
32
D2
76
B0
81
BB
77
B9
87
8E
95
DD
D9
98
B5
02
1B
01
32
A7
20
5C
21
17
52
7C
DA
E2
55
89
B4
8D
E7
54
0F
89
0B
E8
98
62
66
62
C8
39
E9
02
AE
74
B0
81
EF
B4
2A
A5
0B
07
7B
14
E1
60
1E
66
76
44
CF
7D
F2
C5
A8
19
EB
B4
8A
A7
E6
13
BE
5A
1B
C9
DC
7D
79
99
EC
08
EA
55
CC
71
D8
4F
D2
C4
F0
11
B1
F6
26
4E
A1
77
F9
18
BA
06
F8
52
A1
C9
85
69
67
9D
D9
3F
AE
AB
48
68
0E
3C
C6
99
B7
CE
AB
5D
57
66
B3
0A
3E
29
49
F4
C0
26
05
E0
DA
77
73
BC
19
88
16
8D
B8
B6
AC
A8
08
1C
B4
25
15
A9
2E
91
87
76
A2
E3
C6
57
63
B1
62
B1
15
A4
B1
8B
6D
2A
BA
E7
38
6A
51
52
9F
7D
84
BA
A9
DB
36
80
01
13
0A
CE
FA
C0
83
2B
D0
B8
69
4C
31
86
6E
2D
FB
1B
11
61
48
C0
C3
A7
A8
4F
48
BD
AD
A3
61
79
AD
4D
A8
15
C3
88
BB
CB
17
70
9C
A1
5F
6E
58
87
A6
F7
E7
9F
4C
76
54
DC
4F
86
1E
CE
C8
65
DD
BC
B9
A5
28
F4
05
25
B7
5F
C0
40
C5
58
A9
44
B8
BE
F5
26
04
48
4F
74
4D
19
1C
8A
CC
95
03
09
F3
72
AD
85
54
12
C9
7E
BF
10
54
92
AA
19
17
F0
D6
FD
71
10
30
05
56
A2
F6
88
98
C4
1A
B9
65
77
EB
C3
12
54
F2
18
16
7B
1A
05
5A
CD
15
8B
B0
5B
FA
6A
A0
1D
33
7E
6B
E8
96
4E
4A
9A
D2
E3
F7
98
0D
D6
6E
7A
CB
AD
F5
04
12
68
5A
58
CC
56
7C
6B
6C
2D
0C
B6
D4
5A
95
2E
76
96
BA
75
BA
BA
C0
52
A0
D4
4C
5F
A7
7A
6D
01
ED
5E
DC
9D
97
23
83
09
73
6F
3D
41
DC
42
DD
5C
DF
86
71
BE
9C
E7
C8
8E
EE
E4
31
6B
4E
26
86
5A
F4
11
69
03
40
9A
CE
1E
59
58
BA
28
14
DD
49
5A
17
46
F6
DB
3E
11
17
35
3D
2F
A7
06
87
5A
48
F8
6F
A9
88
F2
8D
62
64
90
64
0F
0B
D1
41
D4
E4
10
66
FF
D1
36
68
E1
B6
2D
D6
DD
35
98
1B
BE
BC
C1
A6
4D
C2
D2
48
24
4D
49
DD
BD
B8
A6
2E
CE
B3
66
16
D9
8B
35
E4
FE
AC
60
01
15
64
89
D3
F9
E9
9E
E0
26
9E
0C
37
87
92
2F
0C
89
49
0D
A2
74
C0
45
6E
FB
AB
42
79
12
01
B4
06
FF
BA
41
75
B4
D8
77
67
5C
A4
06
23
34
3A
2C
38
9C
47
70
64
6E
12
93
B5
8E
B9
C4
EE
C2
BD
13
2C
C4
C1
28
C9
96
8F
35
81
16
5C
29
D3
D2
4D
27
AA
1D
3A
36
3D
63
B1
3A
34
B9
3E
23
0C
B8
E9
64
BC
8C
01
A6
99
48
18
BE
77
7C
4F
DD
11
0A
D4
07
AB
35
A8
C7
F5
FB
A6
20
33
A5
C1
C6
9B
9C
8D
8F
FE
7E
01
24
AB
71
7B
FC
91
B8
04
8B
A3
84
D5
B6
81
0C
1B
8B
54
DF
F8
2F
F9
79
CA
17
63
15
AF
7B
3A
C3
49
08
C8
BA
BE
D6
16
EF
03
99
52
E7
5B
1B
74
C9
1A
EA
22
B7
AF
4D
D0
5E
E1
7D
2B
CC
59
12
B8
82
61
BC
B8
CB
EB
33
50
4C
D5
71
E6
DB
6B
1E
CE
95
2E
4C
26
2A
D4
64
FE
7C
8F
60
BD
69
92
3B
BF
E4
D2
A6
43
4B
09
FD
85
F4
01
79
27
0A
0F
A7
D5
97
DD
19
29
E1
6D
5B
CC
FA
5B
28
DF
93
63
DE
99
11
22
30
31
E3
21
1B
FE
12
0F
1B
DD
19
4E
9E
D3
F8
B2
B9
F3
84
85
1A
82
01
CE
3E
5A
F2
D2
E4
8C
30
DC
C1
49
3A
3A
75
03
CC
88
BE
CF
B3
31
EB
0E
DF
32
94
4C
BA
21
89
68
B8
6E
08
F5
2F
EA
33
E1
6A
85
C0
54
F9
5C
F3
DB
4A
F3
C9
C6
7E
BE
77
CF
75
E7
12
FC
2B
4B
90
C6
48
C6
EF
7A
F2
B0
B4
E0
E6
A7
97
1B
C7
8F
7D
D0
B5
D8
A6
8A
22
FF
28
5D
E1
58
9C
CA
80
0A
17
E3
D8
5B
5C
AF
E2
2E
4F
D0
CD
C9
AD
63
4D
DC
FB
28
35
BF
BC
E3
48
FC
E7
02
4C
0D
98
7F
61
67
06
08
91
B7
B5
5E
A8
6B
ED
FB
46
74
6A
F7
32
4A
55
2C
F1
31
73
99
98
BC
9D
04
DE
8F
70
E3
75
68
45
7D
9B
61
63
4D
EC
6F
74
A7
7A
2F
36
9E
1F
E2
73
24
12
B5
33
73
B9
47
30
AC
BE
65
8A
BE
65
18
BC
8A
1D
E1
CF
45
55
43
CE
1D
90
82
79
1F
BC
AB
3D
58
BF
D4
64
3A
54
A5
8A
42
15
17
50
D8
D8
7C
54
77
3F
C0
60
0D
8B
EE
E1
A5
B1
F5
9B
43
B0
AD
9C
0F
21
15
6E
B6
10
DF
91
0E
0A
2E
28
F9
77
9E
F3
8B
2B
85
7D
6F
37
78
97
86
05
11
04
D2
A4
F0
76
93
60
00
BA
AF
96
FB
2F
57
C6
31
7C
E8
EA
85
82
0F
06
B8
90
31
01
EA
D6
0A
B3
5D
1D
94
3F
7D
B5
2A
A3
1D
AE
ED
8D
04
4B
67
71
A8
B3
6E
D8
39
EA
4B
FB
E1
00
1C
90
4B
88
77
E4
62
4C
50
2A
5B
3F
1D
12
F5
B3
37
9E
FF
CC
84
32
1B
35
53
EA
C3
11
87
2F
89
35
F8
8D
A3
94
16
BF
A6
FA
D0
0C
92
FE
B4
D7
0F
32
57
71
F6
9C
F7
31
13
6A
5F
C7
2A
E1
0B
CD
37
97
8D
9F
FA
E2
2F
6D
B3
90
DA
8E
2B
D8
36
17
F3
91
13
AD
F0
A2
08
97
18
BA
59
17
76
41
1E
FB
74
8E
A2
6F
59
5A
0A
15
11
74
37
58
2D
B7
ED
FD
2A
3A
34
FA
F6
C6
FE
8C
B0
8D
0B
84
AF
18
0A
E1
C7
82
01
A4
C7
E4
EE
E0
46
10
AF
11
A0
82
1F
AE
3B
93
82
02
0F
F0
23
37
65
4B
3B
B4
DE
50
15
A9
B8
DB
70
E7
4D
68
25
F6
DC
CB
09
61
8C
21
15
55
AE
06
C4
6A
43
08
BD
C1
BE
5C
B2
4F
0B
D0
88
78
CF
01
B8
E0
F2
CE
F5
7E
5B
0C
0F
F2
FA
7B
17
18
0C
F9
C4
DD
9A
F6
15
51
43
28
38
FE
3C
80
AB
79
95
5C
A1
36
BE
FE
A7
A0
49
3D
87
69
F1
7A
6C
1F
DC
D6
48
01
1D
A2
73
10
7D
18
95
69
7B
48
C5
D1
91
54
F2
92
B9
E0
82
86
30
C5
3A
71
7A
05
5E
93
A6
04
19
7E
D3
F5
1E
26
F3
92
90
37
CF
10
20
AB
4C
52
75
9B
EC
5D
D0
55
97
0C
F0
B0
9C
04
33
9C
F3
EB
FF
FD
C5
D5
60
BA
2D
FF
F2
10
41
C0
02
2D
4C
BC
F0
FA
5E
5B
D7
38
07
7A
70
CE
5F
60
34
61
49
F3
C1
26
F9
2B
7F
F4
B4
C8
83
9E
D7
40
B4
7F
1B
FC
2C
56
17
C3
E1
55
07
77
84
74
CB
FF
A9
0B
33
84
29
A0
79
E0
C4
FD
0F
53
0B
86
9B
78
7E
CA
41
78
F1
58
20
7E
34
D4
1F
6B
F2
4A
E9
CA
DA
C1
36
06
FD
14
4D
DA
77
FD
C6
0A
52
73
95
51
A7
36
44
9A
06
A8
80
73
18
DE
D7
BE
83
F7
C0
A9
0E
AC
DC
E1
06
29
7B
03
E0
1B
62
54
1F
0B
CC
B1
79
EA
AE
C9
35
ED
3F
89
D7
9B
B8
D8
FF
24
58
85
8F
F4
AC
7D
0C
88
0D
42
47
80
6A
98
3C
F6
48
82
3A
0F
06
6C
44
CF
66
AA
B8
32
49
21
2E
78
BA
44
A3
C0
2E
43
D7
D8
0A
7E
F3
54
66
40
6F
DD
11
AA
33
CC
D5
ED
FC
F8
FC
BD
02
CB
12
02
D8
9C
ED
D0
93
38
EB
99
2E
C2
7B
A1
2D
BE
DF
B3
81
68
30
13
AC
4A
A2
B3
25
0D
09
A9
FE
90
9C
E1
C4
37
F9
0F
A7
86
6A
E8
DA
EE
67
92
3D
E6
5C
59
3A
3E
AC
A3
EC
B0
F5
26
87
B9
96
58
F4
A7
6E
27
BB
F2
E7
EB
26
CF
33
99
A4
03
D6
39
6B
F5
65
9A
61
08
8D
44
3D
27
56
AE
E9
A2
A9
B1
2B
38
11
3D
85
75
BE
4B
5A
3E
CF
12
51
AA
D1
7E
FF
13
82
DE
C0
6D
DB
DD
E5
D7
4E
B3
15
70
4D
9C
ED
6C
0B
89
EA
67
86
16
89
F8
C5
BD
AC
8A
5E
49
40
67
3C
8D
1D
16
9F
55
2D
E7
64
9D
D1
CC
87
01
80
6A
E6
75
B2
70
48
36
FC
28
9D
01
7C
4C
88
82
77
1A
1A
0F
41
AA
E1
96
5D
80
21
D4
E6
5E
61
C8
2D
5B
29
68
A4
39
0B
92
FB
F4
E0
45
88
97
54
11
EC
53
A5
CC
F4
D2
A7
87
BD
C9
0C
C0
1C
CD
E2
DA
3C
67
5D
CA
89
6A
D7
12
CD
84
15
F3
99
14
CC
DE
E7
3B
63
2D
FD
36
FB
10
95
EB
AD
CA
3A
C1
12
1D
F5
B5
09
02
29
AB
B4
9E
BC
01
C4
72
77
6A
F7
D2
B0
FA
DE
