DB
70
9E
26
FD
35
11
DE
D3
7C
7F
D2
96
3F
65
A6
0F
33
47
94
41
27
7A
3D
5B
F7
62
E4
1C
38
E8
87
DB
BC
81
AA
7B
68
2B
32
BE
0E
AE
32
8B
92
7C
17
2A
44
2A
28
A3
65
50
54
F2
DA
85
2C
1C
82
F5
D7
F0
4F
98
DD
C9
E8
8B
0B
4B
29
C0
B9
BB
D6
02
3B
6C
25
5D
27
EE
E8
6A
E7
99
FA
5C
DD
E9
57
82
B4
25
14
B2
D2
48
B4
BD
98
B2
46
3D
B4
81
0D
E9
FF
53
7C
A4
FE
DF
4E
B8
57
E0
AE
58
6A
E1
4D
06
75
59
E4
32
D0
81
1F
83
B8
C2
5F
A2
98
64
46
63
7B
B1
66
D4
9A
40
5D
73
9C
29
34
95
98
2D
15
00
66
D2
71
AE
C7
64
8A
8D
DE
9F
4B
44
40
03
9C
3C
26
91
F1
D4
91
27
6A
9A
74
3A
37
08
91
94
20
D3
5F
A2
13
D0
C2
2E
67
60
F7
54
5B
6D
AF
EE
AF
53
1B
EA
15
DD
C1
60
B6
D3
8D
37
A5
9B
0B
73
5B
8B
3A
4B
FC
56
EE
DC
7C
2E
A1
43
61
64
08
B8
ED
14
04
EF
9C
6B
6A
AF
54
47
19
8C
B7
5E
22
F7
60
08
D8
EA
29
2B
40
4A
3D
B0
FA
19
FC
E7
DB
65
72
D7
83
8A
36
7C
CC
42
5C
C9
09
0F
49
77
46
E7
26
89
14
FC
48
2A
E1
DC
2D
D9
25
BA
21
BB
3D
AC
5C
29
2C
FC
C3
A8
17
7B
E6
82
47
A6
C8
B8
D6
9B
D2
88
F7
8A
56
08
72
F5
EA
80
6E
B9
8C
D8
6A
4B
2A
74
06
17
4D
BF
2F
6E
66
6D
BF
CE
54
DF
03
F7
06
8C
D9
E2
7F
17
4C
A4
38
DC
C6
2D
5D
AB
78
20
45
88
A9
3E
58
BF
82
79
34
5F
D3
54
4D
76
8F
E6
7F
18
78
76
D2
61
DE
97
96
93
D9
52
AC
67
B8
BC
A7
DE
53
F3
C7
0C
2B
08
34
94
E3
FE
91
71
A1
13
D9
5A
BD
7B
84
96
A0
DD
24
0F
F5
AE
D8
10
56
38
F5
A9
4D
B4
AD
2B
BE
16
1A
14
56
76
F6
78
A5
B5
86
6C
CE
D5
CA
4B
B6
38
2F
7C
D8
6B
31
82
C7
47
FD
3B
5B
88
3E
E4
9C
7A
86
4B
D0
8A
F5
AA
5D
E9
B4
79
D9
15
7E
35
75
2D
69
5F
BA
08
1C
71
45
D1
77
FD
32
0A
F0
06
2B
21
C3
2B
5F
E6
C5
F2
05
CC
F9
DE
1E
AD
60
82
72
DC
3E
46
0E
29
3A
4C
E0
F7
6D
D4
0F
A9
17
18
2F
53
E1
F4
E3
F5
4D
32
7B
BC
5A
58
53
9C
D3
93
B9
31
FF
04
15
1A
95
65
CE
0B
86
76
1C
BE
10
CE
17
5D
CB
DF
2D
41
65
B5
8D
3F
83
E2
81
D2
9B
68
C0
E0
47
5C
5A
93
F2
20
C4
16
AA
EC
FF
57
26
8D
29
A3
9E
52
77
C1
B7
E4
ED
3A
6F
15
06
29
89
84
97
CC
A3
A3
9A
A2
E8
47
26
D6
A4
EE
7D
CF
C7
32
5A
A9
FA
B1
2B
F3
0C
EE
46
00
0F
27
AD
D8
0D
7B
19
B0
40
18
D8
64
20
EA
27
BA
EA
1D
CD
CF
94
34
9F
F7
EC
19
7A
18
77
5E
FA
4E
D2
3A
89
AC
60
86
DC
01
83
AD
D3
DB
0C
0F
C4
FA
99
19
41
E4
AB
3C
70
56
CA
2D
60
72
B7
F7
17
2B
A8
BE
06
93
DB
17
8C
3C
AE
56
11
DC
9F
01
CC
94
D6
33
4E
59
8B
49
50
66
70
04
7C
76
95
7B
33
E0
5E
A0
FB
09
46
AE
ED
31
18
70
FA
78
47
D3
08
18
5A
39
47
DA
69
83
5F
1D
EC
76
75
FD
13
66
02
B3
1A
60
0B
52
69
C3
B7
25
5E
8A
8F
D7
80
AA
25
F4
49
0D
6F
51
D0
A2
1A
05
AE
DB
27
C8
22
12
32
3F
A1
78
11
B7
B5
C6
5E
A5
70
5B
0A
75
43
7D
89
4A
7E
F8
CC
8F
F5
7A
A2
50
CC
E4
1D
C3
31
ED
9F
F1
E0
71
1D
5B
3F
47
C4
4C
4F
E9
F3
C3
69
4D
C7
D9
4E
9F
A4
D9
00
43
EE
4A
A2
6A
E2
5C
31
FC
C9
03
E2
7B
CA
75
5D
7A
1B
A7
4F
16
43
5A
88
7E
51
1B
29
B0
1C
9C
7B
E1
85
69
C8
09
CF
B6
7F
CE
AE
1D
F6
80
F6
E6
17
5E
99
66
1B
52
91
D5
68
62
25
45
6D
E2
BB
05
8C
79
B2
40
E3
42
68
39
B7
5A
18
18
4A
E5
57
20
04
ED
D3
50
F0
9A
84
A0
B2
3C
1C
83
85
F5
46
9F
32
9D
62
6E
9A
DD
B2
2E
FB
78
F6
74
15
06
56
EF
51
91
3A
B5
76
2F
5C
2F
F9
B1
B8
26
B9
1B
0F
68
78
D1
06
1A
B6
3B
93
A6
12
92
1B
5B
50
21
3F
F4
34
F8
D4
5E
26
45
D8
D0
65
C4
0C
32
3F
D0
D0
A5
7F
1A
74
BA
4D
EF
1E
03
B2
E8
8A
99
AC
7F
A2
23
29
8D
1F
0D
09
B6
10
47
03
22
E6
D5
F3
0E
1E
F9
CB
FD
1C
76
6D
38
88
77
4A
E8
73
34
2D
5D
50
81
04
A5
49
52
7D
2E
02
63
CA
12
0F
65
F0
8E
76
EC
B8
B7
E2
26
65
B1
F1
FD
73
F9
18
AE
68
94
97
06
CD
94
F9
02
45
79
E6
86
D2
F9
23
56
A6
A1
4E
AF
FF
06
2E
9E
FB
27
01
57
E1
BC
F7
19
FB
EB
70
0D
62
B1
F4
E3
0D
AC
F6
53
B4
07
41
C7
0C
84
8D
23
DC
79
8C
24
70
53
17
87
7B
92
20
23
19
7B
8E
3E
D0
1D
E6
15
41
19
B0
1A
81
68
33
A4
4F
EB
3F
70
45
1C
AF
A7
FB
B0
B8
1F
04
02
DD
BD
95
80
36
BC
F3
C0
18
D5
C1
B4
B0
2D
47
1D
02
AA
30
33
D9
20
22
F6
3E
22
D5
BC
96
EA
DD
6F
B0
F7
D8
6C
C1
C1
68
BB
26
5F
45
86
2D
B8
C1
3D
B5
F8
4E
B4
4D
4E
A0
7D
C4
D5
3E
A6
E9
57
7F
78
C7
57
24
A6
76
45
B1
F6
D5
DC
E7
97
95
BA
AD
9F
A4
7A
CA
D9
1B
60
A4
3A
AA
E9
31
14
89
45
6D
A3
DD
C3
18
32
0A
52
E9
DC
40
EF
46
0C
41
59
D1
58
CA
74
E6
A8
D3
0B
A7
5A
CB
F5
A7
16
97
17
FD
7F
BA
95
F8
5F
6F
42
A7
48
F6
61
9C
AA
88
A1
FB
12
F0
4C
A5
95
84
C5
48
BE
F1
73
AB
41
9A
BA
24
56
22
F0
C2
E4
36
09
A9
67
3C
CF
D6
05
FD
23
CB
A8
F5
C5
AC
4F
20
F1
41
F0
E1
C3
BC
3A
D5
91
00
28
A2
54
80
A6
37
B9
5B
5C
38
25
D3
28
58
B9
4D
C7
66
C3
B4
B0
4B
20
B7
5E
29
19
CD
04
86
AB
9E
4A
E2
20
DA
D2
7B
2E
1F
3C
95
E0
96
1F
04
46
43
26
F7
30
44
57
DF
8B
8C
7C
A3
B8
52
AE
96
8F
EF
0B
FD
9A
37
8A
CB
C2
CC
DC
E6
46
4A
FF
F9
33
A6
5D
AB
F2
60
BF
96
5E
56
B4
5B
96
C1
44
10
99
0A
6C
6B
3F
2E
53
C9
04
75
98
14
B9
28
F5
A2
D8
BD
82
84
D8
C5
47
6C
01
4C
AE
17
DB
BD
DF
88
A2
1E
4B
2B
F1
2E
F6
B7
EC
3C
03
B5
15
4F
F5
4B
B9
5F
68
4E
B2
F8
9F
82
AC
7C
E4
00
29
B1
D5
17
B6
71
0A
6D
DE
B1
8A
CD
A4
91
E6
C4
6D
70
A6
41
33
52
83
AC
3A
9C
A6
94
B4
6D
92
96
81
B1
76
40
45
C8
7F
62
85
20
A7
1F
AC
FA
F1
CB
27
E3
95
39
66
C7
D8
98
63
03
5F
5C
E6
6D
DA
58
4F
ED
B2
31
9F
86
EF
D0
43
F9
A5
9D
9C
8F
F2
BF
5A
77
50
C9
36
FE
6B
F1
87
E0
AF
16
89
6E
3A
F3
E1
6A
B4
F1
64
67
EA
6D
73
CB
6E
5B
7A
57
28
04
5D
83
BE
67
39
19
26
4F
25
74
32
73
C9
16
38
33
8E
4D
D0
69
8D
A3
F2
99
22
FD
AA
CD
89
9D
FB
29
B5
AB
73
EA
AF
86
20
A8
92
90
3B
AC
C6
6C
45
E6
19
07
35
C5
D3
A8
44
EB
34
EC
09
70
53
F2
80
44
60
2F
BE
5D
B2
16
04
43
81
C0
AA
1F
27
BA
33
4A
7A
CB
79
8B
8B
34
AE
9D
9A
52
16
50
6D
6F
FB
C7
B7
F2
D8
C0
BE
86
B9
92
E5
BC
41
63
A4
3E
FC
49
A0
1A
62
24
EB
55
AE
62
DA
25
52
D9
61
CB
88
D5
36
40
F9
F3
7A
5E
3D
A2
07
3F
F6
75
61
5F
32
CB
32
5E
6A
E3
BB
8B
9D
45
7C
4A
46
D8
1E
E9
79
46
8B
E8
B3
F0
8E
67
E0
EE
56
CA
6A
D4
27
79
2F
BE
D1
CC
8F
4B
D1
7D
FD
50
D1
17
08
F9
D9
2B
E3
04
8E
00
89
3B
C6
39
11
10
98
D3
EE
82
28
F2
F9
D0
9B
FC
BC
03
8A
15
7B
1B
C5
D3
6B
FB
AB
A4
1E
E8
AE
5B
A7
F9
93
2F
CF
93
D7
BB
1B
18
3A
4E
34
39
B2
93
2A
E0
42
2F
1F
69
83
C9
AC
7B
C3
8F
8A
07
D0
F6
26
EF
F7
8B
76
70
72
2D
70
71
80
8B
C3
E9
F6
A7
20
72
2E
EB
5B
34
C6
A6
B8
82
3F
47
41
70
AA
CE
7C
6B
AD
ED
F8
BD
DB
B9
2D
B0
EB
5F
F7
CA
35
3E
09
AE
C1
89
E6
B0
32
E2
A0
FF
FD
22
EB
DE
E3
C8
85
96
87
65
B8
01
9D
EB
2A
08
5C
CA
60
7E
1D
34
8D
87
3A
FF
6E
92
D2
F5
B1
5F
70
18
7E
4B
EB
D0
CE
B6
45
2D
4C
0E
83
93
56
63
D7
12
18
E9
05
9C
01
A7
1A
1E
B3
17
4A
4B
56
38
70
68
C9
25
1E
06
76
DA
9D
49
F1
1D
85
03
12
D5
3E
3C
8C
7B
6A
92
BB
91
06
AD
61
ED
0C
A2
F1
1F
CB
D7
41
55
50
81
77
41
65
28
F6
E8
25
FD
9E
5C
B5
0F
05
C2
52
F9
0C
D6
AD
25
46
31
D0
21
7B
DE
49
52
76
BE
F6
5C
CC
9A
55
18
8D
76
06
1D
0C
76
86
0E
70
70
FB
D8
15
6D
2B
37
02
5E
B2
1E
04
AB
14
43
BF
17
36
31
E6
78
6D
46
72
63
7E
21
41
B0
5F
A3
F4
A8
30
6B
B6
E1
C0
7F
36
C1
A5
44
D1
13
E6
2D
50
EF
F6
EA
2D
B6
C7
3A
58
3B
8E
69
74
F3
D5
B4
44
28
23
0E
DC
1E
2D
B9
AE
B5
D7
3B
B0
F8
B3
19
D3
43
92
0A
B7
4C
68
D0
0F
32
19
85
0D
17
1A
12
8B
EF
F2
BA
C1
CA
10
98
19
36
34
BD
E8
B9
CD
37
B0
3F
17
CA
71
6C
C6
2B
A6
AD
46
65
D9
2C
3C
72
23
16
B7
F9
9A
F4
A4
D0
69
F4
2A
93
3E
C7
59
62
8C
23
D9
46
4F
53
2F
2B
26
02
1C
FB
0E
F0
0E
EE
70
72
0F
1F
C8
99
7F
AA
28
D5
BA
0E
9B
7C
03
3A
83
36
9B
9F
AA
93
4D
BB
83
27
65
15
AB
03
31
FC
2D
90
BE
1F
E5
1A
CD
4A
A3
CF
38
EA
74
6E
