E7
85
27
70
E3
93
2F
C8
06
59
B3
4C
D4
47
7D
1A
01
D2
EF
6E
26
58
B1
90
94
62
92
3E
56
36
F0
2C
7D
D8
C0
25
45
67
D3
07
10
DF
E7
92
CC
AA
E4
BB
75
B3
D0
C0
DD
66
E0
32
D8
8C
26
FD
32
6D
1D
81
27
BB
0E
27
F1
AD
E1
04
A0
DF
F4
7D
A1
71
2F
D5
93
DC
1A
F0
89
48
04
03
E8
25
37
71
7E
C9
08
E9
89
DC
02
B5
8B
29
B7
12
A7
72
6C
52
29
8D
4C
B6
BC
7E
54
29
F5
24
24
B6
97
4C
0F
E5
90
26
1E
26
4D
73
90
28
48
A8
08
81
0F
A2
01
F5
A2
C2
2A
10
8D
2B
4C
85
63
28
09
86
CB
28
2A
2A
8C
E8
62
1B
A0
64
4A
81
D0
BE
66
66
29
24
87
0C
A8
6C
6B
D9
73
2D
03
19
84
97
3B
DA
CB
11
94
A7
E4
52
F9
97
1F
AB
10
75
61
7D
7E
A4
E5
5B
40
72
82
EC
8B
8F
2E
E3
E2
CF
BA
E3
F5
02
7F
AA
E0
4A
A7
AB
30
2D
15
27
2E
13
B9
6F
D5
2A
97
F3
B9
C0
92
63
3B
3E
70
B9
F0
CF
7E
07
01
AE
CA
E5
81
20
AC
CE
49
9F
72
0B
50
6C
09
14
9F
3D
C3
A2
7F
91
3A
ED
07
D0
77
A7
C1
89
4E
1E
6D
FA
47
EB
57
7B
79
1E
EA
AF
E0
A2
B2
CB
E2
C4
B5
15
B3
89
64
17
E1
BE
CA
99
49
49
66
F1
47
7B
F6
C9
8C
14
06
C4
32
01
6C
17
0D
CA
2F
A0
B0
3A
8F
07
02
07
CB
68
E7
DD
85
F9
A2
E6
53
A6
32
C4
31
04
CB
79
7E
95
1F
F7
5E
E8
96
10
B3
42
73
A7
A3
B1
9B
AB
80
3A
43
CC
73
6D
A4
9A
53
6D
D1
DB
93
78
99
34
4E
FE
FB
D8
25
F5
A1
C3
15
E1
66
2E
83
9D
E9
4C
B1
34
9C
B1
93
17
9D
03
A8
6B
D4
F8
43
4B
15
B2
FA
16
C2
45
67
23
A6
07
3E
FB
01
4D
FE
15
8B
AF
25
B3
0F
F3
4D
93
21
24
3F
F8
1E
F4
F3
49
95
AE
C0
15
AF
02
45
15
8F
BB
86
D5
36
3A
2C
82
49
27
B3
41
42
3C
D0
F4
30
3E
2E
1D
74
27
A6
EB
C2
BD
63
25
D3
3B
52
8D
5C
32
13
35
E4
9D
E1
BF
B7
4A
10
4D
22
7A
33
12
BE
ED
8B
1E
8E
FD
95
BE
B6
4E
BE
38
1A
11
51
98
AF
E1
49
FA
4F
22
98
C3
0D
DB
AA
00
26
0A
E8
1E
E6
CB
A1
8B
F4
7B
58
65
FE
91
0E
82
3B
6E
6B
7F
0D
04
41
6B
04
93
2B
08
0B
D3
9C
65
93
BC
45
1A
CB
D2
08
3B
CD
B6
74
14
97
C3
C4
F6
88
BF
5E
30
FF
F5
9B
0B
44
A5
D4
03
DF
BA
A6
CF
6F
4F
68
09
1D
B4
68
2B
52
61
B8
D7
A0
59
EC
BF
2A
75
3C
6D
C3
43
DA
4C
FA
BB
0F
23
7A
3F
5C
CC
20
76
A4
58
AF
67
11
33
D9
1F
D1
7C
C9
32
E2
93
CF
8A
C8
FC
E5
D4
30
37
23
A6
C4
17
CA
94
8F
6C
74
84
C8
0E
6B
D7
19
96
0B
90
77
1A
25
05
66
10
02
0C
B6
9C
71
E4
6F
5C
A3
10
DC
2D
4F
B2
BE
57
ED
E5
C9
06
6B
12
29
4B
79
2E
5A
88
93
64
2D
F6
C5
37
98
AE
50
91
87
E3
34
C6
BE
72
0E
91
17
37
F1
97
61
74
E1
2D
2B
25
4C
2C
26
56
0C
CE
20
2A
F5
6E
C1
88
8F
B8
A9
65
07
7E
A3
5F
AC
35
47
01
D8
AB
E6
7A
D9
42
F8
F7
4B
7D
A6
78
67
75
1A
9C
5F
82
9F
A0
FD
B4
47
DB
46
A8
13
35
0A
3C
4B
2D
F2
2B
F3
1A
FD
85
B1
98
51
B5
47
FB
6E
64
AC
F5
0C
E5
77
17
9A
6B
B9
9E
5B
3C
1F
73
7F
D7
64
9A
CB
37
29
7C
29
DC
B4
92
B7
4F
5F
3A
27
01
E4
54
E6
1D
94
E6
52
D8
CA
30
D3
EF
49
27
CA
59
85
DB
6E
8A
FD
69
5E
7D
69
E7
C7
6F
54
C7
D2
92
C7
F9
F4
E9
BB
7D
DD
F5
99
47
85
23
8C
52
72
7F
DE
19
99
81
89
89
91
AB
D1
42
BF
C1
1C
95
AD
CC
3F
AF
D7
34
7E
6F
99
2F
42
5B
26
0F
14
46
A2
9C
AE
CE
68
FC
9A
D0
97
F3
2B
74
E2
1B
C1
5D
0E
CA
89
60
A6
AB
25
AD
4B
37
B8
2F
18
8A
DA
EF
3D
6B
38
CE
7F
EE
34
FB
67
E3
FE
4F
20
3F
3F
1B
7D
17
5B
C8
F6
8F
47
B4
69
B3
66
EC
3A
38
1A
09
B4
07
83
48
C2
52
CC
F1
1C
9A
C8
10
37
D0
1C
2F
03
53
CF
A3
A2
13
B7
CD
7F
72
2F
DB
F5
94
EC
8E
9D
F8
FA
40
3E
B2
10
1D
26
4E
D3
F2
DE
55
04
BA
89
1A
BB
DF
34
7B
62
B9
3C
CC
99
E2
93
DA
22
FA
2D
DE
A8
BC
4C
35
71
D7
29
DA
AF
6E
2B
21
72
5F
5C
02
F8
18
8B
DA
92
43
47
D8
F2
E0
99
07
E3
6D
87
BD
A2
31
F6
52
63
C2
DB
7D
FD
C8
54
EE
1B
09
9E
85
FC
C3
A2
71
DB
F4
71
C2
E9
17
F6
BB
86
48
3B
F1
98
C5
45
73
E0
4A
E0
55
04
FB
EA
CD
E1
2E
13
0F
4E
5C
24
41
DF
C0
74
3F
C0
4D
66
98
C9
7E
54
A4
A8
99
19
C8
9E
22
BE
A2
79
88
5C
40
73
B2
B3
14
36
4D
14
5D
39
13
4E
04
4A
A0
31
54
F8
F0
8A
04
DD
9E
FB
DB
BC
80
09
61
25
6E
FF
0A
DA
D4
88
18
06
B0
BB
2A
7F
63
93
0E
42
EF
24
80
0B
B5
75
39
B2
B0
83
A8
91
4D
B8
C2
FA
27
CE
A6
62
19
F5
EC
A2
FC
B9
77
AA
B1
D0
25
6F
AF
EC
7E
A7
53
54
DB
66
EB
33
97
B2
F7
4F
D6
13
BC
57
C2
26
AF
10
7F
7C
E5
C1
2F
B3
14
56
63
93
43
5E
2F
E0
FA
7D
C3
A7
2D
7C
79
CD
B7
BB
C4
B1
54
F7
10
39
50
FD
B2
C0
85
29
DF
19
26
35
2A
8D
45
2A
61
38
96
7A
CE
80
2F
01
0A
AD
57
FC
B4
6B
49
F1
D2
2E
16
60
34
E4
B6
D3
E2
23
1F
37
B6
AB
CB
7C
03
CF
FC
C4
A7
13
D6
2C
15
26
EB
27
62
D6
2A
8A
59
D6
55
11
73
26
43
30
5D
93
6F
0A
34
00
42
10
03
6F
0C
40
B8
75
A1
02
BF
C0
42
39
28
A5
17
D8
D5
E3
1C
52
55
CA
85
5D
34
68
FB
92
14
EB
37
E8
A6
C6
67
98
6F
0F
AA
D1
08
2D
B2
49
FA
2C
BA
A1
16
84
4C
F1
72
08
24
AB
79
91
7C
61
97
4C
40
24
BD
A8
73
EE
3C
D3
25
09
2C
F4
B2
01
34
69
47
EA
66
DC
8E
D1
4C
E9
99
E4
9B
C1
E0
53
4C
60
75
9A
87
3F
F9
D0
D0
2D
CF
38
2D
76
96
A2
A5
43
90
E9
E5
77
87
99
D6
11
E0
29
27
E2
FA
9D
48
16
3F
47
98
23
D4
98
B0
8C
03
F0
93
04
8A
3D
06
83
6A
CB
D2
1D
69
FC
83
7B
0F
3B
6E
6E
D6
4C
21
19
1F
04
75
A4
0B
61
BC
37
24
05
CF
A0
B0
BA
68
84
0F
29
C3
E9
61
D7
CF
08
6A
CD
1C
EA
B0
62
37
36
7E
6E
CD
A7
49
7F
22
C0
7F
6C
97
23
46
92
B4
17
8C
8D
46
18
C8
E9
2D
44
B8
D3
22
A1
88
66
94
DA
48
F7
36
EB
D0
C3
E3
48
84
24
78
50
8B
67
BD
A5
86
D9
51
79
A5
0D
41
FA
BC
AA
94
48
FF
A1
6E
5A
28
4E
31
93
F5
E6
93
18
51
25
EE
58
53
EB
5A
6C
55
05
D1
48
97
6A
BF
11
DB
95
6D
45
25
54
D8
7F
5D
5F
71
0B
16
B0
0F
D6
65
85
2A
B5
EB
69
D9
CB
39
92
E6
A2
CD
9E
C5
D1
B5
B4
74
2D
19
0E
D3
AB
2F
A5
D2
DA
BE
62
9A
63
1A
28
5F
DB
0B
8E
43
01
AD
93
80
83
48
43
5F
A3
77
F6
24
9C
BB
95
17
DC
D8
21
00
8A
4B
3F
64
FF
43
66
CE
42
16
A6
7D
DF
95
58
16
62
80
9E
64
EF
60
5A
CF
C7
90
F2
6A
5E
59
57
54
2E
14
37
0B
91
B9
7E
DE
10
89
D5
89
2D
D6
4C
E8
2B
A9
B1
F5
53
A8
4A
15
CA
98
F5
C1
40
3D
AD
ED
C1
BA
91
E8
53
52
8D
07
8B
02
2D
59
BD
F6
9D
4E
64
C1
56
5C
E0
D4
83
3E
82
D0
AC
6D
2C
B2
EF
DB
92
70
2B
B9
89
B8
F9
81
5F
22
79
47
36
9C
64
F1
52
61
D7
8B
D0
82
88
54
B7
E9
49
4F
27
47
9B
A9
E8
C6
D0
2B
2F
07
AA
4F
0B
7F
30
83
5D
72
DD
5D
59
4A
74
63
07
A3
18
62
E4
77
22
4F
49
EB
2F
60
1E
DA
95
22
12
75
D6
34
20
74
4D
A2
89
08
5B
4E
22
60
B5
85
20
E7
34
56
CF
CC
E7
A0
5D
C3
7D
98
FD
0C
D2
73
21
09
46
DC
3C
B5
03
13
56
5E
73
91
FA
F5
2B
67
DE
2C
B3
DF
16
28
63
C8
72
7E
14
D5
5F
CD
7C
69
B0
71
2E
A7
D5
D9
4E
2E
6C
1D
5B
30
29
FA
90
96
3D
1C
DE
72
35
11
62
F4
F7
D8
A1
07
95
4C
5F
4B
F4
2F
A8
8A
27
9F
FD
96
3F
74
97
FC
1F
5A
13
19
25
34
82
3B
DA
D3
EA
5D
83
CC
93
40
04
29
DB
60
13
2C
B4
23
82
AC
8A
46
5D
AA
0E
52
B6
CA
23
A3
2B
19
73
C5
49
C5
16
5D
5D
C3
FB
BA
AE
8C
C1
50
99
98
EF
85
BA
5A
61
F2
6C
05
82
07
E0
15
A3
9C
49
C7
6A
2C
1F
D4
76
DC
B3
ED
16
10
17
DC
24
CE
7D
BA
9A
A1
BE
D2
E9
66
3D
8C
69
75
03
96
4B
3C
E8
90
1B
9C
21
7C
F4
D8
3C
63
17
4D
F8
BA
2F
9C
3C
BE
C6
D1
0B
1A
2B
9A
09
0D
D4
D4
67
0A
95
2C
51
5A
48
3A
10
A4
03
65
3B
E7
6C
A0
31
E3
85
5C
E7
9D
6A
6C
9A
76
26
B7
88
BE
71
99
7C
BC
A9
AA
6F
0C
51
AE
AB
D8
98
4F
05
97
EE
B8
7E
F2
15
58
A8
A0
98
2F
DD
3E
1E
24
71
14
E7
57
3F
E7
B5
0C
F6
7B
DF
71
3D
FA
65
2D
1F
D5
21
CC
5F
AA
99
FF
27
4C
BF
33
B2
98
14
49
B9
BE
91
E9
95
53
7B
DD
06
5C
F7
0C
79
DB
85
30
62
DB
03
D9
44
BD
58
C1
3E
CF
60
B8
9B
DD
00
2F
5F
2C
E1
F4
BC
FF
98
A0
CB
E5
AB
C5
C3
12
9D
B6
F4
1E
8F
F1
89
81
8B
1B
1B
78
AB
93
B7
8D
3F
A2
C1
83
2C
49
C6
FE
CA
94
A2
8F
57
B0
1D
93
29
5F
49
E4
D4
63
9C
2E
AE
72
FE
37
07
ED
EF
6E
25
F4
E9
1D
77
1E
46
05
82
5F
72
98
04
CC
31
6D
