73
66
BF
25
5A
5C
31
6C
68
DE
0E
B7
B8
29
98
78
61
1C
AC
82
6E
9F
2B
82
78
C2
FB
F4
25
35
09
FD
CD
9C
E6
34
12
2D
0C
C9
3E
D8
11
84
EA
A1
C3
46
ED
A9
3F
22
82
1D
DF
E0
1A
D8
5D
32
13
17
17
F3
E1
53
90
8D
AC
5C
CE
26
11
60
6C
31
96
81
7A
55
2E
B3
82
74
37
41
25
AC
B8
41
C6
24
AB
F9
D5
DF
85
4E
B1
9B
4E
45
C5
83
BC
FA
D6
DA
5F
C3
DC
1A
51
EE
0B
29
89
9B
C9
C7
AB
5F
27
DF
E7
F4
E8
69
7F
B2
BC
72
C7
20
F6
F6
4A
55
88
AC
A9
AA
A3
30
EB
AA
CB
99
40
4E
8E
23
29
67
C7
AC
38
4E
A6
E7
D0
F5
73
FD
51
A8
0A
91
C8
A7
C4
3E
1E
08
36
33
A9
2A
2D
0D
9F
E2
61
9F
18
DF
BD
E4
D5
2A
2C
AB
C1
36
01
FF
64
5E
4C
A4
40
2A
0C
9D
B0
1C
35
4D
C2
D8
D1
84
16
4E
AA
77
A5
6F
07
92
17
F8
AF
64
A7
A1
6A
9F
54
7B
97
0A
BF
DC
8A
6B
0B
86
CE
1D
27
88
B3
66
01
54
E3
E4
51
4D
FA
58
28
AA
70
A8
34
F9
BB
D4
00
E6
5C
83
29
50
FF
01
82
B1
E4
BE
05
B4
8E
45
37
EB
93
77
05
6E
7E
D2
3D
12
39
BB
