1C
99
ED
5F
29
CF
5E
CD
F6
0F
CB
22
D7
52
4F
1C
D0
4E
98
96
05
4E
F5
C8
C3
AF
B2
74
FC
13
70
6C
B3
82
04
F9
5C
E4
54
A2
89
0C
1A
EA
53
91
1B
25
C2
C0
E8
A0
23
8C
B7
16
98
84
A5
D8
24
02
AB
47
D2
46
9F
FE
5D
89
31
E5
38
2E
E1
BE
34
14
46
CB
E9
9D
2D
08
A0
CB
76
3F
54
2E
63
DB
76
F1
CB
A8
4C
AB
0E
65
53
BA
72
F4
34
E8
EA
C9
72
8F
95
86
89
D2
39
5C
6E
AD
72
BB
8A
43
70
24
C0
1F
02
C2
25
FE
EC
47
56
79
95
7E
BD
41
8F
ED
A0
D5
6F
AD
45
07
23
C6
76
80
24
D6
B2
97
06
CA
38
93
D5
D1
28
B4
45
B6
92
BB
06
CD
08
63
DF
DE
3F
BE
21
39
AC
6A
22
E0
6C
D4
E3
C3
B1
23
35
BE
D7
D6
78
9A
46
8C
BD
48
A2
EF
D5
07
19
8C
71
A9
4F
90
41
1A
0E
30
5D
7C
36
AA
60
BB
D3
46
4F
9A
40
15
1D
C0
C7
04
17
6A
76
A2
22
AC
86
9C
06
D6
29
6C
C5
6D
C1
33
F2
74
C5
E5
70
2E
A0
17
46
32
B7
23
A1
90
46
EC
62
D8
6E
5A
7E
9F
6E
08
62
D0
D2
42
26
14
34
5E
30
53
D9
50
0B
26
20
7D
E2
78
0A
FE
2F
5C
5F
3D
1B
FC
74
F8
1D
B5
7F
AF
6E
34
A1
F1
48
DD
CA
DB
34
EF
98
C9
AF
68
20
FB
98
3D
C0
29
65
34
B2
50
E1
45
DE
F3
08
18
0E
45
82
5C
58
DD
42
00
5B
16
52
9E
2E
23
EE
F0
46
F0
B5
16
B3
03
AB
BD
20
6F
45
1B
FA
FC
01
98
F6
43
6F
8F
9B
BE
FD
75
DD
75
26
02
E8
86
5D
40
7F
D6
CC
C6
F4
22
E5
02
07
76
C6
52
31
67
7E
C6
D9
18
E5
6B
37
08
4C
6F
4F
47
35
51
9F
74
71
45
29
58
BC
21
08
32
4D
94
AC
64
8B
94
63
E6
25
A9
8B
7F
59
B0
51
73
82
C1
F3
E4
38
9E
63
52
6C
E3
FB
89
0B
A4
4B
21
06
83
67
81
65
FD
2D
18
00
6A
04
6F
98
57
31
CF
20
94
F0
3F
24
C3
B0
46
5C
72
26
20
74
18
20
62
4D
02
3D
40
32
4E
79
84
CE
55
3B
23
93
0D
9F
2C
93
6E
DC
7A
4B
5C
86
05
C8
53
47
33
F9
42
4C
CB
19
3E
49
B8
93
AE
A6
FE
EF
4C
F8
A2
99
5B
6D
D8
D5
16
2C
14
62
AC
01
1B
09
DD
91
02
C8
4E
A0
6B
4E
69
B3
B4
49
9F
82
4A
17
3C
64
32
62
AE
38
89
47
EF
FC
18
B6
3F
75
A2
C3
92
BE
15
98
3C
E3
63
1D
E2
1E
9D
6E
D3
A6
7F
20
BD
79
57
2F
48
06
AD
1E
EE
A3
FD
B5
4D
17
28
EB
63
83
84
23
A8
4E
83
51
03
9E
06
CD
2F
F7
D6
2B
94
D2
1C
83
06
76
BC
B5
1F
FA
88
B7
D7
C7
AB
46
0A
9D
67
C5
AF
AA
FA
1A
CB
AB
AE
08
B5
E3
BA
0C
E5
BF
EA
BE
19
B5
F5
89
20
A0
BE
64
3E
EE
4C
BD
98
29
66
15
39
A4
41
92
D8
A2
A7
F7
90
17
45
13
FB
9C
4F
5F
EA
D9
E5
92
64
4B
28
B2
A2
B6
22
BF
FF
E0
CF
86
72
1C
D9
A8
39
D6
AE
FB
D1
93
DA
9B
33
EE
D3
48
B4
2E
5A
01
9D
71
45
06
16
92
7E
2A
34
76
39
26
2B
EA
9E
59
65
52
FF
DA
26
D4
B0
08
47
6B
93
09
E8
4C
97
2E
2E
BB
B8
FA
90
22
32
9B
6E
7F
DB
E5
E0
5C
A8
96
E8
25
56
D9
3A
36
EA
A0
00
93
E4
A9
70
E2
8D
70
82
9B
00
56
6A
2E
26
10
84
1A
93
8C
AA
D6
35
0A
C2
75
E2
36
C2
89
FB
29
70
F7
64
FB
05
A5
8C
5F
11
EC
6B
AA
D1
5F
8A
52
EB
A7
82
00
80
82
AC
B7
A6
C0
9A
E8
35
45
F5
5A
74
FD
F0
F0
E9
D7
C8
06
F1
43
94
0B
31
DC
4F
62
BF
AC
AB
2E
A3
64
52
82
65
A2
58
CF
95
F9
C2
EA
06
FA
88
73
12
5F
D9
13
D9
2F
F6
3B
96
ED
16
F5
43
4C
60
FF
0B
37
47
D3
92
6F
B4
95
A0
88
7C
26
30
F6
F8
6B
6F
B7
DE
4F
A1
C3
E0
D1
46
CD
80
09
46
F3
C2
36
7A
F7
34
74
EC
1A
EF
F5
88
3A
5C
70
FD
A0
5E
FB
71
7C
A3
B9
EC
EA
12
B6
50
F0
1C
67
C9
29
6D
5A
AD
75
76
28
96
05
53
BF
00
1B
DB
5B
F0
6B
EA
E4
E5
35
EF
E7
A1
F2
FE
B6
EE
3E
D1
E1
AF
0B
56
41
B1
F6
06
EC
7F
9D
87
7F
1E
73
5C
63
3C
8F
E9
D5
C3
09
E6
89
4F
BF
D1
48
20
A6
A1
92
38
23
A3
C0
29
04
64
61
62
09
B4
3A
1C
7D
8C
50
D9
26
7E
A3
C4
59
02
89
ED
46
F8
1D
C2
95
A2
E9
E1
E6
03
DD
70
67
DE
BE
2E
F0
B3
F6
CE
FB
50
98
9D
72
4C
85
19
D4
C5
BD
6C
23
8B
33
A1
E7
A0
0D
90
01
EF
E7
C2
6A
69
99
CD
D3
CF
B3
C2
49
42
CE
C3
F7
3E
8E
7C
A0
BF
20
DB
02
BB
04
23
5E
B4
D2
BD
D6
A4
EB
70
38
D3
DC
04
2E
D4
8D
DB
4D
B4
36
93
A4
66
AE
65
F5
0A
32
74
2B
A9
23
C4
06
D0
63
D1
A3
F8
EB
5E
02
C8
EB
5A
B0
9F
21
29
3D
14
13
53
E4
9F
69
5C
E9
AA
31
5A
6E
27
54
EE
14
F5
EC
48
3E
24
69
29
0B
BE
F6
78
D8
08
E6
61
6B
C2
63
16
17
7B
72
49
EB
F8
72
88
11
8D
3F
F8
D4
D5
50
A8
AD
A5
C5
B7
65
6E
65
C8
EE
91
5B
C8
B7
D1
F0
E9
05
75
8F
D5
AD
85
33
24
77
B4
50
B1
20
1A
E8
7E
8D
D7
CA
AD
99
CE
B3
72
47
BC
99
F0
78
B2
F8
A4
EC
DF
21
E4
49
18
B1
92
23
E4
90
5C
BE
79
68
D1
08
AA
1C
28
6D
66
4F
52
38
A4
EC
EC
43
16
EB
4D
B9
26
CA
35
12
92
EE
8E
FD
0E
93
3A
C2
47
F1
4E
87
CE
15
65
3E
B9
76
14
63
C6
FD
81
DD
46
DD
0D
32
86
24
6D
1E
54
0A
14
65
EF
92
0A
95
D8
54
C4
6A
16
C3
2B
FF
F7
88
0E
A0
91
EE
33
AD
E5
51
40
24
E7
57
EF
B6
F3
4D
C0
B3
DF
96
8D
57
3E
07
DA
49
38
66
4C
8A
8A
3F
FE
6B
65
92
E1
93
02
69
8A
8D
80
6E
31
2E
AF
A7
5B
A3
5A
6B
0C
7B
83
85
96
F6
AA
2C
D2
90
F9
CE
37
4E
52
99
F8
B2
25
51
B2
14
2E
8F
D1
4D
8A
6C
66
F7
70
DB
13
99
4F
36
3E
B7
EC
B5
33
B7
3B
EA
18
10
D7
1A
F8
37
F1
B1
D9
37
87
03
76
92
40
36
6F
F3
8B
CE
A1
3D
5D
60
FA
79
D4
83
67
67
0E
CA
82
96
31
C5
4A
6D
F4
37
DD
6B
A3
63
80
FB
03
CE
E9
C0
81
B1
59
05
DD
12
2F
75
A7
15
1E
C6
8D
07
4A
30
5D
78
CC
45
B1
F1
33
4F
7F
7F
44
39
28
FB
24
E5
49
9F
69
D9
5A
AA
80
32
00
DD
73
EC
49
86
7C
40
B3
39
A0
FB
7A
29
CD
8C
60
F8
EE
41
61
F4
21
7A
14
C8
A2
A1
2D
DA
08
EC
8C
7D
79
60
49
AF
1F
5B
D6
48
1F
01
6E
BE
7B
7A
C6
4A
A9
16
3B
87
C0
19
96
87
C3
EC
7E
31
AC
92
3B
D1
DF
02
FB
61
61
36
0E
5C
3A
F6
3E
16
B4
1E
5B
67
71
73
2F
DF
B0
71
C6
A2
3D
7B
45
E9
48
49
34
A6
79
B0
98
36
0F
A1
08
7E
D5
D8
EA
8E
C4
1A
39
CE
D7
3B
32
0A
17
F4
FB
DF
65
CB
14
BB
F5
41
08
81
86
17
2E
39
21
4D
37
CB
AF
FB
9E
06
20
AD
F0
0C
BF
F7
D5
D7
23
C2
F0
0A
C3
58
F1
67
BF
FE
2B
A0
04
B7
28
23
10
35
15
D1
DC
97
72
F8
1E
04
63
67
21
65
70
EA
54
31
7C
7F
B9
05
3E
87
87
11
50
4D
C3
7E
B8
ED
97
81
17
0C
D3
16
28
89
EC
C7
D6
D7
70
DE
A1
61
15
93
F3
46
88
78
5E
29
CB
2B
28
1B
95
11
21
AC
76
EA
9F
DC
BC
CD
61
4D
6C
0A
38
A6
17
44
95
82
E1
19
07
B2
C8
04
A1
D7
50
C5
34
88
8F
51
6E
13
9C
21
00
B2
8F
C1
97
F3
87
19
09
87
89
24
43
D3
32
70
7D
33
20
46
0B
08
7A
66
93
30
44
53
C7
65
C9
B1
CE
0F
22
A5
A0
C2
F7
06
AE
D6
60
E7
EE
51
92
63
BA
24
6D
3D
8A
E6
A4
45
00
1D
5E
25
28
30
55
82
E3
93
DA
98
6F
54
5C
7E
66
04
F4
2F
78
C0
53
53
3E
18
DD
22
25
94
D5
73
D9
89
E8
10
D0
70
24
9A
8C
B2
47
A2
8A
37
29
18
02
12
BA
B3
CB
A4
91
A2
76
3C
A5
A3
66
B8
1C
C1
CD
A8
C0
88
CF
53
2E
F4
7D
D7
44
09
02
3A
01
A2
C7
C3
7E
B8
79
AC
96
BC
7A
6F
55
06
84
19
DD
12
4F
BE
47
7F
AF
25
A0
3A
F5
D1
E4
A8
29
BA
FB
F0
AA
29
08
15
69
E9
DF
7D
2B
75
F7
0F
14
A1
8F
1A
9B
B3
41
47
B3
6A
84
06
89
F2
46
D3
22
26
19
D2
7B
E2
33
44
6C
F8
D7
FB
E0
A7
B1
15
50
82
DB
5C
6A
1E
A3
59
0F
82
0A
1F
AD
55
62
82
C2
96
18
C2
72
43
75
53
FB
02
48
7D
34
92
81
2A
94
8D
7D
18
18
27
60
97
D9
4C
5F
BC
17
F4
F7
FC
BA
FA
CA
4A
46
BB
84
AB
18
00
B5
4F
74
F5
CB
CA
D6
D8
6F
77
D8
74
A7
D6
C2
55
B8
62
CF
3B
01
88
53
ED
EF
AF
A9
DD
0B
5C
CC
4C
FC
1B
69
EB
12
B1
54
80
68
D1
F6
C5
37
F5
CC
97
88
8D
03
5A
DF
E4
AE
3C
07
FB
F6
67
8F
C8
1D
71
C6
7B
E6
7F
7E
4C
0E
4A
6D
CE
C4
43
A7
94
14
93
99
BE
DF
9A
32
F3
A8
4C
81
25
51
42
C2
51
65
5C
3D
C5
FA
7B
AA
30
69
BE
C1
70
A8
53
3C
7E
EF
AA
72
14
70
19
EA
9B
A2
DE
C7
17
5C
1B
11
BA
95
AA
9E
4B
07
09
56
E7
9D
BC
BB
41
DD
2D
99
53
EC
BB
9B
C3
D2
89
BD
67
89
B9
F4
E3
82
B2
9B
05
FC
1D
F3
A7
F3
51
C6
B3
00
71
3F
1C
2F
06
78
2C
91
3B
68
A9
32
AC
0F
49
85
47
5C
24
1B
8F
D6
3B
7A
27
F3
46
EB
2B
E0
A3
C2
F0
00
ED
F8
5A
5C
9E
F5
DE
9B
0D
4E
7D
33
57
6A
D6
CF
5D
53
83
3F
7B
61
F1
6F
81
CD
A5
50
C0
00
FB
18
86
1B
38
CD
EB
B1
0D
5E
