09
FC
05
C3
C1
27
80
A6
D7
A3
9A
EC
DC
84
BA
94
B5
3E
F9
B8
B6
0A
72
F9
0F
D6
43
B8
10
AF
D8
09
1D
B9
B5
4B
42
BB
E6
A8
3B
10
1D
EC
E6
26
EF
87
EE
24
DD
C5
F2
90
31
C2
43
C5
2F
BE
96
19
CC
89
C9
CA
50
EB
80
35
DF
66
D9
A2
42
E7
F6
B8
77
D8
72
D8
55
D6
39
77
9E
EB
E9
0A
CB
3E
D3
73
C3
B7
17
0D
E5
E7
27
92
97
22
C4
FF
C8
55
3C
4A
A9
36
01
38
F3
0B
16
FA
E8
89
D3
2C
6F
04
BC
1A
64
9A
73
19
A7
00
D6
58
4E
1E
DF
09
A3
5D
3F
36
2C
AC
D1
01
F2
8B
0B
64
8C
A1
09
B6
A8
26
2E
46
F2
7F
EC
D3
6B
C3
CB
E3
88
91
FB
AE
14
0E
F6
9A
34
40
39
89
1F
D0
B9
79
2A
00
02
2D
2D
22
46
ED
A0
95
8A
3B
7B
70
1F
05
D9
14
7E
11
75
C3
1F
51
35
F1
6B
89
DA
93
64
72
2B
C2
C2
D4
B3
ED
07
E2
08
F9
72
39
71
8E
74
26
61
36
4B
91
02
F3
A7
F5
4C
80
DC
96
71
52
A3
67
04
E7
82
C7
8B
65
F9
E7
1D
0E
38
0F
7E
39
95
D2
7E
B1
D9
C5
DC
BE
A5
A5
BA
6C
F4
8A
8A
82
6A
25
8C
BF
12
B4
ED
ED
AF
72
22
44
