CD
18
F6
8D
E1
8C
C3
E7
D1
01
DC
76
DA
09
99
00
33
54
FA
58
FA
D3
3C
98
6F
1C
AA
AA
60
11
B6
0D
E4
BC
48
D5
4C
7E
56
F4
57
69
B5
B9
A5
EA
2F
96
6E
AB
D5
26
74
B7
96
6E
36
E0
11
64
67
5E
A8
AD
9E
B8
D6
AB
4F
E8
C2
B7
FA
BA
14
AB
A2
75
07
A4
81
BD
BF
06
FA
B8
DE
C0
CF
70
52
D1
94
78
70
0B
64
D3
47
16
D2
11
2E
B9
22
BB
A0
55
BA
F1
4A
B2
D3
52
61
FE
74
1C
39
13
A1
94
14
F9
D0
A9
38
AC
9C
D4
44
1F
BD
42
C3
80
38
35
02
BE
D3
A8
1F
49
28
F9
77
9E
F3
8B
2B
85
7D
6F
37
78
97
86
05
11
04
D2
A4
F0
76
93
60
00
BA
AF
96
FB
2F
57
C6
31
7C
E8
EA
85
82
0F
06
B8
90
31
01
EA
D6
0A
B3
5D
1D
94
3F
7D
B5
2A
A3
1D
AE
ED
8D
04
4B
67
71
A8
B3
6E
D8
39
EA
4B
FB
E1
00
1C
90
4B
88
77
E4
62
4C
50
2A
5B
3F
1D
12
F5
B3
37
9E
FF
CC
84
32
1B
35
53
EA
C3
11
87
2F
89
35
F8
8D
A3
94
16
BF
A6
FA
D0
0C
92
FE
B4
D7
0F
32
57
71
F6
9C
F7
31
13
6A
5F
C7
2A
E1
0B
CD
37
97
8D
9F
FA
E2
2F
6D
B3
