3E
24
FA
43
28
FD
46
B0
F4
F0
07
72
06
EA
1F
DF
88
F1
55
B6
03
83
A8
08
58
EE
39
60
B0
2C
82
67
CB
DC
7F
ED
85
66
E4
C8
51
56
2E
18
E7
1F
9B
D0
14
06
ED
5E
8E
AB
65
ED
7F
04
7E
B5
C2
54
EA
B3
C1
44
DA
39
B7
68
C2
3E
F6
B0
0A
A8
68
4F
73
81
67
1F
0A
2A
FA
C7
47
08
43
B9
54
0E
9F
18
9D
A5
C1
E2
FA
1E
6D
4A
E6
8D
9C
7B
13
EE
41
C8
B5
AA
A1
8B
3F
8D
FD
B0
1D
EE
1A
51
DD
CB
3B
5C
F1
AF
75
D8
28
55
A6
01
09
52
2B
7A
B8
97
E5
67
E0
32
D1
2E
B5
7E
23
70
C9
DA
12
E2
1B
F2
5A
C0
BF
31
2C
0D
61
BF
D3
3E
5F
29
94
D7
04
BB
96
87
E4
34
DD
CE
DD
0B
D8
64
43
82
DE
26
B7
8C
9A
BF
CA
1F
61
C0
8C
77
C7
85
28
F0
12
12
87
ED
28
67
5C
F7
19
2A
E1
41
1B
14
4B
F9
3F
CE
13
45
43
15
04
0A
DE
FC
4D
69
4F
00
3A
F2
32
7A
4D
3E
C9
95
56
FF
65
32
12
21
AF
08
43
F1
09
8A
7F
DB
EC
A6
C2
AB
C8
35
EB
8E
A6
D1
83
B3
63
44
82
DC
F2
F7
4B
1F
79
3F
C5
D4
E3
EE
D1
DF
92
ED
33
48
3F
8A
44
0F
3F
E7
77
CC
C0
D9
8E
3E
B5
DE
EC
35
5F
C7
20
87
A7
C2
AA
8B
B4
4C
77
46
2B
87
0A
2E
BE
2F
4F
DD
81
08
EF
58
CE
9F
79
9B
94
80
6D
EE
D7
C5
0F
00
31
33
66
25
D0
86
33
CE
6E
06
E5
A1
B3
CB
88
54
F3
D9
CB
97
88
26
F9
51
62
B5
E8
1E
93
67
10
62
D2
5C
73
53
91
E2
58
A1
53
8E
1F
90
1D
E4
2A
71
E7
EF
EA
2F
40
42
EE
A0
17
AC
F5
CC
D7
6B
93
25
AE
3F
DF
F8
D2
B2
5C
F8
DD
78
FA
36
59
7A
C7
BA
69
76
D9
2F
AB
92
0D
40
FB
9F
76
74
E5
32
63
B9
9C
8B
6D
BF
4C
DE
34
93
43
FA
16
48
6C
CF
F3
1B
90
D9
16
05
FD
47
9E
2D
60
6F
8D
8A
84
2B
93
0A
5B
C6
E3
F4
FF
39
2A
CF
57
B8
2A
64
D0
85
3C
8D
31
F0
8D
6B
66
70
16
51
6F
F1
09
F8
A7
23
58
20
EB
CD
D1
B1
2D
6E
EA
7B
B2
A6
1B
B8
0A
87
77
86
0B
3D
0D
90
8C
E5
B2
B3
3F
FD
7F
F9
07
CE
4D
F8
C0
8D
59
B0
08
97
58
6F
DB
DD
20
E5
81
DB
F1
67
4D
7E
0A
B3
8C
BB
B3
5E
EF
8C
30
BC
01
49
B1
D3
C3
5E
58
4A
CB
67
04
28
AF
C7
B0
4D
49
1F
04
58
89
2E
78
C9
75
27
50
F3
C7
48
92
55
94
19
6B
B7
A4
91
99
E1
06
90
16
7E
59
BF
6A
9D
0C
C6
FF
A3
4F
6A
86
D2
1D
F9
FB
69
9E
F2
D8
8B
84
D9
7F
4C
9F
91
EB
37
0F
4B
60
F3
EE
63
DB
8A
C8
36
8A
1D
95
2C
01
5F
BF
3F
AD
58
F6
4B
8F
B2
AB
B1
2A
E6
27
9F
CD
79
EC
CB
1F
B9
24
7D
0B
D6
4D
31
73
07
0F
29
96
AD
2A
DC
E9
05
D3
4D
3E
AF
3E
29
3A
84
EB
7D
97
37
0E
02
F8
7B
F7
CA
F7
FB
AB
E4
67
71
D9
06
78
D7
88
66
66
4D
40
39
FC
C9
E2
5A
94
FC
2B
FC
88
54
13
F6
A0
45
EC
27
1F
89
76
46
73
7D
C5
31
19
23
E9
12
A7
67
C9
8F
D9
89
6F
77
95
2B
7A
FF
58
25
A0
D3
DE
33
4F
E3
93
8D
63
E3
15
EB
05
A3
12
A6
52
38
B8
DB
1E
E2
E3
63
41
91
F4
32
11
A3
A0
7F
E9
6C
2B
E0
1B
D2
2A
E0
FB
38
8D
35
43
CB
CA
1B
FC
56
65
A0
C0
01
AF
CA
EE
CC
CE
14
E9
91
B6
2B
71
E7
5F
E1
CF
B1
65
09
AC
1F
2F
0D
39
D1
81
2F
AE
BC
10
8E
C1
DE
D9
C3
B3
2C
9B
C7
A3
57
B6
67
80
E1
E8
1D
26
81
5D
DF
D6
04
8C
67
7C
C9
A7
DD
2B
A2
97
A3
3D
A8
5A
F0
C8
BA
E7
67
4E
33
23
FE
08
9A
B5
F8
46
B4
8D
F5
59
2A
01
77
17
66
85
01
8B
30
42
F8
3B
9D
36
0C
53
85
53
32
77
8F
C9
25
4D
62
96
E7
D5
06
4F
59
0F
DA
89
03
1C
82
75
D4
9F
FD
98
8B
D2
1D
85
E4
76
29
4D
6C
22
61
D4
2F
2A
28
6C
86
5F
4F
A2
9E
76
8F
AE
8D
34
3C
D8
EA
13
8F
97
63
72
1F
B7
76
E7
E4
89
FF
D3
D4
81
1A
07
60
FC
F9
79
46
33
75
E2
F1
34
F6
29
18
34
60
4C
51
A5
FA
E8
64
E1
93
45
DC
02
CB
6E
EF
4B
70
0F
44
14
FD
44
C8
70
04
34
B8
71
E4
AC
A2
76
FE
B2
8F
7A
6A
E1
73
25
8B
05
27
E7
C8
7A
DD
3F
79
20
47
7D
E9
CE
CD
61
F4
0E
5A
6D
B6
0D
77
E6
27
A6
76
3B
6C
3E
E0
71
30
04
A1
D7
10
F3
0D
DA
CE
78
4C
48
CF
59
D3
C5
42
EF
F4
E6
F3
D0
25
9A
CC
6A
64
CA
5C
EE
37
83
45
B3
50
E3
26
0F
FC
7E
08
62
C1
95
53
A5
13
5B
84
34
BD
26
95
D6
0A
5A
32
4C
42
22
51
E0
36
02
C2
5C
82
51
9C
B4
A8
25
A4
AD
A0
83
F7
61
39
71
EC
61
41
B5
AB
BA
0D
B3
5D
01
D6
CF
DE
DE
7F
5E
E1
BD
17
37
B2
72
C5
BC
21
30
89
A8
3E
64
BD
4A
1F
93
EC
1A
A6
1C
25
75
7E
90
3A
81
9E
49
D7
C2
46
68
CF
22
D2
95
27
98
91
05
19
9A
2D
3D
76
9E
73
EA
41
1B
B3
E1
7A
59
6F
1E
C4
01
07
BD
42
AA
1C
76
8B
38
B2
0B
D5
1B
24
0B
38
DF
F5
BE
34
32
D2
8F
B5
A4
2C
18
36
C9
E2
95
57
B1
4F
5A
38
14
3C
57
12
37
95
4B
BF
0B
1D
F4
3D
7E
BB
11
B7
AC
0D
2C
B9
28
58
6E
64
B9
9B
4F
E0
0C
AA
43
63
21
B7
8B
22
37
E6
B0
79
70
5F
A0
C1
FF
B9
D5
3C
FF
AD
BE
95
05
B6
11
78
84
B6
35
D4
C8
61
6F
97
72
EF
60
6E
53
E9
1A
8F
9B
10
E9
A2
FE
46
D2
07
3A
31
EF
40
8D
34
4D
EB
8A
11
98
C7
3D
5D
A1
D9
34
DE
57
A3
70
A6
E5
FD
E6
CA
BB
ED
96
DC
35
BE
1B
93
56
EA
CF
21
04
F7
6A
15
EB
56
55
D0
7A
CC
F7
45
A3
31
15
D0
35
5E
37
4C
D7
58
40
96
A3
DD
8C
8F
C4
D2
B9
C2
26
2A
0F
42
C5
BB
8F
2E
6C
7F
AD
12
E3
FC
69
2B
EC
3C
13
BB
83
76
E0
DC
49
85
90
4C
F3
A7
86
7F
19
DA
CE
69
E0
38
F3
F1
BD
5D
94
6B
3C
05
C1
34
99
AE
99
16
24
DF
D9
61
9D
65
B2
33
5E
80
70
06
E0
CC
98
27
0A
57
77
C3
B4
E3
4F
7B
28
B2
46
EA
84
4A
7D
87
41
D0
E1
3C
8C
BD
ED
F2
BE
9F
D2
6D
D1
4C
BF
12
D9
C5
42
1F
98
F2
90
99
AB
2A
F3
74
8D
9B
C8
86
44
BB
22
22
3A
DA
27
84
B7
2A
FA
85
E9
5D
87
DF
B3
30
10
BC
41
2B
9E
34
43
DF
A7
8D
0B
1E
70
0A
CA
B5
C6
3E
43
FC
19
AC
AA
5F
92
5A
48
3D
5C
58
C9
80
79
A3
DA
C5
80
04
05
36
FA
96
0E
0C
5A
40
29
AC
03
23
1E
0A
30
4F
D5
9B
4E
D8
B4
1E
E9
9D
05
FB
A5
79
20
95
2E
2C
9C
07
91
29
14
EE
BD
69
7B
8F
71
1F
B5
82
83
7B
B7
66
2E
F7
F3
94
90
75
5D
AF
12
48
94
2E
54
F9
FF
96
99
E8
63
2A
A6
0B
36
1E
1C
69
B9
A6
72
F3
3F
BF
CB
62
55
D6
F9
94
AD
14
70
B3
D3
CF
B4
CB
15
B6
87
02
FC
35
2E
6E
F3
08
8D
56
3B
B8
2E
74
67
30
7A
4D
8A
8A
1B
E1
2E
AD
3B
DE
9E
F6
5B
E5
F2
A3
74
87
E7
B6
1A
3D
4C
78
54
5D
11
84
01
33
15
C6
1D
44
E8
AC
2C
14
3C
76
7C
F6
54
4A
59
59
B6
9A
7E
A0
EE
34
52
F5
F9
D0
DB
C8
46
16
4A
15
E3
32
A9
E0
54
AE
C5
A4
31
F1
EE
B6
E7
7F
E3
F8
8B
5F
34
86
CE
DD
6C
FA
0E
57
D7
45
90
17
A2
78
21
07
C0
DA
EB
EC
A9
29
22
2D
07
7B
26
CC
BB
33
E5
BB
E6
9E
CD
EA
BC
E3
B6
30
48
14
BA
0E
64
E9
84
6A
52
7F
1D
00
9E
9B
83
75
BA
B2
FE
22
24
C4
8E
BC
85
95
66
22
6C
BD
A2
7D
D4
72
EC
23
6D
A9
49
88
32
39
36
6C
C8
D3
C1
8B
46
4F
EB
CE
76
AF
3B
1E
5C
B3
17
60
B4
88
DB
8F
64
39
15
2C
A9
3C
AB
79
29
9F
1F
74
6F
BE
5E
0B
F9
96
52
39
33
79
B2
47
6D
F8
D4
77
77
4B
02
66
8F
0F
FF
59
4C
CD
45
EC
AD
1B
9F
D2
5B
B2
81
AF
8E
81
57
7C
F5
EF
6C
AB
F0
86
3A
62
5A
2A
FB
B2
38
0A
DA
44
31
A6
C8
42
6B
D3
4C
7A
86
3E
FE
32
A6
7E
F6
36
51
E7
0D
A5
BD
58
32
CB
78
19
8A
66
A0
51
4D
38
FA
A7
4F
2E
85
DC
09
98
84
CA
D3
15
5D
32
4F
E5
DB
5A
7B
22
11
29
B9
64
42
F4
21
DE
92
36
78
7C
C9
D9
4F
7A
01
A0
AE
B0
67
2F
3B
D7
C3
CA
49
23
0A
8E
CE
4D
B2
30
50
47
E4
B8
8A
BD
42
BB
61
FB
6A
E7
5A
DC
95
F4
D4
79
48
E2
5E
D7
24
E8
B1
CD
3C
82
F8
8C
14
CA
83
3A
A6
A4
A8
0A
5B
B6
BA
C3
EC
64
3B
06
32
3C
70
7F
DA
77
50
7B
47
A2
F0
08
01
E8
BD
9A
AD
A4
EF
9D
42
EE
53
71
25
68
18
DB
39
E5
E7
42
36
7E
D6
45
6C
23
CE
D9
AB
B1
20
1B
9F
D9
12
ED
BC
F3
38
F7
C7
F2
0E
30
99
4B
28
DC
7A
5C
C4
A7
11
3F
CF
00
C6
84
3B
04
10
9A
6C
C9
72
C7
EF
0C
7C
21
5F
5A
E4
8F
15
DF
20
95
AA
EF
54
FE
9F
F8
BE
16
8C
A1
A9
74
A5
E7
96
7D
19
F3
C4
B6
F3
79
D3
9E
D0
40
E7
CA
84
B4
F2
11
7C
5D
7D
7E
B0
E1
FA
34
60
4A
63
DB
DA
16
DB
55
84
C9
D0
8B
E4
7B
5C
5E
46
F2
61
69
AF
31
15
AD
11
55
9A
1B
5E
F1
6D
87
85
C0
B6
64
41
DC
D1
61
7E
42
E3
BB
CC
84
5F
73
29
6D
D9
EB
74
70
52
03
B3
0F
6E
40
0A
25
41
C5
19
B7
F0
5A
94
48
7F
0A
C1
FC
69
27
A7
26
4E
D4
37
37
D3
B0
75
BF
7E
8A
B2
E8
CE
F5
93
28
1F
87
