4A
7F
97
67
76
E6
65
D0
C6
16
D6
6D
90
77
32
F4
D1
91
0D
3A
06
E7
F5
3A
B7
B8
B4
74
BF
5F
C7
40
93
82
08
F4
A5
EC
97
F0
4A
48
B7
D9
EB
6E
5A
65
39
FB
2D
25
0F
AD
E5
B7
B2
B6
9F
07
F6
69
BD
9C
1A
73
FB
EE
32
46
1C
49
4A
12
D9
86
8F
DA
4F
A7
56
BD
AF
89
BB
2A
D3
A7
7A
22
DD
C7
4B
5B
AA
97
FA
74
8F
50
27
5F
83
19
42
4B
5E
7B
81
94
C3
FE
FB
4A
FA
F7
65
B1
81
66
AF
EF
11
AC
B3
6A
64
A3
97
D5
5B
27
5C
47
C1
E2
EE
25
1B
22
6D
A2
5C
6C
E1
B1
4A
34
D3
F3
1F
C6
51
37
47
C4
4D
7C
C9
F8
D1
D3
9D
4B
01
26
E3
5B
40
BD
79
05
13
BF
BF
67
21
69
B5
F1
28
D5
D3
E7
A8
56
72
2B
EF
5A
DE
28
CA
67
72
02
DA
FD
51
07
16
A8
B4
3C
25
F3
AC
E8
AB
D8
2A
3C
42
D3
53
D2
3D
89
08
6C
8B
33
FB
F8
1D
AB
9E
EB
DE
AB
E8
0E
56
43
12
E1
C0
3C
FB
27
A8
0A
F7
74
93
C3
F5
1A
75
BC
30
69
05
5C
F4
AE
4A
13
15
8E
E2
79
23
9B
83
00
53
3E
5C
64
FD
5B
FA
FE
5B
0D
09
4E
B3
0E
32
FE
70
F0
5C
E3
C0
A3
85
EC
73
59
C3
12
5E
BB
D1
43
87
B4
85
ED
98
8F
19
47
90
89
64
EE
73
39
DA
6F
20
78
A8
39
9E
82
4A
2A
E6
82
25
53
55
85
FD
B5
E7
A2
CF
B2
24
97
52
EE
F5
A8
AA
BD
61
0F
B4
23
F9
49
8E
1A
10
F9
D9
C1
07
24
37
02
27
77
68
2D
19
28
B7
2F
31
ED
1E
1F
AF
A3
D2
C8
82
02
B8
9F
74
DF
B2
FC
5F
3F
97
BF
D4
68
39
74
9F
1A
48
AC
65
2B
D6
90
05
C5
83
B3
B0
C1
09
B7
F3
51
BE
07
1E
D5
48
84
2A
D7
D2
D9
6D
E1
0E
35
17
D5
F2
4D
59
9B
61
99
F4
AA
E9
B4
58
DC
3E
AD
70
AA
12
3C
F2
03
70
AA
3D
B3
3E
CE
73
1B
73
C9
7B
AC
B7
10
B3
17
14
6D
0C
63
A1
42
6D
B6
F2
CA
CD
AE
90
1C
D0
11
91
76
BC
E5
50
BC
11
7F
41
89
23
55
B2
51
03
79
40
3F
E4
F1
2A
44
8A
4F
38
15
7A
03
89
DF
D2
DE
24
79
5D
59
AF
82
A1
2B
77
33
D1
21
44
00
3B
5A
37
28
6A
20
76
1A
30
C6
CB
FC
BF
D0
A3
C1
C9
07
9E
2F
1A
EB
36
7A
46
AC
25
2A
1B
C7
F2
70
FF
D0
C8
7C
03
FA
EB
1A
A9
EE
D9
55
61
37
0E
FA
54
E0
8F
76
0B
24
6F
D6
C0
EE
50
11
F6
10
1F
58
FF
E4
CA
67
FE
F4
61
9C
A3
30
D7
17
06
CB
F6
F6
EB
57
04
AB
F7
65
BE
DC
0D
9D
1C
3E
7E
FB
2F
E4
7E
18
EF
07
75
58
F9
F4
C4
5A
E1
44
43
5F
0F
E5
48
40
98
5A
17
9C
E4
4D
5F
EA
47
A1
3B
46
1C
23
3E
DA
B3
94
D5
B2
2D
EB
6F
94
98
32
21
27
E9
6A
35
85
16
8C
A7
1B
A1
0B
44
EE
C2
C3
ED
88
5D
96
B3
EE
71
D5
34
8E
F4
04
26
F8
21
BF
4D
1B
9F
D4
18
20
74
41
D4
F6
1C
51
1A
29
08
EA
C2
92
C1
9D
3E
AD
B8
3A
AA
26
26
73
9B
8A
86
B2
BA
4F
6D
2E
BA
04
44
26
DC
CC
87
98
DD
0F
5F
80
F2
85
76
3C
59
E3
75
7D
2A
30
11
51
6E
DE
65
4F
54
1A
6D
1B
76
5B
51
3B
47
6E
B0
E4
1B
E4
68
CF
60
56
EC
16
FB
97
0F
33
EA
A7
14
D5
4F
CE
89
FC
DC
EC
69
1F
6C
6D
83
40
6B
3F
2B
AC
07
1D
7A
9C
F0
DA
87
BC
08
6F
6E
65
A3
EB
74
99
11
75
7D
A4
E9
E6
B6
AD
0A
8D
12
57
BB
F3
EE
77
07
1B
3F
6E
94
D7
27
83
CC
FD
E7
B2
EE
97
32
C0
7F
3E
88
AC
EB
68
9D
54
D4
32
37
40
DF
7D
03
32
98
B2
40
B6
EF
E4
B2
B3
FE
B0
C9
04
C5
D8
3E
F6
69
53
8E
16
DB
3D
F3
32
1D
C9
23
3F
16
B1
1C
0B
7F
E6
B3
1C
AF
10
AD
CA
F2
37
44
51
93
F6
9C
8F
20
A0
6E
6A
57
59
AE
F2
62
64
DA
A5
F3
D4
98
06
53
FD
CF
B7
84
51
8F
C9
94
7A
63
43
FD
A1
D8
30
73
3A
28
9B
CC
FB
C0
6B
C1
61
C4
AD
72
E0
E8
F3
61
A7
93
BD
0D
29
C4
97
7A
13
A3
33
28
8C
DC
A7
85
9A
EF
60
39
59
E1
BE
64
EE
B9
D4
30
6F
2F
60
B1
D9
D1
8F
CE
55
81
0D
53
11
CF
6C
01
56
9C
CC
4E
FE
E0
C4
E4
8A
8F
C4
DF
B2
A2
8D
24
31
6E
3C
8B
29
3D
BF
92
89
6A
B3
2D
03
69
47
6A
47
D0
2D
D9
2B
83
C8
FA
49
70
B2
92
D6
43
97
1E
BD
B2
27
8A
05
58
72
93
07
A0
8A
AF
3B
4D
A9
85
61
97
C7
DE
C1
4A
2C
54
68
18
57
0B
96
9B
2D
30
7C
06
5E
61
C8
70
4E
44
AB
23
B8
03
BF
09
CB
A3
5E
70
36
F4
0C
23
27
90
36
DE
A0
7B
E4
D2
06
87
E2
11
C2
1E
3A
F0
58
25
FB
85
20
AB
8D
DB
AE
1F
05
86
11
F0
A4
65
40
E5
8B
F8
37
2B
2B
8B
CE
79
57
69
96
DB
DF
DF
24
21
0C
05
6D
7D
57
FA
EC
40
E8
0D
8A
65
53
C5
DA
94
DF
7D
80
FB
08
CD
A4
59
75
8B
2C
C2
A6
3D
EC
C8
29
1A
85
EF
88
35
88
8D
D4
59
B9
97
75
0B
FE
18
53
87
80
5A
E8
49
69
47
6B
8F
1C
FA
2A
B3
C5
B6
AE
19
7D
79
02
87
50
78
5A
E8
DD
C4
12
2C
83
F0
A0
DC
DE
2E
39
53
E3
A1
E2
D0
66
85
08
92
A7
20
CC
90
5D
BA
80
66
43
B1
61
7B
3B
68
50
C0
35
B6
49
7A
22
34
2E
73
36
17
49
9C
82
05
C0
0D
45
3D
59
10
EC
56
34
0C
21
57
7E
5C
E3
06
B0
E1
21
A6
6A
DA
6C
69
59
3E
8D
0C
22
ED
24
07
83
20
3E
D8
29
1C
E9
11
EF
24
3C
CA
57
66
E0
8F
09
D2
6E
E3
8F
AD
55
11
80
17
D3
B8
97
8D
76
BB
DA
EE
10
78
7C
E4
7A
85
96
84
6A
20
BD
7C
FC
E0
46
34
56
BC
BC
57
6E
CE
65
61
FE
78
6D
71
E3
25
AE
5E
5A
DB
1F
9D
3F
0C
E4
BB
88
B9
87
77
53
83
0A
FF
F4
A7
61
48
5E
50
12
DA
EB
4E
23
9B
93
36
53
69
5F
58
FB
19
73
97
3B
11
4A
A8
5E
A3
82
D2
43
87
49
34
A0
91
26
A5
38
D3
15
79
7D
77
38
DB
17
9B
18
D7
20
CC
27
13
F0
8E
B1
85
11
BB
B6
A1
D3
BB
60
8F
72
05
7F
85
DB
33
54
FD
29
8B
72
1B
E8
12
46
9A
58
DF
55
9A
68
4A
32
EA
D1
E5
60
C1
D8
E0
ED
50
62
81
B4
76
28
36
80
20
9C
0E
51
8A
05
BF
8F
8D
80
63
A4
EE
C8
44
CC
F1
B7
8E
DF
25
13
2A
6D
FA
27
C9
F3
0F
FD
10
06
A2
EB
61
75
BF
AC
73
1E
C5
A4
97
14
E2
C0
49
39
5D
45
73
00
ED
3E
1D
8E
8D
1F
42
71
82
AC
32
6A
54
26
3B
76
10
0B
E4
98
5C
C8
02
BF
7B
D6
67
61
8E
96
04
7C
6C
2B
1B
60
79
61
FD
0E
86
B2
6B
FD
38
55
CD
8D
77
39
E6
F4
12
DB
8A
25
86
11
C7
6F
F0
DF
64
2B
43
7B
C7
96
CD
94
4B
57
56
2B
0E
85
48
86
52
D7
BC
BA
2F
BD
02
D1
7E
1D
D1
3C
2D
6E
D4
BF
1B
48
AC
57
06
B6
7B
66
E7
B2
43
91
C6
5C
2E
15
5D
AE
F3
48
51
6C
BC
C4
57
D4
C3
60
85
FD
2F
2B
B9
96
CC
D0
F2
46
31
04
43
B2
E0
2D
36
AF
E2
D7
C2
29
0B
15
B0
71
08
94
75
41
0F
54
B2
39
44
E4
BA
F4
A3
6C
EE
F6
0D
7C
F9
B7
EB
8A
85
DD
2D
ED
D5
C1
13
49
D5
35
31
A8
10
3B
34
4C
EC
DD
D2
C1
E1
5E
09
78
5F
17
AC
30
F3
F5
93
05
45
04
25
55
B5
12
11
CA
60
0B
DA
1B
07
BB
2C
51
71
55
2A
9A
FC
37
90
DA
B4
40
0A
CD
E3
2F
79
CD
04
EC
5F
9C
C4
A4
51
A9
2E
50
06
2E
C9
FF
2A
53
27
CE
DE
8B
79
52
2D
84
86
3E
BE
D5
8B
54
E0
71
5D
5F
7F
4D
98
F6
C0
56
1B
A6
28
D5
AA
75
1F
D9
4C
12
DD
C8
AE
1E
C7
7B
30
CE
90
05
55
57
2D
D5
35
E9
4C
3D
11
99
EF
1A
1A
46
FE
8A
47
33
1A
24
85
C5
B5
B7
CA
A9
31
FA
DC
72
6A
E1
79
FE
77
96
68
59
1B
A4
F9
43
80
82
44
3C
5E
61
46
8E
ED
85
95
BA
43
2F
BA
DA
1B
37
AE
B5
91
C2
74
FB
FC
B7
F5
A2
EF
34
C3
2E
B4
15
1F
BC
07
B2
D2
57
C5
92
6C
E2
63
2E
60
E7
1D
92
00
4E
4F
17
B5
40
08
EA
AD
1A
48
40
A8
EA
B3
86
F7
28
F1
48
6B
8A
16
23
71
7F
AF
A5
28
F5
9F
92
07
A7
2F
29
9F
3F
61
17
1D
98
28
EE
2D
D5
2B
34
DB
A5
EA
8D
68
BB
F6
07
B3
B3
AD
7D
5F
35
67
83
D8
23
48
6F
E1
ED
A3
15
3C
C9
0C
91
99
6D
C1
2E
43
CE
E9
5C
0F
48
C2
1D
E4
47
D1
D0
95
52
A1
D6
23
57
5F
D0
65
28
CF
C6
B9
9C
43
D9
B6
23
C7
53
A2
BB
51
2B
18
A0
7F
A8
47
FC
B4
B4
50
F6
C8
1F
3C
3E
81
25
11
E0
CD
81
F1
2E
FC
C8
39
82
CB
04
F8
93
C0
3E
4B
05
40
64
78
9F
E1
BC
38
E6
28
13
60
FC
7A
74
D6
3E
A3
79
3E
C3
7B
FC
0B
54
F3
6B
0A
EC
73
94
8C
37
C3
71
A2
B8
F0
A1
1A
D5
9A
0B
D8
F6
3F
5E
67
E3
92
5C
42
83
09
BC
F0
EC
A8
C1
58
D3
B0
7E
2C
2C
71
5E
C9
03
A0
04
50
82
15
B7
FE
00
CC
9B
42
28
96
5E
EC
FF
98
D4
95
6B
59
6C
65
0A
9F
3C
CD
3B
5B
90
5A
A2
97
38
29
E4
5F
F3
13
F7
DF
9B
2F
47
DE
1B
11
17
67
D1
7F
09
6D
08
4C
1E
E7
3F
E9
14
A3
9B
C5
C3
A8
EE
C9
06
F8
F2
E4
41
69
ED
DC
7E
5E
FD
05
5F
56
33
26
30
F2
7B
0A
60
87
43
6F
32
D4
77
98
71
5A
B3
6B
58
1C
A5
EB
C7
A4
F3
5D
14
3E
8E
36
DF
BA
B5
53
98
53
A2
39
F8
E4
71
24
6D
BE
DF
0F
AC
43
2B
DE
EB
0D
BF
DC
BD
04
76
45
5B
33
7F
5C
22
55
9B
