8B
91
B3
62
5F
B6
61
C6
58
B7
58
EA
66
6C
39
BC
91
21
0E
C3
CE
43
1E
CC
DF
40
4F
81
05
92
F8
44
79
DA
05
FD
EB
60
2F
E3
AA
6D
1C
77
73
50
26
23
A2
AC
E8
0E
E1
C0
1A
56
E5
68
24
43
F7
1F
35
96
B5
50
A2
6F
F8
FC
57
1A
3D
C5
2A
28
C4
CF
E9
BA
D1
A0
93
F2
8F
8E
22
63
87
35
50
C4
58
CF
CE
C8
5F
78
AE
44
7D
73
2E
7E
59
F7
3E
97
F3
CA
4D
2E
55
E4
B0
B8
9E
59
19
BC
EA
A7
F7
F0
89
81
8C
40
B7
DA
B2
E1
78
BE
A5
7D
4B
A3
E3
83
F4
25
56
13
21
B3
97
75
6D
40
EC
D9
30
0E
66
D1
80
76
69
CC
48
5A
0F
EE
53
F1
64
44
34
96
8A
8B
D2
33
9A
3E
63
D9
55
A9
7B
C7
31
3A
A7
F0
3C
E7
2C
42
D8
56
C3
5D
3A
19
88
F3
89
7F
68
80
69
3B
FF
87
4C
70
95
78
7A
B5
91
C0
E0
37
CB
EA
E0
D2
69
43
65
21
2A
41
66
DB
A6
4C
38
03
C8
76
44
6A
85
22
6A
27
D2
FA
DE
16
2F
3C
92
B4
7D
72
12
70
EE
18
5F
3E
06
6C
11
3B
CF
49
F6
77
C4
D9
8B
4A
0F
83
5F
97
80
53
B3
C5
72
01
08
E3
24
BE
55
13
E6
01
8C
E3
