F2
1D
84
07
08
59
99
B6
76
DD
DE
AB
86
1D
0F
87
E9
57
7E
20
A8
BC
AC
C8
5D
D0
16
D3
A2
13
51
53
CA
E1
59
26
CF
97
27
33
8C
F7
81
F0
2C
CE
16
28
E3
D3
CA
FB
DC
D3
4F
26
72
0B
F5
84
A2
D6
C3
D5
C0
88
C6
BF
6A
99
A9
12
BB
06
86
50
C0
F4
FC
6D
30
96
82
D3
57
52
FA
A9
54
1F
8A
55
84
32
A7
3F
3E
D9
72
D8
C1
A7
48
DC
6A
D1
94
D4
2B
D8
E8
DE
38
68
4D
B0
03
81
D7
DB
6B
D4
7C
4D
30
70
25
1A
AB
9D
06
7C
BC
08
2B
18
03
21
54
82
53
C2
03
04
77
84
74
CB
FF
A9
0B
33
84
29
A0
79
E0
C4
FD
0F
53
0B
86
9B
78
7E
CA
41
78
F1
58
20
7E
34
D4
1F
6B
F2
4A
E9
CA
DA
C1
36
06
FD
14
4D
DA
77
FD
C6
0A
52
73
95
51
A7
36
44
9A
06
A8
80
73
18
DE
D7
BE
83
F7
C0
A9
0E
AC
DC
E1
06
29
7B
03
E0
1B
62
54
1F
0B
CC
B1
79
EA
AE
C9
35
ED
3F
89
D7
9B
B8
D8
FF
24
58
85
8F
F4
AC
7D
0C
88
0D
42
47
80
6A
98
3C
F6
48
82
3A
0F
06
6C
44
CF
66
AA
B8
32
49
21
2E
78
BA
44
A3
C0
2E
43
D7
D8
0A
7E
F3
54
66
