CE
C1
F3
80
20
46
63
0F
13
2D
88
D4
A9
B6
7A
EA
8B
B4
FC
A9
64
39
8E
9D
C8
46
9F
56
16
34
54
31
C7
6F
7E
EF
DF
1E
3C
9B
6F
6F
86
E9
0D
3D
6E
AD
5A
DB
97
35
98
E2
98
86
4C
45
17
0A
F6
83
D5
B7
54
68
C6
BD
6C
2A
DA
94
1E
44
DE
D3
E4
06
A1
F2
EF
F8
C5
F7
79
17
BF
0D
6A
51
CC
E3
35
EB
32
1B
84
A5
BC
99
8C
BE
75
2C
9B
82
B1
87
2A
0D
AF
B0
58
97
20
07
72
C5
45
A5
62
E0
24
3F
2E
F8
5D
E4
E6
4F
A9
75
46
DB
9D
BB
A5
A1
E5
A0
DF
95
23
82
99
1E
4E
40
46
CB
57
26
A5
B7
10
52
5D
CA
C9
10
29
F3
8D
22
84
F8
BA
BA
8A
3D
D2
4B
40
A4
49
8F
21
31
81
92
77
79
E7
5B
00
53
1D
71
D2
89
F0
CE
81
8F
C2
58
D4
CC
57
63
93
7C
17
BF
3C
5E
C4
CB
D6
11
BD
E4
94
08
46
4E
57
F0
BC
C1
43
FD
A5
12
7E
FF
FD
54
8B
79
C1
EE
15
C3
93
BE
93
4D
01
65
51
2C
E8
26
80
E6
ED
CA
1D
85
5C
21
7D
FD
75
47
60
03
7B
58
17
2F
78
A5
0D
95
C5
CE
23
4D
91
DF
C4
AD
10
3F
CA
2E
A9
0A
17
60
31
10
BB
8B
A4
D4
