CC
32
63
19
CA
2C
D1
F1
14
16
FF
E5
01
37
25
1A
B0
84
74
CD
F8
C3
A9
96
A2
F0
E1
EE
D6
E0
AF
F0
D4
24
6C
5C
E5
30
CE
E1
90
BD
BC
9C
10
6B
61
DC
06
AB
80
28
6C
DC
07
83
CA
B4
E6
EE
AC
E2
21
2F
53
F1
24
D1
AB
70
58
6C
7D
50
F3
26
E6
8D
14
7A
08
11
0F
38
FF
D5
05
CD
16
49
B9
C5
3B
F6
9E
8E
B1
61
35
7F
05
33
95
18
43
98
4B
8C
69
E5
65
7C
1C
7D
CA
06
9A
F5
CD
FE
F0
76
01
7B
6D
63
4E
96
56
3C
44
6E
DB
C3
B0
70
4A
5D
6D
D5
83
BA
7D
6B
90
DA
8E
2B
D8
36
17
F3
91
13
AD
F0
A2
08
97
18
BA
59
17
76
41
1E
FB
74
8E
A2
6F
59
5A
0A
15
11
74
37
58
2D
B7
ED
FD
2A
3A
34
FA
F6
C6
FE
8C
B0
8D
0B
84
AF
18
0A
E1
C7
82
01
A4
C7
E4
EE
E0
46
10
AF
11
A0
82
1F
AE
3B
93
82
02
0F
F0
23
37
65
4B
3B
B4
DE
50
15
A9
B8
DB
70
E7
4D
68
25
F6
DC
CB
09
61
8C
21
15
55
AE
06
C4
6A
43
08
BD
C1
BE
5C
B2
4F
0B
D0
88
78
CF
01
B8
E0
F2
CE
F5
7E
5B
0C
0F
F2
FA
7B
17
18
0C
F9
C4
DD
9A
F6
15
51
43
