59
80
D7
2A
B8
33
BA
93
ED
36
FC
91
60
AC
68
44
9D
4D
9A
E5
47
88
6E
75
9F
C3
EE
76
4C
6B
84
C4
5D
72
66
31
FE
88
39
55
37
70
76
92
D3
A9
A2
A8
55
73
C2
D8
84
FE
32
6C
A1
27
CB
66
06
3F
AF
95
90
6C
B3
4F
69
3A
77
81
41
93
3A
6C
F7
92
9E
4E
C3
8D
B2
E2
9F
04
F7
67
4E
E1
FA
C8
B1
4E
BC
65
71
10
E7
C0
4F
90
D0
AB
0B
59
B6
78
57
0B
91
3E
E4
3D
7E
D9
DC
42
10
42
88
4E
CB
12
D0
FC
56
7F
3F
EC
51
9D
C3
E4
57
E5
64
6D
E7
84
8E
06
7B
5B
02
45
70
74
8E
24
2C
AC
E0
CB
40
BB
5C
D7
21
E3
0E
8F
A3
F4
6D
11
15
FF
9E
43
9A
2E
3F
61
41
5E
C0
BB
0D
37
A7
E4
F7
DC
AE
35
BA
42
0B
4D
6E
20
37
6D
ED
17
A4
F6
06
6D
8B
F3
A3
8A
9F
DD
EF
4A
95
5D
CE
C5
81
EB
50
3A
24
16
92
3E
A0
31
FD
90
12
FA
8E
38
CF
49
36
76
CC
BA
A1
51
B3
6C
BA
C9
AF
DD
9B
D3
60
53
48
27
BB
3D
74
57
85
46
71
5E
01
88
2C
3F
3F
CF
92
A4
16
56
50
97
16
AB
DA
50
2A
EB
93
F0
75
86
09
DB
5A
8A
C5
E0
A1
77
46
1A
8B
A7
89
E4
7D
5A
BF
20
6A
79
75
83
93
EE
41
5F
A0
F4
8A
2D
A1
FD
01
AB
74
05
8E
F4
F1
E6
4A
31
E6
D0
6C
D1
8A
1F
88
98
DE
13
DB
DB
F3
49
88
61
A3
32
80
6F
8A
13
D9
C7
4C
81
24
89
0C
00
0C
9D
45
C3
85
1D
15
6E
B5
69
BE
45
6D
93
C2
17
42
49
AB
77
AB
6E
EC
75
1A
51
F1
16
A6
34
92
CE
D8
2D
78
C9
DA
44
8B
3B
E3
03
2D
F1
3E
91
E7
95
17
BC
83
23
7F
AC
2C
60
4E
50
EA
C3
63
8C
47
DC
7E
DC
96
1D
D2
2D
AC
5E
76
57
B1
49
CE
BB
75
EC
E5
29
12
77
0C
ED
65
39
F9
4E
62
9C
7C
98
DD
69
3D
DD
A2
AD
B7
EC
4F
DE
29
82
BE
4D
5C
9F
88
45
07
44
62
7F
42
97
56
FC
A0
1A
33
7A
D3
9E
85
CA
B7
FA
5C
16
CC
7F
29
A2
7B
10
61
5C
B3
A7
04
22
F8
6B
D7
CE
F2
2F
64
9F
CA
F3
07
06
39
44
A3
FE
03
6E
A1
11
68
65
21
82
70
5A
4B
01
07
11
B6
E3
3B
34
23
C9
F9
90
AD
3D
3A
3E
8D
39
1D
1B
19
6B
81
4E
82
ED
3D
91
7A
0B
7B
4E
96
5B
72
EF
4A
08
F9
58
64
B6
2C
36
C3
D7
38
BD
4B
D6
83
48
83
90
13
96
E5
EF
A5
F6
3F
CE
AA
5F
CB
2B
45
79
9C
E9
A3
D1
5F
77
71
7D
55
D1
4C
88
13
E7
79
AC
5C
C4
B3
9A
73
B3
E5
C7
CF
CF
C4
35
D8
C8
B9
D1
2B
AA
A8
E6
69
DD
2A
FB
D5
95
10
D3
EB
16
FC
25
40
A0
F3
8F
C0
A4
98
03
F7
7F
25
DA
86
FB
90
8E
34
EC
43
60
A9
92
0C
B8
B0
6D
3A
20
7E
6C
3E
FD
BC
E0
19
7C
34
56
AC
4A
73
CF
CA
3C
2C
A5
C5
D8
F2
4E
BD
F8
86
E8
11
AC
FC
26
6E
CB
E9
A6
27
D6
3E
2A
23
69
4F
4D
AF
D7
47
96
76
50
36
C1
0B
C6
3B
C2
B2
57
3B
4E
C5
E5
B7
35
1A
AA
7C
CB
44
4E
A7
C0
71
BF
D1
11
0E
AB
E0
08
DA
B9
EB
4D
CC
23
C3
E7
20
02
DD
50
D0
C2
F3
C3
4D
B0
81
FB
A8
87
FE
14
5E
93
E7
56
8D
DF
D1
A9
65
D7
7B
F6
A0
BB
6D
97
B0
B2
3F
C9
8D
18
22
A7
5C
A3
9D
F6
68
FE
70
1A
43
49
B2
F1
6E
4E
A0
89
98
D1
3A
8B
6A
5D
11
58
B2
A2
AD
B4
D2
B1
C1
F8
3E
E8
86
A3
85
08
B6
8F
3D
C9
8A
26
A9
7A
7A
95
DF
FF
98
5B
F3
B7
3A
90
FE
54
C8
9C
86
93
8D
61
12
53
4D
45
6A
21
4B
71
56
D8
61
19
F5
46
D7
23
2D
44
76
9C
8D
DB
FA
52
D2
CE
30
49
6E
FF
60
C6
4B
FA
4B
30
23
76
8A
33
71
2E
47
07
18
85
F8
A0
EE
42
33
02
F0
20
92
56
82
CA
F1
87
AB
1E
B3
A8
36
24
96
55
2C
95
3C
28
52
87
20
82
60
F3
B4
46
DB
3C
68
5B
D3
D5
14
0B
83
AD
E2
6C
03
84
3F
19
03
1F
5D
E4
E1
E5
88
40
2E
E4
64
51
F3
B4
13
5D
0F
54
58
0C
35
00
0B
FA
49
A3
DF
17
12
D5
52
3E
F6
50
9C
60
54
D5
B5
3C
02
A5
F0
FF
ED
50
51
B5
15
F2
91
A6
A2
B3
65
CA
45
8D
E7
00
6B
F1
59
45
09
72
B4
10
48
4D
29
4D
4F
96
CB
10
97
AD
55
33
1C
71
DD
99
A0
0F
82
FD
02
94
50
B5
E0
7C
A1
50
DD
F1
69
B2
1E
6A
91
18
F8
A5
E7
82
D4
52
02
4C
87
83
E8
A5
C3
CA
A5
A8
D2
6D
9A
CD
87
01
AD
13
D7
6D
65
3C
8F
C9
52
0F
29
A9
C0
30
2E
FC
B4
F8
64
65
02
CA
D8
B8
25
D2
0F
A1
50
E3
BC
F4
2A
5B
39
FA
6A
3B
0A
8B
39
50
C2
13
9C
EF
5E
3A
42
C8
E2
D6
C2
6A
28
59
27
9F
41
B8
FF
6F
AC
CC
A5
EB
08
6C
E5
1A
98
76
14
BA
67
0E
A2
68
E6
9B
20
B2
00
03
8D
1D
77
B4
10
C3
F4
A5
5D
37
FB
C8
6C
38
40
F8
BE
F5
D8
28
2A
23
D1
52
B8
39
8D
11
D0
C1
12
99
72
FE
B4
67
5A
96
EE
1B
90
F4
81
07
98
33
A1
A4
0F
0D
9A
A4
AC
6E
FB
6A
CF
33
1A
EE
4F
95
86
3D
47
1B
CB
29
43
D3
37
C3
D1
5C
1C
50
D5
B6
4B
CE
3F
FB
FE
98
C2
5D
99
85
C6
74
09
98
D3
DA
63
70
B4
4D
29
39
9F
CC
B0
C9
7A
27
E0
70
45
C9
1A
9E
BF
63
FF
40
E5
BB
2E
9F
5C
42
35
00
15
8E
20
99
C8
AF
98
13
6F
84
3C
69
2E
19
40
B6
1D
2B
FB
1F
95
BC
C5
3A
E9
6E
97
E0
B0
9B
EA
C4
4C
5E
7A
CD
C7
99
DA
AC
74
09
66
F8
BE
86
20
85
7B
6F
43
86
C0
0B
31
B0
A7
9A
33
9D
42
7D
C5
91
C8
84
C0
C1
F4
6C
77
76
DD
C5
9A
E9
8D
4F
92
EF
19
FC
2F
F9
F4
0F
FC
ED
ED
F5
12
B1
31
47
FD
9D
43
6F
15
A4
F9
A0
94
8D
3B
6B
05
74
AE
71
20
D9
6D
FA
F1
72
AA
DD
25
E0
51
43
CC
3F
41
60
5E
90
8F
54
87
E1
9A
8B
83
77
C8
65
1F
7E
D0
69
6A
86
AE
41
F4
B5
91
84
2A
CB
1F
64
32
8F
1D
60
0D
62
D8
74
C3
E9
81
4C
CA
7F
08
22
0F
50
55
8B
23
25
EE
BB
BA
89
9D
63
C1
CC
CA
FC
85
6F
6B
33
1C
08
20
03
8C
9F
21
3C
AC
4F
CE
59
5C
85
70
A8
0D
A4
C1
35
D0
75
5E
1D
54
1C
8B
6D
4E
98
7F
F2
A9
E9
57
15
47
40
12
99
0A
D1
1A
12
25
A7
5F
E1
F1
F1
36
A3
70
3D
63
D4
40
CB
2E
A3
E7
33
DE
91
CB
98
5B
24
44
B5
D6
7D
6F
99
7F
76
16
45
41
AE
9A
6A
3C
76
77
D5
2D
7C
6A
70
46
4B
8B
59
A2
B4
47
DB
D7
E1
E1
E7
C6
89
89
17
52
54
0F
76
8A
23
E8
67
15
FA
9E
78
CF
28
A6
25
BF
43
65
1A
9A
5A
5C
25
18
38
F7
8B
A9
1F
B8
14
20
7E
E4
DE
59
B8
E8
DB
0C
2A
A2
03
DA
B8
E3
B9
2C
68
E5
AC
EF
F7
C5
3C
90
BA
8A
DA
B1
D6
9C
BC
E8
99
55
03
30
50
B7
6D
A9
7C
FA
DD
E9
E4
88
87
C9
58
04
85
9F
C9
63
6B
63
1E
86
0C
7A
DB
87
F6
4B
9E
7F
22
8B
E4
7D
4F
7F
BB
EB
8E
21
7D
95
BA
BC
DE
0C
C5
33
C8
91
16
6A
B1
CB
A6
A3
B8
1E
D6
F3
0D
98
E3
3B
FD
AF
F4
69
2A
04
88
13
30
0E
4A
89
2D
52
E1
94
82
EF
29
3C
0D
FE
22
E0
D4
40
3D
71
30
71
25
94
6B
CB
BE
AC
F4
83
8E
DF
FE
A3
23
C3
01
22
79
FC
07
3D
73
C1
8E
30
F2
6C
BB
4B
83
45
84
DF
DC
1A
BD
E2
89
E2
50
C6
9C
19
3C
7B
FB
3B
EC
E9
02
D7
C1
C5
C8
CB
00
10
86
41
C2
12
FB
1F
C0
B8
8A
FF
F1
26
81
FD
8E
D5
FF
01
1A
7F
5D
77
B5
AB
D2
CE
D3
E3
71
82
E3
FB
F2
64
17
ED
88
BB
62
88
B4
97
3D
F2
FF
C7
A8
48
1A
5B
55
3D
73
C8
D4
2C
5B
27
25
75
0A
D4
AD
EC
B0
13
B8
A5
D8
DB
FB
31
4E
0D
7C
39
A0
46
EC
85
23
A2
CE
DA
A2
0F
BD
47
5D
FE
E0
40
DD
BD
D9
1F
B6
2F
FF
51
E2
3A
41
36
1D
F8
86
C0
4D
C8
A4
AE
A9
13
F7
D0
1E
BB
32
A7
EE
92
92
42
D8
1C
48
4D
70
0C
DF
56
81
C4
57
CA
8A
FD
F4
E7
C9
C6
4A
93
67
C6
73
37
09
61
92
93
A5
61
98
00
CC
4F
BC
22
BA
5A
F5
CF
DF
AA
AA
E8
F6
B3
B4
C7
74
95
59
2E
45
0A
5F
D6
DD
FD
16
2A
5F
73
7C
35
7D
B7
80
5D
0A
14
F2
5D
EB
28
0B
34
BC
DB
6A
7C
3D
9D
0C
B3
5A
AC
EE
42
B7
E4
37
58
ED
BC
F0
79
E8
4D
21
2D
A1
4B
26
F8
0D
BE
8C
5B
18
3B
B7
2C
A2
71
8E
43
CC
89
16
12
3E
DC
B9
68
85
92
E6
56
21
87
20
80
33
89
B1
B9
DA
83
FF
5C
C7
51
FE
88
9D
7F
EA
DF
BD
45
BB
53
59
17
0D
6F
CE
CE
AF
65
2C
23
82
03
0B
3A
1D
28
4A
66
67
81
CC
64
DA
5A
12
4E
85
0E
27
10
DD
BF
BF
86
22
F7
FC
BF
F8
03
62
04
56
BB
6A
D0
81
26
43
1B
B8
CD
C8
1B
3C
6D
04
80
99
A4
72
46
09
B1
7F
65
D4
ED
5A
50
87
54
79
AD
A2
F1
6D
27
26
17
52
8A
11
31
EA
0D
72
B3
73
F3
9C
63
66
23
AC
83
CC
7A
22
E9
E9
31
4E
F6
90
6C
E3
96
34
6E
E1
D0
95
F5
5F
5F
70
96
07
E4
19
B6
FB
D8
24
82
FA
4F
9F
8C
87
25
FA
8D
FE
D9
24
3B
8E
7D
A7
0A
48
9F
54
F4
23
8D
9C
72
12
94
69
AD
D6
BD
C6
2E
AD
69
2C
1E
0D
2B
62
69
10
CC
9C
73
BF
29
12
4B
05
3C
1D
46
E2
EE
A9
40
DF
56
84
DD
93
BD
9B
1E
C9
0E
EF
A0
D9
5B
AE
FA
1F
FD
3A
18
94
60
C3
04
69
AB
1F
7F
22
31
89
E6
DC
E8
F3
91
40
59
5C
02
E5
DB
9C
1B
5A
DB
DD
