FC
03
63
F4
5E
73
7F
15
C8
67
4C
D8
05
E3
21
DE
C1
BB
FB
36
EB
30
F6
B9
62
65
76
52
45
5C
AE
80
C5
3F
B0
69
7F
8B
D7
D3
E2
73
2E
AC
02
11
52
2C
05
1A
96
19
DF
62
5C
89
39
1E
91
57
49
03
EB
D1
71
1D
4B
A9
FB
F9
83
8D
8D
84
65
C3
EC
A8
C9
FE
1F
56
4A
F0
EC
F5
5D
E2
F7
E5
F6
94
2E
21
72
76
56
20
10
C5
2C
6F
0F
AC
1F
58
BE
30
4E
08
1E
37
D5
1F
64
D2
80
12
17
D3
CB
75
F6
98
49
EE
6B
52
70
A2
6C
5C
D2
CC
EA
C9
D1
A8
D7
EB
4A
32
C5
24
5E
5F
9E
10
92
0C
72
D8
A2
E2
C2
0B
92
88
D2
41
88
B7
D8
2B
34
14
51
D6
26
38
95
2D
F9
31
60
90
BB
98
13
E8
18
D1
C0
DE
FE
42
F2
71
8E
78
D0
64
07
CF
1D
33
44
1E
91
2D
BE
B4
17
15
01
82
5C
26
97
A0
D6
F6
18
00
EB
83
33
CA
A8
25
CA
86
1B
C2
DC
53
BD
97
3A
A0
E9
89
22
1B
EF
1D
50
5A
15
60
C0
91
00
50
49
C5
37
F4
C5
8F
76
55
3F
6D
58
30
28
D6
08
5E
59
07
22
F6
37
C9
85
FC
5E
52
CA
87
99
12
C0
EC
5A
74
E7
F0
D9
7A
EC
8D
94
89
00
67
AF
97
35
EA
47
84
26
C9
36
CF
ED
7B
6B
69
C0
B3
CB
62
F8
3E
7C
F7
9F
E0
8F
D7
00
42
35
00
8E
CA
8E
E5
59
CC
77
C6
1F
39
37
BD
10
04
C9
D5
38
66
6E
CD
FF
2B
D8
D0
2D
39
57
0F
4A
10
C7
AD
63
C9
36
4B
D3
8D
51
4F
10
93
8B
31
8D
82
EF
2B
1E
A9
25
35
FC
D4
17
89
D8
F2
86
FE
83
70
AC
0F
3A
92
63
F8
73
05
4E
8D
C2
C8
36
4D
4F
59
D5
F8
3E
33
78
57
07
FD
C1
0F
05
50
2D
4E
23
D0
69
64
DB
94
B2
FE
B4
5F
6C
8D
61
21
35
1B
7A
F6
7E
93
B3
D4
A4
8C
82
39
88
D9
F8
F2
7B
84
44
9A
D8
A9
6A
42
DA
49
C5
C7
DB
38
1F
DC
F7
05
FF
07
E1
23
77
12
7A
F1
D3
A7
0E
20
8D
FA
FC
60
DC
74
68
E5
4E
F8
49
91
89
4B
E5
CA
40
5D
8E
9E
81
4B
EF
F8
C5
39
56
43
A2
44
31
BC
62
7D
8D
85
DE
CE
66
5F
76
4E
24
F2
31
2B
ED
7E
15
CE
2C
01
1B
44
1C
3B
AB
7B
09
21
69
D7
E8
8D
C1
FB
83
6A
AB
F8
B8
6C
88
50
0D
82
7A
5A
B0
06
B3
04
A8
BB
8A
B2
A1
84
64
0B
72
02
FB
2F
99
3B
89
F1
19
DD
40
D0
70
40
29
61
78
79
18
B4
84
C9
AF
D7
5C
54
CB
90
B3
47
AE
4A
4F
B1
FE
AB
FD
2D
77
38
3C
A1
65
07
EC
DE
DB
E3
AE
C1
14
5D
F1
AA
39
C5
B2
B5
C0
DA
B7
51
87
41
1A
70
5A
DE
39
4D
B9
30
06
9F
73
26
BB
72
A4
D9
5A
5D
9D
1E
93
76
63
9B
96
EF
A0
27
A4
01
C8
5B
BA
FF
E5
A8
79
19
F5
DC
8B
A1
37
91
30
01
A8
8E
C9
9C
23
22
65
97
26
51
F6
98
2E
54
D4
61
6A
86
B9
51
3D
54
54
B9
40
35
A6
5D
BD
84
77
65
FB
6E
23
59
19
0F
51
0D
BF
0A
57
BE
7A
ED
D1
D9
78
E7
30
6B
0E
89
E3
FF
A3
0B
52
7D
80
D1
17
F4
B3
43
D5
26
50
57
A8
31
5E
3F
DC
5F
FB
3D
C6
CF
A2
63
A8
23
E3
1C
C8
FC
EA
D7
1A
8A
3B
89
5F
79
E9
F5
A6
F9
7D
AF
EB
20
BC
D3
7E
84
4B
30
98
3C
DF
1A
3A
D8
0A
65
B8
98
14
98
72
AE
34
23
DC
B3
DD
F8
71
84
D1
9B
56
09
AB
3C
95
6A
4B
E3
FF
02
37
0D
96
09
CD
E6
CD
F3
0D
FC
2C
39
AF
16
11
61
12
C6
3D
3C
B1
32
5D
93
9B
B5
E1
E9
A5
59
9A
D4
F0
65
75
75
34
8B
15
A9
72
A9
34
94
CC
ED
38
64
D5
C0
27
78
DE
57
A4
CF
10
74
2E
51
E4
0C
2A
17
04
21
CF
81
6D
E6
DA
AB
17
92
1D
5B
78
6F
49
F2
C7
16
4F
33
38
69
0A
C6
7F
9A
C1
83
24
B4
61
A2
C9
A4
65
E1
3D
4E
53
FF
3A
09
4D
E3
E3
63
32
C3
87
73
CF
12
83
C4
A4
65
66
00
42
3A
1A
E6
4A
A8
1C
AC
9F
C1
0E
AD
73
E9
77
98
06
4A
E5
6B
12
55
C2
E3
B4
93
7D
79
A0
A2
A7
62
BE
A0
9E
EF
3C
EA
76
58
7F
24
E6
36
08
97
FC
EA
89
C7
26
CE
F6
27
58
8A
39
C9
DF
12
3C
43
2B
58
04
73
AA
D6
8D
BF
4E
49
A9
EC
F3
82
81
8A
A5
56
CD
62
F0
F9
A0
9F
56
DD
E6
09
EF
55
57
EE
6E
34
52
7C
F0
83
C9
9E
10
DA
21
C3
FA
1C
DE
B8
CB
64
9B
80
60
6D
B4
51
B5
3C
82
63
99
C4
7C
89
E7
93
A9
A8
49
09
12
B5
C1
CB
FD
AD
4C
F5
E7
E3
AF
5A
8D
45
63
96
B3
2B
F4
C0
AC
BD
C4
35
C5
EB
1A
4A
16
D5
38
A7
FF
93
A0
9F
AD
C8
11
0C
14
EE
BA
3A
7C
13
E6
12
6C
FD
A8
9A
75
BE
B0
DD
29
AA
82
D0
AC
98
71
7E
DD
E4
E6
DC
32
EB
2F
07
7C
45
B1
97
4C
B6
F5
AC
15
E6
0B
25
59
65
2B
69
9D
FC
3C
C8
C9
7F
47
22
6F
FC
DC
F7
2D
1D
A6
6C
8C
C2
C7
6B
33
C8
AC
11
11
7C
4B
0C
68
40
20
D8
8B
B4
0F
E7
57
95
1C
62
65
81
79
CD
30
32
C6
48
CD
45
9F
CC
3A
E9
26
73
87
9B
D7
0C
43
12
FE
75
9F
AA
5A
CB
72
BD
85
F6
DB
1E
B4
C4
DD
90
46
6D
A4
81
A9
6E
DB
98
56
D9
58
92
25
C9
37
91
29
6D
5E
B0
A6
AF
5F
12
D2
3A
E4
D8
72
A3
2D
72
1F
EC
34
80
5E
BD
13
AE
78
C5
D5
76
DF
BF
6F
C4
B8
99
13
08
EA
CE
A4
C8
5D
85
79
3A
37
23
C5
84
12
F0
D3
70
CB
01
E8
C2
81
3C
CF
A7
00
06
9C
CB
C6
B7
CC
63
2E
5C
12
1F
21
EF
EF
00
EF
6A
19
6D
46
54
90
63
3F
F2
31
1E
17
53
D1
A1
93
24
CC
F3
F2
B9
F3
E9
8B
B0
E0
81
E2
72
32
FC
25
D6
FD
3D
E7
9B
5A
0B
8C
E3
B7
F7
F1
32
69
FC
E9
69
81
F1
C2
FE
C6
71
47
C7
BE
F6
2F
BE
6F
8D
73
A0
75
77
52
CC
45
E5
F1
28
E9
C5
39
38
67
55
DC
8D
FD
66
4F
40
B3
F9
30
E2
C2
01
85
A2
BD
61
A7
5E
F5
2C
DF
8F
07
FF
C1
02
60
60
2C
8A
4D
F1
04
79
2D
6F
32
7F
94
CC
FC
63
7E
AA
20
51
A5
FF
FD
06
18
53
B8
20
48
0F
42
7B
F3
25
4C
D6
5C
18
E8
B2
4F
F5
C3
9F
2C
1F
52
27
D4
68
7B
47
BE
84
27
01
39
BB
AF
E0
52
A7
11
AE
27
14
98
B2
27
0F
D4
4B
6D
F1
52
06
1B
E4
9D
C8
C6
88
A3
43
DA
14
02
93
43
2A
C3
51
20
DC
F7
22
D3
A4
83
E4
DE
46
1C
EB
F4
D5
33
A5
2A
D9
E3
0D
75
B5
12
AF
29
53
8A
E8
10
DB
78
9D
C2
97
76
A4
D8
20
2F
FE
DA
93
8B
F9
C6
34
BE
84
68
DA
D4
CF
28
F3
7C
F3
05
E3
E5
05
A8
CB
E9
3B
23
5F
0E
1D
7B
77
98
97
D4
34
BA
EC
29
AD
16
1A
1C
EA
DF
C2
EB
09
B7
99
F1
C9
5B
39
03
11
84
0A
90
C3
28
69
FE
43
82
77
E2
9C
6E
89
B2
06
B4
C9
3A
17
3B
B9
FE
2F
85
A3
1C
EC
43
4E
0D
DB
6D
C8
0D
EB
03
5F
49
1A
BF
06
D7
82
11
62
9B
2E
86
B3
BE
52
19
E9
6A
0B
16
FC
D5
4E
E9
27
30
86
C9
4B
47
2A
35
1F
E2
A2
D4
A3
4D
88
35
D3
2E
EF
C0
1F
93
F9
AD
A6
61
8A
E5
7A
8A
08
90
D9
0C
F2
C0
99
93
0B
9E
5C
30
8D
2B
B3
48
7D
01
74
0F
1F
28
D3
2F
7B
5A
A2
CC
21
04
B2
9F
CF
EB
55
8B
4F
E0
19
40
37
E9
35
6B
90
E0
D3
77
83
FF
13
BF
7C
A7
78
40
66
F8
09
98
9E
EA
E7
AA
33
5D
13
9A
0D
23
02
8F
93
A4
DE
B4
04
6A
3C
12
1F
2B
C0
19
77
FD
3E
AA
68
E8
11
0F
C9
34
50
D6
D3
BD
02
28
6B
60
0A
95
B6
53
B0
5C
EB
15
83
3C
71
D7
4F
DF
D6
CD
3D
47
B2
C5
EA
43
17
84
91
32
2E
39
1D
E2
E7
BC
D7
C0
FA
D4
83
BB
AD
FE
19
59
B2
4C
A9
B6
81
D6
FF
2F
D4
53
97
8A
4A
72
F0
40
B5
4F
C5
3D
12
FC
7C
BF
56
65
7F
B9
D3
5F
01
AB
E9
C1
3E
02
1A
1E
7B
02
FD
C8
E6
29
7A
95
E7
FB
0D
EA
C8
ED
26
20
4E
5F
B0
96
0B
78
2B
76
A9
2A
19
45
DF
28
99
CA
85
69
9C
1E
A9
70
BE
7B
9B
A4
EF
D4
DF
4D
C4
9C
93
44
06
B0
12
0F
46
83
AB
26
01
8B
E5
84
86
9A
FE
1F
B8
5C
51
FB
20
C2
65
57
14
7C
AF
CC
CA
2B
59
53
30
3B
31
6D
CD
CB
DC
78
9E
F5
6C
DE
40
2D
73
F2
AC
8F
80
13
0D
68
09
83
11
BD
91
AD
0E
84
4A
2B
61
F2
73
8C
25
22
25
FE
E6
52
CB
57
90
1C
AD
CD
61
F4
CC
A5
70
AF
02
EC
CC
3F
C9
4A
1B
FE
31
49
72
2A
7E
79
59
6B
71
F9
EF
39
80
BD
5C
04
E3
8B
A9
C1
08
34
FD
AF
56
BE
B3
42
99
AB
61
FF
36
11
E4
CD
DB
2D
0C
B3
2F
5C
B2
6B
42
88
21
4D
FE
D4
08
79
48
FA
FA
29
A6
E1
62
82
87
99
38
DD
59
AF
13
5F
3F
7C
70
A9
36
C2
18
69
F7
F5
1D
92
18
A8
55
B2
EA
ED
5C
98
BB
C5
66
59
5F
15
1B
06
6E
F8
CD
72
EC
40
E8
CF
7A
20
0A
E7
F2
48
78
9E
1D
95
A7
73
5E
34
A7
27
2B
FD
47
6E
96
DF
77
A1
36
A9
7F
6A
21
7D
AE
17
AB
92
DA
F1
EA
44
2F
E1
56
A7
9D
47
7F
0E
0E
81
4E
F0
FF
C1
88
FD
CF
24
53
FA
41
09
C1
F9
BC
34
15
5A
3F
00
F8
90
B9
4D
DD
2F
B4
0E
77
F1
CC
3E
9E
E5
04
3D
52
B3
07
C3
79
4D
FA
FE
60
28
33
69
1F
2D
02
E9
FB
03
25
09
77
EF
55
22
B4
76
B6
D4
1F
48
60
F2
45
3B
FD
4B
6E
80
FC
41
00
E4
07
61
27
B7
43
DD
77
61
2C
0D
94
5A
EA
5C
68
15
5B
0D
25
43
F0
FA
CA
51
51
9E
EA
30
FC
1B
59
EA
FC
C5
D3
7F
D3
C9
70
