8B
65
73
D8
21
15
CC
07
C6
A5
90
CC
4A
AF
43
17
9E
AE
2B
82
DC
FB
CB
DA
7F
74
9F
3B
BD
1E
6C
A1
8C
8B
67
D8
1E
DE
4A
BF
81
57
27
BA
66
65
9C
35
0E
2A
13
FB
38
4D
7E
89
4A
78
DB
27
21
66
BA
BC
66
27
C5
39
C3
A8
97
A0
4A
67
38
36
1C
40
C1
78
C1
E2
E3
CA
FC
63
B4
F5
0F
28
D9
2F
A6
A5
18
AD
4C
9E
10
11
24
5B
62
E8
50
AE
A1
FF
94
3D
D2
BA
AB
6B
5A
06
7B
56
47
BC
12
8E
D2
D5
C6
13
7C
14
65
AE
88
5D
87
DF
05
5C
4C
1C
74
D7
E4
18
BE
DB
8C
0B
9E
0E
8D
1F
6E
94
8A
8E
4C
1C
1B
AF
BB
A0
29
E7
29
38
DF
93
7F
5D
62
A8
DF
76
3C
D9
10
89
7A
88
E9
6E
3F
8D
D4
C9
1E
9B
B8
CC
50
46
6F
D1
EE
35
4E
BD
C8
B9
39
F5
09
32
23
6D
07
3A
03
D3
94
A3
6D
55
CC
72
99
90
3A
19
04
51
B1
FF
FD
2D
C4
8A
24
C6
C5
1A
8A
19
1D
9E
54
0D
DE
7D
F4
0D
90
47
48
03
CA
6F
A1
AA
13
CC
A8
CB
2F
B2
BA
CE
C8
43
26
7A
81
1C
39
82
24
6D
81
21
80
BF
01
0E
83
0C
4E
3C
63
99
14
89
35
94
B8
EE
79
43
8D
EF
