FE
8E
47
E3
56
97
2D
D0
FD
30
56
FD
EC
23
05
D3
33
02
BF
65
03
90
41
A3
87
1B
F9
C8
98
4B
CE
67
49
8A
AD
6A
97
E5
72
88
A3
21
78
F2
D1
91
58
3E
DE
6A
F8
0C
86
BB
B1
F0
1F
2A
59
29
43
32
95
91
75
6D
55
46
5B
78
5A
3C
D4
A5
73
8F
75
43
EF
AC
2C
39
C8
30
7F
F3
A2
EE
BF
AC
5F
11
4F
C5
0D
AA
8A
6A
BC
F5
8B
BF
D9
04
08
05
98
46
76
02
E4
4F
BD
EE
7C
D0
C5
0D
46
ED
01
7E
A6
64
FA
B3
27
73
DF
53
7B
63
CF
32
8D
3E
21
E6
CA
9C
2F
DE
E5
86
97
7E
A3
80
48
D9
9B
85
83
DA
9A
31
FE
B1
2D
24
CE
67
AF
84
FD
DB
D7
19
D6
94
3D
AD
52
52
A9
1A
AE
8D
0A
FE
DB
BA
E1
AB
EF
CD
48
6E
63
33
25
DE
33
91
C1
AD
49
9B
FF
57
41
D3
54
86
00
F8
4F
D7
9A
48
06
A7
39
26
92
95
F0
0A
E3
F3
B8
A0
F1
A1
F7
20
B2
8A
EC
79
C4
E4
A4
D7
BA
19
86
AE
8C
04
99
07
8C
35
DB
22
DD
F4
A9
83
41
3A
57
92
23
1B
41
20
81
B7
9E
D5
57
72
AA
81
2D
9E
B1
A8
44
C6
D6
57
B3
47
B9
94
DB
74
2F
2E
D1
24
5C
3C
A3
C9
