34
93
7A
3D
90
5A
F9
97
55
82
D2
52
FC
E5
9C
9B
98
5C
0E
2F
01
E2
42
67
F6
15
B2
93
55
47
2D
AD
84
AF
A3
27
03
6F
9F
30
A3
86
2F
5B
05
64
99
D1
F3
71
6F
B2
94
56
DF
1D
CC
C2
63
8F
75
B4
EF
A7
E4
35
EF
62
F6
8F
55
57
58
7A
95
6B
99
02
5D
BF
B6
7F
E6
8F
A6
5E
BD
8C
D3
59
80
01
A0
68
CD
73
0D
39
19
14
37
44
5F
2B
E3
20
9A
E1
50
BB
06
A3
94
E0
EF
13
2D
84
8A
F9
8F
14
F1
B4
ED
BE
5A
D3
0F
9F
87
EB
77
B2
5C
0F
53
85
4B
45
9C
91
50
60
