F7
DD
DC
38
CF
F5
F1
29
AA
98
AF
38
E1
06
6A
39
87
5A
DE
C9
56
B3
C3
8F
E8
92
A1
C1
2B
83
E6
E9
0F
00
36
E9
81
92
02
3C
9D
39
5C
80
1F
0E
09
31
1B
27
D8
B8
EF
BB
33
A4
75
86
F4
37
7D
6F
7A
24
7A
69
FB
97
7B
97
1B
76
5D
B3
BE
E6
3F
B0
1B
12
37
9E
13
28
43
CF
C0
A3
83
38
50
D0
A5
19
14
8B
A0
E1
D4
4A
A5
4C
66
5E
52
CE
7E
75
2A
34
C8
62
42
89
34
21
3C
36
92
15
79
6E
5E
95
8B
C9
DD
A7
E9
2F
69
0B
E7
F8
08
7C
E5
51
44
32
C6
E2
37
AB
D1
41
D4
E4
10
66
FF
D1
36
68
E1
B6
2D
D6
DD
35
98
1B
BE
BC
C1
A6
4D
C2
D2
48
24
4D
49
DD
BD
B8
A6
2E
CE
B3
66
16
D9
8B
35
E4
FE
AC
60
01
15
64
89
D3
F9
E9
9E
E0
26
9E
0C
37
87
92
2F
0C
89
49
0D
A2
74
C0
45
6E
FB
AB
42
79
12
01
B4
06
FF
BA
41
75
B4
D8
77
67
5C
A4
06
23
34
3A
2C
38
9C
47
70
64
6E
12
93
B5
8E
B9
C4
EE
C2
BD
13
2C
C4
C1
28
C9
96
8F
35
81
16
5C
29
D3
D2
4D
27
AA
1D
3A
36
3D
63
B1
3A
34
B9
3E
23
0C
B8
E9
64
BC
8C
01
