BB
5D
4E
F5
E3
8F
EC
86
A4
75
57
A8
7F
99
00
0C
26
E0
B6
EB
06
ED
B7
07
FA
33
4F
4F
F3
FF
4C
20
D2
2B
06
D5
77
F4
A4
19
67
E7
4B
BB
38
00
25
8B
C4
3E
AA
A9
42
D7
C9
CA
D2
49
69
D6
B0
98
BD
72
9F
01
B5
FE
F1
B5
1A
53
31
98
38
AB
B5
50
7A
5E
58
2A
06
F6
D8
78
86
50
D7
35
68
CB
25
A9
43
7D
63
30
91
59
25
3B
09
56
43
66
47
59
86
C1
14
16
BD
34
07
99
4F
7F
0A
20
3C
D8
19
81
F5
EC
8B
EF
81
98
92
F4
12
A0
D1
CA
C5
BB
D0
8D
2F
D7
D8
73
D7
AB
BF
97
E8
6F
6C
FD
63
9C
3F
00
A4
1A
98
BF
55
D6
CF
0C
29
5E
1D
75
9F
9A
28
2B
46
10
F1
A3
18
6A
5A
EA
1A
FF
1E
5E
0D
2D
F2
05
4A
00
3E
41
42
08
9A
C4
CB
E6
6B
B4
AE
A9
3C
09
DB
9E
D3
58
06
21
BD
E2
83
D7
B0
A2
B8
79
17
9C
35
38
B8
90
85
1B
4C
EC
01
83
AE
07
4F
FA
64
8E
37
0F
54
35
7A
75
5D
70
21
BA
54
1A
DB
A5
75
CF
F3
C3
00
9E
8C
FA
4F
77
15
69
9B
44
8C
0A
B0
2C
45
97
15
EF
DA
FE
0F
22
C1
71
41
A5
C8
5B
81
B8
3B
D8
0D
B6
CC
3F
33
38
F2
83
55
8A
18
85
4E
B7
CF
95
CB
31
73
6E
5B
2F
F2
D1
1C
9E
7B
64
D4
FA
27
97
48
1E
5C
CF
F5
A3
D6
AF
BC
7F
47
01
59
E6
42
0A
7E
D5
93
F6
D8
45
B4
F5
0A
3D
9D
65
BC
4F
EE
6A
BD
C0
FD
05
BA
92
68
53
EC
B4
8D
38
48
50
79
59
DF
D3
AC
9E
B8
AD
1F
A2
51
E1
AF
26
6C
C7
F8
53
54
E9
6E
E1
54
BD
13
0B
3C
5C
54
F6
B2
DF
DC
98
7C
99
AF
2D
5F
A8
73
EE
10
9E
74
5E
59
28
EE
3C
1F
A8
BC
D5
B2
CC
A3
E8
B2
57
7D
16
5C
D1
D3
43
50
EA
0B
95
D6
72
80
1B
DD
F2
EF
02
4C
84
7B
26
BB
FC
C9
8E
3E
A5
F9
60
90
1B
92
4A
7D
38
E4
10
5B
D4
B4
98
CD
17
8A
45
B8
73
62
93
2C
CB
33
99
E7
B2
3E
ED
80
83
6E
74
D1
9C
E8
16
1A
A2
FE
2F
50
B1
98
C1
E3
F4
85
37
B0
D3
2A
72
F4
A4
02
AC
91
62
11
EB
56
B7
19
4E
2A
86
90
E5
9F
36
8F
70
1F
E8
7A
62
18
51
FA
86
F3
DC
6A
0E
42
BB
D2
B8
82
B1
39
77
DF
9C
2D
40
AE
F5
3B
27
AD
54
B1
9E
14
75
D8
EB
0E
BD
64
7E
BF
3A
C1
D7
68
E4
51
E4
24
FE
D5
AE
B1
6B
8C
7A
51
3E
64
5C
44
F5
9A
CA
BC
64
E1
36
E5
CD
5D
C4
D3
FA
A3
CC
A8
D6
AE
5F
BF
56
97
02
5D
C0
DC
5E
2F
2D
D2
14
17
C2
E5
53
6F
F4
AE
A0
69
F5
34
72
CF
D9
D6
FB
8D
E8
44
D6
9B
86
B6
04
23
68
46
45
87
7F
8F
3D
6D
30
87
48
B4
78
67
92
09
6F
A3
87
76
43
1C
C9
E6
DD
C3
7E
D2
9A
B7
E6
DD
FE
28
57
B5
21
90
1D
06
19
3B
71
90
4B
64
34
81
44
4C
C1
C7
62
FF
37
B1
A2
C5
E8
E5
CC
05
C7
81
FC
20
4A
9A
90
2C
DB
79
9E
86
CF
C0
09
AB
B4
8F
DE
F9
B4
40
BD
A6
B0
CC
4C
78
1C
7C
E0
07
B8
90
0E
54
30
F6
25
48
97
B6
A0
1F
33
29
21
33
BE
4C
7F
A8
41
B7
4B
8B
FB
19
23
D6
4B
01
2A
F0
69
B7
67
01
E4
29
F0
7F
79
10
89
21
C3
7C
4A
FA
2A
1A
8F
76
F2
42
A5
BB
6A
48
00
39
62
06
BF
8A
19
00
E8
B4
C5
60
30
44
DC
E1
61
A5
EC
FF
14
08
C9
8F
FB
42
CE
5D
81
77
AE
6A
98
30
D5
38
CA
67
B8
B1
F9
68
5D
D1
72
1F
96
83
C9
A0
00
2C
F8
EC
A4
B3
75
3A
F4
0C
7C
DA
2C
47
23
DF
A8
BC
67
DB
7D
55
A4
CD
5D
17
48
34
46
B3
68
9E
9E
76
86
26
B0
DE
7A
65
86
89
C0
AC
43
90
1E
57
77
72
8D
DF
BC
55
DE
77
ED
89
8C
C9
6F
94
55
BA
A2
FA
4A
11
94
F6
2E
27
FF
33
C9
A1
20
7F
46
3C
E4
F7
DE
17
D8
24
49
A8
FB
A7
29
84
D5
71
19
31
91
D9
54
C4
BB
0F
CE
99
24
5B
20
AA
43
C8
CD
35
BC
81
6F
C9
38
3B
18
83
BB
70
75
A4
CF
21
06
39
B2
19
A0
AB
8E
19
01
34
1E
B2
BA
6F
72
1F
A6
0A
A7
57
9C
8B
2C
9B
64
EE
F0
6B
21
28
57
CD
6A
7E
BD
5F
19
EC
6C
58
61
FA
B4
51
9B
66
7D
7D
E0
59
AF
B7
15
2E
B8
19
E3
25
B9
42
99
C4
EE
1B
25
11
7D
FF
4C
9D
C1
D8
8F
27
C1
85
36
FC
BE
2F
1C
91
83
D8
62
6B
C0
B5
AA
44
E7
C8
7D
B3
37
25
52
0C
0D
DE
E6
11
2F
A6
AB
2E
2C
7A
7A
D8
DE
C1
35
48
50
28
BC
57
12
74
C2
44
A7
63
EA
2B
AA
E7
38
F1
39
CD
7C
17
4D
3B
AD
8C
46
1A
98
68
75
96
F6
3C
B8
FB
FB
59
F3
82
17
30
E1
42
CD
24
7B
4E
3F
E6
0E
8A
E9
19
0E
7B
5A
0F
50
08
94
58
00
4D
FC
18
89
38
07
9B
41
5E
19
BE
EC
1E
C2
71
81
92
6C
C5
EF
17
FD
7E
D8
15
B8
D7
A6
7F
8C
5D
90
F1
32
02
7B
38
45
0E
B3
06
F7
88
AC
6A
32
A4
3F
4B
F2
86
84
4B
5F
01
CA
DB
42
4D
35
74
7F
F0
83
21
69
66
87
39
D5
D9
3E
8D
01
5D
D9
E0
DD
5A
C0
91
19
B5
62
B7
E5
E3
5C
C1
8C
D1
2A
76
DF
7D
BA
1E
9A
F0
6A
B5
A0
D8
30
00
B9
FB
D7
B2
D1
74
2E
F7
56
CB
64
E0
4A
56
86
9F
2C
84
AE
20
06
C0
52
98
4D
13
01
3C
4C
F2
FC
E0
8B
DC
60
B0
59
B2
FC
57
1B
90
A4
EF
29
F4
CC
CA
BA
05
0A
0A
47
A3
95
4A
A1
DE
44
1F
6E
E5
0A
B9
BA
A0
0F
01
5F
B5
72
04
6D
89
97
23
A1
91
43
C8
79
8B
4B
B1
E7
58
DE
F0
95
D0
97
82
19
F1
A9
EB
ED
96
3D
A5
6A
EF
34
CB
68
11
04
94
02
17
AE
25
AE
50
E0
9F
5D
1C
07
DA
56
2F
48
DD
58
D6
D9
AF
E6
04
39
CF
B9
6C
6C
27
AE
FD
3C
86
34
63
CE
D7
AD
0A
74
22
57
4F
DF
B1
2A
70
D7
FB
68
F5
02
4D
C4
01
D2
DD
99
B4
DE
1A
B8
80
EC
2F
BA
01
60
65
32
02
74
43
6C
60
20
6B
10
75
21
9A
05
4F
0E
31
1C
6D
3D
1B
4A
92
D5
4E
B4
77
94
1B
22
9F
24
76
94
39
AD
35
D0
1B
44
05
64
9A
C6
D5
E4
91
59
92
95
1A
87
44
0C
8F
32
4D
CA
45
9F
64
4B
E9
6B
A2
F5
18
55
BA
8C
99
26
33
51
CA
F7
B0
EC
7B
C9
BF
CE
E2
73
C0
C8
2C
25
29
8E
95
62
AE
E2
73
04
55
D9
64
14
E8
DA
34
5F
FB
5A
0C
12
FF
49
0D
4D
37
36
76
26
60
FE
B1
B6
BE
38
51
50
B6
5D
B5
72
D6
47
37
C0
9F
F5
07
B3
3E
62
C3
3E
09
BC
10
A7
57
3D
20
F6
73
BF
82
29
A6
BF
46
07
46
B1
D2
F2
96
62
3C
8D
63
16
7C
AB
84
EF
A4
8C
27
E1
64
A9
C4
73
27
09
E0
D5
FC
1C
6D
5B
B5
67
11
06
A8
99
F9
29
66
00
A6
A6
50
6B
CA
E8
8B
86
16
31
60
C8
69
9C
F8
DA
82
F3
D9
C4
E4
18
F6
6F
62
CD
C2
39
F0
E8
5E
42
90
BC
17
6E
6C
0B
15
F7
33
23
6C
16
0A
17
3D
9A
97
BB
5F
02
EE
DC
51
1D
54
C7
69
51
B5
6A
C7
FD
99
09
85
FA
1F
51
00
1D
C8
0C
4A
0B
51
5A
CC
B7
66
18
F3
76
75
2C
18
BA
5B
9F
DA
D3
7A
94
C3
DF
5A
27
21
69
1E
DD
5C
35
53
E5
68
13
BD
47
22
CC
E9
3D
84
BE
9F
D8
50
BC
B2
6D
99
99
AC
E0
27
82
48
78
A3
10
1D
54
29
BC
F5
34
FA
E3
8C
24
8E
A5
A8
C0
AE
15
F0
C4
59
B9
98
56
52
19
2F
78
24
39
56
2B
CD
DB
C7
00
FA
0A
37
6F
2F
64
34
C1
E8
46
88
D4
CA
BE
FB
6C
35
4D
4A
AA
24
9C
62
B4
09
5F
31
4D
62
6F
F4
45
06
98
D9
22
CE
69
57
7D
72
E2
E0
54
E9
67
EA
6B
72
1B
69
37
8C
FC
93
05
62
42
0B
13
E2
72
F4
23
FA
66
F6
A7
46
6C
91
2F
49
E8
17
5D
25
1E
2F
4E
DD
AA
FC
2D
C1
CB
FA
C8
6D
94
A8
E8
2E
8B
AE
6E
B9
54
A2
BC
CE
57
B2
03
2C
B5
28
2D
ED
D5
A5
C2
F9
7D
A3
AD
5D
F2
64
DA
CE
93
16
6A
E0
5E
FD
E9
50
F3
E2
37
F3
AD
E7
9D
81
A8
54
A4
39
C9
75
7D
20
7A
EC
14
B6
E3
BD
33
1C
BD
44
89
32
8D
B2
92
2C
D6
01
4F
47
8D
3D
45
BC
7F
6A
FD
1B
52
2F
87
6A
65
8A
36
FF
B6
36
33
DB
D0
D3
38
2D
DB
E0
69
06
13
F4
5E
F2
35
07
CB
8E
61
91
D3
30
95
FE
F0
CE
82
7A
F4
03
04
CA
A3
E2
DC
9E
35
2B
87
4E
D0
7F
DA
BB
49
C2
4E
65
8D
FF
14
4E
88
13
AF
BC
9B
2B
7B
66
1D
F9
34
87
76
21
19
28
BD
5B
A4
98
1B
B5
2B
D8
D2
CC
94
E3
9D
4B
48
59
29
21
40
7C
12
4A
12
5A
44
6B
15
99
45
7F
8D
8F
B4
46
31
8C
1F
FD
F6
CA
C8
94
DB
06
16
C1
07
87
60
53
AD
5D
81
ED
D2
B9
BB
EC
36
9E
70
14
85
B2
EB
B0
BC
F8
68
09
77
02
50
B1
72
4D
0E
28
6A
26
A5
D9
5F
18
EB
A3
17
3B
C4
A2
CA
54
02
FD
0B
55
84
9A
83
6B
0D
D7
39
69
62
F9
CB
7C
D3
19
AD
61
58
03
34
80
C0
CB
C8
B4
1F
FB
95
82
8C
81
9A
A4
C2
EC
3E
C0
14
CE
41
65
F4
D1
F0
09
27
48
65
A4
48
A4
43
56
7F
BA
98
3E
E3
1C
C5
51
F1
B2
72
26
D1
8B
5E
8E
6B
09
37
BD
03
23
CF
5C
D1
8F
BC
9E
2D
71
E1
82
FE
EA
3F
34
A9
21
34
78
F6
BD
7E
05
E6
07
7F
1D
E8
D0
FA
93
62
7D
3A
10
4A
EE
19
34
47
A5
A9
7E
10
54
BC
5B
EC
95
A9
B5
D9
8E
45
A9
3C
97
74
9D
06
63
3C
61
60
4E
35
6E
7B
09
82
25
63
E6
80
FC
90
B0
04
09
26
BB
E0
8C
DB
8B
3E
06
03
98
33
84
54
95
71
7E
7B
