C3
F2
EE
6A
33
7F
43
D3
4F
B4
B5
12
86
8E
42
DE
15
00
0F
46
DC
85
04
6A
4A
A3
E1
FA
B7
3D
A7
B2
E0
66
A4
98
39
0E
AC
44
5C
54
B1
B5
BF
80
D4
FF
FA
33
E2
01
66
B4
E2
2C
8B
21
A9
84
06
DC
96
02
7F
7A
9B
09
FA
53
18
26
36
12
B9
91
E6
90
9F
C6
69
A3
B7
EB
3D
6A
60
72
EF
50
EA
F7
59
60
8F
72
E7
A8
61
8A
C8
61
7C
F4
E8
E8
4C
75
61
31
6D
EB
EC
A3
EC
F1
4C
75
AA
4F
B6
B1
71
AC
76
D5
84
35
23
3D
9D
10
58
21
36
D9
97
CA
39
77
AB
DD
F0
E7
20
97
6F
AA
8C
D4
06
EE
91
EC
50
86
A8
2D
A7
F2
39
11
AE
A3
B7
F0
BD
11
97
16
87
56
C8
82
D7
74
7F
68
28
E8
1E
95
14
9C
36
DF
5D
96
FC
DC
80
41
E8
EF
DC
15
09
2F
36
68
BB
5A
26
73
81
89
7C
AD
E5
8C
A0
C1
0E
41
0B
3A
02
67
4C
CB
2A
73
1B
9A
9E
E9
9D
7E
C5
F0
8B
B2
42
2D
0E
E5
37
C4
2A
17
3E
EB
85
44
CA
14
5E
7F
0E
FF
1C
69
6C
36
59
43
73
72
0A
E6
5B
62
71
B9
89
14
71
E5
A5
B5
86
30
2E
DF
8A
AF
38
B4
69
E4
31
26
E6
DB
F1
2B
52
6E
