26
A5
A3
6C
FF
A5
E6
29
B0
52
F6
B6
70
7F
E6
46
8B
29
92
9A
EC
26
D8
10
89
6C
86
4C
46
73
BB
B4
6D
43
2B
69
36
4B
FB
3C
80
2C
BB
37
30
30
80
63
A3
2E
4D
F7
14
6B
96
71
24
41
71
21
73
26
2D
E4
17
B2
30
5F
36
F1
4C
69
18
62
9D
06
86
77
2D
25
7E
8A
C6
38
E9
80
39
86
D0
F4
CC
C7
5C
6A
84
F6
5D
38
80
33
46
49
91
9B
E0
08
7F
14
C6
43
BF
FB
79
C3
75
79
17
CF
52
D7
0A
58
8D
02
48
0D
35
09
0B
3C
B3
15
22
E0
8C
A8
BE
91
C0
CE
C3
8D
69
49
A9
91
9E
BC
64
84
D8
03
1C
16
13
74
7E
FA
0D
50
51
73
41
FD
09
96
90
96
69
C4
03
0E
A6
86
66
23
D1
47
E2
5A
00
5B
16
6D
26
CF
5D
7B
14
F1
64
8D
40
5C
CD
80
0E
67
50
99
83
2B
E1
50
BB
D8
3F
46
3C
7D
AF
BA
93
57
68
66
89
6C
EF
DF
56
3D
41
C7
68
E8
4F
F0
21
72
F3
F0
7B
99
1A
CE
6D
30
A4
DC
AF
9F
BF
D9
20
E2
74
90
61
89
F0
8C
E6
F2
08
69
3C
69
6D
D3
09
A5
3C
55
B5
6E
B2
4D
53
27
FD
1F
40
B4
02
66
4C
F1
46
1B
00
36
21
51
84
34
38
B0
