A6
72
BC
19
7E
83
77
D1
6A
DE
B6
75
85
9B
86
24
60
CD
4F
27
F6
15
18
90
B9
A8
7C
1B
61
F1
FB
2B
FB
BF
17
4B
05
6C
1F
61
C0
05
5E
51
7A
8F
B4
B9
3B
78
23
41
52
29
7F
19
6F
C7
92
55
0A
82
70
D0
27
EB
3C
B2
FF
69
3E
E4
1B
01
AC
A3
F8
65
26
DD
94
26
3A
EF
15
3C
B0
16
FB
F3
4A
4E
E3
84
CB
87
76
05
04
70
AD
4D
5A
2E
1C
4F
0E
43
FA
05
D6
5E
14
7D
16
E2
AF
CE
F8
EB
EB
C0
6A
1C
51
A0
45
F0
9A
40
B4
62
A9
FE
4E
24
5A
5C
F4
2A
08
7C
55
3D
B8
BE
19
16
C3
87
6D
F2
28
F1
82
03
48
67
FA
22
2D
42
C4
DF
6D
27
BE
AB
4C
8E
38
BB
47
60
67
3A
AD
ED
2D
41
9A
01
1B
8E
3A
9A
85
65
59
2F
B1
47
B1
17
4E
2F
AE
43
F4
96
20
A4
41
CD
D7
6A
E6
10
E6
3C
BD
90
47
93
75
13
48
64
01
C1
79
BB
74
61
0C
8B
FE
9D
72
9E
29
D3
FF
71
4D
CA
23
CF
55
DD
D5
19
CC
7B
77
14
B2
A7
98
5B
59
B1
56
AB
76
D5
18
1F
CA
D3
B3
9B
1A
E4
63
B1
4C
05
E6
79
C4
5E
3E
E1
58
91
AB
DC
36
6F
FB
D8
01
95
40
C2
06
7F
