0C
CF
65
68
B0
49
12
D3
34
AD
04
71
8C
CE
41
C6
BD
AF
95
B9
23
F2
3E
3F
C8
98
2B
5A
EA
92
8E
14
B4
1F
50
2D
23
03
B6
A9
15
31
E4
2C
66
34
46
A1
63
E6
6A
4F
8F
56
7C
92
64
92
16
07
B9
BE
0C
D7
65
CD
A0
9B
8B
E4
22
4F
28
26
FD
1F
1F
45
70
2D
64
3C
9E
6C
CC
D3
27
75
48
81
8D
59
C5
0B
1F
32
FF
AE
55
A0
1C
D1
CC
D2
C4
83
0E
A5
7F
18
18
D5
D6
55
AC
63
4F
06
07
4F
80
D5
00
F2
C5
FA
00
8B
E2
AC
15
B8
68
39
AF
E9
BA
B2
6B
3C
20
55
AF
E4
19
79
7F
5A
A7
B9
18
27
AD
CB
A2
67
7B
3B
82
D5
51
38
3E
DC
BB
20
17
52
64
88
D2
59
07
26
B6
E8
60
63
59
10
EB
1D
27
5C
FF
C0
47
1D
97
CB
8A
29
29
B9
C9
06
44
E8
D4
16
ED
9F
DA
7D
09
33
98
A1
D0
CC
89
0A
F6
EB
87
B6
C5
54
20
B0
57
0D
7A
BB
40
1E
D9
A2
47
C7
F5
E5
75
19
CF
AE
32
4A
D5
F2
78
61
13
0B
77
D3
9A
EB
6C
70
F7
7E
E9
B9
20
19
8A
84
1B
AD
8A
1F
BE
DE
C8
74
54
88
39
ED
FB
4C
C3
8A
96
16
56
82
21
E1
C8
9F
25
06
82
BE
78
71
