D6
14
65
02
E7
D9
F8
07
CD
51
AA
7C
FE
48
4D
F6
6A
29
D8
65
D6
54
FE
2D
70
45
80
D8
BE
D8
68
7B
A5
28
04
45
40
1D
57
22
4C
8F
B6
C9
D6
E8
4B
26
2A
18
57
43
60
87
7F
29
DC
7A
81
08
92
21
7F
8F
4D
2B
23
E0
82
C1
4E
C6
B0
FE
A4
DC
54
8E
2D
79
0B
9F
C6
55
C3
58
3E
1C
E8
BF
32
F0
B5
69
1A
D6
80
01
6E
AB
9D
42
88
51
9E
08
51
F9
43
F3
24
46
A3
C7
AC
A1
AA
05
03
15
04
22
AC
70
B8
77
86
D4
E3
68
65
2D
48
51
16
9C
A0
47
BA
C9
CA
2E
0B
ED
33
DB
A5
EF
73
C4
A2
C9
1F
A3
BE
EF
3C
38
EC
A9
A4
A5
BD
46
CC
45
BE
60
E4
02
59
9B
71
86
87
FB
31
F5
0B
CD
B7
FE
DF
96
CB
73
52
EC
3E
79
90
40
C4
7B
87
56
75
8B
52
E2
03
BD
03
1E
BB
6A
DF
6B
65
BA
4F
1D
59
D0
ED
2B
FE
BC
19
38
5E
49
ED
97
43
5D
89
85
7D
C9
61
69
71
A2
C4
B9
4C
79
83
A1
96
1B
5A
6E
4C
46
68
79
56
A2
30
23
4D
96
CF
12
88
A5
85
2F
5C
D1
62
EB
CE
EE
82
1E
CD
F3
75
3D
C8
E3
5B
F1
17
0E
D8
09
B9
09
AD
05
3F
9E
87
4A
