D3
C1
1F
32
5E
DF
87
2E
96
C0
D9
7F
CE
4B
E3
91
79
2E
C9
70
37
05
92
2F
D8
F7
38
04
90
5E
29
8A
A2
8A
5B
AE
F9
6D
19
FB
79
9E
83
94
C5
4C
BE
68
F6
73
61
78
76
09
22
E8
BD
1D
C4
2E
84
BB
C8
4C
D3
56
61
FC
EB
35
0F
37
F8
DA
2E
D5
3F
1F
CE
01
EE
C6
DC
B9
87
0C
5A
AB
5D
60
55
25
15
F1
A3
EF
50
58
A1
B1
53
57
1E
3F
A3
BB
F6
4A
C6
D0
AC
67
8D
F4
43
94
A4
BE
4A
F7
C8
66
A9
FD
3E
89
90
E8
A6
0D
FC
AA
9E
85
A6
48
24
E2
DC
C3
7E
84
06
4F
35
31
18
E3
51
5D
F4
28
8B
CF
A3
13
35
68
86
8C
24
D0
50
B4
E2
5F
F2
5E
42
8D
83
E0
8D
36
9E
DA
2E
73
6C
F9
FA
3E
93
8A
8B
EE
CE
9E
92
C8
E5
2A
81
F0
A2
5F
EB
C1
F6
29
4B
A1
5B
B4
44
5C
53
C6
71
79
B7
10
62
72
D1
36
EC
DB
EF
4A
2E
B4
C8
90
9E
12
D8
CC
7E
8B
20
EE
C0
12
29
55
7A
0D
02
79
C2
43
0A
0D
9D
B9
14
10
93
4D
B2
2D
20
78
AE
D8
D9
9B
69
15
DE
28
28
67
1F
49
D4
1A
66
06
BF
8C
A4
1D
1E
44
29
70
83
16
02
32
A6
F2
97
8E
ED
18
