FB
D2
A5
59
BD
A2
0B
AC
B6
5F
50
15
AD
8B
C0
B3
97
A0
7C
B9
E1
7F
29
5F
2D
45
BF
4F
15
E5
88
04
8A
AE
6D
C8
AF
E6
04
B4
07
D4
51
71
26
23
8E
05
EA
70
3A
7C
A2
8A
95
A1
30
12
25
C7
2D
C5
E2
29
25
90
E2
61
87
64
CB
90
35
CB
70
71
A4
71
00
81
DA
04
4E
60
5B
A1
75
03
27
07
0A
5E
21
C6
E4
5C
5F
6F
A4
86
4E
1C
E1
99
EB
7A
0D
CF
7E
47
3E
D9
10
D9
9C
5C
A0
0C
7E
E3
AE
8E
35
86
6D
97
DD
7B
33
C9
B4
AB
75
E5
79
BA
CF
FB
F9
44
DC
2A
03
51
D1
AF
4D
AB
95
96
09
70
2D
AA
09
69
70
18
F6
56
5A
DC
7F
78
8C
A8
11
B8
20
FD
94
0C
84
F7
77
49
D9
72
E9
30
4C
A2
F8
3F
9A
19
5F
CA
78
31
33
5B
7F
A5
36
74
4D
F7
5D
2D
97
BC
39
4D
42
5F
F3
B1
EE
12
4F
62
72
F2
C1
9D
3E
ED
B9
DA
70
ED
9D
7B
5D
66
BE
BF
E2
63
EC
63
2F
76
B6
45
BE
52
B8
E8
CD
99
14
1E
0B
A8
74
07
9B
F4
82
40
AB
3E
E4
C4
DC
B1
B6
EB
AA
8B
E3
E6
90
01
E3
94
27
4B
44
72
B0
28
92
88
54
0D
FA
8C
38
40
AD
98
56
5F
C8
F1
