E3
46
7F
C5
DB
0C
43
8F
B8
89
46
EA
8C
2A
83
47
16
86
C1
DA
52
92
4F
59
E9
97
E4
AE
E4
C8
54
EC
A6
AF
65
0D
57
91
E6
34
4F
C4
68
C8
60
9D
C5
DF
8B
65
73
D8
21
15
CC
07
C6
A5
90
CC
4A
AF
43
17
9E
AE
2B
82
DC
FB
CB
DA
7F
74
9F
3B
BD
1E
6C
A1
8C
8B
67
D8
1E
DE
4A
BF
81
57
27
BA
66
65
9C
35
0E
2A
13
FB
38
4D
7E
89
4A
78
DB
27
21
66
BA
BC
66
27
C5
39
C3
A8
97
A0
4A
67
38
36
1C
40
C1
78
C1
E2
E3
CA
FC
63
B4
F5
0F
28
D9
2F
A6
A5
18
AD
4F
B2
A6
77
0E
E3
81
42
F0
BE
1B
49
1B
82
31
41
DE
2A
2C
F6
16
B6
89
FF
EF
95
16
50
6C
EA
1B
30
6A
72
19
19
90
3E
E7
25
70
7D
DD
86
61
6F
43
19
8C
0B
9E
0E
8D
1F
6E
94
8A
8E
4C
1C
1B
AF
BB
A0
29
E7
29
38
DF
93
7F
5D
62
A8
DF
76
3C
D9
10
89
7A
88
E9
6E
3F
8D
D4
C9
1E
9B
B8
CC
50
46
6F
D1
EE
35
4E
BD
C8
B9
39
F5
09
32
23
6D
07
3A
03
D3
94
A3
6D
55
CC
72
99
90
3A
19
04
51
B1
FF
FD
2D
C4
8A
24
C6
C5
1A
8A
19
1D
9E
54
0D
DE
7D
F4
0D
