25
81
CB
2F
80
6A
F3
91
E7
63
CA
32
87
39
E7
1C
F8
28
F3
78
65
4E
AE
E8
50
5F
DA
7D
52
5E
EE
32
BE
1A
B8
04
A0
9D
56
BE
8E
5C
E0
25
EC
54
94
E2
1E
C1
CE
60
14
79
58
94
82
F9
08
AF
7D
7D
31
3F
C1
A1
79
3A
22
E9
2A
4F
A8
AC
4A
6C
BA
59
C0
E2
8F
2A
AE
8E
B7
94
5A
4C
2C
CC
7A
E3
F2
56
06
BF
3A
5B
79
53
B1
77
7B
FD
D4
DF
30
22
0B
FD
F3
FF
DB
F1
40
7D
FC
20
92
88
8B
25
29
BF
20
29
99
D3
D3
C4
1F
1C
E7
03
81
FD
B0
0E
B8
6C
14
90
EA
5F
3B
91
8D
04
33
EA
9D
40
B5
55
97
08
A6
65
3E
1D
E8
D4
A2
7B
B0
FF
11
24
7A
A8
56
4C
69
AB
82
DA
BF
F3
58
D8
63
8E
B6
96
D5
C8
26
9A
99
67
AB
DF
46
F3
34
74
86
BA
19
CA
C7
73
6E
68
3D
87
7A
AC
D9
7A
4B
7F
57
E2
FB
9B
17
33
5A
0A
27
F0
5F
0C
EF
1A
8E
E4
4B
6D
4D
DF
AE
CB
90
FF
87
B2
F7
6A
B5
F0
75
2E
08
31
4E
8F
02
6B
D1
1E
B5
BE
9E
05
14
7E
C1
24
5E
83
A2
EF
AF
11
39
A9
AE
FF
19
E7
D7
2F
54
A9
C3
44
14
8B
D3
8E
11
D9
FC
B1
CA
93
4C
28
C3
51
D8
D7
4C
85
DD
F5
1B
96
34
CF
3B
D4
B7
81
C9
13
06
E5
32
0A
B8
C4
03
42
36
64
DD
FE
33
F5
1E
18
03
CA
2C
9A
2A
1D
B0
50
27
EE
9B
FA
E5
44
0C
E0
78
FD
75
5D
1D
ED
DF
58
89
0C
41
75
DD
8D
D8
8F
66
C2
9A
C0
06
0C
F2
6E
A3
6A
EE
CA
A2
8D
7B
75
D7
0D
A8
3B
A6
DF
35
F8
A3
71
07
EE
6C
C7
D0
4B
13
71
0F
DE
30
56
98
A0
5F
1A
A9
04
3A
3A
89
6B
E6
D6
E9
20
B0
46
A7
0F
59
38
00
7F
19
C9
44
7D
23
2E
01
76
AA
44
37
D0
7D
1A
59
B5
E2
DF
47
19
2A
53
F7
16
62
C5
D0
11
CB
3C
15
A5
20
65
54
27
63
6B
CA
9D
CD
B9
AF
C3
60
7E
CE
3B
ED
C2
57
B9
AC
54
DA
8A
2C
01
A5
90
57
92
E2
38
8E
AF
DD
77
5E
BF
9C
25
10
52
69
E3
8B
F8
B8
92
FD
4E
46
C4
15
C1
3B
FA
96
72
DB
CF
FE
A9
A7
3C
59
F5
31
D0
4D
4F
F7
5A
8B
1C
89
A4
71
C8
AE
41
43
72
40
75
FA
B5
36
44
6D
85
5B
DD
B2
22
79
67
7C
D2
0E
ED
8C
CD
AC
B3
38
27
18
06
FD
17
EF
09
36
B3
32
0D
51
17
06
F5
6A
33
70
F5
9B
FF
D8
0B
50
8E
DC
86
E7
82
63
DF
AB
79
86
89
BA
71
28
4D
8E
17
98
70
C3
5F
C5
28
45
B9
9A
C5
7F
BA
0C
24
7D
76
43
84
3C
EB
B5
D3
4F
00
15
9C
D9
B9
F0
C2
78
71
47
B9
64
AF
65
7F
96
0B
68
06
4C
F9
5D
46
AE
BC
15
92
90
0E
78
AD
B8
91
5A
E2
7D
C0
D6
09
B5
96
73
04
DA
60
77
91
B3
03
BA
67
15
31
FF
65
E4
3D
1D
ED
52
02
55
FA
A6
53
68
5A
E2
77
EF
81
8C
40
6F
75
4D
6B
61
8D
EF
4B
46
FB
5E
66
5D
B6
6C
E3
06
33
C1
B6
0A
7C
6D
90
B4
10
33
54
7D
39
66
1E
03
DC
64
0A
8B
89
8D
BE
53
DE
C8
9A
BB
F1
C9
17
DA
78
3E
ED
EF
68
C6
14
A3
83
1B
F3
FC
AD
ED
67
F7
D5
D8
72
60
FA
2D
3C
12
BD
F8
C9
75
D4
1B
CE
E0
43
01
76
B6
A8
7E
1F
53
04
10
44
6A
BC
3A
A1
CD
7A
B3
5D
BD
EF
83
AD
E1
DB
4C
50
B2
F5
D1
6B
55
E5
82
4B
0E
F8
72
3D
CB
F4
A4
0C
2A
A0
60
0E
2B
E1
68
76
7C
62
17
BC
7D
94
C7
52
16
22
22
AC
D1
71
01
46
B3
62
20
8F
5C
C6
4B
87
65
F1
55
F3
64
BD
CC
BD
C9
E3
89
C4
C3
89
50
8F
0E
86
A8
4A
EA
F9
F1
C9
E8
46
FE
C9
F7
7C
BE
DA
F0
55
E1
AB
C1
0E
18
7E
8D
A3
D0
67
F0
EF
B4
C3
D2
30
20
A6
15
96
56
3D
B1
E9
48
53
FE
B2
05
48
53
77
BD
EB
71
86
C1
00
59
53
E5
62
B1
D5
88
DC
F9
C3
42
6F
7B
08
8F
4B
2F
04
D8
71
B4
44
D7
E8
8D
6E
EE
DF
3A
78
5C
2D
F5
5A
6B
4B
9C
13
B6
EC
94
56
A7
4C
B6
B4
19
4F
4A
56
25
20
C7
64
A2
66
01
08
D6
91
CD
45
C3
19
F1
26
BA
6F
DD
00
E9
95
52
24
8D
CC
46
B8
F4
93
15
FD
F7
86
74
D5
AE
A7
AC
05
66
60
21
65
C6
56
C5
2A
C7
96
70
90
29
80
63
F9
B2
AB
49
3A
92
6C
D5
A0
41
58
48
9F
AE
EB
5E
73
C0
70
1B
03
29
AD
29
14
25
C4
17
7D
F5
E9
6E
AB
8C
A6
EA
A4
69
0E
47
23
AB
9D
0E
EB
97
DA
D2
AB
5F
39
9F
61
9D
4F
AB
FA
45
81
E3
C3
25
5C
2F
88
60
04
02
99
6B
40
CE
36
76
AA
50
ED
96
98
12
A0
49
14
FC
65
38
5C
4F
83
6D
3B
B0
51
4E
E1
7B
88
FB
BC
1B
E3
96
37
65
7A
F7
47
9B
0C
23
43
7A
AC
38
27
EA
22
FE
02
6B
92
FD
74
18
15
80
B5
AB
FC
39
97
21
32
FC
64
90
24
9F
92
70
21
5C
1B
38
0E
30
9E
17
EF
AF
6C
32
A0
D1
99
E9
24
46
D3
3C
3F
40
CE
53
34
DB
1B
60
3E
20
45
0B
3F
31
64
FC
F4
03
10
DA
EE
76
C6
36
76
53
7B
76
C1
74
77
88
07
F3
BD
29
CA
A3
EE
FF
56
F8
6F
D1
1A
DE
3C
A1
95
65
67
18
D6
9B
FE
1C
54
82
57
7F
68
05
C5
DF
06
AC
5E
48
43
16
62
BE
71
86
5B
64
93
77
AD
1C
1B
3C
94
7A
D2
63
45
81
9E
40
BF
55
C7
85
42
9D
9E
17
E0
D6
E3
24
95
AA
09
2C
12
9A
ED
B2
1A
69
4A
63
91
F5
3C
D7
57
E7
69
65
F3
81
6C
AC
1B
DE
8C
3E
B2
BE
03
1C
D0
CA
4B
64
39
1B
E1
6C
C1
A9
49
5F
0A
92
27
98
E1
A6
FB
09
9D
89
DC
22
85
B7
0A
36
BA
52
54
98
14
32
FD
DA
00
3E
5E
AC
78
39
0C
5F
92
04
0A
7A
BE
D0
49
0B
54
AE
53
03
86
62
7E
69
CD
6B
E3
59
33
AF
24
42
46
8A
06
90
4A
85
22
C8
13
05
68
DC
B5
9D
41
40
CE
09
08
51
C4
37
F9
68
D6
F4
5E
B4
56
4F
61
53
2D
32
2C
B8
09
E5
90
68
62
91
40
E1
70
4C
B4
72
49
AA
E0
1B
40
02
BE
D9
28
57
5F
6B
E4
9D
5A
32
A7
37
CA
25
46
7A
B9
8A
D7
10
0A
B3
73
0D
4D
5C
51
88
6E
13
43
4C
00
09
86
DB
61
19
F0
36
61
2F
B4
C7
A5
5A
33
DE
BC
71
E1
5D
F7
0D
FC
67
26
63
F6
A7
82
BA
B4
3A
81
0B
F6
A3
FC
73
B3
5A
36
7A
37
60
4D
16
91
1A
13
54
F9
E6
07
47
55
11
9E
A6
E6
68
2A
79
26
B4
F3
88
E7
26
65
D7
4F
8A
4F
5E
42
FB
50
18
34
A5
94
10
8A
D8
18
A9
59
1F
F4
1C
D0
C2
6E
BB
13
86
A6
42
C1
8E
56
54
27
51
AC
38
F9
63
1F
47
42
CE
2D
0D
55
CE
4B
F9
AA
1B
7E
26
79
ED
E2
8F
22
F9
5D
11
13
53
4D
DE
A0
90
78
4A
C8
C5
B6
65
F8
02
CD
13
1E
AF
9C
74
5E
F0
75
AD
BE
5B
6D
74
FB
16
10
AC
C8
30
3D
03
94
D1
E7
53
BF
77
5E
DE
0D
79
8B
93
56
94
97
8A
A9
AB
EC
71
F6
CA
59
40
D3
85
92
EB
73
03
37
91
AF
D3
11
A6
80
D0
1D
2B
D9
88
8D
E0
67
38
E1
75
A0
63
93
FF
59
B8
70
63
FA
DE
36
11
A7
0D
A0
AE
5C
95
78
9E
88
8B
7D
7F
F5
9D
75
E2
84
60
DF
A6
CF
74
9F
25
EC
03
8C
CE
11
76
42
E0
3A
2A
78
8C
15
BF
05
58
7C
D5
EE
E9
4C
76
FD
A7
48
42
B8
E6
EA
B9
8E
7D
40
D1
13
3C
8A
02
09
77
D0
65
39
AB
C5
08
97
F0
23
75
AC
BD
64
E4
6F
78
2E
0B
E5
AB
55
27
06
2F
5A
6D
08
C9
5C
A7
EC
3A
CC
FC
CF
B8
82
B4
02
DE
08
D3
8F
EB
65
EF
93
0A
A4
CC
8B
18
EB
37
F6
BC
3E
33
F5
FF
A5
D3
3C
2D
A3
65
BF
35
E1
11
41
F3
63
A1
D9
EC
BA
1B
00
21
74
9F
5A
FA
63
FC
10
53
CD
EA
8D
86
CE
7D
0B
E0
39
8B
9D
3D
9A
99
D2
38
53
53
52
E2
6E
34
D6
FC
C7
FB
91
5C
04
09
BA
73
72
95
3C
4B
7F
4D
5A
84
44
B4
24
4B
BB
3D
D2
DC
83
BC
5F
A2
A9
2E
8A
D3
15
42
BD
24
47
E7
4D
BB
3D
8B
EA
C0
5E
F1
6F
8F
BF
2C
75
1D
28
D6
10
C8
17
90
A4
29
89
E5
F1
3C
A4
60
1A
C9
69
7E
9E
CC
EF
8A
E7
2F
29
32
BB
BD
0B
90
91
53
91
34
AD
5C
3F
C4
C7
BF
A9
F1
AA
B8
7F
60
CB
43
37
6B
04
2D
B5
A8
41
70
BB
7E
86
1B
FA
77
87
E4
99
5B
D2
4C
00
E2
F5
78
96
65
0B
02
4A
F2
16
24
46
C7
F4
AF
5B
DC
AE
92
BA
95
6C
DF
BF
3C
76
C8
43
B9
54
A4
F0
BC
A3
B4
41
A0
82
D6
2A
A9
74
8F
B6
55
21
11
07
31
75
92
99
C2
73
AB
9F
2C
04
81
15
3D
17
B9
77
8F
2C
89
14
91
0C
CB
3A
0F
7D
2D
13
74
DB
D1
6A
99
D2
12
3A
80
34
25
A7
5A
47
24
61
3D
93
DA
F5
CB
85
FE
BB
23
26
6F
6F
4F
58
CD
01
35
43
2C
6F
D4
1A
74
BD
80
5C
A1
0C
53
F5
81
FA
C7
24
2B
E8
CB
DA
60
2F
C4
0B
52
14
18
14
7B
8B
8D
E0
7B
FA
43
B8
1A
7A
07
03
2F
FF
FA
58
5D
BB
B2
0F
06
7A
AE
FE
9A
35
19
CE
54
FD
69
4D
C6
B2
31
48
6F
F6
1D
3D
58
C0
0A
B9
7F
46
61
91
E5
0C
6F
25
11
D4
CA
D5
20
7F
BE
3C
A0
EA
48
31
5F
7B
A1
92
79
6B
9B
B5
18
3D
17
FD
8D
57
B8
0F
A5
41
CD
12
A5
4E
3F
EB
03
BF
8A
66
6B
53
C1
14
BD
5A
07
0B
51
11
0B
EA
09
81
00
33
22
8B
A5
7D
62
05
50
E8
67
19
B6
72
F5
9B
B1
18
16
A7
2A
F9
D8
E8
5A
DB
40
D1
89
FD
51
83
84
2D
CE
12
72
A6
98
EE
9D
DC
DF
E3
8A
20
B4
CE
BB
89
D3
5C
94
81
10
27
D2
E0
B8
3B
77
87
CA
0C
D6
26
