8b
2c
ff
0e
39
e2
da
cd
52
d6
82
87
4c
b4
c3
6b
e6
4f
fb
f1
0d
ed
1f
c8
01
e5
fe
8b
2c
ff
0e
39
e2
da
cd
52
d6
82
87
4c
b4
c3
6b
e6
4f
fb
f1
0d
ed
1f
c8
01
e5
fe
8b
2c
ff
0e
39
e2
da
cd
52
d6
82
87
4c
b4
c3
6b
e6
4f
fb
f1
0d
ed
1f
c8
01
e5
fe
8b
2c
ff
0e
39
e2
da
cd
52
d6
82
87
4c
b4
c3
6b
e6
4f
fb
f1
0d
ed
1f
c8
01
e5
fe
8b
2c
ff
0e
39
e2
da
cd
52
d6
82
87
4c
b4
c3
6b
e6
4f
fb
f1
0d
ed
1f
c8
01
e5
fe
8b
2c
ff
0e
39
e2
da
cd
52
d6
82
87
4c
b4
c3
6b
e6
4f
fb
f1
0d
ed
1f
c8
01
e5
fe
8b
2c
ff
0e
39
e2
da
cd
52
d6
82
87
4c
b4
c3
6b
e6
4f
fb
f1
0d
ed
1f
c8
01
e5
fe
8b
2c
ff
0e
39
e2
da
cd
52
d6
82
87
4c
b4
c3
6b
e6
4f
fb
f1
0d
ed
1f
c8
01
e5
fe
8b
2c
ff
0e
39
e2
da
cd
52
d6
82
87
4c
b4
c3
6b
e6
4f
fb
f1
0d
ed
1f
c8
01
e5
fe
8b
2c
ff
0e
39
e2
da
cd
52
d6
82
87
4c
b4
c3
6b
e6
4f
fb
f1
0d
ed
1f
c8
01
e5
fe
8b
2c
ff
0e
39
e2
da
cd
52
d6
82
87
4c
b4
c3
6b
e6
4f
fb
f1
0d
ed
1f
c8
01
e5
fe
8b
2c
ff
0e
39
e2
da
cd
52
d6
82
87
4c
b4
c3
6b
e6
4f
fb
f1
0d
ed
1f
c8
01
e5
fe
8b
2c
ff
0e
39
e2
da
cd
52
d6
82
87
4c
b4
c3
6b
e6
4f
fb
f1
0d
ed
1f
c8
01
e5
fe
8b
2c
ff
0e
39
e2
da
cd
52
d6
82
87
4c
b4
c3
6b
e6
4f
fb
f1
0d
ed
1f
c8
01
e5
fe
8b
2c
ff
0e
39
e2
da
cd
52
d6
82
87
4c
b4
c3
6b
e6
4f
fb
f1
0d
ed
1f
c8
01
e5
fe
8b
2c
ff
0e
39
e2
da
cd
52
d6
82
87
4c
b4
c3
6b
e6
4f
fb
f1
0d
ed
1f
c8
01
e5
fe
8b
2c
ff
0e
39
e2
da
cd
52
d6
82
87
4c
b4
c3
6b
e6
4f
fb
f1
0d
ed
1f
c8
01
e5
fe
8b
2c
ff
0e
39
e2
da
cd
52
d6
82
87
4c
b4
c3
6b
e6
4f
fb
f1
0d
ed
1f
c8
01
e5
fe
8b
2c
ff
0e
39
e2
da
cd
52
d6
82
87
4c
b4
c3
6b
e6
4f
fb
f1
0d
ed
1f
c8
01
e5
fe
8b
2c
ff
0e
39
e2
da
cd
52
d6
82
87
4c
b4
c3
6b
e6
4f
fb
f1
0d
ed
1f
c8
01
e5
fe
8b
2c
ff
0e
39
e2
da
cd
52
d6
82
87
4c
b4
c3
6b
e6
4f
fb
f1
0d
ed
1f
c8
01
e5
fe
8b
2c
ff
0e
39
e2
da
cd
52
d6
82
87
4c
b4
c3
6b
e6
4f
fb
f1
0d
ed
1f
c8
01
e5
fe
8b
2c
ff
0e
39
e2
da
cd
52
d6
82
87
4c
b4
c3
6b
e6
4f
fb
f1
0d
ed
1f
c8
01
e5
fe
8b
2c
ff
0e
39
e2
da
cd
52
d6
82
87
4c
b4
c3
6b
e6
4f
fb
f1
0d
ed
1f
c8
01
e5
fe
8b
2c
ff
0e
39
e2
da
cd
52
d6
82
87
4c
b4
c3
6b
e6
4f
fb
f1
0d
ed
1f
c8
01
e5
fe
8b
2c
ff
0e
39
e2
da
cd
52
d6
82
87
4c
b4
c3
6b
e6
4f
fb
f1
0d
ed
1f
c8
01
e5
fe
8b
2c
ff
0e
39
e2
da
cd
52
d6
82
87
4c
b4
c3
6b
e6
4f
fb
f1
0d
ed
1f
c8
01
e5
fe
8b
2c
ff
0e
39
e2
da
cd
52
d6
82
87
4c
b4
c3
6b
e6
4f
fb
f1
0d
ed
1f
c8
01
e5
fe
8b
2c
ff
0e
39
e2
da
cd
52
d6
82
87
4c
b4
c3
6b
e6
4f
fb
f1
0d
ed
1f
c8
01
e5
fe
8b
2c
ff
0e
39
e2
da
cd
52
d6
82
87
4c
b4
c3
6b
e6
4f
fb
f1
0d
ed
1f
c8
01
e5
fe
8b
2c
ff
0e
39
e2
da
cd
52
d6
82
87
4c
b4
c3
6b
e6
4f
fb
f1
0d
ed
1f
c8
01
e5
fe
8b
2c
ff
0e
39
e2
da
cd
52
d6
82
87
4c
b4
c3
6b
e6
4f
fb
f1
0d
ed
1f
c8
01
e5
fe
8b
2c
ff
0e
39
e2
da
cd
52
d6
82
87
4c
b4
c3
6b
e6
4f
fb
f1
0d
ed
1f
c8
01
e5
fe
8b
2c
ff
0e
39
e2
da
cd
52
d6
82
87
4c
b4
c3
6b
e6
4f
fb
f1
0d
ed
1f
c8
01
e5
fe
8b
2c
ff
0e
39
e2
da
cd
52
d6
82
87
4c
b4
c3
6b
e6
4f
fb
f1
0d
ed
1f
c8
01
e5
fe
8b
2c
ff
0e
39
e2
da
cd
52
d6
82
87
4c
b4
c3
6b
e6
4f
fb
f1
0d
ed
1f
c8
01
e5
fe
8b
2c
ff
0e
39
e2
da
cd
52
d6
82
87
4c
b4
c3
6b
e6
4f
fb
f1
0d
ed
1f
c8
01
e5
fe
8b
2c
ff
0e
39
e2
da
cd
52
d6
82
87
4c
b4
c3
6b
e6
4f
fb
f1
0d
ed
1f
c8
01
e5
fe
8b
2c
ff
0e
39
e2
da
cd
52
d6
82
87
4c
b4
c3
6b
e6
4f
fb
f1
0d
ed
1f
c8
01
e5
fe
8b
2c
ff
0e
39
e2
da
cd
52
d6
82
87
4c
b4
c3
6b
e6
4f
fb
f1
0d
ed
1f
c8
01
e5
fe
8b
2c
ff
0e
39
e2
da
cd
52
d6
82
87
4c
b4
c3
6b
e6
4f
fb
f1
0d
ed
1f
c8
01
e5
fe
8b
2c
ff
0e
39
e2
da
cd
52
d6
82
87
4c
b4
c3
6b
e6
4f
fb
f1
0d
ed
1f
c8
01
e5
fe
8b
2c
ff
0e
39
e2
da
cd
52
d6
82
87
4c
b4
c3
6b
e6
4f
fb
f1
0d
ed
1f
c8
01
e5
fe
8b
2c
ff
0e
39
e2
da
cd
52
d6
82
87
4c
b4
c3
6b
e6
4f
fb
f1
0d
ed
1f
c8
01
e5
fe
8b
2c
ff
0e
39
e2
da
cd
52
d6
82
87
4c
b4
c3
6b
e6
4f
fb
f1
0d
ed
1f
c8
01
e5
fe
8b
2c
ff
0e
39
e2
da
cd
52
d6
82
87
4c
b4
c3
6b
e6
4f
fb
f1
0d
ed
1f
c8
01
e5
fe
8b
2c
ff
0e
39
e2
da
cd
52
d6
82
87
4c
b4
c3
6b
e6
4f
fb
f1
0d
ed
1f
c8
01
e5
fe
8b
2c
ff
0e
39
e2
da
cd
52
d6
82
87
4c
b4
c3
6b
e6
4f
fb
f1
0d
ed
1f
c8
01
e5
fe
8b
2c
ff
0e
39
e2
da
cd
52
d6
82
87
4c
b4
c3
6b
e6
4f
fb
f1
0d
ed
1f
c8
01
e5
fe
8b
2c
ff
0e
39
e2
da
cd
52
d6
82
87
4c
b4
c3
6b
e6
4f
fb
f1
0d
ed
1f
c8
01
e5
fe
8b
2c
ff
0e
39
e2
da
cd
52
d6
82
87
4c
b4
c3
6b
e6
4f
fb
f1
0d
ed
1f
c8
01
e5
fe
8b
2c
ff
0e
39
e2
da
cd
52
d6
82
87
4c
b4
c3
6b
e6
4f
fb
f1
0d
ed
1f
c8
01
e5
fe
8b
2c
ff
0e
39
e2
da
cd
52
d6
82
87
4c
b4
c3
6b
e6
4f
fb
f1
0d
ed
1f
c8
01
e5
fe
8b
2c
ff
0e
39
e2
da
cd
52
d6
82
87
4c
b4
c3
6b
e6
4f
fb
f1
0d
ed
1f
c8
01
e5
fe
8b
2c
ff
0e
39
e2
da
cd
52
d6
82
87
4c
b4
c3
6b
e6
4f
fb
f1
0d
ed
1f
c8
01
e5
fe
8b
2c
ff
0e
39
e2
da
cd
52
d6
82
87
4c
b4
c3
6b
e6
4f
fb
f1
0d
ed
1f
c8
01
e5
fe
8b
2c
ff
0e
39
e2
da
cd
52
d6
82
87
4c
b4
c3
6b
e6
4f
fb
f1
0d
ed
1f
c8
01
e5
fe
8b
2c
ff
0e
39
e2
da
cd
52
d6
82
87
4c
b4
c3
6b
e6
4f
fb
f1
0d
ed
1f
c8
01
e5
fe
8b
2c
ff
0e
39
e2
da
cd
52
d6
82
87
4c
b4
c3
6b
e6
4f
fb
f1
0d
ed
1f
c8
01
e5
fe
8b
2c
ff
0e
39
e2
da
cd
52
d6
82
87
4c
b4
c3
6b
e6
4f
fb
f1
0d
ed
1f
c8
01
e5
fe
8b
2c
ff
0e
39
e2
da
cd
52
d6
82
87
4c
b4
c3
6b
e6
4f
fb
f1
0d
ed
1f
c8
01
e5
fe
8b
2c
ff
0e
39
e2
da
cd
52
d6
82
87
4c
b4
c3
6b
e6
4f
fb
f1
0d
ed
1f
c8
01
e5
fe
8b
2c
ff
0e
39
e2
da
cd
52
d6
82
87
4c
b4
c3
6b
e6
4f
fb
f1
0d
ed
1f
c8
01
e5
fe
8b
2c
ff
0e
39
e2
da
cd
52
d6
82
87
4c
b4
c3
6b
e6
4f
fb
f1
0d
ed
1f
c8
01
e5
fe
8b
2c
ff
0e
39
e2
da
cd
52
d6
82
87
4c
b4
c3
6b
e6
4f
fb
f1
0d
ed
1f
c8
01
e5
fe
8b
2c
ff
0e
39
e2
da
cd
52
d6
82
87
4c
b4
c3
6b
e6
4f
fb
f1
0d
ed
1f
c8
01
e5
fe
8b
2c
ff
0e
39
e2
da
cd
52
d6
82
87
4c
b4
c3
6b
e6
4f
fb
f1
0d
ed
1f
c8
01
e5
fe
8b
2c
ff
0e
39
e2
da
cd
52
d6
82
87
4c
b4
c3
6b
e6
4f
fb
f1
0d
ed
1f
c8
01
e5
fe
8b
2c
ff
0e
39
e2
da
cd
52
d6
82
87
4c
b4
c3
6b
e6
4f
fb
f1
0d
ed
1f
c8
01
e5
fe
8b
2c
ff
0e
39
e2
da
cd
52
d6
82
87
4c
b4
c3
6b
e6
4f
fb
f1
0d
ed
1f
c8
01
e5
fe
8b
2c
ff
0e
39
e2
da
cd
52
d6
82
87
4c
b4
c3
6b
e6
4f
fb
f1
0d
ed
1f
c8
01
e5
fe
8b
2c
ff
0e
39
e2
da
cd
52
d6
82
87
4c
b4
c3
6b
e6
4f
fb
f1
0d
ed
1f
c8
01
e5
fe
8b
2c
ff
0e
39
e2
da
cd
52
d6
82
87
4c
b4
c3
6b
e6
4f
fb
f1
0d
ed
1f
c8
01
e5
fe
8b
2c
ff
0e
39
e2
da
cd
52
d6
82
87
4c
b4
c3
6b
e6
4f
fb
f1
0d
ed
1f
c8
01
e5
fe
8b
2c
ff
0e
39
e2
da
cd
52
d6
82
87
4c
b4
c3
6b
e6
4f
fb
f1
0d
ed
1f
c8
01
e5
fe
8b
2c
ff
0e
39
e2
da
cd
52
d6
82
87
4c
b4
c3
6b
e6
4f
fb
f1
0d
ed
1f
c8
01
e5
fe
8b
2c
ff
0e
39
e2
da
cd
52
d6
82
87
4c
b4
c3
6b
e6
4f
fb
f1
0d
ed
1f
c8
01
e5
fe
8b
2c
ff
0e
39
e2
da
cd
52
d6
82
87
4c
b4
c3
6b
e6
4f
fb
f1
0d
ed
1f
c8
01
e5
fe
8b
2c
ff
0e
39
e2
da
cd
52
d6
82
87
4c
b4
c3
6b
e6
4f
fb
f1
0d
ed
1f
c8
01
e5
fe
8b
2c
ff
0e
39
e2
da
cd
52
d6
82
87
4c
b4
c3
6b
e6
4f
fb
f1
0d
ed
1f
c8
01
e5
fe
8b
2c
ff
0e
39
e2
da
cd
52
d6
82
87
4c
b4
c3
6b
e6
4f
fb
f1
0d
ed
1f
c8
01
e5
fe
8b
2c
ff
0e
39
e2
da
cd
52
d6
82
87
4c
b4
c3
6b
e6
4f
fb
f1
0d
ed
1f
c8
01
e5
fe
8b
2c
ff
0e
39
e2
da
cd
52
d6
82
87
4c
b4
c3
6b
e6
4f
fb
f1
0d
ed
1f
c8
01
e5
fe
8b
2c
ff
0e
39
e2
da
cd
52
d6
82
87
4c
b4
c3
6b
e6
4f
fb
f1
0d
ed
1f
c8
01
e5
fe
8b
2c
ff
0e
39
e2
da
cd
52
d6
82
87
4c
b4
c3
6b
e6
4f
fb
f1
0d
ed
1f
c8
01
e5
fe
8b
2c
ff
0e
39
e2
da
cd
52
d6
82
87
4c
b4
c3
6b
e6
4f
fb
f1
0d
ed
1f
c8
01
e5
fe
8b
2c
ff
0e
39
e2
da
cd
52
d6
82
87
4c
b4
c3
6b
e6
4f
fb
f1
0d
ed
1f
c8
01
e5
fe
8b
2c
ff
0e
39
e2
da
cd
52
d6
82
87
4c
b4
c3
6b
e6
4f
fb
f1
0d
ed
1f
c8
01
e5
fe
8b
2c
ff
0e
39
e2
da
cd
52
d6
82
87
4c
b4
c3
6b
e6
4f
fb
f1
0d
ed
1f
c8
01
e5
fe
8b
2c
ff
0e
39
e2
da
cd
52
d6
82
87
4c
b4
c3
6b
e6
4f
fb
f1
0d
ed
1f
c8
01
e5
fe
8b
2c
ff
0e
39
e2
da
cd
52
d6
82
87
4c
b4
c3
6b
e6
4f
fb
f1
0d
ed
1f
c8
01
e5
fe
8b
2c
ff
0e
39
e2
da
cd
52
d6
82
87
4c
b4
c3
6b
e6
4f
fb
f1
0d
ed
1f
c8
01
e5
fe
8b
2c
ff
0e
39
e2
da
cd
52
d6
82
87
4c
b4
c3
6b
e6
4f
fb
f1
0d
ed
1f
c8
01
e5
fe
8b
2c
ff
0e
39
e2
da
cd
52
d6
82
87
4c
b4
c3
6b
e6
4f
fb
f1
0d
ed
1f
c8
01
e5
fe
8b
2c
ff
0e
39
e2
da
cd
52
d6
82
87
4c
b4
c3
6b
e6
4f
fb
f1
0d
ed
1f
c8
01
e5
fe
8b
2c
ff
0e
39
e2
da
cd
52
d6
82
87
4c
b4
c3
6b
e6
4f
fb
f1
0d
ed
1f
c8
01
e5
fe
8b
2c
ff
0e
39
e2
da
cd
52
d6
82
87
4c
b4
c3
6b
e6
4f
fb
f1
0d
ed
1f
c8
01
e5
fe
8b
2c
ff
0e
39
e2
da
cd
52
d6
82
87
4c
b4
c3
6b
e6
4f
fb
f1
0d
ed
1f
c8
01
e5
fe
8b
2c
ff
0e
39
e2
da
cd
52
d6
82
87
4c
b4
c3
6b
e6
4f
fb
f1
0d
ed
1f
c8
01
e5
fe
8b
2c
ff
0e
39
e2
da
cd
52
d6
82
87
4c
b4
c3
6b
e6
4f
fb
f1
0d
ed
1f
c8
01
e5
fe
8b
2c
ff
0e
39
e2
da
cd
52
d6
82
87
4c
b4
c3
6b
e6
4f
fb
f1
0d
ed
1f
c8
01
e5
fe
8b
2c
ff
0e
39
e2
da
cd
52
d6
82
87
4c
b4
c3
6b
e6
4f
fb
f1
0d
ed
1f
c8
01
e5
fe
8b
2c
ff
0e
39
e2
da
cd
52
d6
82
87
4c
b4
c3
6b
e6
4f
fb
f1
0d
ed
1f
c8
01
e5
fe
8b
2c
ff
0e
39
e2
da
cd
52
d6
82
87
4c
b4
c3
6b
e6
4f
fb
f1
0d
ed
1f
c8
01
e5
fe
8b
2c
ff
0e
39
e2
da
cd
52
d6
82
87
4c
b4
c3
6b
e6
4f
fb
f1
0d
ed
1f
c8
01
e5
fe
8b
2c
ff
0e
39
e2
da
cd
52
d6
82
87
4c
b4
c3
6b
e6
4f
fb
f1
0d
ed
1f
c8
01
e5
fe
8b
2c
ff
0e
39
e2
da
cd
52
d6
82
87
4c
b4
c3
6b
e6
4f
fb
f1
0d
ed
1f
c8
01
e5
fe
8b
2c
ff
0e
39
e2
da
cd
52
d6
82
87
4c
b4
c3
6b
e6
4f
fb
f1
0d
ed
1f
c8
01
e5
fe
8b
2c
ff
0e
39
e2
da
cd
52
d6
82
87
4c
b4
c3
6b
e6
4f
fb
f1
0d
ed
1f
c8
01
e5
fe
8b
2c
ff
0e
39
e2
da
cd
52
d6
82
87
4c
b4
c3
6b
e6
4f
fb
f1
0d
ed
1f
c8
01
e5
fe
8b
2c
ff
0e
39
e2
da
cd
52
d6
82
87
4c
b4
c3
6b
e6
4f
fb
f1
0d
ed
1f
c8
01
e5
fe
8b
2c
ff
0e
39
e2
da
cd
52
d6
82
87
4c
b4
c3
6b
e6
4f
fb
f1
0d
ed
1f
c8
01
e5
fe
8b
2c
ff
0e
39
e2
da
cd
52
d6
82
87
4c
b4
c3
6b
e6
4f
fb
f1
0d
ed
1f
c8
01
e5
fe
8b
2c
ff
0e
39
e2
da
cd
52
d6
82
87
4c
b4
c3
6b
e6
4f
fb
f1
0d
ed
1f
c8
01
e5
fe
8b
2c
ff
0e
39
e2
da
cd
52
d6
82
87
4c
b4
c3
6b
e6
4f
fb
f1
0d
ed
1f
c8
01
e5
fe
8b
2c
ff
0e
39
e2
da
cd
52
d6
82
87
4c
b4
c3
6b
e6
4f
fb
f1
0d
ed
1f
c8
01
e5
fe
8b
2c
ff
0e
39
e2
da
cd
52
d6
82
87
4c
b4
c3
6b
e6
4f
fb
f1
0d
ed
1f
c8
01
e5
fe
8b
2c
ff
0e
39
e2
da
cd
52
d6
82
87
4c
b4
c3
6b
e6
4f
fb
f1
0d
ed
1f
c8
01
e5
fe
8b
2c
ff
0e
39
e2
da
cd
52
d6
82
87
4c
b4
c3
6b
e6
4f
fb
f1
0d
ed
1f
c8
01
e5
fe
8b
2c
ff
0e
39
e2
da
cd
52
d6
82
87
4c
b4
c3
6b
e6
4f
fb
f1
0d
ed
1f
c8
01
e5
fe
8b
2c
ff
0e
39
e2
da
cd
52
d6
82
87
4c
b4
c3
6b
e6
4f
fb
f1
0d
ed
1f
c8
01
e5
fe
8b
2c
ff
0e
39
e2
da
cd
52
d6
82
87
4c
b4
c3
6b
e6
4f
fb
f1
0d
ed
1f
c8
01
e5
fe
8b
2c
ff
0e
39
e2
da
cd
52
d6
82
87
4c
b4
c3
6b
e6
4f
fb
f1
0d
ed
1f
c8
01
e5
fe
8b
2c
ff
0e
39
e2
da
cd
52
d6
82
87
4c
b4
c3
6b
e6
4f
fb
f1
0d
ed
1f
c8
01
e5
fe
8b
2c
ff
0e
39
e2
da
cd
52
d6
82
87
4c
b4
c3
6b
e6
4f
fb
f1
0d
ed
1f
c8
01
e5
fe
8b
2c
ff
0e
39
e2
da
cd
52
d6
82
87
4c
b4
c3
6b
e6
4f
fb
f1
0d
ed
1f
c8
01
e5
fe
8b
2c
ff
0e
39
e2
da
cd
52
d6
82
87
4c
b4
c3
6b
e6
4f
fb
f1
0d
ed
1f
c8
01
e5
fe
8b
2c
ff
0e
39
e2
da
cd
52
d6
82
87
4c
b4
c3
6b
e6
4f
fb
f1
0d
ed
1f
c8
01
e5
fe
8b
2c
ff
0e
39
e2
da
cd
52
d6
82
87
4c
b4
c3
6b
e6
4f
fb
f1
0d
ed
1f
c8
01
e5
fe
8b
2c
ff
0e
39
e2
da
cd
52
d6
82
87
4c
b4
c3
6b
e6
4f
fb
f1
0d
ed
1f
c8
01
e5
fe
8b
2c
ff
0e
39
e2
da
cd
52
d6
82
87
4c
b4
c3
6b
e6
4f
fb
f1
0d
ed
1f
c8
01
e5
fe
8b
2c
ff
0e
39
e2
da
cd
52
d6
82
87
4c
b4
c3
6b
e6
4f
fb
f1
0d
ed
1f
c8
01
e5
fe
8b
2c
ff
0e
39
e2
da
cd
52
d6
82
87
4c
b4
c3
6b
e6
4f
fb
f1
0d
ed
1f
c8
01
e5
fe
8b
2c
ff
0e
39
e2
da
cd
52
d6
82
87
4c
b4
c3
6b
e6
4f
fb
f1
0d
ed
1f
c8
01
e5
fe
8b
2c
ff
0e
39
e2
da
cd
52
d6
82
87
4c
b4
c3
6b
e6
4f
fb
f1
0d
ed
1f
c8
01
e5
fe
8b
2c
ff
0e
39
e2
da
cd
52
d6
82
87
4c
b4
c3
6b
e6
4f
fb
f1
0d
ed
1f
c8
01
e5
fe
8b
2c
ff
0e
39
e2
da
cd
52
d6
82
87
4c
b4
c3
6b
e6
4f
fb
f1
0d
ed
1f
c8
01
e5
fe
8b
2c
ff
0e
39
e2
da
cd
52
d6
82
87
4c
b4
c3
6b
e6
4f
fb
f1
0d
ed
1f
c8
01
e5
fe
8b
2c
ff
0e
39
e2
da
cd
52
d6
82
87
4c
b4
c3
6b
e6
4f
fb
f1
0d
ed
1f
c8
01
e5
fe
8b
2c
ff
0e
39
e2
da
cd
52
d6
82
87
4c
b4
c3
6b
e6
4f
fb
f1
0d
ed
1f
c8
01
e5
fe
8b
2c
ff
0e
39
e2
da
cd
52
d6
82
87
4c
b4
c3
6b
e6
4f
fb
f1
0d
ed
1f
c8
01
e5
fe
8b
2c
ff
0e
39
e2
da
cd
52
d6
82
87
4c
b4
c3
6b
e6
4f
fb
f1
0d
ed
1f
c8
01
e5
fe
8b
2c
ff
0e
39
e2
da
cd
52
d6
82
87
4c
b4
c3
6b
e6
4f
fb
f1
0d
ed
1f
c8
01
e5
fe
8b
2c
ff
0e
39
e2
da
cd
52
d6
82
87
4c
b4
c3
6b
e6
4f
fb
f1
0d
ed
1f
c8
01
e5
fe
8b
2c
ff
0e
39
e2
da
cd
52
d6
82
87
4c
b4
c3
6b
e6
4f
fb
f1
0d
ed
1f
c8
01
e5
fe
8b
2c
ff
0e
39
e2
da
cd
52
d6
82
87
4c
b4
c3
6b
e6
4f
fb
f1
0d
ed
1f
c8
01
e5
fe
8b
2c
ff
0e
39
e2
da
cd
52
d6
82
87
4c
b4
c3
6b
e6
4f
fb
f1
0d
ed
1f
c8
01
e5
fe
8b
2c
ff
0e
39
e2
da
cd
52
d6
82
87
4c
b4
c3
6b
e6
4f
fb
f1
0d
ed
1f
c8
01
e5
fe
8b
2c
ff
0e
39
e2
da
cd
52
d6
82
87
4c
b4
c3
6b
e6
4f
fb
f1
0d
ed
1f
c8
01
e5
fe
8b
2c
ff
0e
39
e2
da
cd
52
d6
82
87
4c
b4
c3
6b
e6
4f
fb
f1
0d
ed
1f
c8
01
e5
fe
8b
2c
ff
0e
39
e2
da
cd
52
d6
82
87
4c
b4
c3
6b
e6
4f
fb
f1
0d
ed
1f
c8
01
e5
fe
8b
2c
ff
0e
39
e2
da
cd
52
d6
82
87
4c
b4
c3
6b
e6
4f
fb
f1
0d
ed
1f
c8
01
e5
fe
8b
2c
ff
0e
39
e2
da
cd
52
d6
82
87
4c
b4
c3
6b
e6
4f
fb
f1
0d
ed
1f
c8
01
e5
fe
8b
2c
ff
0e
39
e2
da
cd
52
d6
82
87
4c
b4
c3
6b
e6
4f
fb
f1
0d
ed
1f
c8
01
e5
fe
8b
2c
ff
0e
39
e2
da
cd
52
d6
82
87
4c
b4
c3
6b
e6
4f
fb
f1
0d
ed
1f
c8
01
e5
fe
8b
2c
ff
0e
39
e2
da
cd
52
d6
82
87
4c
b4
c3
6b
e6
4f
fb
f1
0d
ed
1f
c8
01
e5
fe
8b
2c
ff
0e
39
e2
da
cd
52
d6
82
87
4c
b4
c3
6b
e6
4f
fb
f1
0d
ed
1f
c8
01
e5
fe
8b
2c
ff
0e
39
e2
da
cd
52
d6
82
87
4c
b4
c3
6b
e6
4f
fb
f1
0d
ed
1f
c8
01
e5
fe
8b
2c
ff
0e
39
e2
da
cd
52
d6
82
87
4c
b4
c3
6b
e6
4f
fb
f1
0d
ed
1f
c8
01
e5
fe
8b
2c
ff
0e
39
e2
da
cd
52
d6
82
87
4c
b4
c3
6b
e6
4f
fb
f1
0d
ed
1f
c8
01
e5
fe
8b
2c
ff
0e
39
e2
da
cd
52
d6
82
87
4c
b4
c3
6b
e6
4f
fb
f1
0d
ed
1f
c8
01
e5
fe
8b
2c
ff
0e
39
e2
da
cd
52
d6
82
87
4c
b4
c3
6b
e6
4f
fb
f1
0d
ed
1f
c8
01
e5
fe
8b
2c
ff
0e
39
e2
da
cd
52
d6
82
87
4c
b4
c3
6b
e6
4f
fb
f1
0d
ed
1f
c8
01
e5
fe
8b
2c
ff
0e
39
e2
da
cd
52
d6
82
87
4c
b4
c3
6b
e6
4f
fb
f1
0d
ed
1f
c8
01
e5
fe
8b
2c
ff
0e
39
e2
da
cd
52
d6
82
87
4c
b4
c3
6b
e6
4f
fb
f1
0d
ed
1f
c8
01
e5
fe
8b
2c
ff
0e
39
e2
da
cd
52
d6
82
87
4c
b4
c3
6b
e6
4f
fb
f1
0d
ed
1f
c8
01
e5
fe
8b
2c
ff
0e
39
e2
da
cd
52
d6
82
87
4c
b4
c3
6b
e6
4f
fb
f1
0d
ed
1f
c8
01
e5
fe
8b
2c
ff
0e
39
e2
da
cd
52
d6
82
87
4c
b4
c3
6b
e6
4f
fb
f1
0d
ed
1f
c8
01
e5
fe
8b
2c
ff
0e
39
e2
da
cd
52
d6
82
87
4c
b4
c3
6b
e6
4f
fb
f1
0d
ed
1f
c8
01
e5
fe
8b
2c
ff
0e
39
e2
da
cd
52
d6
82
87
4c
b4
c3
6b
e6
4f
fb
f1
0d
ed
1f
c8
01
e5
fe
8b
2c
ff
0e
39
e2
da
cd
52
d6
82
87
4c
b4
c3
6b
e6
4f
fb
f1
0d
ed
1f
c8
01
e5
fe
8b
2c
ff
0e
39
e2
da
cd
52
d6
82
87
4c
b4
c3
6b
e6
4f
fb
f1
0d
ed
1f
c8
01
e5
fe
8b
2c
ff
0e
39
e2
da
cd
52
d6
82
87
4c
b4
c3
6b
e6
4f
fb
f1
0d
ed
1f
c8
01
e5
fe
8b
2c
ff
0e
39
e2
da
cd
52
d6
82
87
4c
b4
c3
6b
e6
4f
fb
f1
0d
ed
1f
c8
01
e5
fe
8b
2c
ff
0e
39
e2
da
cd
52
d6
82
87
4c
b4
c3
6b
e6
4f
fb
f1
0d
ed
1f
c8
01
e5
fe
8b
2c
ff
0e
39
e2
da
cd
52
d6
82
87
4c
b4
c3
6b
e6
4f
fb
f1
0d
ed
1f
c8
01
e5
fe
8b
2c
ff
0e
39
e2
da
cd
52
d6
82
87
4c
b4
c3
6b
e6
4f
fb
f1
0d
ed
1f
c8
01
e5
fe
8b
2c
ff
0e
39
e2
da
cd
52
d6
82
87
4c
b4
c3
6b
e6
4f
fb
f1
0d
ed
1f
c8
01
e5
fe
8b
2c
ff
0e
39
e2
da
cd
52
d6
82
87
4c
b4
c3
6b
e6
4f
fb
f1
0d
ed
1f
c8
01
e5
fe
8b
2c
ff
0e
39
e2
da
cd
52
d6
82
87
4c
b4
c3
6b
e6
4f
fb
f1
0d
ed
1f
c8
01
e5
fe
8b
2c
ff
0e
39
e2
da
cd
52
d6
82
87
4c
b4
c3
6b
e6
4f
fb
f1
0d
ed
1f
c8
01
e5
fe
8b
2c
ff
0e
39
e2
da
cd
52
d6
82
87
4c
b4
c3
6b
e6
4f
fb
f1
0d
ed
1f
c8
01
e5
fe
8b
2c
ff
0e
39
e2
da
cd
52
d6
82
87
4c
b4
c3
6b
e6
4f
fb
f1
0d
ed
1f
c8
01
e5
fe
8b
2c
ff
0e
39
e2
da
cd
52
d6
82
87
4c
b4
c3
6b
e6
4f
fb
f1
0d
ed
1f
c8
01
e5
fe
8b
2c
ff
0e
39
e2
da
cd
52
d6
82
87
4c
b4
c3
6b
e6
4f
fb
f1
0d
ed
1f
c8
01
e5
fe
8b
2c
ff
0e
39
e2
da
cd
52
d6
82
87
4c
b4
c3
6b
e6
4f
fb
f1
0d
ed
1f
c8
01
e5
fe
8b
2c
ff
0e
39
e2
da
cd
52
d6
82
87
4c
b4
c3
6b
e6
4f
fb
f1
0d
ed
1f
c8
01
e5
fe
8b
2c
ff
0e
39
e2
da
cd
52
d6
82
87
4c
b4
c3
6b
e6
4f
fb
f1
0d
ed
1f
c8
01
e5
fe
8b
2c
ff
0e
39
e2
da
cd
52
d6
82
87
4c
b4
c3
6b
e6
4f
fb
f1
0d
ed
1f
c8
01
e5
fe
8b
2c
ff
0e
39
e2
da
cd
52
d6
82
87
4c
b4
c3
6b
e6
4f
fb
f1
0d
ed
1f
c8
01
e5
fe
8b
2c
ff
0e
39
e2
da
cd
52
d6
82
87
4c
b4
c3
6b
e6
4f
fb
f1
0d
ed
1f
c8
01
e5
fe
8b
2c
ff
0e
39
e2
da
cd
52
d6
82
87
4c
b4
c3
6b
e6
4f
fb
f1
0d
ed
1f
c8
01
e5
fe
8b
2c
ff
0e
39
e2
da
cd
52
d6
82
87
4c
b4
c3
6b
e6
4f
fb
f1
0d
ed
1f
c8
01
e5
fe
8b
2c
ff
0e
39
e2
da
cd
52
d6
82
87
4c
b4
c3
6b
e6
4f
fb
f1
0d
ed
1f
c8
01
e5
fe
8b
2c
ff
0e
39
e2
da
cd
52
d6
82
87
4c
b4
c3
6b
e6
4f
fb
f1
0d
ed
1f
c8
01
e5
fe
8b
2c
ff
0e
39
e2
da
cd
52
d6
82
87
4c
b4
c3
6b
e6
4f
fb
f1
0d
ed
1f
c8
01
e5
fe
8b
2c
ff
0e
39
e2
da
cd
52
d6
82
87
4c
b4
c3
6b
e6
4f
fb
f1
0d
ed
1f
c8
01
e5
fe
8b
2c
ff
0e
39
e2
da
cd
52
d6
82
87
4c
b4
c3
6b
e6
4f
fb
f1
0d
ed
1f
c8
01
e5
fe
8b
2c
ff
0e
39
e2
da
cd
52
d6
82
87
4c
b4
c3
6b
e6
4f
fb
f1
0d
ed
1f
c8
01
e5
fe
8b
2c
ff
0e
39
e2
da
cd
52
d6
82
87
4c
b4
c3
6b
e6
4f
fb
f1
0d
ed
1f
c8
01
e5
fe
8b
2c
ff
0e
39
e2
da
cd
52
d6
82
87
4c
b4
c3
6b
e6
4f
fb
f1
0d
ed
1f
c8
01
e5
fe
8b
2c
ff
0e
39
e2
da
cd
52
d6
82
87
4c
b4
c3
6b
e6
4f
fb
f1
0d
ed
1f
c8
01
e5
fe
8b
2c
ff
0e
39
e2
da
cd
52
d6
82
87
4c
b4
c3
6b
e6
4f
fb
f1
0d
ed
1f
c8
01
e5
fe
8b
2c
ff
0e
39
e2
da
cd
52
d6
82
87
4c
b4
c3
6b
e6
4f
fb
f1
0d
ed
1f
c8
01
e5
fe
8b
2c
ff
0e
39
e2
da
cd
52
d6
82
87
4c
b4
c3
6b
e6
4f
fb
f1
0d
ed
1f
c8
01
e5
fe
8b
2c
ff
0e
39
e2
da
cd
52
d6
82
87
4c
b4
c3
6b
e6
4f
fb
f1
0d
ed
1f
c8
01
e5
fe
8b
2c
ff
0e
39
e2
da
cd
52
d6
82
87
4c
b4
c3
6b
e6
4f
fb
f1
0d
ed
1f
c8
01
e5
fe
8b
2c
ff
0e
39
e2
da
cd
52
d6
82
87
4c
b4
c3
6b
e6
4f
fb
f1
0d
ed
1f
c8
01
e5
fe
8b
2c
ff
0e
39
e2
da
cd
52
d6
82
87
4c
b4
c3
6b
e6
4f
fb
f1
0d
ed
1f
c8
01
e5
fe
8b
2c
ff
0e
39
e2
da
cd
52
d6
82
87
4c
b4
c3
6b
e6
4f
fb
f1
0d
ed
1f
c8
01
e5
fe
8b
2c
ff
0e
39
e2
da
cd
52
d6
82
87
4c
b4
c3
6b
e6
4f
fb
f1
0d
ed
1f
c8
01
e5
fe
8b
2c
ff
0e
39
e2
da
cd
52
d6
82
87
4c
b4
c3
6b
e6
4f
fb
f1
0d
ed
1f
c8
01
e5
fe
8b
2c
ff
0e
39
e2
da
cd
52
d6
82
87
4c
b4
c3
6b
e6
4f
fb
f1
0d
ed
1f
c8
01
e5
fe
8b
2c
ff
0e
39
e2
da
cd
52
d6
82
87
4c
b4
c3
6b
e6
4f
fb
f1
0d
ed
1f
c8
01
e5
fe
8b
2c
ff
0e
39
e2
da
cd
52
d6
82
87
4c
b4
c3
6b
e6
4f
fb
f1
0d
ed
1f
c8
01
e5
fe
8b
2c
ff
0e
39
e2
da
cd
52
d6
82
87
4c
b4
c3
6b
e6
4f
fb
f1
0d
ed
1f
c8
01
e5
fe
8b
2c
ff
0e
39
e2
da
cd
52
d6
82
87
4c
b4
c3
6b
e6
4f
fb
f1
0d
ed
1f
c8
01
e5
fe
8b
2c
ff
0e
39
e2
da
cd
52
d6
82
87
4c
b4
c3
6b
e6
4f
fb
f1
0d
ed
1f
c8
01
e5
fe
8b
2c
ff
0e
39
e2
da
cd
52
d6
82
87
4c
b4
c3
6b
e6
4f
fb
f1
0d
ed
1f
c8
01
e5
fe
8b
2c
ff
0e
39
e2
da
cd
52
d6
82
87
4c
b4
c3
6b
e6
4f
fb
f1
0d
ed
1f
c8
01
e5
fe
8b
2c
ff
0e
39
e2
da
cd
52
d6
82
87
4c
b4
c3
6b
e6
4f
fb
f1
0d
ed
1f
c8
01
e5
fe
8b
2c
ff
0e
39
e2
da
cd
52
d6
82
87
4c
b4
c3
6b
e6
4f
fb
f1
0d
ed
1f
c8
01
e5
fe
8b
2c
ff
0e
39
e2
da
cd
52
d6
82
87
4c
b4
c3
6b
e6
4f
fb
f1
0d
ed
1f
c8
01
e5
fe
8b
2c
ff
0e
39
e2
da
cd
52
d6
82
87
4c
b4
c3
6b
e6
4f
fb
f1
0d
ed
1f
c8
01
e5
fe
8b
2c
ff
0e
39
e2
da
cd
52
d6
82
87
4c
b4
c3
6b
e6
4f
fb
f1
0d
ed
1f
c8
01
e5
fe
8b
2c
ff
0e
39
e2
da
cd
52
d6
82
87
4c
b4
c3
6b
e6
4f
fb
f1
0d
ed
1f
c8
01
e5
fe
8b
2c
ff
0e
39
e2
da
cd
52
d6
82
87
4c
b4
c3
6b
e6
4f
fb
f1
0d
ed
1f
c8
01
e5
fe
8b
2c
ff
0e
39
e2
da
cd
52
d6
82
87
4c
b4
c3
6b
e6
4f
fb
f1
0d
ed
1f
c8
01
e5
fe
8b
2c
ff
0e
39
e2
da
cd
52
d6
82
87
4c
b4
c3
6b
e6
4f
fb
f1
0d
ed
1f
c8
01
e5
fe
8b
2c
ff
0e
39
e2
da
cd
52
d6
82
87
4c
b4
c3
6b
e6
4f
fb
f1
0d
ed
1f
c8
01
e5
fe
8b
2c
ff
0e
39
e2
da
cd
52
d6
82
87
4c
b4
c3
6b
e6
4f
fb
f1
0d
ed
1f
c8
01
e5
fe
8b
2c
ff
0e
39
e2
da
cd
52
d6
82
87
4c
b4
c3
6b
e6
4f
fb
f1
0d
ed
1f
c8
01
e5
fe
8b
2c
ff
0e
39
e2
da
cd
52
d6
82
87
4c
b4
c3
6b
e6
4f
fb
f1
0d
ed
1f
c8
01
e5
fe
8b
2c
ff
0e
39
e2
da
cd
52
d6
82
87
4c
b4
c3
6b
e6
4f
fb
f1
0d
ed
1f
c8
01
e5
fe
8b
2c
ff
0e
39
e2
da
cd
52
d6
82
87
4c
b4
c3
6b
e6
4f
fb
f1
0d
ed
1f
c8
01
e5
fe
8b
2c
ff
0e
39
e2
da
cd
52
d6
82
87
4c
b4
c3
6b
e6
4f
fb
f1
0d
ed
1f
c8
01
e5
fe
8b
2c
ff
0e
39
e2
da
cd
52
d6
82
87
4c
b4
c3
6b
e6
4f
fb
f1
0d
ed
1f
c8
01
e5
fe
8b
2c
ff
0e
39
e2
da
cd
52
d6
82
87
4c
b4
c3
6b
e6
4f
fb
f1
0d
ed
1f
c8
01
e5
fe
8b
2c
ff
0e
39
e2
da
cd
52
d6
82
87
4c
b4
c3
6b
e6
4f
fb
f1
0d
ed
1f
c8
01
e5
fe
8b
2c
ff
0e
39
e2
da
cd
52
d6
82
87
4c
b4
c3
6b
e6
4f
fb
f1
0d
ed
1f
c8
01
e5
fe
8b
2c
ff
0e
39
e2
da
cd
52
d6
82
87
4c
b4
c3
6b
e6
4f
fb
f1
0d
ed
1f
c8
01
e5
fe
8b
2c
ff
0e
39
e2
da
cd
52
d6
82
87
4c
b4
c3
6b
e6
4f
fb
f1
0d
ed
1f
c8
01
e5
fe
8b
2c
ff
0e
39
e2
da
cd
52
d6
82
87
4c
b4
c3
6b
e6
4f
fb
f1
0d
ed
1f
c8
01
e5
fe
8b
2c
ff
0e
39
e2
da
cd
52
d6
82
87
4c
b4
c3
6b
e6
4f
fb
f1
0d
ed
1f
c8
01
e5
fe
8b
2c
ff
0e
39
e2
da
cd
52
d6
82
87
4c
b4
c3
6b
e6
4f
fb
f1
0d
ed
1f
c8
01
e5
fe
8b
2c
ff
0e
39
e2
da
cd
52
d6
82
87
4c
b4
c3
6b
e6
4f
fb
f1
0d
ed
1f
c8
01
e5
fe
8b
2c
ff
0e
39
e2
da
cd
52
d6
82
87
4c
b4
c3
6b
e6
4f
fb
f1
0d
ed
1f
c8
01
e5
fe
8b
2c
ff
0e
39
e2
da
cd
52
d6
82
87
4c
b4
c3
6b
e6
4f
fb
f1
0d
ed
1f
c8
01
e5
fe
8b
2c
ff
0e
39
e2
da
cd
52
d6
82
87
4c
b4
c3
6b
e6
4f
fb
f1
0d
ed
1f
c8
01
e5
fe
8b
2c
ff
0e
39
e2
da
cd
52
d6
82
87
4c
b4
c3
6b
e6
4f
fb
f1
0d
ed
1f
c8
01
e5
fe
8b
2c
ff
0e
39
e2
da
cd
52
d6
82
87
4c
b4
c3
6b
e6
4f
fb
f1
0d
ed
1f
c8
01
e5
fe
8b
2c
ff
0e
39
e2
da
cd
52
d6
82
87
4c
b4
c3
6b
e6
4f
fb
f1
0d
ed
1f
c8
01
e5
fe
8b
2c
ff
0e
39
e2
da
cd
52
d6
82
87
4c
b4
c3
6b
e6
4f
fb
f1
0d
ed
1f
c8
01
e5
fe
8b
2c
ff
0e
39
e2
da
cd
52
d6
82
87
4c
b4
c3
6b
e6
4f
fb
f1
0d
ed
1f
c8
01
e5
fe
8b
2c
ff
0e
39
e2
da
cd
52
d6
82
87
4c
b4
c3
6b
e6
4f
fb
f1
0d
ed
1f
c8
01
e5
fe
8b
2c
ff
0e
39
e2
da
cd
52
d6
82
87
4c
b4
c3
6b
e6
4f
fb
f1
0d
ed
1f
c8
01
e5
fe
8b
2c
ff
0e
39
e2
da
cd
52
d6
82
87
4c
b4
c3
6b
e6
4f
fb
f1
0d
ed
1f
c8
01
e5
fe
8b
2c
ff
0e
39
e2
da
cd
52
d6
82
87
4c
b4
c3
6b
e6
4f
fb
f1
0d
ed
1f
c8
01
e5
fe
8b
2c
ff
0e
39
e2
da
cd
52
d6
82
87
4c
b4
c3
6b
e6
4f
fb
f1
0d
ed
1f
c8
01
e5
fe
8b
2c
ff
0e
39
e2
da
cd
52
d6
82
87
4c
b4
c3
6b
e6
4f
fb
f1
0d
ed
1f
c8
01
e5
fe
8b
2c
ff
0e
39
e2
da
cd
52
d6
82
87
4c
b4
c3
6b
e6
4f
fb
f1
0d
ed
1f
c8
01
e5
fe
8b
2c
ff
0e
39
e2
da
cd
52
d6
82
87
4c
b4
c3
6b
e6
4f
fb
f1
0d
ed
1f
c8
01
e5
fe
8b
2c
ff
0e
39
e2
da
cd
52
d6
82
87
4c
b4
c3
6b
e6
4f
fb
f1
0d
ed
1f
c8
01
e5
fe
8b
2c
ff
0e
39
e2
da
cd
52
d6
82
87
4c
b4
c3
6b
e6
4f
fb
f1
0d
ed
1f
c8
01
e5
fe
8b
2c
ff
0e
39
e2
da
cd
52
d6
82
87
4c
b4
c3
6b
e6
4f
fb
f1
0d
ed
1f
c8
01
e5
fe
8b
2c
ff
0e
39
e2
da
cd
52
d6
82
87
4c
b4
c3
6b
e6
4f
fb
f1
0d
ed
1f
c8
01
e5
fe
8b
2c
ff
0e
39
e2
da
cd
52
d6
82
87
4c
b4
c3
6b
e6
4f
fb
f1
0d
ed
1f
c8
01
e5
fe
8b
2c
ff
0e
39
e2
da
cd
52
d6
82
87
4c
b4
c3
6b
e6
4f
fb
f1
0d
ed
1f
c8
01
e5
fe
8b
2c
ff
0e
39
e2
da
cd
52
d6
82
87
4c
b4
c3
6b
e6
4f
fb
f1
0d
ed
1f
c8
01
e5
fe
8b
2c
ff
0e
39
e2
da
cd
52
d6
82
87
4c
b4
c3
6b
e6
4f
fb
f1
0d
ed
1f
c8
01
e5
fe
8b
2c
ff
0e
39
e2
da
cd
52
d6
82
87
4c
b4
c3
6b
e6
4f
fb
f1
0d
ed
1f
c8
01
e5
fe
8b
2c
ff
0e
39
e2
da
cd
52
d6
82
87
4c
b4
c3
6b
e6
4f
fb
f1
0d
ed
1f
c8
01
e5
fe
8b
2c
ff
0e
39
e2
da
cd
52
d6
82
87
4c
b4
c3
6b
e6
4f
fb
f1
0d
ed
1f
c8
01
e5
fe
8b
2c
ff
0e
39
e2
da
cd
52
d6
82
87
4c
b4
c3
6b
e6
4f
fb
f1
0d
ed
1f
c8
01
e5
fe
8b
2c
ff
0e
39
e2
da
cd
52
d6
82
87
4c
b4
c3
6b
e6
4f
fb
f1
0d
ed
1f
c8
01
e5
fe
8b
2c
ff
0e
39
e2
da
cd
52
d6
82
87
4c
b4
c3
6b
e6
4f
fb
f1
0d
ed
1f
c8
01
e5
fe
8b
2c
ff
0e
39
e2
da
cd
52
d6
82
87
4c
b4
c3
6b
e6
4f
fb
f1
0d
ed
1f
c8
01
e5
fe
8b
2c
ff
0e
39
e2
da
cd
52
d6
82
87
4c
b4
c3
6b
e6
4f
fb
f1
0d
ed
1f
c8
01
e5
fe
8b
2c
ff
0e
39
e2
da
cd
52
d6
82
87
4c
b4
c3
6b
e6
4f
fb
f1
0d
ed
1f
c8
01
e5
fe
8b
2c
ff
0e
39
e2
da
cd
52
d6
82
87
4c
b4
c3
6b
e6
4f
fb
f1
0d
ed
1f
c8
01
e5
fe
8b
2c
ff
0e
39
e2
da
cd
52
d6
82
87
4c
b4
c3
6b
e6
4f
fb
f1
0d
ed
1f
c8
01
e5
fe
8b
2c
ff
0e
39
e2
da
cd
52
d6
82
87
4c
b4
c3
6b
e6
4f
fb
f1
0d
ed
1f
c8
01
e5
fe
8b
2c
ff
0e
39
e2
da
cd
52
d6
82
87
4c
b4
c3
6b
e6
4f
fb
f1
0d
ed
1f
c8
01
e5
fe
8b
2c
ff
0e
39
e2
da
cd
52
d6
82
87
4c
b4
c3
6b
e6
4f
fb
f1
0d
ed
1f
c8
01
e5
fe
8b
2c
ff
0e
39
e2
da
cd
52
d6
82
87
4c
b4
c3
6b
e6
4f
fb
f1
0d
ed
1f
c8
01
e5
fe
8b
2c
ff
0e
39
e2
da
cd
52
d6
82
87
4c
b4
c3
6b
e6
4f
fb
f1
0d
ed
1f
c8
01
e5
fe
8b
2c
ff
0e
39
e2
da
cd
52
d6
82
87
4c
b4
c3
6b
e6
4f
fb
f1
0d
ed
1f
c8
01
e5
fe
8b
2c
ff
0e
39
e2
da
cd
52
d6
82
87
4c
b4
c3
6b
e6
4f
fb
f1
0d
ed
1f
c8
01
e5
fe
8b
2c
ff
0e
39
e2
da
cd
52
d6
82
87
4c
b4
c3
6b
e6
4f
fb
f1
0d
ed
1f
c8
01
e5
fe
8b
2c
ff
0e
39
e2
da
cd
52
d6
82
87
4c
b4
c3
6b
e6
4f
fb
f1
0d
ed
1f
c8
01
e5
fe
8b
2c
ff
0e
39
e2
da
cd
52
d6
82
87
4c
b4
c3
6b
e6
4f
fb
f1
0d
ed
1f
c8
01
e5
fe
8b
2c
ff
0e
39
e2
da
cd
52
d6
82
87
4c
b4
c3
6b
e6
4f
fb
f1
0d
ed
1f
c8
01
e5
fe
8b
2c
ff
0e
39
e2
da
cd
52
d6
82
87
4c
b4
c3
6b
e6
4f
fb
f1
0d
ed
1f
c8
01
e5
fe
8b
2c
ff
0e
39
e2
da
cd
52
d6
82
87
4c
b4
c3
6b
e6
4f
fb
f1
0d
ed
1f
c8
01
e5
fe
8b
2c
ff
0e
39
e2
da
cd
52
d6
82
87
4c
b4
c3
6b
e6
4f
fb
f1
0d
ed
1f
c8
01
e5
fe
8b
2c
ff
0e
39
e2
da
cd
52
d6
82
87
4c
b4
c3
6b
e6
4f
fb
f1
0d
ed
1f
c8
01
e5
fe
8b
2c
ff
0e
39
e2
da
cd
52
d6
82
87
4c
b4
c3
6b
e6
4f
fb
f1
0d
ed
1f
c8
01
e5
fe
8b
2c
ff
0e
39
e2
da
cd
52
d6
82
87
4c
b4
c3
6b
e6
4f
fb
f1
0d
ed
1f
c8
01
e5
fe
8b
2c
ff
0e
39
e2
da
cd
52
d6
82
87
4c
b4
c3
6b
e6
4f
fb
f1
0d
ed
1f
c8
01
e5
fe
8b
2c
ff
0e
39
e2
da
cd
52
d6
82
87
4c
b4
c3
6b
e6
4f
fb
f1
0d
ed
1f
c8
01
e5
fe
8b
2c
ff
0e
39
e2
da
cd
52
d6
82
87
4c
b4
c3
6b
e6
4f
fb
f1
0d
ed
1f
c8
01
e5
fe
8b
2c
ff
0e
39
e2
da
cd
52
d6
82
87
4c
b4
c3
6b
e6
4f
fb
f1
0d
ed
1f
c8
01
e5
fe
8b
2c
ff
0e
39
e2
da
cd
52
d6
82
87
4c
b4
c3
6b
e6
4f
fb
f1
0d
ed
1f
c8
01
e5
fe
8b
2c
ff
0e
39
e2
da
cd
52
d6
82
87
4c
b4
c3
6b
e6
4f
fb
f1
0d
ed
1f
c8
01
e5
fe
8b
2c
ff
0e
39
e2
da
cd
52
d6
82
87
4c
b4
c3
6b
e6
4f
fb
f1
0d
ed
1f
c8
01
e5
fe
8b
2c
ff
0e
39
e2
da
cd
52
d6
82
87
4c
b4
c3
6b
e6
4f
fb
f1
0d
ed
1f
c8
01
e5
fe
8b
2c
ff
0e
39
e2
da
cd
52
d6
82
87
4c
b4
c3
6b
e6
4f
fb
f1
0d
ed
1f
c8
01
e5
fe
8b
2c
ff
0e
39
e2
da
cd
52
d6
82
87
4c
b4
c3
6b
e6
4f
fb
f1
0d
ed
1f
c8
01
e5
fe
8b
2c
ff
0e
39
e2
da
cd
52
d6
82
87
4c
b4
c3
6b
e6
4f
fb
f1
0d
ed
1f
c8
01
e5
fe
8b
2c
ff
0e
39
e2
da
cd
52
d6
82
87
4c
b4
c3
6b
e6
4f
fb
f1
0d
ed
1f
c8
01
e5
fe
8b
2c
ff
0e
39
e2
da
cd
52
d6
82
87
4c
b4
c3
6b
e6
4f
fb
f1
0d
ed
1f
c8
01
e5
fe
8b
2c
ff
0e
39
e2
da
cd
52
d6
82
87
4c
b4
c3
6b
e6
4f
fb
f1
0d
ed
1f
c8
01
e5
fe
8b
2c
ff
0e
39
e2
da
cd
52
d6
82
87
4c
b4
c3
6b
e6
4f
fb
f1
0d
ed
1f
c8
01
e5
fe
8b
2c
ff
0e
39
e2
da
cd
52
d6
82
87
4c
b4
c3
6b
e6
4f
fb
f1
0d
ed
1f
c8
01
e5
fe
8b
2c
ff
0e
39
e2
da
cd
52
d6
82
87
4c
b4
c3
6b
e6
4f
fb
f1
0d
ed
1f
c8
01
e5
fe
8b
2c
ff
0e
39
e2
da
cd
52
d6
82
87
4c
b4
c3
6b
e6
4f
fb
f1
0d
ed
1f
c8
01
e5
fe
8b
2c
ff
0e
39
e2
da
cd
52
d6
82
87
4c
b4
c3
6b
e6
4f
fb
f1
0d
ed
1f
c8
01
e5
fe
8b
2c
ff
0e
39
e2
da
cd
52
d6
82
87
4c
b4
c3
6b
e6
4f
fb
f1
0d
ed
1f
c8
01
e5
fe
8b
2c
ff
0e
39
e2
da
cd
52
d6
82
87
4c
b4
c3
6b
e6
4f
fb
f1
0d
ed
1f
c8
01
e5
fe
8b
2c
ff
0e
39
e2
da
cd
52
d6
82
87
4c
b4
c3
6b
e6
4f
fb
f1
0d
ed
1f
c8
01
e5
fe
8b
2c
ff
0e
39
e2
da
cd
52
d6
82
87
4c
b4
c3
6b
e6
4f
fb
f1
0d
ed
1f
c8
01
e5
fe
8b
2c
ff
0e
39
e2
da
cd
52
d6
82
87
4c
b4
c3
6b
e6
4f
fb
f1
0d
ed
1f
c8
01
e5
fe
8b
2c
ff
0e
39
e2
da
cd
52
d6
82
87
4c
b4
c3
6b
e6
4f
fb
f1
0d
ed
1f
c8
01
e5
fe
8b
2c
ff
0e
39
e2
da
cd
52
d6
82
87
4c
b4
c3
6b
e6
4f
fb
f1
0d
ed
1f
c8
01
e5
fe
8b
2c
ff
0e
39
e2
da
cd
52
d6
82
87
4c
b4
c3
6b
e6
4f
fb
f1
0d
ed
1f
c8
01
e5
fe
8b
2c
ff
0e
39
e2
da
cd
52
d6
82
87
4c
b4
c3
6b
e6
4f
fb
f1
0d
ed
1f
c8
01
e5
fe
8b
2c
ff
0e
39
e2
da
cd
52
d6
82
87
4c
b4
c3
6b
e6
4f
fb
f1
0d
ed
1f
c8
01
e5
fe
8b
2c
ff
0e
39
e2
da
cd
52
d6
82
87
4c
b4
c3
6b
e6
4f
fb
f1
0d
ed
1f
c8
01
e5
fe
8b
2c
ff
0e
39
e2
da
cd
52
d6
82
87
4c
b4
c3
6b
e6
4f
fb
f1
0d
ed
1f
c8
01
e5
fe
8b
2c
ff
0e
39
e2
da
cd
52
d6
82
87
4c
b4
c3
6b
e6
4f
fb
f1
0d
ed
1f
c8
01
e5
fe
8b
2c
ff
0e
39
e2
da
cd
52
d6
82
87
4c
b4
c3
6b
e6
4f
fb
f1
0d
ed
1f
c8
01
e5
fe
8b
2c
ff
0e
39
e2
da
cd
52
d6
82
87
4c
b4
c3
6b
e6
4f
fb
f1
0d
ed
1f
c8
01
e5
fe
8b
2c
ff
0e
39
e2
da
cd
52
d6
82
87
4c
b4
c3
6b
e6
4f
fb
f1
0d
ed
1f
c8
01
e5
fe
8b
2c
ff
0e
39
e2
da
cd
52
d6
82
87
4c
b4
c3
6b
e6
4f
fb
f1
0d
ed
1f
c8
01
e5
fe
8b
2c
ff
0e
39
e2
da
cd
52
d6
82
87
4c
b4
c3
6b
e6
4f
fb
f1
0d
ed
1f
c8
01
e5
fe
8b
2c
ff
0e
39
e2
da
cd
52
d6
82
87
4c
b4
c3
6b
e6
4f
fb
f1
0d
ed
1f
c8
01
e5
fe
8b
2c
ff
0e
39
e2
da
cd
52
d6
82
87
4c
b4
c3
6b
e6
4f
fb
f1
0d
ed
1f
c8
01
e5
fe
8b
2c
ff
0e
39
e2
da
cd
52
d6
82
87
4c
b4
c3
6b
e6
4f
fb
f1
0d
ed
1f
c8
01
e5
fe
8b
2c
ff
0e
39
e2
da
cd
52
d6
82
87
4c
b4
c3
6b
e6
4f
fb
f1
0d
ed
1f
c8
01
e5
fe
8b
2c
ff
0e
39
e2
da
cd
52
d6
82
87
4c
b4
c3
6b
e6
4f
fb
f1
0d
ed
1f
c8
01
e5
fe
8b
2c
ff
0e
39
e2
da
cd
52
d6
82
87
4c
b4
c3
6b
e6
4f
fb
f1
0d
ed
1f
c8
01
e5
fe
8b
2c
ff
0e
39
e2
da
cd
52
d6
82
87
4c
b4
c3
6b
e6
4f
fb
f1
0d
ed
1f
c8
01
e5
fe
8b
2c
ff
0e
39
e2
da
cd
52
d6
82
87
4c
b4
c3
6b
e6
4f
fb
f1
0d
ed
1f
c8
01
e5
fe
8b
2c
ff
0e
39
e2
da
cd
52
d6
82
87
4c
b4
c3
6b
e6
4f
fb
f1
0d
ed
1f
c8
01
e5
fe
8b
2c
ff
0e
39
e2
da
cd
52
d6
82
87
4c
b4
c3
6b
e6
4f
fb
f1
0d
ed
1f
c8
01
e5
fe
8b
2c
ff
0e
39
e2
da
cd
52
d6
82
87
4c
b4
c3
6b
e6
4f
fb
f1
0d
ed
1f
c8
01
e5
fe
8b
2c
ff
0e
39
e2
da
cd
52
d6
82
87
4c
b4
c3
6b
e6
4f
fb
f1
0d
ed
1f
c8
01
e5
fe
8b
2c
ff
0e
39
e2
da
cd
52
d6
82
87
4c
b4
c3
6b
e6
4f
fb
f1
0d
ed
1f
c8
01
e5
fe
8b
2c
ff
0e
39
e2
da
cd
52
d6
82
87
4c
b4
c3
6b
e6
4f
fb
f1
0d
ed
1f
c8
01
e5
fe
8b
2c
ff
0e
39
e2
da
cd
52
d6
82
87
4c
b4
c3
6b
e6
4f
fb
f1
0d
ed
1f
c8
01
e5
fe
8b
2c
ff
0e
39
e2
da
cd
52
d6
82
87
4c
b4
c3
6b
e6
4f
fb
f1
0d
ed
1f
c8
01
e5
fe
8b
2c
ff
0e
39
e2
da
cd
52
d6
82
87
4c
b4
c3
6b
e6
4f
fb
f1
0d
ed
1f
c8
01
e5
fe
8b
2c
ff
0e
39
e2
da
cd
52
d6
82
87
4c
b4
c3
6b
e6
4f
fb
f1
0d
ed
1f
c8
01
e5
fe
8b
2c
ff
0e
39
e2
da
cd
52
d6
82
87
4c
b4
c3
6b
e6
4f
fb
f1
0d
ed
1f
c8
01
e5
fe
8b
2c
ff
0e
39
e2
da
cd
52
d6
82
87
4c
b4
c3
6b
e6
4f
fb
f1
0d
ed
1f
c8
01
e5
fe
8b
2c
ff
0e
39
e2
da
cd
52
d6
82
87
4c
b4
c3
6b
e6
4f
fb
f1
0d
ed
1f
c8
01
e5
fe
8b
2c
ff
0e
39
e2
da
cd
52
d6
82
87
4c
b4
c3
6b
e6
4f
fb
f1
0d
ed
1f
c8
01
e5
fe
8b
2c
ff
0e
39
e2
da
cd
52
d6
82
87
4c
b4
c3
6b
e6
4f
fb
f1
0d
ed
1f
c8
01
e5
fe
8b
2c
ff
0e
39
e2
da
cd
52
d6
82
87
4c
b4
c3
6b
e6
4f
fb
f1
0d
ed
1f
c8
01
e5
fe
8b
2c
ff
0e
39
e2
da
cd
52
d6
82
87
4c
b4
c3
6b
e6
4f
fb
f1
0d
ed
1f
c8
01
e5
fe
8b
2c
ff
0e
39
e2
da
cd
52
d6
82
87
4c
b4
c3
6b
e6
4f
fb
f1
0d
ed
1f
c8
01
e5
fe
8b
2c
ff
0e
39
e2
da
cd
52
d6
82
87
4c
b4
c3
6b
e6
4f
fb
f1
0d
ed
1f
c8
01
e5
fe
8b
2c
ff
0e
39
e2
da
cd
52
d6
82
87
4c
b4
c3
6b
e6
4f
fb
f1
0d
ed
1f
c8
01
e5
fe
8b
2c
ff
0e
39
e2
da
cd
52
d6
82
87
4c
b4
c3
6b
e6
4f
fb
f1
0d
ed
1f
c8
01
e5
fe
8b
2c
ff
0e
39
e2
da
cd
52
d6
82
87
4c
b4
c3
6b
e6
4f
fb
f1
0d
ed
1f
c8
01
e5
fe
8b
2c
ff
0e
39
e2
da
cd
52
d6
82
87
4c
b4
c3
6b
e6
4f
fb
f1
0d
ed
1f
c8
01
e5
fe
8b
2c
ff
0e
39
e2
da
cd
52
d6
82
87
4c
b4
c3
6b
e6
4f
fb
f1
0d
ed
1f
c8
01
e5
fe
8b
2c
ff
0e
39
e2
da
cd
52
d6
82
87
4c
b4
c3
6b
e6
4f
fb
f1
0d
ed
1f
c8
01
e5
fe
8b
2c
ff
0e
39
e2
da
cd
52
d6
82
87
4c
b4
c3
6b
e6
4f
fb
f1
0d
ed
1f
c8
01
e5
fe
8b
2c
ff
0e
39
e2
da
cd
52
d6
82
87
4c
b4
c3
6b
e6
4f
fb
f1
0d
ed
1f
c8
01
e5
fe
8b
2c
ff
0e
39
e2
da
cd
52
d6
82
87
4c
b4
c3
6b
e6
4f
fb
f1
0d
ed
1f
c8
01
e5
fe
8b
2c
ff
0e
39
e2
da
cd
52
d6
82
87
4c
b4
c3
6b
e6
4f
fb
f1
0d
ed
1f
c8
01
e5
fe
8b
2c
ff
0e
39
e2
da
cd
52
d6
82
87
4c
b4
c3
6b
e6
4f
fb
f1
0d
ed
1f
c8
01
e5
fe
8b
2c
ff
0e
39
e2
da
cd
52
d6
82
87
4c
b4
c3
6b
e6
4f
fb
f1
0d
ed
1f
c8
01
e5
fe
8b
2c
ff
0e
39
e2
da
cd
52
d6
82
87
4c
b4
c3
6b
e6
4f
fb
f1
0d
ed
1f
c8
01
e5
fe
8b
2c
ff
0e
39
e2
da
cd
52
d6
82
87
4c
b4
c3
6b
e6
4f
fb
f1
0d
ed
1f
c8
01
e5
fe
8b
2c
ff
0e
39
e2
da
cd
52
d6
82
87
4c
b4
c3
6b
e6
4f
fb
f1
0d
ed
1f
c8
01
e5
fe
8b
2c
ff
0e
39
e2
da
cd
52
d6
82
87
4c
b4
c3
6b
e6
4f
fb
f1
0d
ed
1f
c8
01
e5
fe
8b
2c
ff
0e
39
e2
da
cd
52
d6
82
87
4c
b4
c3
6b
e6
4f
fb
f1
0d
ed
1f
c8
01
e5
fe
8b
2c
ff
0e
39
e2
da
cd
52
d6
82
87
4c
b4
c3
6b
e6
4f
fb
f1
0d
ed
1f
c8
01
e5
fe
8b
2c
ff
0e
39
e2
da
cd
52
d6
82
87
4c
b4
c3
6b
e6
4f
fb
f1
0d
ed
1f
c8
01
e5
fe
8b
2c
ff
0e
39
e2
da
cd
52
d6
82
87
4c
b4
c3
6b
e6
4f
fb
f1
0d
ed
1f
c8
01
e5
fe
8b
2c
ff
0e
39
e2
da
cd
52
d6
82
87
4c
b4
c3
6b
e6
4f
fb
f1
0d
ed
1f
c8
01
e5
fe
8b
2c
ff
0e
39
e2
da
cd
52
d6
82
87
4c
b4
c3
6b
e6
4f
fb
f1
0d
ed
1f
c8
01
e5
fe
8b
2c
ff
0e
39
e2
da
cd
52
d6
82
87
4c
b4
c3
6b
e6
4f
fb
f1
0d
ed
1f
c8
01
e5
fe
8b
2c
ff
0e
39
e2
da
cd
52
d6
82
87
4c
b4
c3
6b
e6
4f
fb
f1
0d
ed
1f
c8
01
e5
fe
8b
2c
ff
0e
39
e2
da
cd
52
d6
82
87
4c
b4
c3
6b
e6
4f
fb
f1
0d
ed
1f
c8
01
e5
fe
8b
2c
ff
0e
39
e2
da
cd
52
d6
82
87
4c
b4
c3
6b
e6
4f
fb
f1
0d
ed
1f
c8
01
e5
fe
8b
2c
ff
0e
39
e2
da
cd
52
d6
82
87
4c
b4
c3
6b
e6
4f
fb
f1
0d
ed
1f
c8
01
e5
fe
8b
2c
ff
0e
39
e2
da
cd
52
d6
82
87
4c
b4
c3
6b
e6
4f
fb
f1
0d
ed
1f
c8
01
e5
fe
8b
2c
ff
0e
39
e2
da
cd
52
d6
82
87
4c
b4
c3
6b
e6
4f
fb
f1
0d
ed
1f
c8
01
e5
fe
8b
2c
ff
0e
39
e2
da
cd
52
d6
82
87
4c
b4
c3
6b
e6
4f
fb
f1
0d
ed
1f
c8
01
e5
fe
8b
2c
ff
0e
39
e2
da
cd
52
d6
82
87
4c
b4
c3
6b
e6
4f
fb
f1
0d
ed
1f
c8
01
e5
fe
8b
2c
ff
0e
39
e2
da
cd
52
d6
82
87
4c
b4
c3
6b
e6
4f
fb
f1
0d
ed
1f
c8
01
e5
fe
8b
2c
ff
0e
39
e2
da
cd
52
d6
82
87
4c
b4
c3
6b
e6
4f
fb
f1
0d
ed
1f
c8
01
e5
fe
8b
2c
ff
0e
39
e2
da
cd
52
d6
82
87
4c
b4
c3
6b
e6
4f
fb
f1
0d
ed
1f
c8
01
e5
fe
8b
2c
ff
0e
39
e2
da
cd
52
d6
82
87
4c
b4
c3
6b
e6
4f
fb
f1
0d
ed
1f
c8
01
e5
fe
8b
2c
ff
0e
39
e2
da
cd
52
d6
82
87
4c
b4
c3
6b
e6
4f
fb
f1
0d
ed
1f
c8
01
e5
fe
8b
2c
ff
0e
39
e2
da
cd
52
d6
82
87
4c
b4
c3
6b
e6
4f
fb
f1
0d
ed
1f
c8
01
e5
fe
8b
2c
ff
0e
39
e2
da
cd
52
d6
82
87
4c
b4
c3
6b
e6
4f
fb
f1
0d
ed
1f
c8
01
e5
fe
8b
2c
ff
0e
39
e2
da
cd
52
d6
82
87
4c
b4
c3
6b
e6
4f
fb
f1
0d
ed
1f
c8
01
e5
fe
8b
2c
ff
0e
39
e2
da
cd
52
d6
82
87
4c
b4
c3
6b
e6
4f
fb
f1
0d
ed
1f
c8
01
e5
fe
8b
2c
ff
0e
39
e2
da
cd
52
d6
82
87
4c
b4
c3
6b
e6
4f
fb
f1
0d
ed
1f
c8
01
e5
fe
8b
2c
ff
0e
39
e2
da
cd
52
d6
82
87
4c
b4
c3
6b
e6
4f
fb
f1
0d
ed
1f
c8
01
e5
fe
8b
2c
ff
0e
39
e2
da
cd
52
d6
82
87
4c
b4
c3
6b
e6
4f
fb
f1
0d
ed
1f
c8
01
e5
fe
8b
2c
ff
0e
39
e2
da
cd
52
d6
82
87
4c
b4
c3
6b
e6
4f
fb
f1
0d
ed
1f
c8
01
e5
fe
8b
2c
ff
0e
39
e2
da
cd
52
d6
82
87
4c
b4
c3
6b
e6
4f
fb
f1
0d
ed
1f
c8
01
e5
fe
8b
2c
ff
0e
39
e2
da
cd
52
d6
82
87
4c
b4
c3
6b
e6
4f
fb
f1
0d
ed
1f
c8
01
e5
fe
8b
2c
ff
0e
39
e2
da
cd
52
d6
82
87
4c
b4
c3
6b
e6
4f
fb
f1
0d
ed
1f
c8
01
e5
fe
8b
2c
ff
0e
39
e2
da
cd
52
d6
82
87
4c
b4
c3
6b
e6
4f
fb
f1
0d
ed
1f
c8
01
e5
fe
8b
2c
ff
0e
39
e2
da
cd
52
d6
82
87
4c
b4
c3
6b
e6
4f
fb
f1
0d
ed
1f
c8
01
e5
fe
8b
2c
ff
0e
39
e2
da
cd
52
d6
82
87
4c
b4
c3
6b
e6
4f
fb
f1
0d
ed
1f
c8
01
e5
fe
8b
2c
ff
0e
39
e2
da
cd
52
d6
82
87
4c
b4
c3
6b
e6
4f
fb
f1
0d
ed
1f
c8
01
e5
fe
8b
2c
ff
0e
39
e2
da
cd
52
d6
82
87
4c
b4
c3
6b
e6
4f
fb
f1
0d
ed
1f
c8
01
e5
fe
8b
2c
ff
0e
39
e2
da
cd
52
d6
82
87
4c
b4
c3
6b
e6
4f
fb
f1
0d
ed
1f
c8
01
e5
fe
8b
2c
ff
0e
39
e2
da
cd
52
d6
82
87
4c
b4
c3
6b
e6
4f
fb
f1
0d
ed
1f
c8
01
e5
fe
8b
2c
ff
0e
39
e2
da
cd
52
d6
82
87
4c
b4
c3
6b
e6
4f
fb
f1
0d
ed
1f
c8
01
e5
fe
8b
2c
ff
0e
39
e2
da
cd
52
d6
82
87
4c
b4
c3
6b
e6
4f
fb
f1
0d
ed
1f
c8
01
e5
fe
8b
2c
ff
0e
39
e2
da
cd
52
d6
82
87
4c
b4
c3
6b
e6
4f
fb
f1
0d
ed
1f
c8
01
e5
fe
8b
2c
ff
0e
39
e2
da
cd
52
d6
82
87
4c
b4
c3
6b
e6
4f
fb
f1
0d
ed
1f
c8
01
e5
fe
8b
2c
ff
0e
39
e2
da
cd
52
d6
82
87
4c
b4
c3
6b
e6
4f
fb
f1
0d
ed
1f
c8
01
e5
fe
8b
2c
ff
0e
39
e2
da
cd
52
d6
82
87
4c
b4
c3
6b
e6
4f
fb
f1
0d
ed
1f
c8
01
e5
fe
8b
2c
ff
0e
39
e2
da
cd
52
d6
82
87
4c
b4
c3
6b
e6
4f
fb
f1
0d
ed
1f
c8
01
e5
fe
8b
2c
ff
0e
39
e2
da
cd
52
d6
82
87
4c
b4
c3
6b
e6
4f
fb
f1
0d
ed
1f
c8
01
e5
fe
8b
2c
ff
0e
39
e2
da
cd
52
d6
82
87
4c
b4
c3
6b
e6
4f
fb
f1
0d
ed
1f
c8
01
e5
fe
8b
2c
ff
0e
39
e2
da
cd
52
d6
82
87
4c
b4
c3
6b
e6
4f
fb
f1
0d
ed
1f
c8
01
e5
fe
8b
2c
ff
0e
39
e2
da
cd
52
d6
82
87
4c
b4
c3
6b
e6
4f
fb
f1
0d
ed
1f
c8
01
e5
fe
8b
2c
ff
0e
39
e2
da
cd
52
d6
82
87
4c
b4
c3
6b
e6
4f
fb
f1
0d
ed
1f
c8
01
e5
fe
8b
2c
ff
0e
39
e2
da
cd
52
d6
82
87
4c
b4
c3
6b
e6
4f
fb
f1
0d
ed
1f
c8
01
e5
fe
8b
2c
ff
0e
39
e2
da
cd
52
d6
82
87
4c
b4
c3
6b
e6
4f
fb
f1
0d
ed
1f
c8
01
e5
fe
8b
2c
ff
0e
39
e2
da
cd
52
d6
82
87
4c
b4
c3
6b
e6
4f
fb
f1
0d
ed
1f
c8
01
e5
fe
8b
2c
ff
0e
39
e2
da
cd
52
d6
82
87
4c
b4
c3
6b
e6
4f
fb
f1
0d
ed
1f
c8
01
e5
fe
8b
2c
ff
0e
39
e2
da
cd
52
d6
82
87
4c
b4
c3
6b
e6
4f
fb
f1
0d
ed
1f
c8
01
e5
fe
8b
2c
ff
0e
39
e2
da
cd
52
d6
82
87
4c
b4
c3
6b
e6
4f
fb
f1
0d
ed
1f
c8
01
e5
fe
8b
2c
ff
0e
39
e2
da
cd
52
d6
82
87
4c
b4
c3
6b
e6
4f
fb
f1
0d
ed
1f
c8
01
e5
fe
8b
2c
ff
0e
39
e2
da
cd
52
d6
82
87
4c
b4
c3
6b
e6
4f
fb
f1
0d
ed
1f
c8
01
e5
fe
8b
2c
ff
0e
39
e2
da
cd
52
d6
82
87
4c
b4
c3
6b
e6
4f
fb
f1
0d
ed
1f
c8
01
e5
fe
8b
2c
ff
0e
39
e2
da
cd
52
d6
82
87
4c
b4
c3
6b
e6
4f
fb
f1
0d
ed
1f
c8
01
e5
fe
8b
2c
ff
0e
39
e2
da
cd
52
d6
82
87
4c
b4
c3
6b
e6
4f
fb
f1
0d
ed
1f
c8
01
e5
fe
8b
2c
ff
0e
39
e2
da
cd
52
d6
82
87
4c
b4
c3
6b
e6
4f
fb
f1
0d
ed
1f
c8
01
e5
fe
8b
2c
ff
0e
39
e2
da
cd
52
d6
82
87
4c
b4
c3
6b
e6
4f
fb
f1
0d
ed
1f
c8
01
e5
fe
8b
2c
ff
0e
39
e2
da
cd
52
d6
82
87
4c
b4
c3
6b
e6
4f
fb
f1
0d
ed
1f
c8
01
e5
fe
8b
2c
ff
0e
39
e2
da
cd
52
d6
82
87
4c
b4
c3
6b
e6
4f
fb
f1
0d
ed
1f
c8
01
e5
fe
8b
2c
ff
0e
39
e2
da
cd
52
d6
82
87
4c
b4
c3
6b
e6
4f
fb
f1
0d
ed
1f
c8
01
e5
fe
8b
2c
ff
0e
39
e2
da
cd
52
d6
82
87
4c
b4
c3
6b
e6
4f
fb
f1
0d
ed
1f
c8
01
e5
fe
8b
2c
ff
0e
39
e2
da
cd
52
d6
82
87
4c
b4
c3
6b
e6
4f
fb
f1
0d
ed
1f
c8
01
e5
fe
8b
2c
ff
0e
39
e2
da
cd
52
d6
82
87
4c
b4
c3
6b
e6
4f
fb
f1
0d
ed
1f
c8
01
e5
fe
8b
2c
ff
0e
39
e2
da
cd
52
d6
82
87
4c
b4
c3
6b
e6
4f
fb
f1
0d
ed
1f
c8
01
e5
fe
8b
2c
ff
0e
39
e2
da
cd
52
d6
82
87
4c
b4
c3
6b
e6
4f
fb
f1
0d
ed
1f
c8
01
e5
fe
8b
2c
ff
0e
39
e2
da
cd
52
d6
82
87
4c
b4
c3
6b
e6
4f
fb
f1
0d
ed
1f
c8
01
e5
fe
8b
2c
ff
0e
39
e2
da
cd
52
d6
82
87
4c
b4
c3
6b
e6
4f
fb
f1
0d
ed
1f
c8
01
e5
fe
8b
2c
ff
0e
39
e2
da
cd
52
d6
82
87
4c
b4
c3
6b
e6
4f
fb
f1
0d
ed
1f
c8
01
e5
fe
8b
2c
ff
0e
39
e2
da
cd
52
d6
82
87
4c
b4
c3
6b
e6
4f
fb
f1
0d
ed
1f
c8
01
e5
fe
8b
2c
ff
0e
39
e2
da
cd
52
d6
82
87
4c
b4
c3
6b
e6
4f
fb
f1
0d
ed
1f
c8
01
e5
fe
8b
2c
ff
0e
39
e2
da
cd
52
d6
82
87
4c
b4
c3
6b
e6
4f
fb
f1
0d
ed
1f
c8
01
e5
fe
8b
2c
ff
0e
39
e2
da
cd
52
d6
82
87
4c
b4
c3
6b
e6
4f
fb
f1
0d
ed
1f
c8
01
e5
fe
8b
2c
ff
0e
39
e2
da
cd
52
d6
82
87
4c
b4
c3
6b
e6
4f
fb
f1
0d
ed
1f
c8
01
e5
fe
8b
2c
ff
0e
39
e2
da
cd
52
d6
82
87
4c
b4
c3
6b
e6
4f
fb
f1
0d
ed
1f
c8
01
e5
fe
8b
2c
ff
0e
39
e2
da
cd
52
d6
82
87
4c
b4
c3
6b
e6
4f
fb
f1
0d
ed
1f
c8
01
e5
fe
8b
2c
ff
0e
39
e2
da
cd
52
d6
82
87
4c
b4
c3
6b
e6
4f
fb
f1
0d
ed
1f
c8
01
e5
fe
8b
2c
ff
0e
39
e2
da
cd
52
d6
82
87
4c
b4
c3
6b
e6
4f
fb
f1
0d
ed
1f
c8
01
e5
fe
8b
2c
ff
0e
39
e2
da
cd
52
d6
82
87
4c
b4
c3
6b
e6
4f
fb
f1
0d
ed
1f
c8
01
e5
fe
8b
2c
ff
0e
39
e2
da
cd
52
d6
82
87
4c
b4
c3
6b
e6
4f
fb
f1
0d
ed
1f
c8
01
e5
fe
8b
2c
ff
0e
39
e2
da
cd
52
d6
82
87
4c
b4
c3
6b
e6
4f
fb
f1
0d
ed
1f
c8
01
e5
fe
8b
2c
ff
0e
39
e2
da
cd
52
d6
82
87
4c
b4
c3
6b
e6
4f
fb
f1
0d
ed
1f
c8
01
e5
fe
8b
2c
ff
0e
39
e2
da
cd
52
d6
82
87
4c
b4
c3
6b
e6
4f
fb
f1
0d
ed
1f
c8
01
e5
fe
8b
2c
ff
0e
39
e2
da
cd
52
d6
82
87
4c
b4
c3
6b
e6
4f
fb
f1
0d
ed
1f
c8
01
e5
fe
8b
2c
ff
0e
39
e2
da
cd
52
d6
82
87
4c
b4
c3
6b
e6
4f
fb
f1
0d
ed
1f
c8
01
e5
fe
8b
2c
ff
0e
39
e2
da
cd
52
d6
82
87
4c
b4
c3
6b
e6
4f
fb
f1
0d
ed
1f
c8
01
e5
fe
8b
2c
ff
0e
39
e2
da
cd
52
d6
82
87
4c
b4
c3
6b
e6
4f
fb
f1
0d
ed
1f
c8
01
e5
fe
8b
2c
ff
0e
39
e2
da
cd
52
d6
82
87
4c
b4
c3
6b
e6
4f
fb
f1
0d
ed
1f
c8
01
e5
fe
8b
2c
ff
0e
39
e2
da
cd
52
d6
82
87
4c
b4
c3
6b
e6
4f
fb
f1
0d
ed
1f
c8
01
e5
fe
8b
2c
ff
0e
39
e2
da
cd
52
d6
82
87
4c
b4
c3
6b
e6
4f
fb
f1
0d
ed
1f
c8
01
e5
fe
8b
2c
ff
0e
39
e2
da
cd
52
d6
82
87
4c
b4
c3
6b
e6
4f
fb
f1
0d
ed
1f
c8
01
e5
fe
8b
2c
ff
0e
39
e2
da
cd
52
d6
82
87
4c
b4
c3
6b
e6
4f
fb
f1
0d
ed
1f
c8
01
e5
fe
8b
2c
ff
0e
39
e2
da
cd
52
d6
82
87
4c
b4
c3
6b
e6
4f
fb
f1
0d
ed
1f
c8
01
e5
fe
8b
2c
ff
0e
39
e2
da
cd
52
d6
82
87
4c
b4
c3
6b
e6
4f
fb
f1
0d
ed
1f
c8
01
e5
fe
8b
2c
ff
0e
39
e2
da
cd
52
d6
82
87
4c
b4
c3
6b
e6
4f
fb
f1
0d
ed
1f
c8
01
e5
fe
8b
2c
ff
0e
39
e2
da
cd
52
d6
82
87
4c
b4
c3
6b
e6
4f
fb
f1
0d
ed
1f
c8
01
e5
fe
8b
2c
ff
0e
39
e2
da
cd
52
d6
82
87
4c
b4
c3
6b
e6
4f
fb
f1
0d
ed
1f
c8
01
e5
fe
8b
2c
ff
0e
39
e2
da
cd
52
d6
82
87
4c
b4
c3
6b
e6
4f
fb
f1
0d
ed
1f
c8
01
e5
fe
8b
2c
ff
0e
39
e2
da
cd
52
d6
82
87
4c
b4
c3
6b
e6
4f
fb
f1
0d
ed
1f
c8
01
e5
fe
8b
2c
ff
0e
39
e2
da
cd
52
d6
82
87
4c
b4
c3
6b
e6
4f
fb
f1
0d
ed
1f
c8
01
e5
fe
8b
2c
ff
0e
39
e2
da
cd
52
d6
82
87
4c
b4
c3
6b
e6
4f
fb
f1
0d
ed
1f
c8
01
e5
fe
8b
2c
ff
0e
39
e2
da
cd
52
d6
82
87
4c
b4
c3
6b
e6
4f
fb
f1
0d
ed
1f
c8
01
e5
fe
8b
2c
ff
0e
39
e2
da
cd
52
d6
82
87
4c
b4
c3
6b
e6
4f
fb
f1
0d
ed
1f
c8
01
e5
fe
8b
2c
ff
0e
39
e2
da
cd
52
d6
82
87
4c
b4
c3
6b
e6
4f
fb
f1
0d
ed
1f
c8
01
e5
fe
8b
2c
ff
0e
39
e2
da
cd
52
d6
82
87
4c
b4
c3
6b
e6
4f
fb
f1
0d
ed
1f
c8
01
e5
fe
8b
2c
ff
0e
39
e2
da
cd
52
d6
82
87
4c
b4
c3
6b
e6
4f
fb
f1
0d
ed
1f
c8
01
e5
fe
8b
2c
ff
0e
39
e2
da
cd
52
d6
82
87
4c
b4
c3
6b
e6
4f
fb
f1
0d
ed
1f
c8
01
e5
fe
8b
2c
ff
0e
39
e2
da
cd
52
d6
82
87
4c
b4
c3
6b
e6
4f
fb
f1
0d
ed
1f
c8
01
e5
fe
8b
2c
ff
0e
39
e2
da
cd
52
d6
82
87
4c
b4
c3
6b
e6
4f
fb
f1
0d
ed
1f
c8
01
e5
fe
8b
2c
ff
0e
39
e2
da
cd
52
d6
82
87
4c
b4
c3
6b
e6
4f
fb
f1
0d
ed
1f
c8
01
e5
fe
8b
2c
ff
0e
39
e2
da
cd
52
d6
82
87
4c
b4
c3
6b
e6
4f
fb
f1
0d
ed
1f
c8
01
e5
fe
8b
2c
ff
0e
39
e2
da
cd
52
d6
82
87
4c
b4
c3
6b
e6
4f
fb
f1
0d
ed
1f
c8
01
e5
fe
8b
2c
ff
0e
39
e2
da
cd
52
d6
82
87
4c
b4
c3
6b
e6
4f
fb
f1
0d
ed
1f
c8
01
e5
fe
8b
2c
ff
0e
39
e2
da
cd
52
d6
82
87
4c
b4
c3
6b
e6
4f
fb
f1
0d
ed
1f
c8
01
e5
fe
8b
2c
ff
0e
39
e2
da
cd
52
d6
82
87
4c
b4
c3
6b
e6
4f
fb
f1
0d
ed
1f
c8
01
e5
fe
8b
2c
ff
0e
39
e2
da
cd
52
d6
82
87
4c
b4
c3
6b
e6
4f
fb
f1
0d
ed
1f
c8
01
e5
fe
8b
2c
ff
0e
39
e2
da
cd
52
d6
82
87
4c
b4
c3
6b
e6
4f
fb
f1
0d
ed
1f
c8
01
e5
fe
8b
2c
ff
0e
39
e2
da
cd
52
d6
82
87
4c
b4
c3
6b
e6
4f
fb
f1
0d
ed
1f
c8
01
e5
fe
8b
2c
ff
0e
39
e2
da
cd
52
d6
82
87
4c
b4
c3
6b
e6
4f
fb
f1
0d
ed
1f
c8
01
e5
fe
8b
2c
ff
0e
39
e2
da
cd
52
d6
82
87
4c
b4
c3
6b
e6
4f
fb
f1
0d
ed
1f
c8
01
e5
fe
8b
2c
ff
0e
39
e2
da
cd
52
d6
82
87
4c
b4
c3
6b
e6
4f
fb
f1
0d
ed
1f
c8
01
e5
fe
8b
2c
ff
0e
39
e2
da
cd
52
d6
82
87
4c
b4
c3
6b
e6
4f
fb
f1
0d
ed
1f
c8
01
e5
fe
8b
2c
ff
0e
39
e2
da
cd
52
d6
82
87
4c
b4
c3
6b
e6
4f
fb
f1
0d
ed
1f
c8
01
e5
fe
8b
2c
ff
0e
39
e2
da
cd
52
d6
82
87
4c
b4
c3
6b
e6
4f
fb
f1
0d
ed
1f
c8
01
e5
fe
8b
2c
ff
0e
39
e2
da
cd
52
d6
82
87
4c
b4
c3
6b
e6
4f
fb
f1
0d
ed
1f
c8
01
e5
fe
8b
2c
ff
0e
39
e2
da
cd
52
d6
82
87
4c
b4
c3
6b
e6
4f
fb
f1
0d
ed
1f
c8
01
e5
fe
8b
2c
ff
0e
39
e2
da
cd
52
d6
82
87
4c
b4
c3
6b
e6
4f
fb
f1
0d
ed
1f
c8
01
e5
fe
8b
2c
ff
0e
39
e2
da
cd
52
d6
82
87
4c
b4
c3
6b
e6
4f
fb
f1
0d
ed
1f
c8
01
e5
fe
8b
2c
ff
0e
39
e2
da
cd
52
d6
82
87
4c
b4
c3
6b
e6
4f
fb
f1
0d
ed
1f
c8
01
e5
fe
8b
2c
ff
0e
39
e2
da
cd
52
d6
82
87
4c
b4
c3
6b
e6
4f
fb
f1
0d
ed
1f
c8
01
e5
fe
8b
2c
ff
0e
39
e2
da
cd
52
d6
82
87
4c
b4
c3
6b
e6
4f
fb
f1
0d
ed
1f
c8
01
e5
fe
8b
2c
ff
0e
39
e2
da
cd
52
d6
82
87
4c
b4
c3
6b
e6
4f
fb
f1
0d
ed
1f
c8
01
e5
fe
8b
2c
ff
0e
39
e2
da
cd
52
d6
82
87
4c
b4
c3
6b
e6
4f
fb
f1
0d
ed
1f
c8
01
e5
fe
8b
2c
ff
0e
39
e2
da
cd
52
d6
82
87
4c
b4
c3
6b
e6
4f
fb
f1
0d
ed
1f
c8
01
e5
fe
8b
2c
ff
0e
39
e2
da
cd
52
d6
82
87
4c
b4
c3
6b
e6
4f
fb
f1
0d
ed
1f
c8
01
e5
fe
8b
2c
ff
0e
39
e2
da
cd
52
d6
82
87
4c
b4
c3
6b
e6
4f
fb
f1
0d
ed
1f
c8
01
e5
fe
8b
2c
ff
0e
39
e2
da
cd
52
d6
82
87
4c
b4
c3
6b
e6
4f
fb
f1
0d
ed
1f
c8
01
e5
fe
8b
2c
ff
0e
39
e2
da
cd
52
d6
82
87
4c
b4
c3
6b
e6
4f
fb
f1
0d
ed
1f
c8
01
e5
fe
8b
2c
ff
0e
39
e2
da
cd
52
d6
82
87
4c
b4
c3
6b
e6
4f
fb
f1
0d
ed
1f
c8
01
e5
fe
8b
2c
ff
0e
39
e2
da
cd
52
d6
82
87
4c
b4
c3
6b
e6
4f
fb
f1
0d
ed
1f
c8
01
e5
fe
8b
2c
ff
0e
39
e2
da
cd
52
d6
82
87
4c
b4
c3
6b
e6
4f
fb
f1
0d
ed
1f
c8
01
e5
fe
8b
2c
ff
0e
39
e2
da
cd
52
d6
82
87
4c
b4
c3
6b
e6
4f
fb
f1
0d
ed
1f
c8
01
e5
fe
8b
2c
ff
0e
39
e2
da
cd
52
d6
82
87
4c
b4
c3
6b
e6
4f
fb
f1
0d
ed
1f
c8
01
e5
fe
8b
2c
ff
0e
39
e2
da
cd
52
d6
82
87
4c
b4
c3
6b
e6
4f
fb
f1
0d
ed
1f
c8
01
e5
fe
8b
2c
ff
0e
39
e2
da
cd
52
d6
82
87
4c
b4
c3
6b
e6
4f
fb
f1
0d
ed
1f
c8
01
e5
fe
8b
2c
ff
0e
39
e2
da
cd
52
d6
82
87
4c
b4
c3
6b
e6
4f
fb
f1
0d
ed
1f
c8
01
e5
fe
8b
2c
ff
0e
39
e2
da
cd
52
d6
82
87
4c
b4
c3
6b
e6
4f
fb
f1
0d
ed
1f
c8
01
e5
fe
8b
2c
ff
0e
39
e2
da
cd
52
d6
82
87
4c
b4
c3
6b
e6
4f
fb
f1
0d
ed
1f
c8
01
e5
fe
8b
2c
ff
0e
39
e2
da
cd
52
d6
82
87
4c
b4
c3
6b
e6
4f
fb
f1
0d
ed
1f
c8
01
e5
fe
8b
2c
ff
0e
39
e2
da
cd
52
d6
82
87
4c
b4
c3
6b
e6
4f
fb
f1
0d
ed
1f
c8
01
e5
fe
8b
2c
ff
0e
39
e2
da
cd
52
d6
82
87
4c
b4
c3
6b
e6
4f
fb
f1
0d
ed
1f
c8
01
e5
fe
8b
2c
ff
0e
39
e2
da
cd
52
d6
82
87
4c
b4
c3
6b
e6
4f
fb
f1
0d
ed
1f
c8
01
e5
fe
8b
2c
ff
0e
39
e2
da
cd
52
d6
82
87
4c
b4
c3
6b
e6
4f
fb
f1
0d
ed
1f
c8
01
e5
fe
8b
2c
ff
0e
39
e2
da
cd
52
d6
82
87
4c
b4
c3
6b
e6
4f
fb
f1
0d
ed
1f
c8
01
e5
fe
8b
2c
ff
0e
39
e2
da
cd
52
d6
82
87
4c
b4
c3
6b
e6
4f
fb
f1
0d
ed
1f
c8
01
e5
fe
8b
2c
ff
0e
39
e2
da
cd
52
d6
82
87
4c
b4
c3
6b
e6
4f
fb
f1
0d
ed
1f
c8
01
e5
fe
8b
2c
ff
0e
39
e2
da
cd
52
d6
82
87
4c
b4
c3
6b
e6
4f
fb
f1
0d
ed
1f
c8
01
e5
fe
8b
2c
ff
0e
39
e2
da
cd
52
d6
82
87
4c
b4
c3
6b
e6
4f
fb
f1
0d
ed
1f
c8
01
e5
fe
8b
2c
ff
0e
39
e2
da
cd
52
d6
82
87
4c
b4
c3
6b
e6
4f
fb
f1
0d
ed
1f
c8
01
e5
fe
8b
2c
ff
0e
39
e2
da
cd
52
d6
82
87
4c
b4
c3
6b
e6
4f
fb
f1
0d
ed
1f
c8
01
e5
fe
8b
2c
ff
0e
39
e2
da
cd
52
d6
82
87
4c
b4
c3
6b
e6
4f
fb
f1
0d
ed
1f
c8
01
e5
fe
8b
2c
ff
0e
39
e2
da
cd
52
d6
82
87
4c
b4
c3
6b
e6
4f
fb
f1
0d
ed
1f
c8
01
e5
fe
8b
2c
ff
0e
39
e2
da
cd
52
d6
82
87
4c
b4
c3
6b
e6
4f
fb
f1
0d
ed
1f
c8
01
e5
fe
8b
2c
ff
0e
39
e2
da
cd
52
d6
82
87
4c
b4
c3
6b
e6
4f
fb
f1
0d
ed
1f
c8
01
e5
fe
8b
2c
ff
0e
39
e2
da
cd
52
d6
82
87
4c
b4
c3
6b
e6
4f
fb
f1
0d
ed
1f
c8
01
e5
fe
8b
2c
ff
0e
39
e2
da
cd
52
d6
82
87
4c
b4
c3
6b
e6
4f
fb
f1
0d
ed
1f
c8
01
e5
fe
8b
2c
ff
0e
39
e2
da
cd
52
d6
82
87
4c
b4
c3
6b
e6
4f
fb
f1
0d
ed
1f
c8
01
e5
fe
8b
2c
ff
0e
39
e2
da
cd
52
d6
82
87
4c
b4
c3
6b
e6
4f
fb
f1
0d
ed
1f
c8
01
e5
fe
8b
2c
ff
0e
39
e2
da
cd
52
d6
82
87
4c
b4
c3
6b
e6
4f
fb
f1
0d
ed
1f
c8
01
e5
fe
8b
2c
ff
0e
39
e2
da
cd
52
d6
82
87
4c
b4
c3
6b
e6
4f
fb
f1
0d
ed
1f
c8
01
e5
fe
8b
2c
ff
0e
39
e2
da
cd
52
d6
82
87
4c
b4
c3
6b
e6
4f
fb
f1
0d
ed
1f
c8
01
e5
fe
8b
2c
ff
0e
39
e2
da
cd
52
d6
82
87
4c
b4
c3
6b
e6
4f
fb
f1
0d
ed
1f
c8
01
e5
fe
8b
2c
ff
0e
39
e2
da
cd
52
d6
82
87
4c
b4
c3
6b
e6
4f
fb
f1
0d
ed
1f
c8
01
e5
fe
8b
2c
ff
0e
39
e2
da
cd
52
d6
82
87
4c
b4
c3
6b
e6
4f
fb
f1
0d
ed
1f
c8
01
e5
fe
8b
2c
ff
0e
39
e2
da
cd
52
d6
82
87
4c
b4
c3
6b
e6
4f
fb
f1
0d
ed
1f
c8
01
e5
fe
8b
2c
ff
0e
39
e2
da
cd
52
d6
82
87
4c
b4
c3
6b
e6
4f
fb
f1
0d
ed
1f
c8
01
e5
fe
8b
2c
ff
0e
39
e2
da
cd
52
d6
82
87
4c
b4
c3
6b
e6
4f
fb
f1
0d
ed
1f
c8
01
e5
fe
8b
2c
ff
0e
39
e2
da
cd
52
d6
82
87
4c
b4
c3
6b
e6
4f
fb
f1
0d
ed
1f
c8
01
e5
fe
8b
2c
ff
0e
39
e2
da
cd
52
d6
82
87
4c
b4
c3
6b
e6
4f
fb
f1
0d
ed
1f
c8
01
e5
fe
8b
2c
ff
0e
39
e2
da
cd
52
d6
82
87
4c
b4
c3
6b
e6
4f
fb
f1
0d
ed
1f
c8
01
e5
fe
8b
2c
ff
0e
39
e2
da
cd
52
d6
82
87
4c
b4
c3
6b
e6
4f
fb
f1
0d
ed
1f
c8
01
e5
fe
8b
2c
ff
0e
39
e2
da
cd
52
d6
82
87
4c
b4
c3
6b
e6
4f
fb
f1
0d
ed
1f
c8
01
e5
fe
8b
2c
ff
0e
39
e2
da
cd
52
d6
82
87
4c
b4
c3
6b
e6
4f
fb
f1
0d
ed
1f
c8
01
e5
fe
8b
2c
ff
0e
39
e2
da
cd
52
d6
82
87
4c
b4
c3
6b
e6
4f
fb
f1
0d
ed
1f
c8
01
e5
fe
8b
2c
ff
0e
39
e2
da
cd
52
d6
82
87
4c
b4
c3
6b
e6
4f
fb
f1
0d
ed
1f
c8
01
e5
fe
8b
2c
ff
0e
39
e2
da
cd
52
d6
82
87
4c
b4
c3
6b
e6
4f
fb
f1
0d
ed
1f
c8
01
e5
fe
8b
2c
ff
0e
39
e2
da
cd
52
d6
82
87
4c
b4
c3
6b
e6
4f
fb
f1
0d
ed
1f
c8
01
e5
fe
8b
2c
ff
0e
39
e2
da
cd
52
d6
82
87
4c
b4
c3
6b
e6
4f
fb
f1
0d
ed
1f
c8
01
e5
fe
8b
2c
ff
0e
39
e2
da
cd
52
d6
82
87
4c
b4
c3
6b
e6
4f
fb
f1
0d
ed
1f
c8
01
e5
fe
8b
2c
ff
0e
39
e2
da
cd
52
d6
82
87
4c
b4
c3
6b
e6
4f
fb
f1
0d
ed
1f
c8
01
e5
fe
8b
2c
ff
0e
39
e2
da
cd
52
d6
82
87
4c
b4
c3
6b
e6
4f
fb
f1
0d
ed
1f
c8
01
e5
fe
8b
2c
ff
0e
39
e2
da
cd
52
d6
82
87
4c
b4
c3
6b
e6
4f
fb
f1
0d
ed
1f
c8
01
e5
fe
8b
2c
ff
0e
39
e2
da
cd
52
d6
82
87
4c
b4
c3
6b
e6
4f
fb
f1
0d
ed
1f
c8
01
e5
fe
8b
2c
ff
0e
39
e2
da
cd
52
d6
82
87
4c
b4
c3
6b
e6
4f
fb
f1
0d
ed
1f
c8
01
e5
fe
8b
2c
ff
0e
39
e2
da
cd
52
d6
82
87
4c
b4
c3
6b
e6
4f
fb
f1
0d
ed
1f
c8
01
e5
fe
8b
2c
ff
0e
39
e2
da
cd
52
d6
82
87
4c
b4
c3
6b
e6
4f
fb
f1
0d
ed
1f
c8
01
e5
fe
8b
2c
ff
0e
39
e2
da
cd
52
d6
82
87
4c
b4
c3
6b
e6
4f
fb
f1
0d
ed
1f
c8
01
e5
fe
8b
2c
ff
0e
39
e2
da
cd
52
d6
82
87
4c
b4
c3
6b
e6
4f
fb
f1
0d
ed
1f
c8
01
e5
fe
8b
2c
ff
0e
39
e2
da
cd
52
d6
82
87
4c
b4
c3
6b
e6
4f
fb
f1
0d
ed
1f
c8
01
e5
fe
8b
2c
ff
0e
39
e2
da
cd
52
d6
82
87
4c
b4
c3
6b
e6
4f
fb
f1
0d
ed
1f
c8
01
e5
fe
8b
2c
ff
0e
39
e2
da
cd
52
d6
82
87
4c
b4
c3
6b
e6
4f
fb
f1
0d
ed
1f
c8
01
e5
fe
8b
2c
ff
0e
39
e2
da
cd
52
d6
82
87
4c
b4
c3
6b
e6
4f
fb
f1
0d
ed
1f
c8
01
e5
fe
8b
2c
ff
0e
39
e2
da
cd
52
d6
82
87
4c
b4
c3
6b
e6
4f
fb
f1
0d
ed
1f
c8
01
e5
fe
8b
2c
ff
0e
39
e2
da
cd
52
d6
82
87
4c
b4
c3
6b
e6
4f
fb
f1
0d
ed
1f
c8
01
e5
fe
8b
2c
ff
0e
39
e2
da
cd
52
d6
82
87
4c
b4
c3
6b
e6
4f
fb
f1
0d
ed
1f
c8
01
e5
fe
8b
2c
ff
0e
39
e2
da
cd
52
d6
82
87
4c
b4
c3
6b
e6
4f
fb
f1
0d
ed
1f
c8
01
e5
fe
8b
2c
ff
0e
39
e2
da
cd
52
d6
82
87
4c
b4
c3
6b
e6
4f
fb
f1
0d
ed
1f
c8
01
e5
fe
8b
2c
ff
0e
39
e2
da
cd
52
d6
82
87
4c
b4
c3
6b
e6
4f
fb
f1
0d
ed
1f
c8
01
e5
fe
8b
2c
ff
0e
39
e2
da
cd
52
d6
82
87
4c
b4
c3
6b
e6
4f
fb
f1
0d
ed
1f
c8
01
e5
fe
8b
2c
ff
0e
39
e2
da
cd
52
d6
82
87
4c
b4
c3
6b
e6
4f
fb
f1
0d
ed
1f
c8
01
e5
fe
8b
2c
ff
0e
39
e2
da
cd
52
d6
82
87
4c
b4
c3
6b
e6
4f
fb
f1
0d
ed
1f
c8
01
e5
fe
8b
2c
ff
0e
39
e2
da
cd
52
d6
82
87
4c
b4
c3
6b
e6
4f
fb
f1
0d
ed
1f
c8
01
e5
fe
8b
2c
ff
0e
39
e2
da
cd
52
d6
82
87
4c
b4
c3
6b
e6
4f
fb
f1
0d
ed
1f
c8
01
e5
fe
8b
2c
ff
0e
39
e2
da
cd
52
d6
82
87
4c
b4
c3
6b
e6
4f
fb
f1
0d
ed
1f
c8
01
e5
fe
8b
2c
ff
0e
39
e2
da
cd
52
d6
82
87
4c
b4
c3
6b
e6
4f
fb
f1
0d
ed
1f
c8
01
e5
fe
8b
2c
ff
0e
39
e2
da
cd
52
d6
82
87
4c
b4
c3
6b
e6
4f
fb
f1
0d
ed
1f
c8
01
e5
fe
8b
2c
ff
0e
39
e2
da
cd
52
d6
82
87
4c
b4
c3
6b
e6
4f
fb
f1
0d
ed
1f
c8
01
e5
fe
8b
2c
ff
0e
39
e2
da
cd
52
d6
82
87
4c
b4
c3
6b
e6
4f
fb
f1
0d
ed
1f
c8
01
e5
fe
8b
2c
ff
0e
39
e2
da
cd
52
d6
82
87
4c
b4
c3
6b
e6
4f
fb
f1
0d
ed
1f
c8
01
e5
fe
8b
2c
ff
0e
39
e2
da
cd
52
d6
82
87
4c
b4
c3
6b
e6
4f
fb
f1
0d
ed
1f
c8
01
e5
fe
8b
2c
ff
0e
39
e2
da
cd
52
d6
82
87
4c
b4
c3
6b
e6
4f
fb
f1
0d
ed
1f
c8
01
e5
fe
8b
2c
ff
0e
39
e2
da
cd
52
d6
82
87
4c
b4
c3
6b
e6
4f
fb
f1
0d
ed
1f
c8
01
e5
fe
8b
2c
ff
0e
39
e2
da
cd
52
d6
82
87
4c
b4
c3
6b
e6
4f
fb
f1
0d
ed
1f
c8
01
e5
fe
8b
2c
ff
0e
39
e2
da
cd
52
d6
82
87
4c
b4
c3
6b
e6
4f
fb
f1
0d
ed
1f
c8
01
e5
fe
8b
2c
ff
0e
39
e2
da
cd
52
d6
82
87
4c
b4
c3
6b
e6
4f
fb
f1
0d
ed
1f
c8
01
e5
fe
8b
2c
ff
0e
39
e2
da
cd
52
d6
82
87
4c
b4
c3
6b
e6
4f
fb
f1
0d
ed
1f
c8
01
e5
fe
8b
2c
ff
0e
39
e2
da
cd
52
d6
82
87
4c
b4
c3
6b
e6
4f
fb
f1
0d
ed
1f
c8
01
e5
fe
8b
2c
ff
0e
39
e2
da
cd
52
d6
82
87
4c
b4
c3
6b
e6
4f
fb
f1
0d
ed
1f
c8
01
e5
fe
8b
2c
ff
0e
39
e2
da
cd
52
d6
82
87
4c
b4
c3
6b
e6
4f
fb
f1
0d
ed
1f
c8
01
e5
fe
8b
2c
ff
0e
39
e2
da
cd
52
d6
82
87
4c
b4
c3
6b
e6
4f
fb
f1
0d
ed
1f
c8
01
e5
fe
8b
2c
ff
0e
39
e2
da
cd
52
d6
82
87
4c
b4
c3
6b
e6
4f
fb
f1
0d
ed
1f
c8
01
e5
fe
8b
2c
ff
0e
39
e2
da
cd
52
d6
82
87
4c
b4
c3
6b
e6
4f
fb
f1
0d
ed
1f
c8
01
e5
fe
8b
2c
ff
0e
39
e2
da
cd
52
d6
82
87
4c
b4
c3
6b
e6
4f
fb
f1
0d
ed
1f
c8
01
e5
fe
8b
2c
ff
0e
39
e2
da
cd
52
d6
82
87
4c
b4
c3
6b
e6
4f
fb
f1
0d
ed
1f
c8
01
e5
fe
8b
2c
ff
0e
39
e2
da
cd
52
d6
82
87
4c
b4
c3
6b
e6
4f
fb
f1
0d
ed
1f
c8
01
e5
fe
8b
2c
ff
0e
39
e2
da
cd
52
d6
82
87
4c
b4
c3
6b
e6
4f
fb
f1
0d
ed
1f
c8
01
e5
fe
8b
2c
ff
0e
39
e2
da
cd
52
d6
82
87
4c
b4
c3
6b
e6
4f
fb
f1
0d
ed
1f
c8
01
e5
fe
8b
2c
ff
0e
39
e2
da
cd
52
d6
82
87
4c
b4
c3
6b
e6
4f
fb
f1
0d
ed
1f
c8
01
e5
fe
8b
2c
ff
0e
39
e2
da
cd
52
d6
82
87
4c
b4
c3
6b
e6
4f
fb
f1
0d
ed
1f
c8
01
e5
fe
8b
2c
ff
0e
39
e2
da
cd
52
d6
82
87
4c
b4
c3
6b
e6
4f
fb
f1
0d
ed
1f
c8
01
e5
fe
8b
2c
ff
0e
39
e2
da
cd
52
d6
82
87
4c
b4
c3
6b
e6
4f
fb
f1
0d
ed
1f
c8
01
e5
fe
8b
2c
ff
0e
39
e2
da
cd
52
d6
82
87
4c
b4
c3
6b
e6
4f
fb
f1
0d
ed
1f
c8
01
e5
fe
8b
2c
ff
0e
39
e2
da
cd
52
d6
82
87
4c
b4
c3
6b
e6
4f
fb
f1
0d
ed
1f
c8
01
e5
fe
8b
2c
ff
0e
39
e2
da
cd
52
d6
82
87
4c
b4
c3
6b
e6
4f
fb
f1
0d
ed
1f
c8
01
e5
fe
8b
2c
ff
0e
39
e2
da
cd
52
d6
82
87
4c
b4
c3
6b
e6
4f
fb
f1
0d
ed
1f
c8
01
e5
fe
8b
2c
ff
0e
39
e2
da
cd
52
d6
82
87
4c
b4
c3
6b
e6
4f
fb
f1
0d
ed
1f
c8
01
e5
fe
8b
2c
ff
0e
39
e2
da
cd
52
d6
82
87
4c
b4
c3
6b
e6
4f
fb
f1
0d
ed
1f
c8
01
e5
fe
8b
2c
ff
0e
39
e2
da
cd
52
d6
82
87
4c
b4
c3
6b
e6
4f
fb
f1
0d
ed
1f
c8
01
e5
fe
8b
2c
ff
0e
39
e2
da
cd
52
d6
82
87
4c
b4
c3
6b
e6
4f
fb
f1
0d
ed
1f
c8
01
e5
fe
8b
2c
ff
0e
39
e2
da
cd
52
d6
82
87
4c
b4
c3
6b
e6
4f
fb
f1
0d
ed
1f
c8
01
e5
fe
8b
2c
ff
0e
39
e2
da
cd
52
d6
82
87
4c
b4
c3
6b
e6
4f
fb
f1
0d
ed
1f
c8
01
e5
fe
8b
2c
ff
0e
39
e2
da
cd
52
d6
82
87
4c
b4
c3
6b
e6
4f
fb
f1
0d
ed
1f
c8
01
e5
fe
8b
2c
ff
0e
39
e2
da
cd
52
d6
82
87
4c
b4
c3
6b
e6
4f
fb
f1
0d
ed
1f
c8
01
e5
fe
8b
2c
ff
0e
39
e2
da
cd
52
d6
82
87
4c
b4
c3
6b
e6
4f
fb
f1
0d
ed
1f
c8
01
e5
fe
8b
2c
ff
0e
39
e2
da
cd
52
d6
82
87
4c
b4
c3
6b
e6
4f
fb
f1
0d
ed
1f
c8
01
e5
fe
8b
2c
ff
0e
39
e2
da
cd
52
d6
82
87
4c
b4
c3
6b
e6
4f
fb
f1
0d
ed
1f
c8
01
e5
fe
8b
2c
ff
0e
39
e2
da
cd
52
d6
82
87
4c
b4
c3
6b
e6
4f
fb
f1
0d
ed
1f
c8
01
e5
fe
8b
2c
ff
0e
39
e2
da
cd
52
d6
82
87
4c
b4
c3
6b
e6
4f
fb
f1
0d
ed
1f
c8
01
e5
fe
8b
2c
ff
0e
39
e2
da
cd
52
d6
82
87
4c
b4
c3
6b
e6
4f
fb
f1
0d
ed
1f
c8
01
e5
fe
8b
2c
ff
0e
39
e2
da
cd
52
d6
82
87
4c
b4
c3
6b
e6
4f
fb
f1
0d
ed
1f
c8
01
e5
fe
8b
2c
ff
0e
39
e2
da
cd
52
d6
82
87
4c
b4
c3
6b
e6
4f
fb
f1
0d
ed
1f
c8
01
e5
fe
8b
2c
ff
0e
39
e2
da
cd
52
d6
82
87
4c
b4
c3
6b
e6
4f
fb
f1
0d
ed
1f
c8
01
e5
fe
8b
2c
ff
0e
39
e2
da
cd
52
d6
82
87
4c
b4
c3
6b
e6
4f
fb
f1
0d
ed
1f
c8
01
e5
fe
8b
2c
ff
0e
39
e2
da
cd
52
d6
82
87
4c
b4
c3
6b
e6
4f
fb
f1
0d
ed
1f
c8
01
e5
fe
8b
2c
ff
0e
39
e2
da
cd
52
d6
82
87
4c
b4
c3
6b
e6
4f
fb
f1
0d
ed
1f
c8
01
e5
fe
8b
2c
ff
0e
39
e2
da
cd
52
d6
82
87
4c
b4
c3
6b
e6
4f
fb
f1
0d
ed
1f
c8
01
e5
fe
8b
2c
ff
0e
39
e2
da
cd
52
d6
82
87
4c
b4
c3
6b
e6
4f
fb
f1
0d
ed
1f
c8
01
e5
fe
8b
2c
ff
0e
39
e2
da
cd
52
d6
82
87
4c
b4
c3
6b
e6
4f
fb
f1
0d
ed
1f
c8
01
e5
fe
8b
2c
ff
0e
39
e2
da
cd
52
d6
82
87
4c
b4
c3
6b
e6
4f
fb
f1
0d
ed
1f
c8
01
e5
fe
8b
2c
ff
0e
39
e2
da
cd
52
d6
82
87
4c
b4
c3
6b
e6
4f
fb
f1
0d
ed
1f
c8
01
e5
fe
8b
2c
ff
0e
39
e2
da
cd
52
d6
82
87
4c
b4
c3
6b
e6
4f
fb
f1
0d
ed
1f
c8
01
e5
fe
8b
2c
ff
0e
39
e2
da
cd
52
d6
82
87
4c
b4
c3
6b
e6
4f
fb
f1
0d
ed
1f
c8
01
e5
fe
8b
2c
ff
0e
39
e2
da
cd
52
d6
82
87
4c
b4
c3
6b
e6
4f
fb
f1
0d
ed
1f
c8
01
e5
fe
8b
2c
ff
0e
39
e2
da
cd
52
d6
82
87
4c
b4
c3
6b
e6
4f
fb
f1
0d
ed
1f
c8
01
e5
fe
8b
2c
ff
0e
39
e2
da
cd
52
d6
82
87
4c
b4
c3
6b
e6
4f
fb
f1
0d
ed
1f
c8
01
e5
fe
8b
2c
ff
0e
39
e2
da
cd
52
d6
82
87
4c
b4
c3
6b
e6
4f
fb
f1
0d
ed
1f
c8
01
e5
fe
8b
2c
ff
0e
39
e2
da
cd
52
d6
82
87
4c
b4
c3
6b
e6
4f
fb
f1
0d
ed
1f
c8
01
e5
fe
8b
2c
ff
0e
39
e2
da
cd
52
d6
82
87
4c
b4
c3
6b
e6
4f
fb
f1
0d
ed
1f
c8
01
e5
fe
8b
2c
ff
0e
39
e2
da
cd
52
d6
82
87
4c
b4
c3
6b
e6
4f
fb
f1
0d
ed
1f
c8
01
e5
fe
8b
2c
ff
0e
39
e2
da
cd
52
d6
82
87
4c
b4
c3
6b
e6
4f
fb
f1
0d
ed
1f
c8
01
e5
fe
8b
2c
ff
0e
39
e2
da
cd
52
d6
82
87
4c
b4
c3
6b
e6
4f
fb
f1
0d
ed
1f
c8
01
e5
fe
8b
2c
ff
0e
39
e2
da
cd
52
d6
82
87
4c
b4
c3
6b
e6
4f
fb
f1
0d
ed
1f
c8
01
e5
fe
8b
2c
ff
0e
39
e2
da
cd
52
d6
82
87
4c
b4
c3
6b
e6
4f
fb
f1
0d
ed
1f
c8
01
e5
fe
8b
2c
ff
0e
39
e2
da
cd
52
d6
82
87
4c
b4
c3
6b
e6
4f
fb
f1
0d
ed
1f
c8
01
e5
fe
8b
2c
ff
0e
39
e2
da
cd
52
d6
82
87
4c
b4
c3
6b
e6
4f
fb
f1
0d
ed
1f
c8
01
e5
fe
8b
2c
ff
0e
39
e2
da
cd
52
d6
82
87
4c
b4
c3
6b
e6
4f
fb
f1
0d
ed
1f
c8
01
e5
fe
8b
2c
ff
0e
39
e2
da
cd
52
d6
82
87
4c
b4
c3
6b
e6
4f
fb
f1
0d
ed
1f
c8
01
e5
fe
8b
2c
ff
0e
39
e2
da
cd
52
d6
82
87
4c
b4
c3
6b
e6
4f
fb
f1
0d
ed
1f
c8
01
e5
fe
8b
2c
ff
0e
39
e2
da
cd
52
d6
82
87
4c
b4
c3
6b
e6
4f
fb
f1
0d
ed
1f
c8
01
e5
fe
8b
2c
ff
0e
39
e2
da
cd
52
d6
82
87
4c
b4
c3
6b
e6
4f
fb
f1
0d
ed
1f
c8
01
e5
fe
8b
2c
ff
0e
39
e2
da
cd
52
d6
82
87
4c
b4
c3
6b
e6
4f
fb
f1
0d
ed
1f
c8
01
e5
fe
8b
2c
ff
0e
39
e2
da
cd
52
d6
82
87
4c
b4
c3
6b
e6
4f
fb
f1
0d
ed
1f
c8
01
e5
fe
8b
2c
ff
0e
39
e2
da
cd
52
d6
82
87
4c
b4
c3
6b
e6
4f
fb
f1
0d
ed
1f
c8
01
e5
fe
8b
2c
ff
0e
39
e2
da
cd
52
d6
82
87
4c
b4
c3
6b
e6
4f
fb
f1
0d
ed
1f
c8
01
e5
fe
8b
2c
ff
0e
39
e2
da
cd
52
d6
82
87
4c
b4
c3
6b
e6
4f
fb
f1
0d
ed
1f
c8
01
e5
fe
8b
2c
ff
0e
39
e2
da
cd
52
d6
82
87
4c
b4
c3
6b
e6
4f
fb
f1
0d
ed
1f
c8
01
e5
fe
8b
2c
ff
0e
39
e2
da
cd
52
d6
82
87
4c
b4
c3
6b
e6
4f
fb
f1
0d
ed
1f
c8
01
e5
fe
8b
2c
ff
0e
39
e2
da
cd
52
d6
82
87
4c
b4
c3
6b
e6
4f
fb
f1
0d
ed
1f
c8
01
e5
fe
8b
2c
ff
0e
39
e2
da
cd
52
d6
82
87
4c
b4
c3
6b
e6
4f
fb
f1
0d
ed
1f
c8
01
e5
fe
8b
2c
ff
0e
39
e2
da
cd
52
d6
82
87
4c
b4
c3
6b
e6
4f
fb
f1
0d
ed
1f
c8
01
e5
fe
8b
2c
ff
0e
39
e2
da
cd
52
d6
82
87
4c
b4
c3
6b
e6
4f
fb
f1
0d
ed
1f
c8
01
e5
fe
8b
2c
ff
0e
39
e2
da
cd
52
d6
82
87
4c
b4
c3
6b
e6
4f
fb
f1
0d
ed
1f
c8
01
e5
fe
8b
2c
ff
0e
39
e2
da
cd
52
d6
82
87
4c
b4
c3
6b
e6
4f
fb
f1
0d
ed
1f
c8
01
e5
fe
8b
2c
ff
0e
39
e2
da
cd
52
d6
82
87
4c
b4
c3
6b
e6
4f
fb
f1
0d
ed
1f
c8
01
e5
fe
8b
2c
ff
0e
39
e2
da
cd
52
d6
82
87
4c
b4
c3
6b
e6
4f
fb
f1
0d
ed
1f
c8
01
e5
fe
8b
2c
ff
0e
39
e2
da
cd
52
d6
82
87
4c
b4
c3
6b
e6
4f
fb
f1
0d
ed
1f
c8
01
e5
fe
8b
2c
ff
0e
39
e2
da
cd
52
d6
82
87
4c
b4
c3
6b
e6
4f
fb
f1
0d
ed
1f
c8
01
e5
fe
8b
2c
ff
0e
39
e2
da
cd
52
d6
82
87
4c
b4
c3
6b
e6
4f
fb
f1
0d
ed
1f
c8
01
e5
fe
8b
2c
ff
0e
39
e2
da
cd
52
d6
82
87
4c
b4
c3
6b
e6
4f
fb
f1
0d
ed
1f
c8
01
e5
fe
8b
2c
ff
0e
39
e2
da
cd
52
d6
82
87
4c
b4
c3
6b
e6
4f
fb
f1
0d
ed
1f
c8
01
e5
fe
8b
2c
ff
0e
39
e2
da
cd
52
d6
82
87
4c
b4
c3
6b
e6
4f
fb
f1
0d
ed
1f
c8
01
e5
fe
8b
2c
ff
0e
39
e2
da
cd
52
d6
82
87
4c
b4
c3
6b
e6
4f
fb
f1
0d
ed
1f
c8
01
e5
fe
8b
2c
ff
0e
39
e2
da
cd
52
d6
82
87
4c
b4
c3
6b
e6
4f
fb
f1
0d
ed
1f
c8
01
e5
fe
8b
2c
ff
0e
39
e2
da
cd
52
d6
82
87
4c
b4
c3
6b
e6
4f
fb
f1
0d
ed
1f
c8
01
e5
fe
8b
2c
ff
0e
39
e2
da
cd
52
d6
82
87
4c
b4
c3
6b
e6
4f
fb
f1
0d
ed
1f
c8
01
e5
fe
8b
2c
ff
0e
39
e2
da
cd
52
d6
82
87
4c
b4
c3
6b
e6
4f
fb
f1
0d
ed
1f
c8
01
e5
fe
8b
2c
ff
0e
39
e2
da
cd
52
d6
82
87
4c
b4
c3
6b
e6
4f
fb
f1
0d
ed
1f
c8
01
e5
fe
8b
2c
ff
0e
39
e2
da
cd
52
d6
82
87
4c
b4
c3
6b
e6
4f
fb
f1
0d
ed
1f
c8
01
e5
fe
8b
2c
ff
0e
39
e2
da
cd
52
d6
82
87
4c
b4
c3
6b
e6
4f
fb
f1
0d
ed
1f
c8
01
e5
fe
8b
2c
ff
0e
39
e2
da
cd
52
d6
82
87
4c
b4
c3
6b
e6
4f
fb
f1
0d
ed
1f
c8
01
e5
fe
8b
2c
ff
0e
39
e2
da
cd
52
d6
82
87
4c
b4
c3
6b
e6
4f
fb
f1
0d
ed
1f
c8
01
e5
fe
8b
2c
ff
0e
39
e2
da
cd
52
d6
82
87
4c
b4
c3
6b
e6
4f
fb
f1
0d
ed
1f
c8
01
e5
fe
8b
2c
ff
0e
39
e2
da
cd
52
d6
82
87
4c
b4
c3
6b
e6
4f
fb
f1
0d
ed
1f
c8
01
e5
fe
8b
2c
ff
0e
39
e2
da
cd
52
d6
82
87
4c
b4
c3
6b
e6
4f
fb
f1
0d
ed
1f
c8
01
e5
fe
8b
2c
ff
0e
39
e2
da
cd
52
d6
82
87
4c
b4
c3
6b
e6
4f
fb
f1
0d
ed
1f
c8
01
e5
fe
8b
2c
ff
0e
39
e2
da
cd
52
d6
82
87
4c
b4
c3
6b
e6
4f
fb
f1
0d
ed
1f
c8
01
e5
fe
8b
2c
ff
0e
39
e2
da
cd
52
d6
82
87
4c
b4
c3
6b
e6
4f
fb
f1
0d
ed
1f
c8
01
e5
fe
8b
2c
ff
0e
39
e2
da
cd
52
d6
82
87
4c
b4
c3
6b
e6
4f
fb
f1
0d
ed
1f
c8
01
e5
fe
8b
2c
ff
0e
39
e2
da
cd
52
d6
82
87
4c
b4
c3
6b
e6
4f
fb
f1
0d
ed
1f
c8
01
e5
fe
8b
2c
ff
0e
39
e2
da
cd
52
d6
82
87
4c
b4
c3
6b
e6
4f
fb
f1
0d
ed
1f
c8
01
e5
fe
8b
2c
ff
0e
39
e2
da
cd
52
d6
82
87
4c
b4
c3
6b
e6
4f
fb
f1
0d
ed
1f
c8
01
e5
fe
8b
2c
ff
0e
39
e2
da
cd
52
d6
82
87
4c
b4
c3
6b
e6
4f
fb
f1
0d
ed
1f
c8
01
e5
fe
8b
2c
ff
0e
39
e2
da
cd
52
d6
82
87
4c
b4
c3
6b
e6
4f
fb
f1
0d
ed
1f
c8
01
e5
fe
8b
2c
ff
0e
39
e2
da
cd
52
d6
82
87
4c
b4
c3
6b
e6
4f
fb
f1
0d
ed
1f
c8
01
e5
fe
8b
2c
ff
0e
39
e2
da
cd
52
d6
82
87
4c
b4
c3
6b
e6
4f
fb
f1
0d
ed
1f
c8
01
e5
fe
8b
2c
ff
0e
39
e2
da
cd
52
d6
82
87
4c
b4
c3
6b
e6
4f
fb
f1
0d
ed
1f
c8
01
e5
fe
8b
2c
ff
0e
39
e2
da
cd
52
d6
82
87
4c
b4
c3
6b
e6
4f
fb
f1
0d
ed
1f
c8
01
e5
fe
8b
2c
ff
0e
39
e2
da
cd
52
d6
82
87
4c
b4
c3
6b
e6
4f
fb
f1
0d
ed
1f
c8
01
e5
fe
8b
2c
ff
0e
39
e2
da
cd
52
d6
82
87
4c
b4
c3
6b
e6
4f
fb
f1
0d
ed
1f
c8
01
e5
fe
8b
2c
ff
0e
39
e2
da
cd
52
d6
82
87
4c
b4
c3
6b
e6
4f
fb
f1
0d
ed
1f
c8
01
e5
fe
8b
2c
ff
0e
39
e2
da
cd
52
d6
82
87
4c
b4
c3
6b
e6
4f
fb
f1
0d
ed
1f
c8
01
e5
fe
8b
2c
ff
0e
39
e2
da
cd
52
d6
82
87
4c
b4
c3
6b
e6
4f
fb
f1
0d
ed
1f
c8
01
e5
fe
8b
2c
ff
0e
39
e2
da
cd
52
d6
82
87
4c
b4
c3
6b
e6
4f
fb
f1
0d
ed
1f
c8
01
e5
fe
8b
2c
ff
0e
39
e2
da
cd
52
d6
82
87
4c
b4
c3
6b
e6
4f
fb
f1
0d
ed
1f
c8
01
e5
fe
8b
2c
ff
0e
39
e2
da
cd
52
d6
82
87
4c
b4
c3
6b
e6
4f
fb
f1
0d
ed
1f
c8
01
e5
fe
8b
2c
ff
0e
39
e2
da
cd
52
d6
82
87
4c
b4
c3
6b
e6
4f
fb
f1
0d
ed
1f
c8
01
e5
fe
8b
2c
ff
0e
39
e2
da
cd
52
d6
82
87
4c
b4
c3
6b
e6
4f
fb
f1
0d
ed
1f
c8
01
e5
fe
8b
2c
ff
0e
39
e2
da
cd
52
d6
82
87
4c
b4
c3
6b
e6
4f
fb
f1
0d
ed
1f
c8
01
e5
fe
8b
2c
ff
0e
39
e2
da
cd
52
d6
82
87
4c
b4
c3
6b
e6
4f
fb
f1
0d
ed
1f
c8
01
e5
fe
8b
2c
ff
0e
39
e2
da
cd
52
d6
82
87
4c
b4
c3
6b
e6
4f
fb
f1
0d
ed
1f
c8
01
e5
fe
8b
2c
ff
0e
39
e2
da
cd
52
d6
82
87
4c
b4
c3
6b
e6
4f
fb
f1
0d
ed
1f
c8
01
e5
fe
8b
2c
ff
0e
39
e2
da
cd
52
d6
82
87
4c
b4
c3
6b
e6
4f
fb
f1
0d
ed
1f
c8
01
e5
fe
8b
2c
ff
0e
39
e2
da
cd
52
d6
82
87
4c
b4
c3
6b
e6
4f
fb
f1
0d
ed
1f
c8
01
e5
fe
8b
2c
ff
0e
39
e2
da
cd
52
d6
82
87
4c
b4
c3
6b
e6
4f
fb
f1
0d
ed
1f
c8
01
e5
fe
8b
2c
ff
0e
39
e2
da
cd
52
d6
82
87
4c
b4
c3
6b
e6
4f
fb
f1
0d
ed
1f
c8
01
e5
fe
8b
2c
ff
0e
39
e2
da
cd
52
d6
82
87
4c
b4
c3
6b
e6
4f
fb
f1
0d
ed
1f
c8
01
e5
fe
8b
2c
ff
0e
39
e2
da
cd
52
d6
82
87
4c
b4
c3
6b
e6
4f
fb
f1
0d
ed
1f
c8
01
e5
fe
8b
2c
ff
0e
39
e2
da
cd
52
d6
82
87
4c
b4
c3
6b
e6
4f
fb
f1
0d
ed
1f
c8
01
e5
fe
8b
2c
ff
0e
39
e2
da
cd
52
d6
82
87
4c
b4
c3
6b
e6
4f
fb
f1
0d
ed
1f
c8
01
e5
fe
8b
2c
ff
0e
39
e2
da
cd
52
d6
82
87
4c
b4
c3
6b
e6
4f
fb
f1
0d
ed
1f
c8
01
e5
fe
8b
2c
ff
0e
39
e2
da
cd
52
d6
82
87
4c
b4
c3
6b
e6
4f
fb
f1
0d
ed
1f
c8
01
e5
fe
8b
2c
ff
0e
39
e2
da
cd
52
d6
82
87
4c
b4
c3
6b
e6
4f
fb
f1
0d
ed
1f
c8
01
e5
fe
8b
2c
ff
0e
39
e2
da
cd
52
d6
82
87
4c
b4
c3
6b
e6
4f
fb
f1
0d
ed
1f
c8
01
e5
fe
8b
2c
ff
0e
39
e2
da
cd
52
d6
82
87
4c
b4
c3
6b
e6
4f
fb
f1
0d
ed
1f
c8
01
e5
fe
8b
2c
ff
0e
39
e2
da
cd
52
d6
82
87
4c
b4
c3
6b
e6
4f
fb
f1
0d
ed
1f
c8
01
e5
fe
8b
2c
ff
0e
39
e2
da
cd
52
d6
82
87
4c
b4
c3
6b
e6
4f
fb
f1
0d
ed
1f
c8
01
e5
fe
8b
2c
ff
0e
39
e2
da
cd
52
d6
82
87
4c
b4
c3
6b
e6
4f
fb
f1
0d
ed
1f
c8
01
e5
fe
8b
2c
ff
0e
39
e2
da
cd
52
d6
82
87
4c
b4
c3
6b
e6
4f
fb
f1
0d
ed
1f
c8
01
e5
fe
8b
2c
ff
0e
39
e2
da
cd
52
d6
82
87
4c
b4
c3
6b
e6
4f
fb
f1
0d
ed
1f
c8
01
e5
fe
8b
2c
ff
0e
39
e2
da
cd
52
d6
82
87
4c
b4
c3
6b
e6
4f
fb
f1
0d
ed
1f
c8
01
e5
fe
8b
2c
ff
0e
39
e2
da
cd
52
d6
82
87
4c
b4
c3
6b
e6
4f
fb
f1
0d
ed
1f
c8
01
e5
fe
8b
2c
ff
0e
39
e2
da
cd
52
d6
82
87
4c
b4
c3
6b
e6
4f
fb
f1
0d
ed
1f
c8
01
e5
fe
8b
2c
ff
0e
39
e2
da
cd
52
d6
82
87
4c
b4
c3
6b
e6
4f
fb
f1
0d
ed
1f
c8
01
e5
fe
8b
2c
ff
0e
39
e2
da
cd
52
d6
82
87
4c
b4
c3
6b
e6
4f
fb
f1
0d
ed
1f
c8
01
e5
fe
8b
2c
ff
0e
39
e2
da
cd
52
d6
82
87
4c
b4
c3
6b
e6
4f
fb
f1
0d
ed
1f
c8
01
e5
fe
8b
2c
ff
0e
39
e2
da
cd
52
d6
82
87
4c
b4
c3
6b
e6
4f
fb
f1
0d
ed
1f
c8
01
e5
fe
8b
2c
ff
0e
39
e2
da
cd
52
d6
82
87
4c
b4
c3
6b
e6
4f
fb
f1
0d
ed
1f
c8
01
e5
fe
8b
2c
ff
0e
39
e2
da
cd
52
d6
82
87
4c
b4
c3
6b
e6
4f
fb
f1
0d
ed
1f
c8
01
e5
fe
8b
2c
ff
0e
39
e2
da
cd
52
d6
82
87
4c
b4
c3
6b
e6
4f
fb
f1
0d
ed
1f
c8
01
e5
fe
8b
2c
ff
0e
39
e2
da
cd
52
d6
82
87
4c
b4
c3
6b
e6
4f
fb
f1
0d
ed
1f
c8
01
e5
fe
8b
2c
ff
0e
39
e2
da
cd
52
d6
82
87
4c
b4
c3
6b
e6
4f
fb
f1
0d
ed
1f
c8
01
e5
fe
8b
2c
ff
0e
39
e2
da
cd
52
d6
82
87
4c
b4
c3
6b
e6
4f
fb
f1
0d
ed
1f
c8
01
e5
fe
8b
2c
ff
0e
39
e2
da
cd
52
d6
82
87
4c
b4
c3
6b
e6
4f
fb
f1
0d
ed
1f
c8
01
e5
fe
8b
2c
ff
0e
39
e2
da
cd
52
d6
82
87
4c
b4
c3
6b
e6
4f
fb
f1
0d
ed
1f
c8
01
e5
fe
8b
2c
ff
0e
39
e2
da
cd
52
d6
82
87
4c
b4
c3
6b
e6
4f
fb
f1
0d
ed
1f
c8
01
e5
fe
8b
2c
ff
0e
39
e2
da
cd
52
d6
82
87
4c
b4
c3
6b
e6
4f
fb
f1
0d
ed
1f
c8
01
e5
fe
8b
2c
ff
0e
39
e2
da
cd
52
d6
82
87
4c
b4
c3
6b
e6
4f
fb
f1
0d
ed
1f
c8
01
e5
fe
8b
2c
ff
0e
39
e2
da
cd
52
d6
82
87
4c
b4
c3
6b
e6
4f
fb
f1
0d
ed
1f
c8
01
e5
fe
8b
2c
ff
0e
39
e2
da
cd
52
d6
82
87
4c
b4
c3
6b
e6
4f
fb
f1
0d
ed
1f
c8
01
e5
fe
8b
2c
ff
0e
39
e2
da
cd
52
d6
82
87
4c
b4
c3
6b
e6
4f
fb
f1
0d
ed
1f
c8
01
e5
fe
8b
2c
ff
0e
39
e2
da
cd
52
d6
82
87
4c
b4
c3
6b
e6
4f
fb
f1
0d
ed
1f
c8
01
e5
fe
8b
2c
ff
0e
39
e2
da
cd
52
d6
82
87
4c
b4
c3
6b
e6
4f
fb
f1
0d
ed
1f
c8
01
e5
fe
8b
2c
ff
0e
39
e2
da
cd
52
d6
82
87
4c
b4
c3
6b
e6
4f
fb
f1
0d
ed
1f
c8
01
e5
fe
8b
2c
ff
0e
39
e2
da
cd
52
d6
82
87
4c
b4
c3
6b
e6
4f
fb
f1
0d
ed
1f
c8
01
e5
fe
8b
2c
ff
0e
39
e2
da
cd
52
d6
82
87
4c
b4
c3
6b
e6
4f
fb
f1
0d
ed
1f
c8
01
e5
fe
8b
2c
ff
0e
39
e2
da
cd
52
d6
82
87
4c
b4
c3
6b
e6
4f
fb
f1
0d
ed
1f
c8
01
e5
fe
8b
2c
ff
0e
39
e2
da
cd
52
d6
82
87
4c
b4
c3
6b
e6
4f
fb
f1
0d
ed
1f
c8
01
e5
fe
8b
2c
ff
0e
39
e2
da
cd
52
d6
82
87
4c
b4
c3
6b
e6
4f
fb
f1
0d
ed
1f
c8
01
e5
fe
8b
2c
ff
0e
39
e2
da
cd
52
d6
82
87
4c
b4
c3
6b
e6
4f
fb
f1
0d
ed
1f
c8
01
e5
fe
8b
2c
ff
0e
39
e2
da
cd
52
d6
82
87
4c
b4
c3
6b
e6
4f
fb
f1
0d
ed
1f
c8
01
e5
fe
8b
2c
ff
0e
39
e2
da
cd
52
d6
82
87
4c
b4
c3
6b
e6
4f
fb
f1
0d
ed
1f
c8
01
e5
fe
8b
2c
ff
0e
39
e2
da
cd
52
d6
82
87
4c
b4
c3
6b
e6
4f
fb
f1
0d
ed
1f
c8
01
e5
fe
8b
2c
ff
0e
39
e2
da
cd
52
d6
82
87
4c
b4
c3
6b
e6
4f
fb
f1
0d
ed
1f
c8
01
e5
fe
8b
2c
ff
0e
39
e2
da
cd
52
d6
82
87
4c
b4
c3
6b
e6
4f
fb
f1
0d
ed
1f
c8
01
e5
fe
8b
2c
ff
0e
39
e2
da
cd
52
d6
82
87
4c
b4
c3
6b
e6
4f
fb
f1
0d
ed
1f
c8
01
e5
fe
8b
2c
ff
0e
39
e2
da
cd
52
d6
82
87
4c
b4
c3
6b
e6
4f
fb
f1
0d
ed
1f
c8
01
e5
fe
8b
2c
ff
0e
39
e2
da
cd
52
d6
82
87
4c
b4
c3
6b
e6
4f
fb
f1
0d
ed
1f
c8
01
e5
fe
8b
2c
ff
0e
39
e2
da
cd
52
d6
82
87
4c
b4
c3
6b
e6
4f
fb
f1
0d
ed
1f
c8
01
e5
fe
8b
2c
ff
0e
39
e2
da
cd
52
d6
82
87
4c
b4
c3
6b
e6
4f
fb
f1
0d
ed
1f
c8
01
e5
fe
8b
2c
ff
0e
39
e2
da
cd
52
d6
82
87
4c
b4
c3
6b
e6
4f
fb
f1
0d
ed
1f
c8
01
e5
fe
8b
2c
ff
0e
39
e2
da
cd
52
d6
82
87
4c
b4
c3
6b
e6
4f
fb
f1
0d
ed
1f
c8
01
e5
fe
8b
2c
ff
0e
39
e2
da
cd
52
d6
82
87
4c
b4
c3
6b
e6
4f
fb
f1
0d
ed
1f
c8
01
e5
fe
8b
2c
ff
0e
39
e2
da
cd
52
d6
82
87
4c
b4
c3
6b
e6
4f
fb
f1
0d
ed
1f
c8
01
e5
fe
8b
2c
ff
0e
39
e2
da
cd
52
d6
82
87
4c
b4
c3
6b
e6
4f
fb
f1
0d
ed
1f
c8
01
e5
fe
8b
2c
ff
0e
39
e2
da
cd
52
d6
82
87
4c
b4
c3
6b
e6
4f
fb
f1
0d
ed
1f
c8
01
e5
fe
8b
2c
ff
0e
39
e2
da
cd
52
d6
82
87
4c
b4
c3
6b
e6
4f
fb
f1
0d
ed
1f
c8
01
e5
fe
8b
2c
ff
0e
39
e2
da
cd
52
d6
82
87
4c
b4
c3
6b
e6
4f
fb
f1
0d
ed
1f
c8
01
e5
fe
8b
2c
ff
0e
39
e2
da
cd
52
d6
82
87
4c
b4
c3
6b
e6
4f
fb
f1
0d
ed
1f
c8
01
e5
fe
8b
2c
ff
0e
39
e2
da
cd
52
d6
82
87
4c
b4
c3
6b
e6
4f
fb
f1
0d
ed
1f
c8
01
e5
fe
8b
2c
ff
0e
39
e2
da
cd
52
d6
82
87
4c
b4
c3
6b
e6
4f
fb
f1
0d
ed
1f
c8
01
e5
fe
8b
2c
ff
0e
39
e2
da
cd
52
d6
82
87
4c
b4
c3
6b
e6
4f
fb
f1
0d
ed
1f
c8
01
e5
fe
8b
2c
ff
0e
39
e2
da
cd
52
d6
82
87
4c
b4
c3
6b
e6
4f
fb
f1
0d
ed
1f
c8
01
e5
fe
8b
2c
ff
0e
39
e2
da
cd
52
d6
82
87
4c
b4
c3
6b
e6
4f
fb
f1
0d
ed
1f
c8
01
e5
fe
8b
2c
ff
0e
39
e2
da
cd
52
d6
82
87
4c
b4
c3
6b
e6
4f
fb
f1
0d
ed
1f
c8
01
e5
fe
8b
2c
ff
0e
39
e2
da
cd
52
d6
82
87
4c
b4
c3
6b
e6
4f
fb
f1
0d
ed
1f
c8
01
e5
fe
8b
2c
ff
0e
39
e2
da
cd
52
d6
82
87
4c
b4
c3
6b
e6
4f
fb
f1
0d
ed
1f
c8
01
e5
fe
8b
2c
ff
0e
39
e2
da
cd
52
d6
82
87
4c
b4
c3
6b
e6
4f
fb
f1
0d
ed
1f
c8
01
e5
fe
8b
2c
ff
0e
39
e2
da
cd
52
d6
82
87
4c
b4
c3
6b
e6
4f
fb
f1
0d
ed
1f
c8
01
e5
fe
8b
2c
ff
0e
39
e2
da
cd
52
d6
82
87
4c
b4
c3
6b
e6
4f
fb
f1
0d
ed
1f
c8
01
e5
fe
8b
2c
ff
0e
39
e2
da
cd
52
d6
82
87
4c
b4
c3
6b
e6
4f
fb
f1
0d
ed
1f
c8
01
e5
fe
8b
2c
ff
0e
39
e2
da
cd
52
d6
82
87
4c
b4
c3
6b
e6
4f
fb
f1
0d
ed
1f
c8
01
e5
fe
8b
2c
ff
0e
39
e2
da
cd
52
d6
82
87
4c
b4
c3
6b
e6
4f
fb
f1
0d
ed
1f
c8
01
e5
fe
8b
2c
ff
0e
39
e2
da
cd
52
d6
82
87
4c
b4
c3
6b
e6
4f
fb
f1
0d
ed
1f
c8
01
e5
fe
8b
2c
ff
0e
39
e2
da
cd
52
d6
82
87
4c
b4
c3
6b
e6
4f
fb
f1
0d
ed
1f
c8
01
e5
fe
8b
2c
ff
0e
39
e2
da
cd
52
d6
82
87
4c
b4
c3
6b
e6
4f
fb
f1
0d
ed
1f
c8
01
e5
fe
8b
2c
ff
0e
39
e2
da
cd
52
d6
82
87
4c
b4
c3
6b
e6
4f
fb
f1
0d
ed
1f
c8
01
e5
fe
8b
2c
ff
0e
39
e2
da
cd
52
d6
82
87
4c
b4
c3
6b
e6
4f
fb
f1
0d
ed
1f
c8
01
e5
fe
8b
2c
ff
0e
39
e2
da
cd
52
d6
82
87
4c
b4
c3
6b
e6
4f
fb
f1
0d
ed
1f
c8
01
e5
fe
8b
2c
ff
0e
39
e2
da
cd
52
d6
82
87
4c
b4
c3
6b
e6
4f
fb
f1
0d
ed
1f
c8
01
e5
fe
8b
2c
ff
0e
39
e2
da
cd
52
d6
82
87
4c
b4
c3
6b
e6
4f
fb
f1
0d
ed
1f
c8
01
e5
fe
8b
2c
ff
0e
39
e2
da
cd
52
d6
82
87
4c
b4
c3
6b
e6
4f
fb
f1
0d
ed
1f
c8
01
e5
fe
8b
2c
ff
0e
39
e2
da
cd
52
d6
82
87
4c
b4
c3
6b
e6
4f
fb
f1
0d
ed
1f
c8
01
e5
fe
8b
2c
ff
0e
39
e2
da
cd
52
d6
82
87
4c
b4
c3
6b
e6
4f
fb
f1
0d
ed
1f
c8
01
e5
fe
8b
2c
ff
0e
39
e2
da
cd
52
d6
82
87
4c
b4
c3
6b
e6
4f
fb
f1
0d
ed
1f
c8
01
e5
fe
8b
2c
ff
0e
39
e2
da
cd
52
d6
82
87
4c
b4
c3
6b
e6
4f
fb
f1
0d
ed
1f
c8
01
e5
fe
8b
2c
ff
0e
39
e2
da
cd
52
d6
82
87
4c
b4
c3
6b
e6
4f
fb
f1
0d
ed
1f
c8
01
e5
fe
8b
2c
ff
0e
39
e2
da
cd
52
d6
82
87
4c
b4
c3
6b
e6
4f
fb
f1
0d
ed
1f
c8
01
e5
fe
8b
2c
ff
0e
39
e2
da
cd
52
d6
82
87
4c
b4
c3
6b
e6
4f
fb
f1
0d
ed
1f
c8
01
e5
fe
8b
2c
ff
0e
39
e2
da
cd
52
d6
82
87
4c
b4
c3
6b
e6
4f
fb
f1
0d
ed
1f
c8
01
e5
fe
8b
2c
ff
0e
39
e2
da
cd
52
d6
82
87
4c
b4
c3
6b
e6
4f
fb
f1
0d
ed
1f
c8
01
e5
fe
8b
2c
ff
0e
39
e2
da
cd
52
d6
82
87
4c
b4
c3
6b
e6
4f
fb
f1
0d
ed
1f
c8
01
e5
fe
8b
2c
ff
0e
39
e2
da
cd
52
d6
82
87
4c
b4
c3
6b
e6
4f
fb
f1
0d
ed
1f
c8
01
e5
fe
8b
2c
ff
0e
39
e2
da
cd
52
d6
82
87
4c
b4
c3
6b
e6
4f
fb
f1
0d
ed
1f
c8
01
e5
fe
8b
2c
ff
0e
39
e2
da
cd
52
d6
82
87
4c
b4
c3
6b
e6
4f
fb
f1
0d
ed
1f
c8
01
e5
fe
8b
2c
ff
0e
39
e2
da
cd
52
d6
82
87
4c
b4
c3
6b
e6
4f
fb
f1
0d
ed
1f
c8
01
e5
fe
8b
2c
ff
0e
39
e2
da
cd
52
d6
82
87
4c
b4
c3
6b
e6
4f
fb
f1
0d
ed
1f
c8
01
e5
fe
8b
2c
ff
0e
39
e2
da
cd
52
d6
82
87
4c
b4
c3
6b
e6
4f
fb
f1
0d
ed
1f
c8
01
e5
fe
8b
2c
ff
0e
39
e2
da
cd
52
d6
82
87
4c
b4
c3
6b
e6
4f
fb
f1
0d
ed
1f
c8
01
e5
fe
8b
2c
ff
0e
39
e2
da
cd
52
d6
82
87
4c
b4
c3
6b
e6
4f
fb
f1
0d
ed
1f
c8
01
e5
fe
8b
2c
ff
0e
39
e2
da
cd
52
d6
82
87
4c
b4
c3
6b
e6
4f
fb
f1
0d
ed
1f
c8
01
e5
fe
8b
2c
ff
0e
39
e2
da
cd
52
d6
82
87
4c
b4
c3
6b
e6
4f
fb
f1
0d
ed
1f
c8
01
e5
fe
8b
2c
ff
0e
39
e2
da
cd
52
d6
82
87
4c
b4
c3
6b
e6
4f
fb
f1
0d
ed
1f
c8
01
e5
fe
8b
2c
ff
0e
39
e2
da
cd
52
d6
82
87
4c
b4
c3
6b
e6
4f
fb
f1
0d
ed
1f
c8
01
e5
fe
8b
2c
ff
0e
39
e2
da
cd
52
d6
82
87
4c
b4
c3
6b
e6
4f
fb
f1
0d
ed
1f
c8
01
e5
fe
8b
2c
ff
0e
39
e2
da
cd
52
d6
82
87
4c
b4
c3
6b
e6
4f
fb
f1
0d
ed
1f
c8
01
e5
fe
8b
2c
ff
0e
39
e2
da
cd
52
d6
82
87
4c
b4
c3
6b
e6
4f
fb
f1
0d
ed
1f
c8
01
e5
fe
8b
2c
ff
0e
39
e2
da
cd
52
d6
82
87
4c
b4
c3
6b
e6
4f
fb
f1
0d
ed
1f
c8
01
e5
fe
8b
2c
ff
0e
39
e2
da
cd
52
d6
82
87
4c
b4
c3
6b
e6
4f
fb
f1
0d
ed
1f
c8
01
e5
fe
8b
2c
ff
0e
39
e2
da
cd
52
d6
82
87
4c
b4
c3
6b
e6
4f
fb
f1
0d
ed
1f
c8
01
e5
fe
8b
2c
ff
0e
39
e2
da
cd
52
d6
82
87
4c
b4
c3
6b
e6
4f
fb
f1
0d
ed
1f
c8
01
e5
fe
8b
2c
ff
0e
39
e2
da
cd
52
d6
82
87
4c
b4
c3
6b
e6
4f
fb
f1
0d
ed
1f
c8
01
e5
fe
8b
2c
ff
0e
39
e2
da
cd
52
d6
82
87
4c
b4
c3
6b
e6
4f
fb
f1
0d
ed
1f
c8
01
e5
fe
8b
2c
ff
0e
39
e2
da
cd
52
d6
82
87
4c
b4
c3
6b
e6
4f
fb
f1
0d
ed
1f
c8
01
e5
fe
8b
2c
ff
0e
39
e2
da
cd
52
d6
82
87
4c
b4
c3
6b
e6
4f
fb
f1
0d
ed
1f
c8
01
e5
fe
8b
2c
ff
0e
39
e2
da
cd
52
d6
82
87
4c
b4
c3
6b
e6
4f
fb
f1
0d
ed
1f
c8
01
e5
fe
8b
2c
ff
0e
39
e2
da
cd
52
d6
82
87
4c
b4
c3
6b
e6
4f
fb
f1
0d
ed
1f
c8
01
e5
fe
8b
2c
ff
0e
39
e2
da
cd
52
d6
82
87
4c
b4
c3
6b
e6
4f
fb
f1
0d
ed
1f
c8
01
e5
fe
8b
2c
ff
0e
39
e2
da
cd
52
d6
82
87
4c
b4
c3
6b
e6
4f
fb
f1
0d
ed
1f
c8
01
e5
fe
8b
2c
ff
0e
39
e2
da
cd
52
d6
82
87
4c
b4
c3
6b
e6
4f
fb
f1
0d
ed
1f
c8
01
e5
fe
8b
2c
ff
0e
39
e2
da
cd
52
d6
82
87
4c
b4
c3
6b
e6
4f
fb
f1
0d
ed
1f
c8
01
e5
fe
8b
2c
ff
0e
39
e2
da
cd
52
d6
82
87
4c
b4
c3
6b
e6
4f
fb
f1
0d
ed
1f
c8
01
e5
fe
8b
2c
ff
0e
39
e2
da
cd
52
d6
82
87
4c
b4
c3
6b
e6
4f
fb
f1
0d
ed
1f
c8
01
e5
fe
8b
2c
ff
0e
39
e2
da
cd
52
d6
82
87
4c
b4
c3
6b
e6
4f
fb
f1
0d
ed
1f
c8
01
e5
fe
8b
2c
ff
0e
39
e2
da
cd
52
d6
82
87
4c
b4
c3
6b
e6
4f
fb
f1
0d
ed
1f
c8
01
e5
fe
8b
2c
ff
0e
39
e2
da
cd
52
d6
82
87
4c
b4
c3
6b
e6
4f
fb
f1
0d
ed
1f
c8
01
e5
fe
8b
2c
ff
0e
39
e2
da
cd
52
d6
82
87
4c
b4
c3
6b
e6
4f
fb
f1
0d
ed
1f
c8
01
e5
fe
8b
2c
ff
0e
39
e2
da
cd
52
d6
82
87
4c
b4
c3
6b
e6
4f
fb
f1
0d
ed
1f
c8
01
e5
fe
8b
2c
ff
0e
39
e2
da
cd
52
d6
82
87
4c
b4
c3
6b
e6
4f
fb
f1
0d
ed
1f
c8
01
e5
fe
8b
2c
ff
0e
39
e2
da
cd
52
d6
82
87
4c
b4
c3
6b
e6
4f
fb
f1
0d
ed
1f
c8
01
e5
fe
8b
2c
ff
0e
39
e2
da
cd
52
d6
82
87
4c
b4
c3
6b
e6
4f
fb
f1
0d
ed
1f
c8
01
e5
fe
8b
2c
ff
0e
39
e2
da
cd
52
d6
82
87
4c
b4
c3
6b
e6
4f
fb
f1
0d
ed
1f
c8
01
e5
fe
8b
2c
ff
0e
39
e2
da
cd
52
d6
82
87
4c
b4
c3
6b
e6
4f
fb
f1
0d
ed
1f
c8
01
e5
fe
8b
2c
ff
0e
39
e2
da
cd
52
d6
82
87
4c
b4
c3
6b
e6
4f
fb
f1
0d
ed
1f
c8
01
e5
fe
8b
2c
ff
0e
39
e2
da
cd
52
d6
82
87
4c
b4
c3
6b
e6
4f
fb
f1
0d
ed
1f
c8
01
e5
fe
8b
2c
ff
0e
39
e2
da
cd
52
d6
82
87
4c
b4
c3
6b
e6
4f
fb
f1
0d
ed
1f
c8
01
e5
fe
8b
2c
ff
0e
39
e2
da
cd
52
d6
82
87
4c
b4
c3
6b
e6
4f
fb
f1
0d
ed
1f
c8
01
e5
fe
8b
2c
ff
0e
39
e2
da
cd
52
d6
82
87
4c
b4
c3
6b
e6
4f
fb
f1
0d
ed
1f
c8
01
e5
fe
8b
2c
ff
0e
39
e2
da
cd
52
d6
82
87
4c
b4
c3
6b
e6
4f
fb
f1
0d
ed
1f
c8
01
e5
fe
8b
2c
ff
0e
39
e2
da
cd
52
d6
82
87
4c
b4
c3
6b
e6
4f
fb
f1
0d
ed
1f
c8
01
e5
fe
8b
2c
ff
0e
39
e2
da
cd
52
d6
82
87
4c
b4
c3
6b
e6
4f
fb
f1
0d
ed
1f
c8
01
e5
fe
8b
2c
ff
0e
39
e2
da
cd
52
d6
82
87
4c
b4
c3
6b
e6
4f
fb
f1
0d
ed
1f
c8
01
e5
fe
8b
2c
ff
0e
39
e2
da
cd
52
d6
82
87
4c
b4
c3
6b
e6
4f
fb
f1
0d
ed
1f
c8
01
e5
fe
8b
2c
ff
0e
39
e2
da
cd
52
d6
82
87
4c
b4
c3
6b
e6
4f
fb
f1
0d
ed
1f
c8
01
e5
fe
8b
2c
ff
0e
39
e2
da
cd
52
d6
82
87
4c
b4
c3
6b
e6
4f
fb
f1
0d
ed
1f
c8
01
e5
fe
8b
2c
ff
0e
39
e2
da
cd
52
d6
82
87
4c
b4
c3
6b
e6
4f
fb
f1
0d
ed
1f
c8
01
e5
fe
8b
2c
ff
0e
39
e2
da
cd
52
d6
82
87
4c
b4
c3
6b
e6
4f
fb
f1
0d
ed
1f
c8
01
e5
fe
8b
2c
ff
0e
39
e2
da
cd
52
d6
82
87
4c
b4
c3
6b
e6
4f
fb
f1
0d
ed
1f
c8
01
e5
fe
8b
2c
ff
0e
39
e2
da
cd
52
d6
82
87
4c
b4
c3
6b
e6
4f
fb
f1
0d
ed
1f
c8
01
e5
fe
8b
2c
ff
0e
39
e2
da
cd
52
d6
82
87
4c
b4
c3
6b
e6
4f
fb
f1
0d
ed
1f
c8
01
e5
fe
8b
2c
ff
0e
39
e2
da
cd
52
d6
82
87
4c
b4
c3
6b
e6
4f
fb
f1
0d
ed
1f
c8
01
e5
fe
8b
2c
ff
0e
39
e2
da
cd
52
d6
82
87
4c
b4
c3
6b
e6
4f
fb
f1
0d
ed
1f
c8
01
e5
fe
8b
2c
ff
0e
39
e2
da
cd
52
d6
82
87
4c
b4
c3
6b
e6
4f
fb
f1
0d
ed
1f
c8
01
e5
fe
8b
2c
ff
0e
39
e2
da
cd
52
d6
82
87
4c
b4
c3
6b
e6
4f
fb
f1
0d
ed
1f
c8
01
e5
fe
8b
2c
ff
0e
39
e2
da
cd
52
d6
82
87
4c
b4
c3
6b
e6
4f
fb
f1
0d
ed
1f
c8
01
e5
fe
8b
2c
ff
0e
39
e2
da
cd
52
d6
82
87
4c
b4
c3
6b
e6
4f
fb
f1
0d
ed
1f
c8
01
e5
fe
8b
2c
ff
0e
39
e2
da
cd
52
d6
82
87
4c
b4
c3
6b
e6
4f
fb
f1
0d
ed
1f
c8
01
e5
fe
8b
2c
ff
0e
39
e2
da
cd
52
d6
82
87
4c
b4
c3
6b
e6
4f
fb
f1
0d
ed
1f
c8
01
e5
fe
8b
2c
ff
0e
39
e2
da
cd
52
d6
82
87
4c
b4
c3
6b
e6
4f
fb
f1
0d
ed
1f
c8
01
e5
fe
8b
2c
ff
0e
39
e2
da
cd
52
d6
82
87
4c
b4
c3
6b
e6
4f
fb
f1
0d
ed
1f
c8
01
e5
fe
8b
2c
ff
0e
39
e2
da
cd
52
d6
82
87
4c
b4
c3
6b
e6
4f
fb
f1
0d
ed
1f
c8
01
e5
fe
8b
2c
ff
0e
39
e2
da
cd
52
d6
82
87
4c
b4
c3
6b
e6
4f
fb
f1
0d
ed
1f
c8
01
e5
fe
8b
2c
ff
0e
39
e2
da
cd
52
d6
82
87
4c
b4
c3
6b
e6
4f
fb
f1
0d
ed
1f
c8
01
e5
fe
8b
2c
ff
0e
39
e2
da
cd
52
d6
82
87
4c
b4
c3
6b
e6
4f
fb
f1
0d
ed
1f
c8
01
e5
fe
8b
2c
ff
0e
39
e2
da
cd
52
d6
82
87
4c
b4
c3
6b
e6
4f
fb
f1
0d
ed
1f
c8
01
e5
fe
8b
2c
ff
0e
39
e2
da
cd
52
d6
82
87
4c
b4
c3
6b
e6
4f
fb
f1
0d
ed
1f
c8
01
e5
fe
8b
2c
ff
0e
39
e2
da
cd
52
d6
82
87
4c
b4
c3
6b
e6
4f
fb
f1
0d
ed
1f
c8
01
e5
fe
8b
2c
ff
0e
39
e2
da
cd
52
d6
82
87
4c
b4
c3
6b
e6
4f
fb
f1
0d
ed
1f
c8
01
e5
fe
8b
2c
ff
0e
39
e2
da
cd
52
d6
82
87
4c
b4
c3
6b
e6
4f
fb
f1
0d
ed
1f
c8
01
e5
fe
8b
2c
ff
0e
39
e2
da
cd
52
d6
82
87
4c
b4
c3
6b
e6
4f
fb
f1
0d
ed
1f
c8
01
e5
fe
8b
2c
ff
0e
39
e2
da
cd
52
d6
82
87
4c
b4
c3
6b
e6
4f
fb
f1
0d
ed
1f
c8
01
e5
fe
8b
2c
ff
0e
39
e2
da
cd
52
d6
82
87
4c
b4
c3
6b
e6
4f
fb
f1
0d
ed
1f
c8
01
e5
fe
8b
2c
ff
0e
39
e2
da
cd
52
d6
82
87
4c
b4
c3
6b
e6
4f
fb
f1
0d
ed
1f
c8
01
e5
fe
8b
2c
ff
0e
39
e2
da
cd
52
d6
82
87
4c
b4
c3
6b
e6
4f
fb
f1
0d
ed
1f
c8
01
e5
fe
8b
2c
ff
0e
39
e2
da
cd
52
d6
82
87
4c
b4
c3
6b
e6
4f
fb
f1
0d
ed
1f
c8
01
e5
fe
8b
2c
ff
0e
39
e2
da
cd
52
d6
82
87
4c
b4
c3
6b
e6
4f
fb
f1
0d
ed
1f
c8
01
e5
fe
8b
2c
ff
0e
39
e2
da
cd
52
d6
82
87
4c
b4
c3
6b
e6
4f
fb
f1
0d
ed
1f
c8
01
e5
fe
8b
2c
ff
0e
39
e2
da
cd
52
d6
82
87
4c
b4
c3
6b
e6
4f
fb
f1
0d
ed
1f
c8
01
e5
fe
8b
2c
ff
0e
39
e2
da
cd
52
d6
82
87
4c
b4
c3
6b
e6
4f
fb
f1
0d
ed
1f
c8
01
e5
fe
8b
2c
ff
0e
39
e2
da
cd
52
d6
82
87
4c
b4
c3
6b
e6
4f
fb
f1
0d
ed
1f
c8
01
e5
fe
8b
2c
ff
0e
39
e2
da
cd
52
d6
82
87
4c
b4
c3
6b
e6
4f
fb
f1
0d
ed
1f
c8
01
e5
fe
8b
2c
ff
0e
39
e2
da
cd
52
d6
82
87
4c
b4
c3
6b
e6
4f
fb
f1
0d
ed
1f
c8
01
e5
fe
8b
2c
ff
0e
39
e2
da
cd
52
d6
82
87
4c
b4
c3
6b
e6
4f
fb
f1
0d
ed
1f
c8
01
e5
fe
8b
2c
ff
0e
39
e2
da
cd
52
d6
82
87
4c
b4
c3
6b
e6
4f
fb
f1
0d
ed
1f
c8
01
e5
fe
8b
2c
ff
0e
39
e2
da
cd
52
d6
82
87
4c
b4
c3
6b
e6
4f
fb
f1
0d
ed
1f
c8
01
e5
fe
8b
2c
ff
0e
39
e2
da
cd
52
d6
82
87
4c
b4
c3
6b
e6
4f
fb
f1
0d
ed
1f
c8
01
e5
fe
8b
2c
ff
0e
39
e2
da
cd
52
d6
82
87
4c
b4
c3
6b
e6
4f
fb
f1
0d
ed
1f
c8
01
e5
fe
8b
2c
ff
0e
39
e2
da
cd
52
d6
82
87
4c
b4
c3
6b
e6
4f
fb
f1
0d
ed
1f
c8
01
e5
fe
8b
2c
ff
0e
39
e2
da
cd
52
d6
82
87
4c
b4
c3
6b
e6
4f
fb
f1
0d
ed
1f
c8
01
e5
fe
8b
2c
ff
0e
39
e2
da
cd
52
d6
82
87
4c
b4
c3
6b
e6
4f
fb
f1
0d
ed
1f
c8
01
e5
fe
8b
2c
ff
0e
39
e2
da
cd
52
d6
82
87
4c
b4
c3
6b
e6
4f
fb
f1
0d
ed
1f
c8
01
e5
fe
8b
2c
ff
0e
39
e2
da
cd
52
d6
82
87
4c
b4
c3
6b
e6
4f
fb
f1
0d
ed
1f
c8
01
e5
fe
8b
2c
ff
0e
39
e2
da
cd
52
d6
82
87
4c
b4
c3
6b
e6
4f
fb
f1
0d
ed
1f
c8
01
e5
fe
8b
2c
ff
0e
39
e2
da
cd
52
d6
82
87
4c
b4
c3
6b
e6
4f
fb
f1
0d
ed
1f
c8
01
e5
fe
8b
2c
ff
0e
39
e2
da
cd
52
d6
82
87
4c
b4
c3
6b
e6
4f
fb
f1
0d
ed
1f
c8
01
e5
fe
8b
2c
ff
0e
39
e2
da
cd
52
d6
82
87
4c
b4
c3
6b
e6
4f
fb
f1
0d
ed
1f
c8
01
e5
fe
8b
2c
ff
0e
39
e2
da
cd
52
d6
82
87
4c
b4
c3
6b
e6
4f
fb
f1
0d
ed
1f
c8
01
e5
fe
8b
2c
ff
0e
39
e2
da
cd
52
d6
82
87
4c
b4
c3
6b
e6
4f
fb
f1
0d
ed
1f
c8
01
e5
fe
8b
2c
ff
0e
39
e2
da
cd
52
d6
82
87
4c
b4
c3
6b
e6
4f
fb
f1
0d
ed
1f
c8
01
e5
fe
8b
2c
ff
0e
39
e2
da
cd
52
d6
82
87
4c
b4
c3
6b
e6
4f
fb
f1
0d
ed
1f
c8
01
e5
fe
8b
2c
ff
0e
39
e2
da
cd
52
d6
82
87
4c
b4
c3
6b
e6
4f
fb
f1
0d
ed
1f
c8
01
e5
fe
8b
2c
ff
0e
39
e2
da
cd
52
d6
82
87
4c
b4
c3
6b
e6
4f
fb
f1
0d
ed
1f
c8
01
e5
fe
8b
2c
ff
0e
39
e2
da
cd
52
d6
82
87
4c
b4
c3
6b
e6
4f
fb
f1
0d
ed
1f
c8
01
e5
fe
8b
2c
ff
0e
39
e2
da
cd
52
d6
82
87
4c
b4
c3
6b
e6
4f
fb
f1
0d
ed
1f
c8
01
e5
fe
8b
2c
ff
0e
39
e2
da
cd
52
d6
82
87
4c
b4
c3
6b
e6
4f
fb
f1
0d
ed
1f
c8
01
e5
fe
8b
2c
ff
0e
39
e2
da
cd
52
d6
82
87
4c
b4
c3
6b
e6
4f
fb
f1
0d
ed
1f
c8
01
e5
fe
8b
2c
ff
0e
39
e2
da
cd
52
d6
82
87
4c
b4
c3
6b
e6
4f
fb
f1
0d
ed
1f
c8
01
e5
fe
8b
2c
ff
0e
39
e2
da
cd
52
d6
82
87
4c
b4
c3
6b
e6
4f
fb
f1
0d
ed
1f
c8
01
e5
fe
8b
2c
ff
0e
39
e2
da
cd
52
d6
82
87
4c
b4
c3
6b
e6
4f
fb
f1
0d
ed
1f
c8
01
e5
fe
8b
2c
ff
0e
39
e2
da
cd
52
d6
82
87
4c
b4
c3
6b
e6
4f
fb
f1
0d
ed
1f
c8
01
e5
fe
8b
2c
ff
0e
39
e2
da
cd
52
d6
82
87
4c
b4
c3
6b
e6
4f
fb
f1
0d
ed
1f
c8
01
e5
fe
8b
2c
ff
0e
39
e2
da
cd
52
d6
82
87
4c
b4
c3
6b
e6
4f
fb
f1
0d
ed
1f
c8
01
e5
fe
8b
2c
ff
0e
39
e2
da
cd
52
d6
82
87
4c
b4
c3
6b
e6
4f
fb
f1
0d
ed
1f
c8
01
e5
fe
8b
2c
ff
0e
39
e2
da
cd
52
d6
82
87
4c
b4
c3
6b
e6
4f
fb
f1
0d
ed
1f
c8
01
e5
fe
8b
2c
ff
0e
39
e2
da
cd
52
d6
82
87
4c
b4
c3
6b
e6
4f
fb
f1
0d
ed
1f
c8
01
e5
fe
8b
2c
ff
0e
39
e2
da
cd
52
d6
82
87
4c
b4
c3
6b
e6
4f
fb
f1
0d
ed
1f
c8
01
e5
fe
8b
2c
ff
0e
39
e2
da
cd
52
d6
82
87
4c
b4
c3
6b
e6
4f
fb
f1
0d
ed
1f
c8
01
e5
fe
8b
2c
ff
0e
39
e2
da
cd
52
d6
82
87
4c
b4
c3
6b
e6
4f
fb
f1
0d
ed
1f
c8
01
e5
fe
8b
2c
ff
0e
39
e2
da
cd
52
d6
82
87
4c
b4
c3
6b
e6
4f
fb
f1
0d
ed
1f
c8
01
e5
fe
8b
2c
ff
0e
39
e2
da
cd
52
d6
82
87
4c
b4
c3
6b
e6
4f
fb
f1
0d
ed
1f
c8
01
e5
fe
8b
2c
ff
0e
39
e2
da
cd
52
d6
82
87
4c
b4
c3
6b
e6
4f
fb
f1
0d
ed
1f
c8
01
e5
fe
8b
2c
ff
0e
39
e2
da
cd
52
d6
82
87
4c
b4
c3
6b
e6
4f
fb
f1
0d
ed
1f
c8
01
e5
fe
8b
2c
ff
0e
39
e2
da
cd
52
d6
82
87
4c
b4
c3
6b
e6
4f
fb
f1
0d
ed
1f
c8
01
e5
fe
8b
2c
ff
0e
39
e2
da
cd
52
d6
82
87
4c
b4
c3
6b
e6
4f
fb
f1
0d
ed
1f
c8
01
e5
fe
8b
2c
ff
0e
39
e2
da
cd
52
d6
82
87
4c
b4
c3
6b
e6
4f
fb
f1
0d
ed
1f
c8
01
e5
fe
8b
2c
ff
0e
39
e2
da
cd
52
d6
82
87
4c
b4
c3
6b
e6
4f
fb
f1
0d
ed
1f
c8
01
e5
fe
8b
2c
ff
0e
39
e2
da
cd
52
d6
82
87
4c
b4
c3
6b
e6
4f
fb
f1
0d
ed
1f
c8
01
e5
fe
8b
2c
ff
0e
39
e2
da
cd
52
d6
82
87
4c
b4
c3
6b
e6
4f
fb
f1
0d
ed
1f
c8
01
e5
fe
8b
2c
ff
0e
39
e2
da
cd
52
d6
82
87
4c
b4
c3
6b
e6
4f
fb
f1
0d
ed
1f
c8
01
e5
fe
8b
2c
ff
0e
39
e2
da
cd
52
d6
82
87
4c
b4
c3
6b
e6
4f
fb
f1
0d
ed
1f
c8
01
e5
fe
8b
2c
ff
0e
39
e2
da
cd
52
d6
82
87
4c
b4
c3
6b
e6
4f
fb
f1
0d
ed
1f
c8
01
e5
fe
8b
2c
ff
0e
39
e2
da
cd
52
d6
82
87
4c
b4
c3
6b
e6
4f
fb
f1
0d
ed
1f
c8
01
e5
fe
8b
2c
ff
0e
39
e2
da
cd
52
d6
82
87
4c
b4
c3
6b
e6
4f
fb
f1
0d
ed
1f
c8
01
e5
fe
8b
2c
ff
0e
39
e2
da
cd
52
d6
82
87
4c
b4
c3
6b
e6
4f
fb
f1
0d
ed
1f
c8
01
e5
fe
8b
2c
ff
0e
39
e2
da
cd
52
d6
82
87
4c
b4
c3
6b
e6
4f
fb
f1
0d
ed
1f
c8
01
e5
fe
8b
2c
ff
0e
39
e2
da
cd
52
d6
82
87
4c
b4
c3
6b
e6
4f
fb
f1
0d
ed
1f
c8
01
e5
fe
8b
2c
ff
0e
39
e2
da
cd
52
d6
82
87
4c
b4
c3
6b
e6
4f
fb
f1
0d
ed
1f
c8
01
e5
fe
8b
2c
ff
0e
39
e2
da
cd
52
d6
82
87
4c
b4
c3
6b
e6
4f
fb
f1
0d
ed
1f
c8
01
e5
fe
8b
2c
ff
0e
39
e2
da
cd
52
d6
82
87
4c
b4
c3
6b
e6
4f
fb
f1
0d
ed
1f
c8
01
e5
fe
8b
2c
ff
0e
39
e2
da
cd
52
d6
82
87
4c
b4
c3
6b
e6
4f
fb
f1
0d
ed
1f
c8
01
e5
fe
8b
2c
ff
0e
39
e2
da
cd
52
d6
82
87
4c
b4
c3
6b
e6
4f
fb
f1
0d
ed
1f
c8
01
e5
fe
8b
2c
ff
0e
39
e2
da
cd
52
d6
82
87
4c
b4
c3
6b
e6
4f
fb
f1
0d
ed
1f
c8
01
e5
fe
8b
2c
ff
0e
39
e2
da
cd
52
d6
82
87
4c
b4
c3
6b
e6
4f
fb
f1
0d
ed
1f
c8
01
e5
fe
8b
2c
ff
0e
39
e2
da
cd
52
d6
82
87
4c
b4
c3
6b
e6
4f
fb
f1
0d
ed
1f
c8
01
e5
fe
8b
2c
ff
0e
39
e2
da
cd
52
d6
82
87
4c
b4
c3
6b
e6
4f
fb
f1
0d
ed
1f
c8
01
e5
fe
8b
2c
ff
0e
39
e2
da
cd
52
d6
82
87
4c
b4
c3
6b
e6
4f
fb
f1
0d
ed
1f
c8
01
e5
fe
8b
2c
ff
0e
39
e2
da
cd
52
d6
82
87
4c
b4
c3
6b
e6
4f
fb
f1
0d
ed
1f
c8
01
e5
fe
8b
2c
ff
0e
39
e2
da
cd
52
d6
82
87
4c
b4
c3
6b
e6
4f
fb
f1
0d
ed
1f
c8
01
e5
fe
8b
2c
ff
0e
39
e2
da
cd
52
d6
82
87
4c
b4
c3
6b
e6
4f
fb
f1
0d
ed
1f
c8
01
e5
fe
8b
2c
ff
0e
39
e2
da
cd
52
d6
82
87
4c
b4
c3
6b
e6
4f
fb
f1
0d
ed
1f
c8
01
e5
fe
8b
2c
ff
0e
39
e2
da
cd
52
d6
82
87
4c
b4
c3
6b
e6
4f
fb
f1
0d
ed
1f
c8
01
e5
fe
8b
2c
ff
0e
39
e2
da
cd
52
d6
82
87
4c
b4
c3
6b
e6
4f
fb
f1
0d
ed
1f
c8
01
e5
fe
8b
2c
ff
0e
39
e2
da
cd
52
d6
82
87
4c
b4
c3
6b
e6
4f
fb
f1
0d
ed
1f
c8
01
e5
fe
8b
2c
ff
0e
39
e2
da
cd
52
d6
82
87
4c
b4
c3
6b
e6
4f
fb
f1
0d
ed
1f
c8
01
e5
fe
8b
2c
ff
0e
39
e2
da
cd
52
d6
82
87
4c
b4
c3
6b
e6
4f
fb
f1
0d
ed
1f
c8
01
e5
fe
8b
2c
ff
0e
39
e2
da
cd
52
d6
82
87
4c
b4
c3
6b
e6
4f
fb
f1
0d
ed
1f
c8
01
e5
fe
8b
2c
ff
0e
39
e2
da
cd
52
d6
82
87
4c
b4
c3
6b
e6
4f
fb
f1
0d
ed
1f
c8
01
e5
fe
8b
2c
ff
0e
39
e2
da
cd
52
d6
82
87
4c
b4
c3
6b
e6
4f
fb
f1
0d
ed
1f
c8
01
e5
fe
8b
2c
ff
0e
39
e2
da
cd
52
d6
82
87
4c
b4
c3
6b
e6
4f
fb
f1
0d
ed
1f
c8
01
e5
fe
8b
2c
ff
0e
39
e2
da
cd
52
d6
82
87
4c
b4
c3
6b
e6
4f
fb
f1
0d
ed
1f
c8
01
e5
fe
8b
2c
ff
0e
39
e2
da
cd
52
d6
82
87
4c
b4
c3
6b
e6
4f
fb
f1
0d
ed
1f
c8
01
e5
fe
8b
2c
ff
0e
39
e2
da
cd
52
d6
82
87
4c
b4
c3
6b
e6
4f
fb
f1
0d
ed
1f
c8
01
e5
fe
8b
2c
ff
0e
39
e2
da
cd
52
d6
82
87
4c
b4
c3
6b
e6
4f
fb
f1
0d
ed
1f
c8
01
e5
fe
8b
2c
ff
0e
39
e2
da
cd
52
d6
82
87
4c
b4
c3
6b
e6
4f
fb
f1
0d
ed
1f
c8
01
e5
fe
8b
2c
ff
0e
39
e2
da
cd
52
d6
82
87
4c
b4
c3
6b
e6
4f
fb
f1
0d
ed
1f
c8
01
e5
fe
8b
2c
ff
0e
39
e2
da
cd
52
d6
82
87
4c
b4
c3
6b
e6
4f
fb
f1
0d
ed
1f
c8
01
e5
fe
8b
2c
ff
0e
39
e2
da
cd
52
d6
82
87
4c
b4
c3
6b
e6
4f
fb
f1
0d
ed
1f
c8
01
e5
fe
8b
2c
ff
0e
39
e2
da
cd
52
d6
82
87
4c
b4
c3
6b
e6
4f
fb
f1
0d
ed
1f
c8
01
e5
fe
8b
2c
ff
0e
39
e2
da
cd
52
d6
82
87
4c
b4
c3
6b
e6
4f
fb
f1
0d
ed
1f
c8
01
e5
fe
8b
2c
ff
0e
39
e2
da
cd
52
d6
82
87
4c
b4
c3
6b
e6
4f
fb
f1
0d
ed
1f
c8
01
e5
fe
8b
2c
ff
0e
39
e2
da
cd
52
d6
82
87
4c
b4
c3
6b
e6
4f
fb
f1
0d
ed
1f
c8
01
e5
fe
8b
2c
ff
0e
39
e2
da
cd
52
d6
82
87
4c
b4
c3
6b
e6
4f
fb
f1
0d
ed
1f
c8
01
e5
fe
8b
2c
ff
0e
39
e2
da
cd
52
d6
82
87
4c
b4
c3
6b
e6
4f
fb
f1
0d
ed
1f
c8
01
e5
fe
8b
2c
ff
0e
39
e2
da
cd
52
d6
82
87
4c
b4
c3
6b
e6
4f
fb
f1
0d
ed
1f
c8
01
e5
fe
8b
2c
ff
0e
39
e2
da
cd
52
d6
82
87
4c
b4
c3
6b
e6
4f
fb
f1
0d
ed
1f
c8
01
e5
fe
8b
2c
ff
0e
39
e2
da
cd
52
d6
82
87
4c
b4
c3
6b
e6
4f
fb
f1
0d
ed
1f
c8
01
e5
fe
8b
2c
ff
0e
39
e2
da
cd
52
d6
82
87
4c
b4
c3
6b
e6
4f
fb
f1
0d
ed
1f
c8
01
e5
fe
8b
2c
ff
0e
39
e2
da
cd
52
d6
82
87
4c
b4
c3
6b
e6
4f
fb
f1
0d
ed
1f
c8
01
e5
fe
8b
2c
ff
0e
39
e2
da
cd
52
d6
82
87
4c
b4
c3
6b
e6
4f
fb
f1
0d
ed
1f
c8
01
e5
fe
8b
2c
ff
0e
39
e2
da
cd
52
d6
82
87
4c
b4
c3
6b
e6
4f
fb
f1
0d
ed
1f
c8
01
e5
fe
8b
2c
ff
0e
39
e2
da
cd
52
d6
82
87
4c
b4
c3
6b
e6
4f
fb
f1
0d
ed
1f
c8
01
e5
fe
8b
2c
ff
0e
39
e2
da
cd
52
d6
82
87
4c
b4
c3
6b
e6
4f
fb
f1
0d
ed
1f
c8
01
e5
fe
10
b4
6d
ca
ca
73
ad
d4
8d
c7
18
97
7a
9e
fb
f8
72
a6
56
cc
86
fa
ec
9b
ae
00
96
10
b4
6d
ca
ca
73
ad
d4
8d
c7
18
97
7a
9e
fb
f8
72
a6
56
cc
86
fa
ec
9b
ae
00
96
10
b4
6d
ca
ca
73
ad
d4
8d
c7
18
97
7a
9e
fb
f8
72
a6
56
cc
86
fa
ec
9b
ae
00
96
10
b4
6d
ca
ca
73
ad
d4
8d
c7
18
97
7a
9e
fb
f8
72
a6
56
cc
86
fa
ec
9b
ae
00
96
10
b4
6d
ca
ca
73
ad
d4
8d
c7
18
97
7a
9e
fb
f8
72
a6
56
cc
86
fa
ec
9b
ae
00
96
10
b4
6d
ca
ca
73
ad
d4
8d
c7
18
97
7a
9e
fb
f8
72
a6
56
cc
86
fa
ec
9b
ae
00
96
10
b4
6d
ca
ca
73
ad
d4
8d
c7
18
97
7a
9e
fb
f8
72
a6
56
cc
86
fa
ec
9b
ae
00
96
10
b4
6d
ca
ca
73
ad
d4
8d
c7
18
97
7a
9e
fb
f8
72
a6
56
cc
86
fa
ec
9b
ae
00
96
10
b4
6d
ca
ca
73
ad
d4
8d
c7
18
97
7a
9e
fb
f8
72
a6
56
cc
86
fa
ec
9b
ae
00
96
10
b4
6d
ca
ca
73
ad
d4
8d
c7
18
97
7a
9e
fb
f8
72
a6
56
cc
86
fa
ec
9b
ae
00
96
10
b4
6d
ca
ca
73
ad
d4
8d
c7
18
97
7a
9e
fb
f8
72
a6
56
cc
86
fa
ec
9b
ae
00
96
10
b4
6d
ca
ca
73
ad
d4
8d
c7
18
97
7a
9e
fb
f8
72
a6
56
cc
86
fa
ec
9b
ae
00
96
10
b4
6d
ca
ca
73
ad
d4
8d
c7
18
97
7a
9e
fb
f8
72
a6
56
cc
86
fa
ec
9b
ae
00
96
10
b4
6d
ca
ca
73
ad
d4
8d
c7
18
97
7a
9e
fb
f8
72
a6
56
cc
86
fa
ec
9b
ae
00
96
10
b4
6d
ca
ca
73
ad
d4
8d
c7
18
97
7a
9e
fb
f8
72
a6
56
cc
86
fa
ec
9b
ae
00
96
10
b4
6d
ca
ca
73
ad
d4
8d
c7
18
97
7a
9e
fb
f8
72
a6
56
cc
86
fa
ec
9b
ae
00
96
10
b4
6d
ca
ca
73
ad
d4
8d
c7
18
97
7a
9e
fb
f8
72
a6
56
cc
86
fa
ec
9b
ae
00
96
10
b4
6d
ca
ca
73
ad
d4
8d
c7
18
97
7a
9e
fb
f8
72
a6
56
cc
86
fa
ec
9b
ae
00
96
10
b4
6d
ca
ca
73
ad
d4
8d
c7
18
97
7a
9e
fb
f8
72
a6
56
cc
86
fa
ec
9b
ae
00
96
10
b4
6d
ca
ca
73
ad
d4
8d
c7
18
97
7a
9e
fb
f8
72
a6
56
cc
86
fa
ec
9b
ae
00
96
10
b4
6d
ca
ca
73
ad
d4
8d
c7
18
97
7a
9e
fb
f8
72
a6
56
cc
86
fa
ec
9b
ae
00
96
10
b4
6d
ca
ca
73
ad
d4
8d
c7
18
97
7a
9e
fb
f8
72
a6
56
cc
86
fa
ec
9b
ae
00
96
10
b4
6d
ca
ca
73
ad
d4
8d
c7
18
97
7a
9e
fb
f8
72
a6
56
cc
86
fa
ec
9b
ae
00
96
10
b4
6d
ca
ca
73
ad
d4
8d
c7
18
97
7a
9e
fb
f8
72
a6
56
cc
86
fa
ec
9b
ae
00
96
10
b4
6d
ca
ca
73
ad
d4
8d
c7
18
97
7a
9e
fb
f8
72
a6
56
cc
86
fa
ec
9b
ae
00
96
10
b4
6d
ca
ca
73
ad
d4
8d
c7
18
97
7a
9e
fb
f8
72
a6
56
cc
86
fa
ec
9b
ae
00
96
10
b4
6d
ca
ca
73
ad
d4
8d
c7
18
97
7a
9e
fb
f8
72
a6
56
cc
86
fa
ec
9b
ae
00
96
10
b4
6d
ca
ca
73
ad
d4
8d
c7
18
97
7a
9e
fb
f8
72
a6
56
cc
86
fa
ec
9b
ae
00
96
10
b4
6d
ca
ca
73
ad
d4
8d
c7
18
97
7a
9e
fb
f8
72
a6
56
cc
86
fa
ec
9b
ae
00
96
10
b4
6d
ca
ca
73
ad
d4
8d
c7
18
97
7a
9e
fb
f8
72
a6
56
cc
86
fa
ec
9b
ae
00
96
10
b4
6d
ca
ca
73
ad
d4
8d
c7
18
97
7a
9e
fb
f8
72
a6
56
cc
86
fa
ec
9b
ae
00
96
10
b4
6d
ca
ca
73
ad
d4
8d
c7
18
97
7a
9e
fb
f8
72
a6
56
cc
86
fa
ec
9b
ae
00
96
10
b4
6d
ca
ca
73
ad
d4
8d
c7
18
97
7a
9e
fb
f8
72
a6
56
cc
86
fa
ec
9b
ae
00
96
10
b4
6d
ca
ca
73
ad
d4
8d
c7
18
97
7a
9e
fb
f8
72
a6
56
cc
86
fa
ec
9b
ae
00
96
10
b4
6d
ca
ca
73
ad
d4
8d
c7
18
97
7a
9e
fb
f8
72
a6
56
cc
86
fa
ec
9b
ae
00
96
10
b4
6d
ca
ca
73
ad
d4
8d
c7
18
97
7a
9e
fb
f8
72
a6
56
cc
86
fa
ec
9b
ae
00
96
10
b4
6d
ca
ca
73
ad
d4
8d
c7
18
97
7a
9e
fb
f8
72
a6
56
cc
86
fa
ec
9b
ae
00
96
10
b4
6d
ca
ca
73
ad
d4
8d
c7
18
97
7a
9e
fb
f8
72
a6
56
cc
86
fa
ec
9b
ae
00
96
10
b4
6d
ca
ca
73
ad
d4
8d
c7
18
97
7a
9e
fb
f8
72
a6
56
cc
86
fa
ec
9b
ae
00
96
10
b4
6d
ca
ca
73
ad
d4
8d
c7
18
97
7a
9e
fb
f8
72
a6
56
cc
86
fa
ec
9b
ae
00
96
10
b4
6d
ca
ca
73
ad
d4
8d
c7
18
97
7a
9e
fb
f8
72
a6
56
cc
86
fa
ec
9b
ae
00
96
10
b4
6d
ca
ca
73
ad
d4
8d
c7
18
97
7a
9e
fb
f8
72
a6
56
cc
86
fa
ec
9b
ae
00
96
10
b4
6d
ca
ca
73
ad
d4
8d
c7
18
97
7a
9e
fb
f8
72
a6
56
cc
86
fa
ec
9b
ae
00
96
10
b4
6d
ca
ca
73
ad
d4
8d
c7
18
97
7a
9e
fb
f8
72
a6
56
cc
86
fa
ec
9b
ae
00
96
10
b4
6d
ca
ca
73
ad
d4
8d
c7
18
97
7a
9e
fb
f8
72
a6
56
cc
86
fa
ec
9b
ae
00
96
10
b4
6d
ca
ca
73
ad
d4
8d
c7
18
97
7a
9e
fb
f8
72
a6
56
cc
86
fa
ec
9b
ae
00
96
10
b4
6d
ca
ca
73
ad
d4
8d
c7
18
97
7a
9e
fb
f8
72
a6
56
cc
86
fa
ec
9b
ae
00
96
10
b4
6d
ca
ca
73
ad
d4
8d
c7
18
97
7a
9e
fb
f8
72
a6
56
cc
86
fa
ec
9b
ae
00
96
10
b4
6d
ca
ca
73
ad
d4
8d
c7
18
97
7a
9e
fb
f8
72
a6
56
cc
86
fa
ec
9b
ae
00
96
10
b4
6d
ca
ca
73
ad
d4
8d
c7
18
97
7a
9e
fb
f8
72
a6
56
cc
86
fa
ec
9b
ae
00
96
10
b4
6d
ca
ca
73
ad
d4
8d
c7
18
97
7a
9e
fb
f8
72
a6
56
cc
86
fa
ec
9b
ae
00
96
10
b4
6d
ca
ca
73
ad
d4
8d
c7
18
97
7a
9e
fb
f8
72
a6
56
cc
86
fa
ec
9b
ae
00
96
10
b4
6d
ca
ca
73
ad
d4
8d
c7
18
97
7a
9e
fb
f8
72
a6
56
cc
86
fa
ec
9b
ae
00
96
10
b4
6d
ca
ca
73
ad
d4
8d
c7
18
97
7a
9e
fb
f8
72
a6
56
cc
86
fa
ec
9b
ae
00
96
10
b4
6d
ca
ca
73
ad
d4
8d
c7
18
97
7a
9e
fb
f8
72
a6
56
cc
86
fa
ec
9b
ae
00
96
10
b4
6d
ca
ca
73
ad
d4
8d
c7
18
97
7a
9e
fb
f8
72
a6
56
cc
86
fa
ec
9b
ae
00
96
10
b4
6d
ca
ca
73
ad
d4
8d
c7
18
97
7a
9e
fb
f8
72
a6
56
cc
86
fa
ec
9b
ae
00
96
10
b4
6d
ca
ca
73
ad
d4
8d
c7
18
97
7a
9e
fb
f8
72
a6
56
cc
86
fa
ec
9b
ae
00
96
10
b4
6d
ca
ca
73
ad
d4
8d
c7
18
97
7a
9e
fb
f8
72
a6
56
cc
86
fa
ec
9b
ae
00
96
10
b4
6d
ca
ca
73
ad
d4
8d
c7
18
97
7a
9e
fb
f8
72
a6
56
cc
86
fa
ec
9b
ae
00
96
10
b4
6d
ca
ca
73
ad
d4
8d
c7
18
97
7a
9e
fb
f8
72
a6
56
cc
86
fa
ec
9b
ae
00
96
10
b4
6d
ca
ca
73
ad
d4
8d
c7
18
97
7a
9e
fb
f8
72
a6
56
cc
86
fa
ec
9b
ae
00
96
10
b4
6d
ca
ca
73
ad
d4
8d
c7
18
97
7a
9e
fb
f8
72
a6
56
cc
86
fa
ec
9b
ae
00
96
10
b4
6d
ca
ca
73
ad
d4
8d
c7
18
97
7a
9e
fb
f8
72
a6
56
cc
86
fa
ec
9b
ae
00
96
10
b4
6d
ca
ca
73
ad
d4
8d
c7
18
97
7a
9e
fb
f8
72
a6
56
cc
86
fa
ec
9b
ae
00
96
10
b4
6d
ca
ca
73
ad
d4
8d
c7
18
97
7a
9e
fb
f8
72
a6
56
cc
86
fa
ec
9b
ae
00
96
10
b4
6d
ca
ca
73
ad
d4
8d
c7
18
97
7a
9e
fb
f8
72
a6
56
cc
86
fa
ec
9b
ae
00
96
10
b4
6d
ca
ca
73
ad
d4
8d
c7
18
97
7a
9e
fb
f8
72
a6
56
cc
86
fa
ec
9b
ae
00
96
10
b4
6d
ca
ca
73
ad
d4
8d
c7
18
97
7a
9e
fb
f8
72
a6
56
cc
86
fa
ec
9b
ae
00
96
10
b4
6d
ca
ca
73
ad
d4
8d
c7
18
97
7a
9e
fb
f8
72
a6
56
cc
86
fa
ec
9b
ae
00
96
10
b4
6d
ca
ca
73
ad
d4
8d
c7
18
97
7a
9e
fb
f8
72
a6
56
cc
86
fa
ec
9b
ae
00
96
10
b4
6d
ca
ca
73
ad
d4
8d
c7
18
97
7a
9e
fb
f8
72
a6
56
cc
86
fa
ec
9b
ae
00
96
10
b4
6d
ca
ca
73
ad
d4
8d
c7
18
97
7a
9e
fb
f8
72
a6
56
cc
86
fa
ec
9b
ae
00
96
10
b4
6d
ca
ca
73
ad
d4
8d
c7
18
97
7a
9e
fb
f8
72
a6
56
cc
86
fa
ec
9b
ae
00
96
10
b4
6d
ca
ca
73
ad
d4
8d
c7
18
97
7a
9e
fb
f8
72
a6
56
cc
86
fa
ec
9b
ae
00
96
10
b4
6d
ca
ca
73
ad
d4
8d
c7
18
97
7a
9e
fb
f8
72
a6
56
cc
86
fa
ec
9b
ae
00
96
10
b4
6d
ca
ca
73
ad
d4
8d
c7
18
97
7a
9e
fb
f8
72
a6
56
cc
86
fa
ec
9b
ae
00
96
10
b4
6d
ca
ca
73
ad
d4
8d
c7
18
97
7a
9e
fb
f8
72
a6
56
cc
86
fa
ec
9b
ae
00
96
10
b4
6d
ca
ca
73
ad
d4
8d
c7
18
97
7a
9e
fb
f8
72
a6
56
cc
86
fa
ec
9b
ae
00
96
10
b4
6d
ca
ca
73
ad
d4
8d
c7
18
97
7a
9e
fb
f8
72
a6
56
cc
86
fa
ec
9b
ae
00
96
10
b4
6d
ca
ca
73
ad
d4
8d
c7
18
97
7a
9e
fb
f8
72
a6
56
cc
86
fa
ec
9b
ae
00
96
10
b4
6d
ca
ca
73
ad
d4
8d
c7
18
97
7a
9e
fb
f8
72
a6
56
cc
86
fa
ec
9b
ae
00
96
10
b4
6d
ca
ca
73
ad
d4
8d
c7
18
97
7a
9e
fb
f8
72
a6
56
cc
86
fa
ec
9b
ae
00
96
10
b4
6d
ca
ca
73
ad
d4
8d
c7
18
97
7a
9e
fb
f8
72
a6
56
cc
86
fa
ec
9b
ae
00
96
10
b4
6d
ca
ca
73
ad
d4
8d
c7
18
97
7a
9e
fb
f8
72
a6
56
cc
86
fa
ec
9b
ae
00
96
10
b4
6d
ca
ca
73
ad
d4
8d
c7
18
97
7a
9e
fb
f8
72
a6
56
cc
86
fa
ec
9b
ae
00
96
10
b4
6d
ca
ca
73
ad
d4
8d
c7
18
97
7a
9e
fb
f8
72
a6
56
cc
86
fa
ec
9b
ae
00
96
10
b4
6d
ca
ca
73
ad
d4
8d
c7
18
97
7a
9e
fb
f8
72
a6
56
cc
86
fa
ec
9b
ae
00
96
10
b4
6d
ca
ca
73
ad
d4
8d
c7
18
97
7a
9e
fb
f8
72
a6
56
cc
86
fa
ec
9b
ae
00
96
10
b4
6d
ca
ca
73
ad
d4
8d
c7
18
97
7a
9e
fb
f8
72
a6
56
cc
86
fa
ec
9b
ae
00
96
10
b4
6d
ca
ca
73
ad
d4
8d
c7
18
97
7a
9e
fb
f8
72
a6
56
cc
86
fa
ec
9b
ae
00
96
10
b4
6d
ca
ca
73
ad
d4
8d
c7
18
97
7a
9e
fb
f8
72
a6
56
cc
86
fa
ec
9b
ae
00
96
10
b4
6d
ca
ca
73
ad
d4
8d
c7
18
97
7a
9e
fb
f8
72
a6
56
cc
86
fa
ec
9b
ae
00
96
10
b4
6d
ca
ca
73
ad
d4
8d
c7
18
97
7a
9e
fb
f8
72
a6
56
cc
86
fa
ec
9b
ae
00
96
10
b4
6d
ca
ca
73
ad
d4
8d
c7
18
97
7a
9e
fb
f8
72
a6
56
cc
86
fa
ec
9b
ae
00
96
10
b4
6d
ca
ca
73
ad
d4
8d
c7
18
97
7a
9e
fb
f8
72
a6
56
cc
86
fa
ec
9b
ae
00
96
10
b4
6d
ca
ca
73
ad
d4
8d
c7
18
97
7a
9e
fb
f8
72
a6
56
cc
86
fa
ec
9b
ae
00
96
10
b4
6d
ca
ca
73
ad
d4
8d
c7
18
97
7a
9e
fb
f8
72
a6
56
cc
86
fa
ec
9b
ae
00
96
10
b4
6d
ca
ca
73
ad
d4
8d
c7
18
97
7a
9e
fb
f8
72
a6
56
cc
86
fa
ec
9b
ae
00
96
10
b4
6d
ca
ca
73
ad
d4
8d
c7
18
97
7a
9e
fb
f8
72
a6
56
cc
86
fa
ec
9b
ae
00
96
10
b4
6d
ca
ca
73
ad
d4
8d
c7
18
97
7a
9e
fb
f8
72
a6
56
cc
86
fa
ec
9b
ae
00
96
10
b4
6d
ca
ca
73
ad
d4
8d
c7
18
97
7a
9e
fb
f8
72
a6
56
cc
86
fa
ec
9b
ae
00
96
10
b4
6d
ca
ca
73
ad
d4
8d
c7
18
97
7a
9e
fb
f8
72
a6
56
cc
86
fa
ec
9b
ae
00
96
10
b4
6d
ca
ca
73
ad
d4
8d
c7
18
97
7a
9e
fb
f8
72
a6
56
cc
86
fa
ec
9b
ae
00
96
10
b4
6d
ca
ca
73
ad
d4
8d
c7
18
97
7a
9e
fb
f8
72
a6
56
cc
86
fa
ec
9b
ae
00
96
10
b4
6d
ca
ca
73
ad
d4
8d
c7
18
97
7a
9e
fb
f8
72
a6
56
cc
86
fa
ec
9b
ae
00
96
10
b4
6d
ca
ca
73
ad
d4
8d
c7
18
97
7a
9e
fb
f8
72
a6
56
cc
86
fa
ec
9b
ae
00
96
10
b4
6d
ca
ca
73
ad
d4
8d
c7
18
97
7a
9e
fb
f8
72
a6
56
cc
86
fa
ec
9b
ae
00
96
10
b4
6d
ca
ca
73
ad
d4
8d
c7
18
97
7a
9e
fb
f8
72
a6
56
cc
86
fa
ec
9b
ae
00
96
10
b4
6d
ca
ca
73
ad
d4
8d
c7
18
97
7a
9e
fb
f8
72
a6
56
cc
86
fa
ec
9b
ae
00
96
10
b4
6d
ca
ca
73
ad
d4
8d
c7
18
97
7a
9e
fb
f8
72
a6
56
cc
86
fa
ec
9b
ae
00
96
10
b4
6d
ca
ca
73
ad
d4
8d
c7
18
97
7a
9e
fb
f8
72
a6
56
cc
86
fa
ec
9b
ae
00
96
10
b4
6d
ca
ca
73
ad
d4
8d
c7
18
97
7a
9e
fb
f8
72
a6
56
cc
86
fa
ec
9b
ae
00
96
10
b4
6d
ca
ca
73
ad
d4
8d
c7
18
97
7a
9e
fb
f8
72
a6
56
cc
86
fa
ec
9b
ae
00
96
10
b4
6d
ca
ca
73
ad
d4
8d
c7
18
97
7a
9e
fb
f8
72
a6
56
cc
86
fa
ec
9b
ae
00
96
10
b4
6d
ca
ca
73
ad
d4
8d
c7
18
97
7a
9e
fb
f8
72
a6
56
cc
86
fa
ec
9b
ae
00
96
10
b4
6d
ca
ca
73
ad
d4
8d
c7
18
97
7a
9e
fb
f8
72
a6
56
cc
86
fa
ec
9b
ae
00
96
10
b4
6d
ca
ca
73
ad
d4
8d
c7
18
97
7a
9e
fb
f8
72
a6
56
cc
86
fa
ec
9b
ae
00
96
10
b4
6d
ca
ca
73
ad
d4
8d
c7
18
97
7a
9e
fb
f8
72
a6
56
cc
86
fa
ec
9b
ae
00
96
10
b4
6d
ca
ca
73
ad
d4
8d
c7
18
97
7a
9e
fb
f8
72
a6
56
cc
86
fa
ec
9b
ae
00
96
10
b4
6d
ca
ca
73
ad
d4
8d
c7
18
97
7a
9e
fb
f8
72
a6
56
cc
86
fa
ec
9b
ae
00
96
10
b4
6d
ca
ca
73
ad
d4
8d
c7
18
97
7a
9e
fb
f8
72
a6
56
cc
86
fa
ec
9b
ae
00
96
10
b4
6d
ca
ca
73
ad
d4
8d
c7
18
97
7a
9e
fb
f8
72
a6
56
cc
86
fa
ec
9b
ae
00
96
10
b4
6d
ca
ca
73
ad
d4
8d
c7
18
97
7a
9e
fb
f8
72
a6
56
cc
86
fa
ec
9b
ae
00
96
10
b4
6d
ca
ca
73
ad
d4
8d
c7
18
97
7a
9e
fb
f8
72
a6
56
cc
86
fa
ec
9b
ae
00
96
10
b4
6d
ca
ca
73
ad
d4
8d
c7
18
97
7a
9e
fb
f8
72
a6
56
cc
86
fa
ec
9b
ae
00
96
10
b4
6d
ca
ca
73
ad
d4
8d
c7
18
97
7a
9e
fb
f8
72
a6
56
cc
86
fa
ec
9b
ae
00
96
10
b4
6d
ca
ca
73
ad
d4
8d
c7
18
97
7a
9e
fb
f8
72
a6
56
cc
86
fa
ec
9b
ae
00
96
10
b4
6d
ca
ca
73
ad
d4
8d
c7
18
97
7a
9e
fb
f8
72
a6
56
cc
86
fa
ec
9b
ae
00
96
10
b4
6d
ca
ca
73
ad
d4
8d
c7
18
97
7a
9e
fb
f8
72
a6
56
cc
86
fa
ec
9b
ae
00
96
10
b4
6d
ca
ca
73
ad
d4
8d
c7
18
97
7a
9e
fb
f8
72
a6
56
cc
86
fa
ec
9b
ae
00
96
10
b4
6d
ca
ca
73
ad
d4
8d
c7
18
97
7a
9e
fb
f8
72
a6
56
cc
86
fa
ec
9b
ae
00
96
10
b4
6d
ca
ca
73
ad
d4
8d
c7
18
97
7a
9e
fb
f8
72
a6
56
cc
86
fa
ec
9b
ae
00
96
10
b4
6d
ca
ca
73
ad
d4
8d
c7
18
97
7a
9e
fb
f8
72
a6
56
cc
86
fa
ec
9b
ae
00
96
10
b4
6d
ca
ca
73
ad
d4
8d
c7
18
97
7a
9e
fb
f8
72
a6
56
cc
86
fa
ec
9b
ae
00
96
10
b4
6d
ca
ca
73
ad
d4
8d
c7
18
97
7a
9e
fb
f8
72
a6
56
cc
86
fa
ec
9b
ae
00
96
10
b4
6d
ca
ca
73
ad
d4
8d
c7
18
97
7a
9e
fb
f8
72
a6
56
cc
86
fa
ec
9b
ae
00
96
10
b4
6d
ca
ca
73
ad
d4
8d
c7
18
97
7a
9e
fb
f8
72
a6
56
cc
86
fa
ec
9b
ae
00
96
10
b4
6d
ca
ca
73
ad
d4
8d
c7
18
97
7a
9e
fb
f8
72
a6
56
cc
86
fa
ec
9b
ae
00
96
10
b4
6d
ca
ca
73
ad
d4
8d
c7
18
97
7a
9e
fb
f8
72
a6
56
cc
86
fa
ec
9b
ae
00
96
10
b4
6d
ca
ca
73
ad
d4
8d
c7
18
97
7a
9e
fb
f8
72
a6
56
cc
86
fa
ec
9b
ae
00
96
10
b4
6d
ca
ca
73
ad
d4
8d
c7
18
97
7a
9e
fb
f8
72
a6
56
cc
86
fa
ec
9b
ae
00
96
10
b4
6d
ca
ca
73
ad
d4
8d
c7
18
97
7a
9e
fb
f8
72
a6
56
cc
86
fa
ec
9b
ae
00
96
10
b4
6d
ca
ca
73
ad
d4
8d
c7
18
97
7a
9e
fb
f8
72
a6
56
cc
86
fa
ec
9b
ae
00
96
10
b4
6d
ca
ca
73
ad
d4
8d
c7
18
97
7a
9e
fb
f8
72
a6
56
cc
86
fa
ec
9b
ae
00
96
10
b4
6d
ca
ca
73
ad
d4
8d
c7
18
97
7a
9e
fb
f8
72
a6
56
cc
86
fa
ec
9b
ae
00
96
10
b4
6d
ca
ca
73
ad
d4
8d
c7
18
97
7a
9e
fb
f8
72
a6
56
cc
86
fa
ec
9b
ae
00
96
10
b4
6d
ca
ca
73
ad
d4
8d
c7
18
97
7a
9e
fb
f8
72
a6
56
cc
86
fa
ec
9b
ae
00
96
10
b4
6d
ca
ca
73
ad
d4
8d
c7
18
97
7a
9e
fb
f8
72
a6
56
cc
86
fa
ec
9b
ae
00
96
10
b4
6d
ca
ca
73
ad
d4
8d
c7
18
97
7a
9e
fb
f8
72
a6
56
cc
86
fa
ec
9b
ae
00
96
10
b4
6d
ca
ca
73
ad
d4
8d
c7
18
97
7a
9e
fb
f8
72
a6
56
cc
86
fa
ec
9b
ae
00
96
10
b4
6d
ca
ca
73
ad
d4
8d
c7
18
97
7a
9e
fb
f8
72
a6
56
cc
86
fa
ec
9b
ae
00
96
10
b4
6d
ca
ca
73
ad
d4
8d
c7
18
97
7a
9e
fb
f8
72
a6
56
cc
86
fa
ec
9b
ae
00
96
10
b4
6d
ca
ca
73
ad
d4
8d
c7
18
97
7a
9e
fb
f8
72
a6
56
cc
86
fa
ec
9b
ae
00
96
10
b4
6d
ca
ca
73
ad
d4
8d
c7
18
97
7a
9e
fb
f8
72
a6
56
cc
86
fa
ec
9b
ae
00
96
10
b4
6d
ca
ca
73
ad
d4
8d
c7
18
97
7a
9e
fb
f8
72
a6
56
cc
86
fa
ec
9b
ae
00
96
10
b4
6d
ca
ca
73
ad
d4
8d
c7
18
97
7a
9e
fb
f8
72
a6
56
cc
86
fa
ec
9b
ae
00
96
10
b4
6d
ca
ca
73
ad
d4
8d
c7
18
97
7a
9e
fb
f8
72
a6
56
cc
86
fa
ec
9b
ae
00
96
10
b4
6d
ca
ca
73
ad
d4
8d
c7
18
97
7a
9e
fb
f8
72
a6
56
cc
86
fa
ec
9b
ae
00
96
10
b4
6d
ca
ca
73
ad
d4
8d
c7
18
97
7a
9e
fb
f8
72
a6
56
cc
86
fa
ec
9b
ae
00
96
10
b4
6d
ca
ca
73
ad
d4
8d
c7
18
97
7a
9e
fb
f8
72
a6
56
cc
86
fa
ec
9b
ae
00
96
10
b4
6d
ca
ca
73
ad
d4
8d
c7
18
97
7a
9e
fb
f8
72
a6
56
cc
86
fa
ec
9b
ae
00
96
10
b4
6d
ca
ca
73
ad
d4
8d
c7
18
97
7a
9e
fb
f8
72
a6
56
cc
86
fa
ec
9b
ae
00
96
10
b4
6d
ca
ca
73
ad
d4
8d
c7
18
97
7a
9e
fb
f8
72
a6
56
cc
86
fa
ec
9b
ae
00
96
10
b4
6d
ca
ca
73
ad
d4
8d
c7
18
97
7a
9e
fb
f8
72
a6
56
cc
86
fa
ec
9b
ae
00
96
10
b4
6d
ca
ca
73
ad
d4
8d
c7
18
97
7a
9e
fb
f8
72
a6
56
cc
86
fa
ec
9b
ae
00
96
10
b4
6d
ca
ca
73
ad
d4
8d
c7
18
97
7a
9e
fb
f8
72
a6
56
cc
86
fa
ec
9b
ae
00
96
10
b4
6d
ca
ca
73
ad
d4
8d
c7
18
97
7a
9e
fb
f8
72
a6
56
cc
86
fa
ec
9b
ae
00
96
10
b4
6d
ca
ca
73
ad
d4
8d
c7
18
97
7a
9e
fb
f8
72
a6
56
cc
86
fa
ec
9b
ae
00
96
10
b4
6d
ca
ca
73
ad
d4
8d
c7
18
97
7a
9e
fb
f8
72
a6
56
cc
86
fa
ec
9b
ae
00
96
10
b4
6d
ca
ca
73
ad
d4
8d
c7
18
97
7a
9e
fb
f8
72
a6
56
cc
86
fa
ec
9b
ae
00
96
10
b4
6d
ca
ca
73
ad
d4
8d
c7
18
97
7a
9e
fb
f8
72
a6
56
cc
86
fa
ec
9b
ae
00
96
10
b4
6d
ca
ca
73
ad
d4
8d
c7
18
97
7a
9e
fb
f8
72
a6
56
cc
86
fa
ec
9b
ae
00
96
10
b4
6d
ca
ca
73
ad
d4
8d
c7
18
97
7a
9e
fb
f8
72
a6
56
cc
86
fa
ec
9b
ae
00
96
10
b4
6d
ca
ca
73
ad
d4
8d
c7
18
97
7a
9e
fb
f8
72
a6
56
cc
86
fa
ec
9b
ae
00
96
10
b4
6d
ca
ca
73
ad
d4
8d
c7
18
97
7a
9e
fb
f8
72
a6
56
cc
86
fa
ec
9b
ae
00
96
10
b4
6d
ca
ca
73
ad
d4
8d
c7
18
97
7a
9e
fb
f8
72
a6
56
cc
86
fa
ec
9b
ae
00
96
10
b4
6d
ca
ca
73
ad
d4
8d
c7
18
97
7a
9e
fb
f8
72
a6
56
cc
86
fa
ec
9b
ae
00
96
10
b4
6d
ca
ca
73
ad
d4
8d
c7
18
97
7a
9e
fb
f8
72
a6
56
cc
86
fa
ec
9b
ae
00
96
10
b4
6d
ca
ca
73
ad
d4
8d
c7
18
97
7a
9e
fb
f8
72
a6
56
cc
86
fa
ec
9b
ae
00
96
10
b4
6d
ca
ca
73
ad
d4
8d
c7
18
97
7a
9e
fb
f8
72
a6
56
cc
86
fa
ec
9b
ae
00
96
10
b4
6d
ca
ca
73
ad
d4
8d
c7
18
97
7a
9e
fb
f8
72
a6
56
cc
86
fa
ec
9b
ae
00
96
10
b4
6d
ca
ca
73
ad
d4
8d
c7
18
97
7a
9e
fb
f8
72
a6
56
cc
86
fa
ec
9b
ae
00
96
10
b4
6d
ca
ca
73
ad
d4
8d
c7
18
97
7a
9e
fb
f8
72
a6
56
cc
86
fa
ec
9b
ae
00
96
10
b4
6d
ca
ca
73
ad
d4
8d
c7
18
97
7a
9e
fb
f8
72
a6
56
cc
86
fa
ec
9b
ae
00
96
10
b4
6d
ca
ca
73
ad
d4
8d
c7
18
97
7a
9e
fb
f8
72
a6
56
cc
86
fa
ec
9b
ae
00
96
10
b4
6d
ca
ca
73
ad
d4
8d
c7
18
97
7a
9e
fb
f8
72
a6
56
cc
86
fa
ec
9b
ae
00
96
10
b4
6d
ca
ca
73
ad
d4
8d
c7
18
97
7a
9e
fb
f8
72
a6
56
cc
86
fa
ec
9b
ae
00
96
10
b4
6d
ca
ca
73
ad
d4
8d
c7
18
97
7a
9e
fb
f8
72
a6
56
cc
86
fa
ec
9b
ae
00
96
10
b4
6d
ca
ca
73
ad
d4
8d
c7
18
97
7a
9e
fb
f8
72
a6
56
cc
86
fa
ec
9b
ae
00
96
10
b4
6d
ca
ca
73
ad
d4
8d
c7
18
97
7a
9e
fb
f8
72
a6
56
cc
86
fa
ec
9b
ae
00
96
10
b4
6d
ca
ca
73
ad
d4
8d
c7
18
97
7a
9e
fb
f8
72
a6
56
cc
86
fa
ec
9b
ae
00
96
10
b4
6d
ca
ca
73
ad
d4
8d
c7
18
97
7a
9e
fb
f8
72
a6
56
cc
86
fa
ec
9b
ae
00
96
10
b4
6d
ca
ca
73
ad
d4
8d
c7
18
97
7a
9e
fb
f8
72
a6
56
cc
86
fa
ec
9b
ae
00
96
10
b4
6d
ca
ca
73
ad
d4
8d
c7
18
97
7a
9e
fb
f8
72
a6
56
cc
86
fa
ec
9b
ae
00
96
10
b4
6d
ca
ca
73
ad
d4
8d
c7
18
97
7a
9e
fb
f8
72
a6
56
cc
86
fa
ec
9b
ae
00
96
10
b4
6d
ca
ca
73
ad
d4
8d
c7
18
97
7a
9e
fb
f8
72
a6
56
cc
86
fa
ec
9b
ae
00
96
10
b4
6d
ca
ca
73
ad
d4
8d
c7
18
97
7a
9e
fb
f8
72
a6
56
cc
86
fa
ec
9b
ae
00
96
10
b4
6d
ca
ca
73
ad
d4
8d
c7
18
97
7a
9e
fb
f8
72
a6
56
cc
86
fa
ec
9b
ae
00
96
10
b4
6d
ca
ca
73
ad
d4
8d
c7
18
97
7a
9e
fb
f8
72
a6
56
cc
86
fa
ec
9b
ae
00
96
10
b4
6d
ca
ca
73
ad
d4
8d
c7
18
97
7a
9e
fb
f8
72
a6
56
cc
86
fa
ec
9b
ae
00
96
10
b4
6d
ca
ca
73
ad
d4
8d
c7
18
97
7a
9e
fb
f8
72
a6
56
cc
86
fa
ec
9b
ae
00
96
10
b4
6d
ca
ca
73
ad
d4
8d
c7
18
97
7a
9e
fb
f8
72
a6
56
cc
86
fa
ec
9b
ae
00
96
10
b4
6d
ca
ca
73
ad
d4
8d
c7
18
97
7a
9e
fb
f8
72
a6
56
cc
86
fa
ec
9b
ae
00
96
10
b4
6d
ca
ca
73
ad
d4
8d
c7
18
97
7a
9e
fb
f8
72
a6
56
cc
86
fa
ec
9b
ae
00
96
10
b4
6d
ca
ca
73
ad
d4
8d
c7
18
97
7a
9e
fb
f8
72
a6
56
cc
86
fa
ec
9b
ae
00
96
10
b4
6d
ca
ca
73
ad
d4
8d
c7
18
97
7a
9e
fb
f8
72
a6
56
cc
86
fa
ec
9b
ae
00
96
10
b4
6d
ca
ca
73
ad
d4
8d
c7
18
97
7a
9e
fb
f8
72
a6
56
cc
86
fa
ec
9b
ae
00
96
10
b4
6d
ca
ca
73
ad
d4
8d
c7
18
97
7a
9e
fb
f8
72
a6
56
cc
86
fa
ec
9b
ae
00
96
10
b4
6d
ca
ca
73
ad
d4
8d
c7
18
97
7a
9e
fb
f8
72
a6
56
cc
86
fa
ec
9b
ae
00
96
10
b4
6d
ca
ca
73
ad
d4
8d
c7
18
97
7a
9e
fb
